t h
h e
i n
e r
r e
o n
a n
e n
a t
o r
్ ర
ా ర
ా ల
ల ు
ర ్
ల ో
స ్
్ య
భ ా
ర ా
் த
் க
ி ய
ம ்
ப ்
த ு
ன ்
ல ்
ந ்த
் ட
க ்க
ப் ப
ு ம்
த ்த
ள ்
th e
ர ு
ற ்
ட ்ட
ா ன
ை ய
ி ன்
ி ல்
ற் ற
ா க
ர ்
a l
s t
து .
ங ்க
இ ந்த
d i
= =
a r
ு க
ண ்ட
an d
இந்த ிய
e d
I n
o f
ி க
ा र
ள் ள
् र
In di
i on
a s
क े
ம ற்ற
e s
i t
மற்ற ும்
க ு
i c
ி ர
ா வ
ம ு
े ं
க ்
i s
in g
க ா
1 9
ப ா
న ్
ி ல
2 0
म ें
ద ి
ద ే
ప ్ర
ి ం
దే శ
க்க ு
en t
Indi a
ి క
o m
் ச
భ ార
t o
ி ற
ான து
ह ै
ட ு
భార త
ப்ப ட்ட
o u
् य
న్ న
ాల ు
ட ி
த ்
ரு ந்த
ப ெ
ன் ற
ங்க ள
த ொ
வ ை
e c
ன .
ம ை
ு ள்ள
भ ार
भार त
क ा
ப ொ
र ्
l y
గ ా
இந்திய ாவ
ர ்க
வ ா
ది .
u r
க ொ
ப ோ
வ ி
== =
य ा
ो ं
క ు
ுக ள
న ి
த ி
l e
ல ை
ப்ப ட
వ ి
ர ச
क ी
ற ்க
ా య
உ ள்ள
औ र
0 0
క ్
स े
स ्
ా త
த ா
ந ா
l i
த்த ு
प ्र
ஆ க
ண ்
దేశ ం
v er
न े
a m
ர ி
న ు
கொ ண்ட
த ிக
ும் .
T he
a d
ப்ப ு
र ा
i l
இ து
్ ట
ுள்ள து.
ஒ ரு
ந ில
ా న
இந்திய ா
न ा
ச ம
ि क
o l
r i
ப ு
த ிய
ம ா
u l
at ion
ం డ
మ ు
ీ య
வ ே
ு க்கு
e m
ద ్
ి న
ச ு
r o
क ्
ச ெ
ப ிர
ர ா
त ा
r a
ஆ ண்ட
ை க்
త ి
త ్
ம ைய
தொ ட
है ।
व ि
க ள
ల ్
స్ త
ిం చ
ச ்
s e
c h
ற ை
ி ருந்த
c e
வ ெ
s ,
t ion
b y
ஆ ம்
ம ே
கா ல
थ ा
म ा
v e
Indi an
ட ைய
ற ு
20 1
b e
இ ருந்த
ச ்ச
ர் .
ம ாக
ல ா
இந்தியாவ ின்
f or
i st
a st
ட ்ச
ం త
ी य
ங்க ள்
ि या
l o
c on
e st
ర ి
ற ி
ட்ட ு
ா ல்
பெ ர
స ం
அ மை
அ ரச
த ன்
த்த ின்
स ा
a g
t er
வ ர
ற் ப
பொ ரு
re s
s u
ம ான
வ ு
க்க ிய
ర ు
न ्
க்க ப்பட்ட
w i
प र
ప ు
ப ர
20 0
d e
स ं
அ திக
స్ థ
ச ா
' s
क र
ந்த ு
ు లు
உ ல
ி ன
u n
त ि
இ ல்
வ ாக
டு த்த
i r
s .
ం ట
ిం ది.
ాయ ి
क् ष
உ ரு
ே ர
ிற து.
ப கு
ல் ல
భారత దేశం
ர்க ள
ஆக ிய
d u
g h
வ ிய
त ्र
m o
ం లో
ై న
wi th
i m
க ி
ச ிய
at e
क ो
e x
ச ி
w as
ం గ
ா ள
ு வ
ற்க ு
ட ை
ம ானது
w h
ూ డ
भ ा
த ெ
ம ிக
ை ப்
ன் ன
ர்க ள்
ப்பட ுக
है ं
க ோ
த்த ில்
உல க
a c
ాయి .
ज ा
r om
a re
er n
ின் ற
an g
m ent
on g
u t
ும் ,
s i
p o
வ ீ
வ ைய
a b
i es
ం గా
ం ది.
ధ ిక
వ ా
స ా
క్ ష
a in
ள ா
நா ட
ह ु
ar t
रा ज
ம ொ
ఉ న్న
ప ా
ార ు
व ा
ி ட
ிக ள
o ver
e t
w er
ic al
द े
ட ிய
ன ர்.
ట ి
ార ్
ப ல
ழ ்
ு ட
ह ा
u s
ி க்க
ड ़
h as
க ூ
ந ீ
ம க்க
ுக ்
f rom
ి త
్ చ
இ த
போ து
தா ர
i al
்க ள
த்த ை
கு றி
பெர ும்
in c
ic h
क ार
ாக ும்.
s o
त ्
ि य
இ ரு
ந ட
ய ்
a y
ం ,
ష ్ట
प ा
ि त
ண ை
வ ள
ி த்த
க்க ா
ுக ள்
l d
p er
క ూడ
జ ాత
రా జ
ప్ర ా
கொண்ட ுள்ளது.
il l
பொரு ளா
wh ich
19 9
w e
ர ம்
்க ள்
ிக ள்
உள்ள து.
ண் ண
ल ा
క ో
క ్ర
அ ல்ல
எ ன்ற
த ல்
அல்ல து
it y
19 5
சம ய
c om
r it
s p
క ా
చ ్చ
ట ్ట
న ే
మ ొ
भारत ीय
உ ய
த ே
ப டி
ற ைய
பொ து
ஆண்ட ு
அதிக ரி
பொருளா தார
1 ,
u m
भ ी
ा न
u re
con t
ப ிற
ன் ப
க்க ும்
குறி ப்ப
c ent
e ar
ం చ
ద ు
ప ే
మ ా
భారత ీయ
ul t
20 2
क ि
த்த ிய
ர் ந்த
ர் ச்ச
दे श
a k
i d
m e
t ed
it s
ou n
19 6
இ ர
த ன
வ ற்ற
ம் ,
ங்கள ில்
ிருந்த ு
c o
త ో
న ా
ర ై
ల ి
వ ్య
స ి
్ ల
త్ వ
न ि
स म
्य ा
हैं ।
द ्
श ा
h a
l u
India 's
ண ிய
ல ி
ழ ி
இந்தியாவ ில்
i g
त था
ल ी
t s
య ా
వ ాత
en d
రా ష్ట
ారు .
జాత ీయ
రాష్ట ్ర
) ,
இ ல
வ ந்த
வ ான
ப்ப ா
ं ग
इ स
त र
् ट
e l
p ro
w or
ar g
wer e
க ள்
ள வ
ள ி
ிய ல்
அமை ப்ப
ப்படுக ிறது.
பெரும் பா
இர ண்ட
ए क
గ ు
వ చ్చ
th er
ar y
ిక ి
ద్ ధ
ల్ ల
व र्
ह ि
இ ட
இ ரா
ான வை
பெ ற்ற
ின்ற ன.
00 0
a ,
i ve
o d
at ed
for m
त ी
द ी
ह ो
i v
ம ூ
ா ண்ட
்க ு
மு றை
மைய ான
உரு வா
राज ्य
a p
l arg
p l
p or
అ ధిక
క ొ
ఖ ్య
డ ు
త ర
ప ాల
మ ైన
వ ే
భారత దేశ
ou th
ాలు ,
ec on
ంత ్ర
ब ा
ஊ .
க ை
த லை
ந ூ
ம ீ
ைய ில்
பொ .
19 8
n o
म ि
1 8
over n
ज ि
त े
र ू
ஞ ்ச
வ ட
ை த்
ந்த ிய
ைய ும்
ற்ற ு
கு டிய
மு தல்
பா ரம்
டி வ
பெர ிய
பர ிய
பாரம் பரிய
g en
g ion
r y
ఒ క
క ాల
డ ి
ణ ా
ద ్ర
మ ార్
ండ ి
1 .
ன ை
ர ண
கு றை
மு ன்ன
வி ள
ட்ச ி
மக்க ள்
d er
m in
s h
is m
प ू
a f
m a
p art
r u
ఉ ంది.
చ ే
త ం
ధ ్య
శ ా
్ ‌
an s
an t
es ,
ిం ద
దేశ ాల
ou gh
lo w
వ్య వ
த ாக
ந க
வ ரு
ிய து.
த்த து.
ர் ந்து
ஆக ும்.
செ ய
பகு திய
கி ழ
என்ற ு
201 1
म ु
श ्
र् व
overn ment
p e
am e
ag e
ந ிற
ிய ாக
உலக ின்
h i
6 %
19 7
C E
H in
o g
ज न
ष ा
ం ది
ఎ న్న
క ి
ట ు
త ా
ప ార
ప ంచ
ా న్
as s
ou s
న్న ి
భారతదేశం లో
ఉన్న ాయి.
எ ண்ண
ச ே
ம ி
ை கள
க்க ி
ில ிருந்து
ங்கள ை
தொ ழ
பகு திக
ுட ன்
क िया
न ी
स र
b er
b ec
m ar
al l
al ly
econ om
ं त्र
त क
ह ी
அ டி
இ வ
எ ன
ஒ ன்ற
க ட
ண ி
ப ி
ா ர்.
் ப
்த ்த
த்த ிற
ற்ற ாண்ட
கா ரண
ுள்ள ன.
ஆகிய வை
நூ ற்றாண்ட
7 ,
n or
u p
y ,
చ ె
డ ్
ద ా
ప ె
ి న్న
ీ ,
ె ండ
an y
an ce
ర్ వ
ou r
ur ing
ులు ,
మార్ గ
వ్యవ స్థ
c t
19 4
த ோ
ப ய
ல ான
வ ன
வ ிர
வ டிவ
ூ க
ிக ்
உள்ள ன.
நா ட்டு
சம ூக
ஆண்ட ுகள
ிருந்த து.
மிக ப்
கோ டி
கூ ட்ட
अ न
द ्र
ध िक
o re
5 ,
m ill
in to
is h
ang u
cent ur
0 %
India ,
च ी
ल े
स् था
ஆ ய
இ ய
க ட்ட
த ில்
ப ண்
ப ேர
ழ ு
ாக க்
ப்பட ும்
மொ ழ
வள ர்ச்ச
நிற ுவ
p le
p ul
ం బ
క ృ
క ే
క ార
త ు
ధ ాన
మ త
హ ింద
st it
ాన ికి
స్త ు
కూడ ా
మొ ద
అధిక ార
ं ध
ि ण
ल ि
ष ्ट
१ ९
அ தன்
இ வை
இ தன்
க ீ
ட ுகள
ம ுக
ற ிய
ல ும்
ி ரு
ைய ின்
ைய ானது
ப்பு ற
வே று
தொட ங்க
सा थ
பொரு ட
சிய ாவ
குறிப்ப ிட
தொழ ில்
b o
d ing
f e
u tion
in e
su b
nor th
1 7
i re
C h
ध ान
प ्
य ु
2 .
a v
l at
n e
s c
w est
உ ண
க ல
ச ீ
ச ை
த ிர
ந டு
ந ேர
ப ின்
ట ్
త ్ర
త ్య
ద క్ష
ప రి
మ ీ
మ ే
మ ధ్య
ర ో
స ు
ి ,
భా ష
ந்த ிர
ாவ து
ில ான
ప్ర పంచ
ప్ర ధాన
ద్ ద
ற்ப ட்ட
స్థ ాన
రాజ ్య
ప్రా ంత
పే రు
రై లు
பகுதிக ள
பண் பா
பேர ரச
मा न
भा षा
2 6
3 .
उ त्
द ो
द क्ष
ो ग
क्ष े
शा स
दक्ष िण
b ut
f ir
g overnment
l angu
y ear
res s
inc lu
min ist
Hin du
1 0
இ டைய
ஓ ர்
ச ட்ட
ண ுவ
த ற்கு
ப ட்ட
ம ய
வ ும்
ூ ர்
ந்த து.
ைய ா
இந்த ு
மா நில
தொட க்க
இருந்த ு
ின்ற னர்.
வைய ாக
இத ில்
இரா ணுவ
த்திற ்கு
195 0
1 5
र ी
हि न्
सर कार
4 %
2 %
d ec
p ri
q u
u c
ఆ ర్
జ ా
ద ాయ
ప ్
వ ర
వ ార
వ ర్
స భ
re as
re gion
్ర ా
క్ కు
ాత ్ర
దేశం లో
po pul
క్ర ీ
wor ld
పార ్ట
దక్ష ి
ஆ ன
ப ்த
ம ன்ற
வ ழ
ா ங்க
ெ டு
ை ச்
ப்ப டுத்த
ட்ட ின்
மு .
மு க்கிய
ப்பட்ட து.
த்து வ
பிர ி
மே ற்கு
இருந்த து.
அரச ாங்க
வீ த
க்கா ல
உய ிர
2 ,
ओ ं
ग या
ज ी
व ी
्र े
र् म
बा द
क्षे त्र
A si
i ,
o c
o k
s y
u d
v ed
er al
at es
om e
fir st
य ह
रू प
அ ண
அ னை
உ று
க ல்
க ிர
ம தி
வ ண
வ ங்க
ு டைய
ான ிய
இந்திய ப்
மு றைய
தொ க
போ ன்ற
மா ற்ற
வீ ன
ய் ய
தன ி
பய ன்ப
ढ ़
c l
l and
t ra
అ య
జ నా
న ాలు
బ ా
భ ు
ర ెండ
ల ం
ల ా
వ ె
re li
en ce
లు ,
ర్ య
di tion
ప్ర భు
ec tion
ించ ింది.
హింద ూ
, 000
5 0
ro w
क ृ
ब से
स बसे
प्र ा
जि स
உ டைய
எ ன்ப
ந ி
ப ங்க
ம ெ
வ ர்கள
ா ன்
ி ட்ட
ிய ான
பா து
பெ ய
ர்க ்க
வெ ள
ஆகிய வற்ற
மக்க ள
5 .
c ast
ation al
c i
d uring
f ore
g an
h ad
l ong
r ic
st em
India .
ec t
du c
ex t
us ed
af ter
bec ame
stit ution
sy stem
द ि
ब हु
मु ख
1 6
1 %
அ றி
உ ற்ப
க ண்ட
த ீ
ல ில்
ி த
ை கள்
ப்பட்ட ன.
போ ட்ட
செ ய்ய
நட த்த
பெரும்பா லான
விள ையா
ஆன ால்
வண ிக
பயன்ப டுத்த
பாது கா
3 0
प ु
ष्ट ्र
f ic
c es
h ar
j or
n i
p re
p ire
s er
s outh
v i
ం ద్ర
ఇ తర
త రు
ప ూ
ప ో
బ ్
మ న
మ ి
ల కు
వ ీ
వ ు
ష ్
ీ న
re at
ాల ్
స్ కృ
the m
al so
ము ఖ్య
స్త ్ర
ించ ిన
be en
సా ం
cont in
ha ve
వచ్చ ింది.
larg est
పె ద్ద
క్కు వ
పార్ట ీ
జనా భా
d o
m er
r al
अ प
स ि
स ी
ंग ्रे
वर् ष
அ $
அ ளவ
ஐ அ$
க லை
ச ிற
ட ன்
ந ுட
ப த
ப ல்
ம லை
ல ிய
வ ும்,
ா ம
ு த
ு க்க
ப்ப டு
த்த ைக்
கா ண
ங்கள ின்
தொ லை
வா ழ்
நில ைய
தொட ர்ந்து
ப்படுக ின்றன.
நாட ுகள
மொ த்த
பிற கு
அடி ப்பட
ஆய ுத
நிறுவ ன
கீ ழ்
நுட ்ப
) .
C ong
d ern
p t
p ol
w o
w ar
y .
es .
ur al
su ch
mo re
mo st
por t
mill ion
minist er
b l
ज ो
ब ंध
स ार
है ,
स् व
द् ध
पू र्व
m on
( ₹
ध र्म
அ க
அ வை
ஆ ற்ற
இ க்கால
உ ள்
க ட்ச
ச ோ
த ாகும்.
ப க
ர ீ
ர ோ
வ ில்
வ ழி
வ கை
ப்ப ின
த்த க்க
ரு ம
्र ा
र् थ
ற்க ா
स् त
रा ष्ट्र
வே க
ுக்கு ப்
பிர ித்த
மே ற்க
லா ம்
அரச ியல்
பர வ
வாக ும்.
அதிகரி த்து
இரண்ட ு
குடிய ரச
இடைய ில்
அனை த்து
ரீ திய
பிரித்த ானிய
S outh
b an
c ial
d h
n um
w n
ం .
అ తి
ఉ త్
ఉ ంట
గ ర
గ ి
గ ీ
జ రి
ప ర
ప ట్ట
బ డ
బ ె
మ హ
ల లో
వ ంట
శ ్ర
ు కు
th at
in f
at ic
్ర ె
్య ం
భా గ
వి ధ
ad e
mo dern
వా ణా
inc reas
oun t
ma jor
మార్గ ాలు
కే ంద్ర
ప్ ప
క్రీ డ
tra dition
అయ ిన
ప్రభు త్వ
తరు వాత
Cong ress
0 .
अ धिक
थ ी
द िया
प ार
म ी
ल ग
स द
मा ण
मि ल
श् व
शास न
3 ,
u res
A f
E m
c or
g row
p ar
t wo
di ver
li m
im al
oun d
bo th
pri me
அ ண்
இ ணை
ஒ ப்ப
க ரு
ச ந்த
ச ரா
த ேர
ம ன
ம ிய
ர ்த்த
ல ்கள
வ து
வ ுகள
க்க ம்
த்த ி
ங்க ிர
இந்திய த்
கா ங்கிர
லை .
உள்ள ட
நில ை
வெ ளி
ங்கள் ,
வர லா
கூ ட
தே சிய
பொது வாக
பெற்ற து.
மூ ன்ற
கிழ க்கு
இவ ்
வளர்ச்ச ி
வங்க ாள
அண் .
9 %
ं ड
ब ी
र े
ल ्
ना म
वि श्व
सा म
ची न
4 2
7 %
199 1
B CE
M a
a .
c ult
d om
f f
m ain
p h
r ough
s s
t a
क ु
ब ना
ल ो
అ నే
ఇ ది
ఎ క్కువ
ఏ ర్
క ీయ
క లి
గ ో
గ ్
గ ిన
జ న
ట ిక
ణ ం
బ హ
మ ంత్ర
ర వాణా
ల ే
ల ను
స ిం
స రి
ి ల్ల
ౌ క
th ough
్ర ి
it ion
ప్ర స్తు
ప్ర దాయ
ou t
ur ban
le ar
క్ క
ol og
స్త ాన్
be t
ist an
ag es
un der
ంగ ్రె
సా ధ
పా కి
రాజ కీయ
we en
కా ంగ్రె
larg e
no t
కాల ంలో
ంది న
ఎన్న ో
మొద టి
प् त
उत् तर
year s
దక్షి ణ
cl ass
cast e
ச ன
த ர
ந ்
ப ஞ்ச
ம ர
ம திய
ர ிய
ள வு
ு மன்ற
ே ற்ற
ும் ப
ுக ிறது.
மு தன்
வா ய
வா க்க
கொண்ட ிருந்தது.
லா ய
ட்ச ிய
வர ை
உரு வான
த்திய ில்
நக ர
நக ர்
வரு க
மொழ ிகள
முக லாய
நேர த்தில்
அண ு
உள் நாட்டு
தேர ்த
3 %
च ु
त ु
ब ड़
स् ता
हु आ
हु ई
नि र्
अन ु
B rit
B ud
U n
c a
e ast
g r
l ed
t r
th is
in ce
en g
the ir
is ation
li fe
am ent
wh o
el ection
econom ic
ne w
langu age
uc lear
popul ation
contin ent
num ber
Em pire
Brit ish
அ ட
இ ற
க ண
க ட்டு
ச ில
ண ்கள
ந வீன
ப ே
ப ௌ
ப ண்ட
ர ும்
ர ாக
ழ ை
வ தற்கு
ஸ ்
ி ன.
ோ ர்
து றைய
த்த ிர
ட்ட ில்
ங்க ு
ாவ ில்
ில ும்
டி த்த
உள்ள ிட்ட
பு திய
செ ல
வெ ற்ற
டை ந்த
ன்ன ி
வைய ாகும்.
இல க்கிய
எண்ண ிக்க
சே ர்ந்த
விர ி
கட்ட ட
குறிப்பிட த்தக்க
உறு ப்பின
வெள ிய
பாதுகா ப்பு
உருவான து.
च ि
ज ़
ध ्य
भ ू
म ्
म ंत्र
व ार
व ्य
ै न
ो ड़
० ०
से ना
जा ता
हिन् दी
5 00
200 1
6 .
lo p
A n
C on
P ak
d ance
f ol
l l
l it
m any
s ity
అ త్య
ఇ ండి
ఉ ప
క ర
క ్య
గ ల
చ ిన్న
ప ై
ప తి
భ ూ
మ ై
మ ాన
య ు
య ో
ర ంగ
ల తో
వ ల
శ ్
ష ు
ా ,
ా వర
ు కో
ె లు
్ మ
he d
er g
ాల ో
ాల లో
ాల ను
ar i
ప్ర తి
వి స్త
ండ ు
be gan
సం స్కృ
సం గీ
su p
gh t
ంగ ్ల
ical ly
ిత ్ర
ప్రా చ
క్ర మ
సి ని
ism ,
శా స్త్ర
low ing
west ern
ఆర్ ధిక
ount ry
సరి హ
bet ween
Pak istan
అత్య ధిక
ं द्र
द ा
ल य
का ल
स् कृ
देश ों
सम य
p u
bl ic
pu blic
7 .
9 .
அ றிய
ஆ சிய
ஏ ற்பட்ட
ஓ விய
ச ொ
த ற்
த மி
ந ான
ப ூ
ப ரி
வ க
வ ்
வ கு
ா ,
து ணை
ந்த ைய
ப்ப ின்
த்த ால்
ைய ும்,
ில் லிய
ுகள ை
தி ர்
ற்க ர
நா ட்டின்
கொண்ட ு
கள ின்
வெ ன்ற
இருந்த ன.
ாள ுமன்ற
நாட ாளுமன்ற
ிகள ை
நீ ண்ட
இரு க்க
உய ர்
குறிப்ப ாக
பெரும்பா ன்
வட க்கு
கட ற்கர
தோ ன்ற
பொருட ்கள
பொருட ்கள்
முக்கிய மான
உயிர ின
கிர ாம
மன ித
உள்ளட க்கிய
முதன் மையான
பௌ த்த
ில்லிய ன்
5 %
ग ा
त िक
ब ढ़
म हा
र ि
र ु
व ं
ष ्
के ंद्र
स् थ
ना व
राज्य ों
ही ं
i k
it e
ve lop
E ur
I t
b i
h o
r is
r ate
t ec
t im
re n
on -
it ed
le g
il it
ri ver
em ent
se t
ist or
ex p
ac k
ang es
po wer
ab le
ies ,
ial ly
per i
com p
sp ec
north ern
lat er
world 's
4 0
l ate
8 .
उ प
ए श
क ्र
ख ा
ट ि
ट े
द ान
व े
प्र मुख
सं घ
िय ों
अन ्य
लि ए
स्ता न
இ ப்ப
உ ட
எ திர்
ஏ ற்று
ஐ க்கிய
ஐ ரோ
க ங்க
ச ூ
ச ுக
த ம
த ூ
த ை
த ான
ப ழ
ம ல
ர ப்ப
ல ாக
ல மை
ள ்க
வ ின்
வ ர்
வ ில
வ ர்கள்
ு க்கும்
ண்ட ும்
ாவ ின்
மு டி
மு சு
கா ட்ட
ங்கள ாக
வி ட
இது வாகும்.
பு வி
வே ளா
ரா ல்
அரச ிய
வர ும்
உரு வாக
பகு தி
விய ல்
தெ ன்
தெ ற்கு
தெ ன்னி
ிகள ில்
நீ தி
இத ற்கு
நட ன
அதிகரி த்த
2011 ஆம்
வேறு பட்ட
கல் விய
காங்கிர சு
இவ் வா
கண க்க
கட்டு ப்பா
முசு லி
வேளா ண்
தென்னி ந்திய
e f
) ;
N e
n ational
1 3
- d
B y
c our
d ed
h um
o ther
s ince
v ing
ం :
ం ధ
ఆ ధ
క ాలు
గ ణ
జ ్య
ట ్ల
ఢ ిల్ల
ణ ి
త ిక
త ంత్ర
ద ం
ద ార
ధ ి
న ె
న డి
ప ించ
బ ్రి
భ ిన్న
మ ె
మ ూడ
మ ాత్ర
ర హ
వ ై
స ము
స ింది.
స మా
స ౌక
హ ార
ీ ;
ీ ర్
th an
on e
స్ య
స్ వ
స్ వా
di c
ప్ర జ
ప్ర ము
భారత ్
వి విధ
am ong
ul ar
ation s
ద్ దు
ra ph
ంత ో
సా మ
కో ర్
పే ర్
రాష్ట్ర పతి
ther e
ద్ధ ి
శా ఖ
pe o
డ్ డ
మొద ల
sub continent
ప్రాంత ాలు
inclu ding
జా బ
దేశంలో ని
రెండ ు
ాల్ లో
పట్ట ణ
బె ంగ
inf lu
increas ed
ప్ప టిక
Af ter
ఏర్ ప
బహ ు
మంత్ర ి
సిం ధ
class ical
Bud dh
lit er
ఇండి యా
సరిహ ద్దు
సౌక ర్య
ప్రము ఖ
च ा
त ्य
न ों
स ैन
ार ी
क् त
हैं ,
जा ति
C om
u st
er s
In do
4 00
1 2
202 2
194 7
18 5
4 இல்
ஆ ட்சிய
இ ண
இ ன
இ சு
எ ஞ்ச
த ங்கள
த சா
ந ப
ப ற்ற
ம த்தியில்
ய க
ர ே
ர ின்
ல ம்
ல ்கள்
ா ந்திய
ே ய
து றை
க்க ித்த
ப்ப ை
ர் வ
இந்திய -
இந்திய க்
கு ழ
மு த
கா ல்
பா ணிய
பா க்கித்த
க்கு ப்
பெ ற
வை த்த
வா ய்
நா யக
பு து
பிர தம
பிர ாந்திய
ஆண்ட ின்
வெ ப்ப
மே ற்பட்ட
அமை ப்பு
அதிக ா
சா ர்ந்த
ர்கள ால்
சி ந்து
நீ டித்த
இல ட்ச
இரண்ட ாவது
உருவா க்கப்பட்ட
குறை வான
முன்ன ர்
செய ்த
ைகள ில்
தொடங்க ியது.
சீ ன
அடிப்பட ைய
குடியரச ு
பஞ்ச ா
நகர் ப்புற
கட்டட க்
தற் போது
அரசிய லமை
கணக்க ெடு
எஞ்ச ிய
தசா ப்த
4 .
6 ,
194 7,
अ न्
आ ध
इ न
ग र
च ्
ज ्य
द श
द ्य
प श्
ब ्
र हा
श ु
स मा
था ।
सं स्कृ
कर ने
िय े
ंग ा
पश् चि
M u
S $
U S$
W or
a w
b al
b as
c ed
e v
h istor
k rit
m us
m id
m ilit
n uclear
p res
t en
t ing
he r
re e
st y
st ate
as ,
is ed
li ament
ch o
con stitution
de velop
gh al
ac t
po s
so cial
wor k
gen eral
ru le
mar k
Ch in
oc c
ci ent
par liament
diver sity
peri od
peo ple
Mu ghal
Wor ld
in ter
ig n
अ म
अ ंग्रे
क ई
ग ी
ण ा
त ंत्र
न हीं
प ह
म न
म ै
म ध्य
य ोग
स ू
ह र
्र ी
वि धान
हु ए
कार ण
त् व
पा कि
इस के
हो ता
प्रा चीन
चु नाव
अनु सार
व्य व
एश िया
पाकि स्तान
1 00
ஆ சியாவ
இ மய
உ ற
க .
ஜ .
ட ுகள்
ண ்கள்
த ற்க
ந டை
ன ர்
ப ரு
ற ாக
வ ுகள்
ா த
ி ணை
ை ,
்த ான
ம் ப
ப்ப ானது
ைய ை
ைய ுடைய
ங்க ில
கு ட
ாவ ிய
பா .
பா ல
டு த்து
தொ கை
இந்தியாவ ை
போ த
தி ரு
தா ங்க
கொண்ட ுள்ளன.
பு ற
பு விய
பிர பல
ஆண்ட ில்
தொட ர்ச்ச
கால த்திற்கு
201 3
சி ற்ப
ாள ர்கள்
தெ ற்கா
நாட க
ித்த து.
வற்ற ின்
அமைப்ப ானது
இட த்த
மீ ண்டும்
விள ை
செய ல்
ஒன்ற ிய
காரண மாக
மய மா
மதி ப்ப
என்ப து
பெய ர
போட்ட ிகள்
ஆனால் ,
வில் லை.
வேக மாக
லாம் .
சரா ச
வாக்க ில்
ண்கள ுக்கு
உள்ளிட்ட வை
விரி வ
நான ்கு
வேளாண் மை
இண ைய
இசு லா
தங்கள து
நப ர்
அடிப்படைய ாகக்
. .
B eng
E ast
M us
P un
S t
S ans
W est
c al
c ountry
e ,
g i
g re
h m
j ab
n ed
n on-
o p
o pe
r on
r at
s ur
s ome
ం ద
ం దు
అ భ
అ ను
క ళ
క ల్
గ ే
గ లు
గ ంగా
చ ార
చ రి
చ ైన
ట ీ
ట ె
త న
త ూ
త మి
థ ిక
న ీ
న ్య
న గర
ప త
ప ొ
ప ద్ధ
ప ండు
మ ర
మ ్య
ర ూ
ళ ్ల
వ డ
వ హ
వ ృ
వ త్
శ తా
స ర
స ై
స ార
స ర్వ
ి మ
ు .
ు ంది.
th rough
he n
he re
er ed
en ni
ాల తో
లు .
స్ వాత
di s
In du
of fic
ic s
ప్ర జా
న్న ాయి.
గా ,
ని ర్వ
le ad
ను క
ను ండి
ation ,
em erg
త్ తం
ల్ వే
సం ఖ్య
ate ly
ab l
ies .
ిత ా
కూడ ిన
మొ త్తం
ult an
రై ల్వే
సి యా
వాత ావర
ap p
పాల న
భారతదేశ ానికి
ఒక టి
చే య
దేశాల లో
og raph
mill enni
తు న్న
అధికార ిక
ట్ లు
ప్రపంచ ంలో
reli gion
fore st
ser ved
pol it
జరి గిన
వంట ి
అనే క
ఎక్కువ గా
ప్రస్తు తం
కాంగ్రె సు
ca used
ప్రాచ ీన
Eur ope
tec h
దార ులు,
నడి పించ
సము ద్ర
milit ary
Beng al
Pun jab
Sans krit
అభ ి
చరి త్ర
తమి ళ
శతా బ్
స్వాత ంత్ర
నిర్వ హ
వాతావర ణం
millenni um
क ॉ
ग ण
ग ु
ध ी
न ्या
म ो
प्र ति
प्र धान
क् ति
न् ह
सं विधान
कर ोड़
क्ष ा
ड़ ा
द् वार
भाषा ओं
गया ।
्रा ज्य
साम ्राज्य
लो क
भू मि
मंत्र ी
दश क
T h
si g
Indo -
3 5
8 %
( அண்.
5 ஆம்
8 இல்
ख ्या
ग ठ
च ल
ब ्र
य ू
र ह
அ ந்த
அ டைய
அ ழி
அ மெ
அ ந்
ஆ ற
ஆ தர
இ று
எ திர
க ம்
க வன
ச து
ச மை
த ள
த ம்
த ிற
த டு
ந ெ
ப ங்கள
ப தி
ப த்திய
ப ில்லியன்
ம ின்
ல ்தான
வ ரி
வ லி
ா லும்
ி ர்
ீ ட்ட
து ண
ந்த ி
க்க ுக்
ப்ப ிய
ப்ப ுகள
த்த ின
ரு க்க
ரு ங்க
ட்ட ை
ர் ,
ண்ட ிய
கு திய
ில ேய
ப்பட்ட ுள்ளது.
ங்கள ானவை
கொ ள்க
த்து க்கு
ரி க்க
நில ையில்
சம ீ
திய ாக
மா ர்
மா மி
வே லை
சு ல்தான
சு மார்
மைய ை
தொட ர்
கள ாவிய
மே ல்
கால த்தின்
கால த்தில்
றி வு
அமை ந்த
மான து.
न् न
सं बंध
உல களாவிய
ர்கள ின்
உலக க்
நாட ாக
த்தை ச்
இரு ப்ப
தே ச
தே ர்ந்த
பொது த்
அதிகரி த்தது.
सम ्
ளவ ில்
உருவா க்கிய
தலை மை
முன்ன ேற்ற
पू र्
வரு மான
கிழ க்கி
किया ।
பி ந்தைய
நூற்றாண்ட ின்
நூற்றாண்ட ில்
ஆண்டுகள ில்
ஆண்டுகள ுக்கு
கோடி )
இய க்க
தில் லி
சை ன
हिन् द
கல் வி
உற்ப த்தி
விளையா ட்ட
விளையா ட்டு
ंग्रे स
பல் வேறு
பல் வகை
स्व तंत्र
राष्ट्र ीय
பரவ லாக
पार ्ट
बी च
கிராம ப்புற
கல்விய றிவு
முசுலி ம்
मै दान
चुनाव ों
व्यव स्था
குட ும்ப
द्वार ा
ிலேய ே
தேர்ந்த ெடு
கிழக்கி ந்திய
- largest
C ent
H imal
I s
S ik
b ill
c an
c ol
d s
f ar
f am
g a
g l
i ed
k ing
n olog
o ,
r ural
t e
t y
t ro
u ally
v ement
the ast
di re
di sp
es p
ou ld
ly ,
ver ,
wi de
ir d
are d
so ci
we ver,
rit or
id ent
co ok
gen er
ma them
centur y
Asi a
reli gi
duc ed
major ity
cor ding
cult ure
cour t
mus ic
Mus lim
Indu s
Himal ay
bill ion
197 1
R e
8 ,
201 0
200 9
198 0
A r
P late
3 00
7 0%
== ==
196 2
आ र्थ
ई ।
उ न
ट ी
ण ्
त ृ
ध ि
प ी
फ ़
ब र
ब े
म त
र ो
ल ों
में ,
स् ट
प्र देश
ने तृ
वि का
वि स्त
सं ख्या
जा ती
द् वी
धिक ार
स्था न
बहु त
थी ।
निर् माण
सैन ्य
द्य ोग
कॉ ंग्रेस
आर्थ िक
द्वी प
G overnment
2 8
196 5,
4 ,
195 1
1 -
A c
A l
D el
E n
G and
J an
J ain
S e
a j
a ce
a ir
b ack
c k
c re
c it
d le
d ra
f l
f in
f er
g reat
i li
i ght
l es
l ast
m ade
o b
p ed
p any
r ol
s ing
t al
t ri
v ent
w om
అ ని
ఆ ఫ
ఇ వ
క ం
క ల
ఖ ండ
చ ి
జ ి
జ న్
ట ం
ట ా
డ ే
ణ ంగా
ద న
ద ీ
ద ్య
న ాయ
ప ం
ప ద
ప శ
ప క్ష
ప ాత్ర
మ ల
మ లు
మ ించ
మ ్మ
ర ే
ర కాల
ల క్ష
వ రి
స ూ
హ ా
ి ల్
ి స్త
ు ల
ె ల
ో ర
th ird
in s
re d
an n
en su
or ig
ాల కు
లో క్
స్ ,
స్ లా
రా స్య
ar m
ar n
ప్ర కార
ిక ,
ిక త
ిక ్
om et
ec ted
కు ల
కు ంట
కు టు
ని ర్
వి .
ాయ ు
ver y
ను లు,
ad es
ol d
ము .
ము లో
ము ంబ
ద్ వీ
తి ,
ల్ లో
lo wer
సం ఘ
సం ప్రదాయ
సం వత్
ag ric
ter ritor
పు ట్ట
స్థ ాన్
ంట ే
si ve
క్ష రాస్య
పా క్
టి లో
com mon
cont ri
cont rol
cent ral
ear ly
ంచ ి
co al
co ast
రై ళ్ల
రాష్ట్ర ాల
రాష్ట్ర ాలు
వచ్చ ిన
pl ain
కొ న్ని
పాల ిత
వే గంగా
భారతదేశ పు
part y
hi gh
భారతదేశంలో ని
econom y
చె ందిన
డ్ డు
వ్యవస్థ లో
centur y,
కార ్య
fe at
sc ri
పరి శ్ర
మే న
రో డ్డు
ప్రధాన మంత్రి
స్థాన ంలో
రాజ్య ాలు
inclu de
ఆర్ థిక
వార స
సభ ్య
దక్షి ణా
బా ద్
పూ .
ముఖ్య మైన
సాం ప్రదాయ
ఉత్ తర
ఉంట ాయి.
పర ంగా
భాగ ం
కేంద్ర పాలిత
grow th
dom in
సాధ ించ
పాకి స్తాన్
పాకి స్థాన్
దక్షిణ ాన
tr ans
fol lowing
కర ణ
పై గా
సంస్కృ తి
సంగీ తం
సిని మా
hum an
ఆధ ార
ఢిల్ల ీ
బ్రి టి
మూడ ు
మాత్ర ం
రహ దారులు,
స్వ తంత్ర
స్వా మ్య
సామ ్రా
జాబ ితా
బెంగ ాల
influ en
Com pany
న్య ాయ
సర్వ ీ
emerg ed
ultan ate
polit ical
అభి వృ
శతాబ్ దం
Cent ral
Sik h
religi ous
Del hi
Gand hi
wom en
ఆఫ ్
పశ ్చ
orig in
కుటు ంబ
agric ult
క్షరాస్య త
2 2
7 இல்
அ ரு
அ ழை
ஆ ப்ப
ஆ தி
ஆ ட்சி
ஆ ங்கில
இ றைய
உ ண்
உ ச்ச
உ ண்ண
எ ந்த
ஏ ற்ப
க த
க டு
ஜ ன
த ல
த விர
த ந்திர
ந ே
ந ோ
ப கி
ம ண
ம ோ
ம ும்
ம ருந்த
ம றை
ர ிக
ற ுக
ல ும்,
ள ம்
ழ ்க
வ ோ
வ ண்
வ ர்க்க
ஸ ்த
ஸ ்ட
ா ம்
ா ற்ற
ி ழ
ி த்
ீ க
ு ,
ு மே
ெ டுத்த
க்க ே
த்த ட்ட
ட்ட ிய
ைய ல்
ைய ிலான
ர் வாக
ுக ின்றன.
கு றுக
ிர ிக்க
மு ழ
பா ட
பா ர
பா ர்
பா தி
பெ ரும
பெ ருங்க
ங்கள ுக்கு
ுள்ள து
வா ல்
வி வ
வி ட்ட
ுகள ின்
தி ரும
ப்பட ியான
தா க்க
த்து டன்
கொண்ட ிருந்த
ுக்கு ள்
சு தந்திர
ச்ச ிய
லா த
அமை ச்ச
அரச ு
அரச ின்
பர விய
சா தி
ின ும்,
கி ட்ட
மொ ழி
டிய ாக
நீ ர்
குறி க்க
வள ரும்
படி ,
பொது வான
அமைப்ப ுகள
இரா ச்சிய
பகுதிய ில்
என ினும்,
கூட்ட ணிய
ஆய ிர
வளர்ச்ச ிய
கீ ழ
உண வு
சீ ர
நடு வண்
பின் பற்ற
பகுதிகள ில்
வழ க்க
தொக ைக்
நி ர்வாக
ஆகியவற்ற ை
மக்கள ின்
அறி க்க
தீ பக
செய்ய ப்பட்ட
அளவ ுக்கு
ுக்க ான
வரலா ற்ற
மூன்ற ாவது
வருக ிறது.
முகலாய ப்
தேர்த லில்
இற க்கு
துறைய ானது
தமி ழ்
வகு த்தது.
தூ ர
நீதி மன்ற
இவ்வா று
இலட்ச ம்
அந் நேரத்தில்
துண ைக்
சமீ பத்திய
மாமி ச
அரு க
ஆப்ப ிரிக்க
திரும ண
தீபக ற்ப
A m
S h
ang e
iv ed
ं प
अ र
अ व
क र्
च ार
ज ब
द र
प र्व
ब न
ल र
ल िया
श े
ो ष
्य ों
स् त्र
पर माण
कार ्य
202 3
जन जाति
स्था प
वी ं
हुआ ।
च् च
पश्चि म
गण राज्य
न्या या
प्रधान मंत्री
पूर् ण
परमाण ु
2 5
( 0.
2 1.
201 4
B J
D em
G anges
I ts
M o
a i
a u
a th
a ch
b re
b ir
c he
c ar
c ur
c ru
c ensu
d am
d ay
e th
f t
f ed
f ast
f ig
f ound
g e
g ar
h ru
i le
i de
k e
l ine
m an
m en
m it
o se
p en
p ain
p end
r ul
s ;
s ion
s econ
t ,
t ur
u ch
v en
v ast
w an
y a
in du
er s,
re l
re main
an k
an imal
an cient
the y
al s
al le
st e
st at
di v
di ff
ar ch
ic ,
ic e
ing ,
ec ially
The re
il d
ul pt
em p
lo cal
de pend
un d
mo vement
are as
ment s
ity ,
me di
pro v
form ed
iv es
iv il
Hin di
mar ri
sc ulpt
Un ited
Con stitution
Ne hru
liter ac
bas ed
mark et
occ up
parliament ary
gre w
Europe an
gl ish
dire ct
esp ecially
En glish
BJ P
pain ting
secon d
indu st
ं ति
ई सा
ओ र
ग ति
प े
ब ो
भ ग
र क्षा
ल िये
श न
श ी
श ता
स क
स ह
स भा
२ ००
ार ्
न् द्र
न् तु
सं सद
भा ग
भा ज
हा ला
नि र
१९ ९
यु द्ध
क्षेत्र ीय
प्रा प्त
जिस में
मुख ्य
वर्ष ों
ब् दी
समा ज
पह ले
धी रे
ब्र ि
ण् ड
नेतृ त्व
विका स
अर ब
शे ष
शता ब्दी
199 0
- உ
2 4
5 இல்
அ ள
அ ன்ற
அ ணிய
அ வர்கள
ஆ ள
ஆ க்க
இ ன்ற
இ ந்
ஏ வ
க ைய
க மாக
ச க
ட ்
ட ்ப
த க
த ய
த ந்த
த ற்கா
ந ிய
ந ாக
ந ிர
ந ன்ற
ந டுத்த
ன ்க
ப ண
ப ீ
ப ள்ள
ப ணிய
ப ூர்
ம கா
ம ிட
ம ிக்க
ம ந்திர
ய ின.
ல ின்
வ ய
வ ானது
வ று
ா ட்சி
ொ ண்ட
்த ி
ிய ும்
து க
ல் லை
க்க ள்
க்க ண்ட
ப்ப ரப்ப
த்த ன.
ங்க ும்.
ுக ின்றனர்.
கு சரா
மு டிவ
பா ரச
பா ர்க்க
ங்கள ும்
ங்கள ைக்
ங்கள ைப்
மை ப்பு
போ க்கு
ுகள ில்
தி ட்ட
ப்பட ும்.
தா க்கம்
நில ப்பரப்ப
சம ையல்
பு ர
பு ல
வே த
செ ல்
மைய ில்
கள ில்
கால ப்
வர ைய
க்கப்பட்ட து.
பர ப்ப
அதிக ப்படியான
சா ர
ர்கள ைக்
கி ண்ண
ாள ராக
தெ ற்க
தெ ன்க
ர்கள் ,
கோ ப்பை
நட ுக்
வள ர்ந்து
க்கா ட்சி
சமய ப்
வற்ற ில்
இட ம்
மூ லம்
முறை கள
உருவா க்க
தலை வர
மீ து
பாரம்பரிய மாக
எண்ண ெ
ஒன்ற ிணை
பி ற்ப
காரண மானது.
நாட்டு ப்புற
பின் னர்
பண்பா டு
பண்பா ட்டு
பேரரச ு
வழ ியாக
ப்படுத்த ப்பட்ட
வர்கள ாக
உற்ப த்திய
பயன்படுத்த ப்படுகிறது.
தொலை க்காட்சி
அக ணிய
ஆற்ற ல்
இக்கால த்தின்
ரீதிய ாக
ஒப்ப ீட்ட
சன நாயக
அட ர்த்த
எண்ணிக்க ையிலான
அறிய ப்பட்ட
துணை க்கண்ட
வென்ற ுள்ளது.
ஏற்று மதிய
ஐரோ ப்பிய
கங்க ைச்
குழ ந்த
பாணிய ானது
பாக்கித்த ான்
குடியரசு த்
உற வு
போத ிலும்
புவிய ியல்
பிரபல மான
சராச ரி
அமெ ரிக்க
நெ ருக்க
வலி மையான
வேலை ப்பா
அமைந்த ுள்ளது.
ஏற்ப டுத்த
தவிர ்த்த
பகி ர்ந்து
வர்க்க த்தின
முழ ுவ
பெரும ளவ
ஏவ ுக
நடுத்த ர
பூர் வீ
பாரச ீக
தென்க ிழ
A ct
i an
3 1
200 3
20 20
201 2
2 6%
1 200
1 4%
4 0%
इ ंड
ए ँ
ए वं
ग ंगा
थ े
द ल
द र्
न िक
प ै
म ू
म ौ
ल न
ल ोग
व ्या
स ,
स ु
ह री
सा ल
राज नी
वा यु
दे ख
हा ँ
ड़ ी
नि भा
वर् त
जि न
जन संख्या
प् ले
यु क्त
दो नों
अप ने
बंध न
लग भग
सद स
कु छ
कु ल
म् भ
स्थ ित
टि श
अन् त
संस्कृ ति
न्ह ें
भूमि का
स्वतंत्र ता
ब्रि टिश
2 9
so on
1, 9
( వె
. పూ.
A ra
B N
B i
D P
D uring
G DP
I S
N ational
P er
P ro
T am
b od
c .
c ap
d an
d em
e p
f o
f ive
f ied
h at
i )
l in
l ing
l am
l ay
n at
n al
p rom
r ates
s ist
s ultanate
t il
u al
u se
v ol
w on
y an
ం భ
అ వ
అ హ
అ వి
ఆ క్రమ
ఆ హార
ఇ వి
ఇ ంగ్ల
ఇ స్లా
ఉ ండ
క థ
క ూ
క న్న
క త్వ
క ింద
క ీర్
చ న
చ ు
చ ాల
చ ిత్ర
జ ాలు
జ రు
జ ంబ
ట ే
ట ై
ట ర్
డ ిన
త ల
త ె
త ే
త రా
త ము
త ులు
త ంలో
త ెలు
ద ర
న ది
ప ీ
ప ార్
బ ి
బ ు
బ ్‌
బ ంగ్ల
బ ంధ
బ డ్డ
భ ర
భ ౌ
మ ూ
మ ౌ
మ ాలు
మ తి
మ ారు
మ ంది
య ాలు
య ాలో
ల ె
ల ిం
ళ ్
ళ ిక
వ ల్ల
వ లం
శ ెల
స మ
స హ
స ే
స ులు
స ైన
స ార్
హ ై
హ ిమ
ా దేశ
ా ంగ
ా పార
ి గా
ీ ర
ీ లు
ు కొ
ూ ప
ూ రు
ె ట్
ే ,
్ ,
్ వ
he ad
re public
an ts
ార ంభ
ాల య
ాల నే
ాల ెండ
ర్ ,
ర్ త
ర్ ష
ర్ ‌
st ates
ed ,
ed uc
of ten
is hed
ది న
ది నాలు
ప్ర ారంభ
దేశ పు
దేశ ానికి
ou p
ou theast
న్న ది.
న్న ారు.
ాలు .
ec ut
గా ంధ
ur ther
కు లు
ని స్తాన్
వి ధ్య
వి భిన్న
వి ద్య
దేశం గా
am m
am p
ను ంచి
The se
em ber
ద్ వార
ro ck
ra ,
తి గా
త్ వా
త్ తా
ించ ే
ించ ి,
se ver
se qu
Indian s
ist ic
lo y
సం కీర్
సం బంధ
ter m
su m
పు రు
200 4
de fin
స్థ ి
un ion
ంట ు
ex por
ex ecut
వా హ
వా ణి
ఉన్న ారు.
పా టు
పా దన
కూడ ుకు
we ll
కో ల్
com mer
com pos
కా శ్
ట్ట మొదటి
నే పాల
మొ ట్టమొదటి
ure ,
cont ain
ear li
మా బాద్
నా గర
లి చ
వ్య ాపార
end em
గు వ
గు ర్త
వచ్చ ు.
ద్ధ ం
పాల ించ
మైన ది.
gen c
ఒక ే
sh o
చే సింది.
ఎన్న ిక
bec ome
all ed
దా పు
దా దాపు
పె నీ
centur ies
కే వలం
కార ణంగా
తు ంది.
భాష లు
రాజ్య ాంగ
langu ages
వర్ గ
వర్ ణ
region al
popul ar
land s
నాలు గు
వె బ్‌
హిందూ దేశం
long er
fic ant
ces s
ni ficant
ser v
south ern
vi ol
పూ ర్వ
వీ టిలో
ష్ ణ
స్కృ తిక
సాం స్కృతిక
ఉత్ తరా
ఉంట ుంది.
బడ త
బడ ిన
మహ ా
శ్ర ీ
ుకు ంట
క్రీడ లు
tradition al
ప్రభుత్వ ం
తరువాత ి
diver se
కలి సి
కలి గి
జన గణ
లే దా
east ern
who se
An dam
ఉప ఖండ
క్య ాలెండ
లతో ,
ుకో వడ
ప్రతి పాదన
ిత్ర క
శాస్త్ర ీయ
శాస్త్ర ం,
ris e
వై విధ్య
సమా ఖ్య
ప్రజ ల
కోర్ ట
కోర్ టు
పేర్ లు
పేర్ కొ
మొదల ైన
ప్పటిక ీ,
ఏర్ప డ్డ
బహు ళ
సింధ ు
Buddh ist
Chin a
West ern
చార ిత్రక
పత కాలు
పొ ందిన
పద్ధ తి
సై టు
offic ial
ప్రజా స్వామ్య
నుక టి
tech nolog
స్వాతంత్ర ్య
నిర్వహ ణ
Is lam
mathem atic
Ac cording
cre ated
కం పెనీ
జన్ మ
ప్రకార ం
ముంబ ై
ద్వీ ప
సంప్రదాయ ాలు
సంవత్ సర
రైళ్ల ను
కార్య క్రమ
పరిశ్ర మలు
వారస త్వ
దక్షిణా సియా
సాంప్రదాయ ిక
సామ్రా జ్య
బెంగాల ీ
సర్వీ సులు
అభివృ ద్ధి
ఆఫ్ ఘ
Am ong
fed eral
pen ins
(వె నుకటి
IS BN
Per si
Tam il
bod y
ఇస్లా మాబాద్
కన్న డ
చాల ా
జరు పు
జంబ ూ
తెలు గు
పీ ఠ
బంగ్ల ాదేశ
ళ్ ళ
శెల వు
హిమ ాలయ
గాంధ ీ
ద్వార ా
త్వా న్ని
sequ ent
వాణి జ్య
కాశ్ మీ
నాగర ికత
వెబ్‌ సైటు
Andam an
క్యాలెండ ర్
- 0
1 4
6 2
w a
1 இல்
6 இல்
7 ஆம்
8 ஆம்
அ ழ
அ டைந்த
அ வர்கள்
அ வற்றின்
ஆ க்கிய
ஆ ண்கள்
ஆ ண்களுக்கு
ஈ ர
ஊ ட
எ ரி
எ ளி
ஐ ந்த
ஐ ந்து
ஐ சி
ஒ து
ஒ ற்ற
க ர்
ச ங்க
த ட்ட
த க்கா
ந ு
ந ுக
ப ட்ச
ப டை
ப ன்ன
ம ர்
ம ண்ட
ம கள
ய ற்
ர ை
ல ிருந்து
வ ல
வ ப்
வ ல்
வ டி
வ தில்
ா ட்டு
ி ,
ி ப்ப
ூ ட்ட
ொ ரு
்த ிரு
ிய ின்
ிய ானது
ிய ுள்ளது.
ம் பு
து ம்
க்க ோ
க்க ப்படுக
ப்ப ுகள்
த்த ீ
ைய ான
ைய ாக
ற்ற ி
ாக ப்
ண்ட ு
இந்திய ர்கள
இந்திய ர்கள்
கு டி
கு ழு
கு ப்த
ாவ ுக்கு
மு யற்
கா டுகள
கா டுகள்
19 ஆம்
பா லை
பா டுகள
ிற ார்.
வா ட்ட
கொ ள்ள
போ ல
போ ர்
வி ட்டு
ுகள ும்
ுகள ாக
தா ல்
தா க்கு
சம சுக
மா ற
மா ன்
சு ற்றி
செ ன்ற
செ ன்ன
செ வ்
பிர தி
ரா த
ரா ள
தொட ுக
தொட ர்கள
வெ ட்ட
கால மானது
மாக ும்.
லா ட்சி
அமை த்தது.
க்கப்பட்ட ுள்ளது.
பர ந்த
ாள ர்
டை ந்தது.
மிக க்
மிக வும்
ுட ன
இத ே
இத ைத்
்கள ை
நட த்திய
தன ியாக
பெரும்பா லும்
பெற்ற ுள்ளது.
குடிய ின
குறை ந்த
பகுதிய ாக
கிழ க்கே
சே வைய
ைகள ின்
பகுதிக ள்
இவ ர்
த்திற ்க
கூட்ட ணி
கூட்ட ாட்சி
இய ற்ற
ிரு த
ிரு க்க
சியாவ ின்
தொடக்க த்தில்
முக்கிய த்துவ
த்துவ மான
அரசாங்க ம்
உறு தி
தனி த்துவமான
போட்ட ிகளில்
சிற ிய
ுக்க ாக
ப்படு வதற்கு
காண ப்படுகிறது.
நிலைய ை
நிலைய ான
நாடுகள ின்
கட்ச ியாக
மேற்க ே
மேற்க ொண்ட
பரவ லான
ஒப்ப ந்த
கரு த
கரு துக
நிலை க்கு
அட ங்கும்.
பண்ட ைக்
செல வீன
பாதுகாப்பு ச்
சொ ல்ல
தமி ழ
பெரும்பான் மை
பெரும்பான் மைய
பொருட்கள் ,
ஏற்று மதி
முடி ந்தது.
புவி த்
இந்திய- ஆ
அதிகா ர
அரசியலமை ப்பு
கணக்கெடு ப்பின்
இமய மலை
மயமா க்க
இணைய த்த
இசுலா மிய
அந்த மான்
இறு தியாக
சமை க்கப்பட்ட
திற ன
குதிய ில்
சுல்தான க
உருவாக்கிய து.
அழை க்க
நே ரு
நோ க்கி
மருந்த ு
குறுக ிய
பெருங்க ட
பரவிய து.
கிட்ட த்தட்ட
சீர ்திரு
அருக ிய
-உ ம்,
நாக ரிக
நன்ற ாக
தெற்க ே
எண்ணெ ய்
பிற்ப குதியில்
ஒப்பீட்ட ளவில்
முழுவ தும்
ஏவுக ணை
ஐசி சி
தக்கா ண
பன்ன ாட்டு
பாலை வன
சமசுக ிருத
செவ் வியல்
சீர்திரு த்த
ँ च
ँ कि
अ प्र
अ र्थ
अ लग
आ धिकार
घ ोष
ज ल
ड ी
ड ॉ
त ्या
त मिल
थ िय
न िय
प ं
प ड़
ब ने
ब नी
य े
ल ं
व ल
व िक
श ि
श क्ति
स ित
ह थिय
ु निक
ृ त
२ ०
ार म्भ
के न्द्र
का म
से वा
स् तर
प्र भा
प्र कार
प्र ारम्भ
िक ्
वि देश
था ,
मा लय
िया ँ
पर ंप
सं युक्त
कर ना
जा ते
इस ी
वर् ग
हि मालय
दो लन
शास ित
अप नी
बड़ ा
ज़ ी
आध ुनिक
अम े
गठ बंधन
रह े
पार्ट ी
न्याया लय
भाज पा
हाला ँकि
मू ल
प्ले ट
आधिकार िक
हथिय ार
परंप रा
0 1
( Ἰ
. 1%
2 )
4 4
5 5.
9 4
ν δ
(Ἰ νδ
3 6%
8 0
3, 42
201 6
196 0
D e
F ore
b s
or y
1950 ,
" ,
B h
B ra
B har
F act
K as
N or
P A
P r
R aj
S outheast
a ver
b or
b le
b ro
c ri
c lo
d en
d es
e dic
e very
f our
f act
f urther
g u
g lo
h ou
i -
i p
i z
i ans
j o
k s
k no
l f
m ak
m ary
m ember
n ing
o per
p r
p tion
p ical
p ay
r ation
s it
s ec
t t
t le
t em
u j
u ary
v o
v ill
v ari
w ay
th ree
he ld
in di
in depend
er ,
re g
re ad
re cor
en ac
at ive
or gan
al e
al th
al s,
al ong
st r
st an
st ru
di st
ar ,
ar ound
and ,
of f
ion s
is e
le ft
li d
li ber
ad minist
il ity
em pire
ro ss
con si
est im
est abl
ag o
ter nal
res p
res ident
un til
im port
ang ered
ut es
po in
art ,
et y
et ic
com ple
sp e
sp read
end angered
wor n
od s
pl ace
no w
197 7
CE ,
bo ok
sub sequent
system ,
contin u
pol ic
increas ing
grow ing
Un ion
gr oup
election ,
sup p
bi o
bi an
ho wever,
tim e
tim es
leg is
spec ies,
mid -
mid dle
pres ent
sty le
cho ol
.. .
sur v
lead ing
religion s
Sanskrit ,
Th is
sig nificant
fam ili
king dom
wide ly
cook ed
Al though
Jan uary
coal ition
influen ced
bir th
cur ren
diff er
emp loy
literac y
indust ry
educ ation
execut ive
earli est
penins ular
Persi an
Bhar at
Fact book
Kas hm
kno wn
consi der
5 5,
55, 000
ं क
अ फ
आ ं
आ ग
उ स
ऊ ँ
ए ं
क ह
ग ए
ग त
ग ्र
ज ै
ड ा
ण ी
त ो
द ृ
प हा
फ ल
ब ै
ब ार
भ र
भ ि
म ,
य ों
व न
व ै
व री
स त
स ो
स र्व
ृ द्ध
ै ली
१ ८
्य ता
की ।
वि ज
कर ण
ति हा
वा द
वा दी
िय न
पा लि
ला वा
कि न्तु
शा ंति
ली ,
ली न
वर् ण
हो ती
जन ता
ंध ी
१९ ७
१९ ८
यु ग
जिस के
बहु मत
बड़ ी
बड़ े
गा ंधी
महा द्वीप
वं श
शु रू
संस्कृ त
अंग्रे जी
विस्त ृत
कर् ज
पर्व त
शी ल
सह योग
डॉ लर
विदेश ी
अमे रि
पालि का
0 4%
17 .
3 6.
( P
D es
o t
Indo- A
- ஐ
2 1
6 ஆம்
அ ன
அ ய
அ ர
அ ல
அ ப்ப
அ டு
அ ளவு
அ டுத்து
ஆ ரம்
இ ச
இ க்க
இ ன்ன
இ சை
உ ரி
உ டன்
ஊ டு
எ ழு
எ டுத்து
எ ல்லை
ஒ டி
ஒ த்து
ஒ ட்டு
க ாவ
க ில
க ிற
க வி
க ல்ல
க ட்சி
க ணி
ஞ ர்கள்
ட ன
ட ெ
ட ும்
ட ிர
ட ப்பட்ட
த ைத்
த ானிய
ந ல
ம ட
ம ௌ
ம ல்
ம ரு
ம ாவ
ம ட்டு
ய ்க
ய ும்
ர ில்
ல ீ
ல ானது
ள ர்ச்ச
ா ய
ா ட்ட
ா ண்
ா ரி
ி ப்
ு த்த
ு மொ
ே க்க
ை ப்பட
ொ ப்ப
ோ து
ோ மீ
ோ ட்டிய
்க ை
ம் ச
ம் ம
ந்த ர
க்க ான
ப்ப ில்
ப்ப ாக
ப்ப ுக்
த்த ைப்
ள் ,
ட்ட ர்கள்
ர் ப்
இந்த ோ
ண்ட ை
மற்ற ுமொ
ாவ ிட
மு ள்ள
மு டைய
மு த்திர
மு ந்தைய
கா ர
கா ற்ற
கா ந்தி
பா ண
பா டு
பா றை
பா ணி
ில ுமே
க்கு ட்ப
ப்பட்ட து
டி த்து
பெ ண்கள்
பெ ண்களுக்கு
ங்கள ையும்
வை கள
வை க்கப்பட்ட
வை த்தது.
இந்தியாவ ுக்குள்
வா ழ
கொ ள்
போ ல்
வி ன
தி ச
தி ப்
ப்பட ியாக
ரச ்
உள்ள னர்.
உள்ள ூர்
தா ர்ப்
தா ரச்
திக ா
ப்பு ப்
ப்பு ச்
நில வர
நில ையானது
சம வெளிய
பு த்த
பு த்திர
மா றாக
வே ண்ட
ுக்கு த்
சு ,
செ ழி
மைய ானது
மைய ுடைய
ிருந்த து
வெ ள்ள
ச்ச ா
மாக க்
அமை ந்தது.
க்கப்பட்ட ுள்ளன.
பர த
200 2
அதிக மாக
சா ய
சா ராத
ின ர்.
ஆகிய ோர்
சிய ா,
ாள ர்களைக்
மிக ு
வீ ர
வைய ின்
வைய ில்
நீ ள
்கள ில்
த்தை த்
பொருளா தாரச்
சமய ம்
படி ப்படியாக
பொருளாதார ம்
பொருளாதார மாக
குறிப்ப ிட்ட
202 4இல்
இல ிருந்து
வந்த து.
அமைப்ப ை
அமைப்ப ின்
இரண்ட ாம்
தலை வர்
நூ ல்கள
மீ தான
குடிய ிரு
குடிய ேற்ற
பெரிய தாகும்.
பாரம்பரிய ங்கள்
முன்ன ே
ங்களை ச்
இவ ர்கள்
ஒன்ற ாக
காரண ம்
வடிவ ங்கள்
வடிவ ங்களில்
ஆண்டுகள ுக்கும்
மொழ ிகள்
டுகள ை
தொடங்க ிய
சியாவ ுடன்
தொழில் நுட்ப
கல க்க
சீ க்கிய
திர ாவிட
பண்பா ட்டில்
பேரரச ானது
இடைய ிலான
ூர் வ
மாநில ங்கள்
இராணுவ த்
பிரி வுகள
மேற்கு ப்
கிர ேக்க
முறைய ே
பங்க ு
பங்க ெடுத்த
உற்ப த்தியில்
வணிக ம்
பத விய
மலை த்
தொலை தூர
நிலைய ாக
அடிப்பட ையில்
நிறுவன ம்
நுட்ப த்
சோ தன
வகை கள
ரீதிய ான
சந்த ை
ல்கள ில்
காங்கிர ச
வரலா ற்று
மூன்ற ு
வங்காள த்தின்
மர ப
நகர ப்
நகர் ப்
பே ர்
சேர்ந்த வையாக
உறுப்பின ர்கள
வெளிய ிட
பரி மாற
நாடாளுமன்ற த்தின்
கடற்கர ைகள்
பொருட்கள ாக
உயிரின ப்
பௌத்த ம்
இப்ப ோட்டிய
உட ்க
ஐரோ வா
கங்க ை
பழ க்க
பழ மையான
உருவாக ியது.
பகுதி ,
இதற்கு ப்
நடன ம்
அதிகரித்த ுள்ளது.
தென்னிந்திய ாவில்
ஆட்சிய ாள
முத லில்
பாக்கித்த ான
புது ப்ப
பிரதம ர்
அதிகா ரப்ப
நீடித்த ிருந்தது.
பஞ்சா ப்
இமய மல
தற்க ுக்
பால ின
பால ூட்ட
தொடர்ச்ச ி
தொடர்ச்ச ியான
தெற்கா சிய
இடத்த ையும்,
ஒன்றிய ப்
போட்டிகள் ;
அடைய ாள
பங்கள ி
தொடர் பு
வருமான மானது
விளையாட்டு ப்
பல்வகை மை
குடும்ப ங்கள்
தேர்ந்தெடு க்கப்படுக
ஆதி க்க
ஆங்கில ம்
இறைய ாண்
தல ைய
மறை ப்பு
விவ சாய
அமைச்ச ர
குறிக்க ப்
வரலாற்ற ாளர்கள்
இறக்கு மதிய
ஆப்பிரிக்க ாவில்
ஆக்க ிர
கைய ொப்ப
தக வல்
வய து
வறு மை
குசரா த்தின்
பார்க்க ப்படுகிறது.
நிலப்பரப்ப ில்
கோப்பை ;
தலைவர ாக
ஏற்றுமதிய ில்
நெருக்க மான
தவிர்த்த ு
தட்ட ானது
மண்ட ல
மகள ிர்
சென்ன ை
சேவைய ாற்ற
கருத ப்படுகிறது.
கருதுக ின்றனர்.
இந்திய-ஆ ரிய
இணையத்த ளம்
அன ு
அய ல்
அல ுவ
அப்ப ோது
ஆரம் ப
இன்ன ும்
ஊடு ரு
கில ோமீ
டிர ில்லியன்
மௌ ரிய
மரு த்துவ
மட்டு மே
மற்றுமொ ரு
நிலவர ப்
இப்போட்டிய ை
கிலோமீ ட்டர்கள்
1 5,
1 2.
3 1.
4 6%
a ː
1, 0
0% ),
7. 5%
ं ह
ं ।
अ ब
अ भी
अ धि
आ या
आ न्
आ दि
इ ं
इ स्
उ द्योग
ऋ तु
क म
क टि
ग ो
च े
ज ू
ज रा
ज लो
ट न
त ः
त न
द ू
न व
न गर
प ि
प ीय
भ रा
र ्य
र िक
ल ु
श त
श ्री
स फल
ह न
ह ार
ह रा
ि म
ि की
ै ल
ो सी
ो च्च
२ .
के वल
र् ष
या स
प्र यास
वि भि
वि वाद
मा ना
सा ं
कर ता
जा ना
पा द
पा स
ला ,
ला ख
सम र्थ
इस की
हो ते
१९ ५
१९ ६
उत् पाद
अप ना
स्व रूप
अधिक ार
दिया ।
बना ने
ष् ठ
ष् ण
क्र म
अम री
अंग्रे ज़ी
्री का
प्रति शत
यू रो
हिन्द ू
जब कि
स्थाप ना
व्या पार
राजनी तिक
वर्त मान
अप्र ैल
अर्थ व्यवस्था
जल वायु
पड़ ोसी
प्रभा व
अफ ्रीका
दृ ष्ट
सर्व ोच्च
तिहा स
जलो ढ़
विभि न्न
समर्थ न
यूरो पीय
5 17
9 00
9 ,000
A t
B B
195 1,
7, 517
3. 8
BB C
1 )
" .
" భర
- లా
- ఢిల్లీ
4 6
5 -0
7 /
8 లో
9 -
A s
A ss
A ll
C I
C ountry
C ivil
D ec
D ra
G up
G ree
G hat
G uj
H o
L angu
M od
M any
N uclear
S ing
V alle
a h
a di
a i,
b u
b and
b ution
c tion
c oun
c es,
c reat
c alled
d ri
e qu
e ograph
e ight
f und
g o
g ra
h y
h is
h ab
h ig
i a
i gh
i fied
j ust
k en
l a
m ult
m all
n om
o wn
p ur
p ra
p ass
p har
r am
r ich
r atic
s af
s ine
s chool
s mall
t u
t ic
t ain
t ak
w in
w ent
w rit
w hen
w ild
x im
ం ;
ం క
ం కా
అ ణ
అ ంత
అ ంట
అ న్ని
అ ప్ప
అ మె
అ క్షరాస్యత
ఇ దే
ఇ ండ
ఇ క్క
ఇ టీ
ఈ శ
ఈ స్
ఎ డ
ఎ ల
ఏ ప్ర
ఐ రో
ఐ క్య
ఒ లం
క ,
క ీ
క లు
క ాత
క ను
క నుక
క ంటే
క బడ్డ
ఖ ో
ఖ ని
గ త
గ ్ర
గ ంగ
గ ్రా
గ మన
గ ెలు
చ ద
చ య
చ వి
చ ూడ
చ ించిన
చ ుకోవడ
జ ల
జ ీ
జ ో
జ ్
జ మ్మ
జ ిక,
ట క
ట ్ర
ట లు
ట న్
ట ్‌
ట ాన్
ట ోర
డ ైన
ఢ ా
ణ ులు
త ర్
త ను
త ంగా
త ం,
త త్వ
త క్కువ
త ీర
థ ్యం
ద ర్
ద రా
ద గా
ద ండ
ధ ీన
న ం
న ూ
న ిక
ప లు
ప ిక
ప వి
ప ్ల
ప ల్ల
ప డు
ప తా
ప ర్వ
ప ర్య
ప క్క
ప డిన
ఫ ల
బ ౌ
బ ంగ
భ వ
భ క్
మ ్
మ ాత
మ ిత
మ రో
య న్
య ింది.
య ాత్ర
య మించ
ర ీ
ర ిక
ర కాలు
ర చయ
ల ీ
ల కొ
ల ౌక
ల మె
ల స్య
ళ ా
ళ ి,
వ ం
వ ిం
వ ంత
వ రు
వ ైన
వ ార్
వ ులు,
వ త్ర
వ నాలు
వ ాయు
శ క
శ ి
శ ీ
శ ై
శ ో
శ కు
శ క్
ష యాలు
స న
స ీ
స ె
స ాల
స ్రా
స మర
స ిక్
హ ో
హ ్ర
ా క
ా ను
ా న్ని
ా డే
ి మాన
ీ ం
ీ క్ష
ీ షు
ు త్
ూ నది
ే .
ౌ ర
్ మా
‌ సభ
‌ కాత
in es,
in tro
in vol
er t
er s.
re form
re new
re duced
on s
on es
at a
at ing
at ical
or s
ార ి
లు గా
ర్ పు
ర్ జాతీయ
ర్ చు
ర్ తిగా
ర్ థ్యం
లో ,
లో య
లో ను
లో మీ
స్ వీ
స్ కరణ
స్ లిం
్య ా
భా గా
భా విస్త
di t
di an
ar a
ar d
ar s
ar ies
of ile
ion ,
as h
as soci
it ect
is sion
ప్ర దేశ
ప్ర ాయ
ప్ర సి
ప్ర త్య
ప్ర యో
ప్ర ీం
ిం ది
దేశ ీ
om y
to ok
to uch
భారత ం,
భారత ్‌
న్న ీ
న్న ై
కు ,
ని పు
ని డి
ని యమించ
వి లు
వి మాన
వి శ్
వి షయాలు
వి దేశీ
ాయ ాలు
క్ టోర
ాత ం
ాత ్మా
li ance
దేశం .
The ir
ad v
ad ually
ాన ీ
ాన ్య
ri gh
ri ght
ండ ్
ము ,
ము డి
ము స్లిం
ిన ీ
ra c
తి రు
స్త ులు
స్త ారు
ch ar
ch anges
ch ange
ce ut
be low
be fore
for t
ast ri
ంత ర
con so
con duc
con sist
సం స్కరణ
ag ain
res ult
పు కో
పు తూ
స్థ ావర
un e
ంట ి
భారతదేశం .
ంలో ,
with in
ex ternal
are n
ut ed
si de
po t
ab ly
ab out
ab ility
ంగా ,
వా దం
సా హ
సా మా
పా వ
పా డు
పా ంతర
et work
ార్ థ
inc t
ay back
కూడ ి
కూడ ుకొ
జాత ి
జాత ులు,
రాజ ు
we ap
కో ట్ల
క్ర ి
sp or
కా హార
కా -ఢిల్లీ
కా పాడు
చ్చ ే
నే రే
మొ గలు
ure .
ure d
ంచ ిన
దు గా
మా ట్ల
ak sh
id ed
me at
నా థ
సి యాలో
యా ళ
end ing
రాష్ట్ర ాలు,
el it
el ected
pro duc
pro xim
గు బా
వచ్చ ని
ap proxim
pl ate
por tion
por ted
తర ాలు
వే .
వే ద
వే ల
కాల ే
డి స్
ద్ర ా
ism .
af f
ma ceut
part ition
శా సన
దేశాల ను
CE E
ంది ంది.
ఎన్న ుకో
ఎన్న ుకుంట
కి లోమీ
up per
చె ప్
చె ంద
చె ందు
చె న్నై
కే తిక
తు లతో
మత ాలు
మత ము
అధికార ం
west ,
త్ర ి
పరి పాలన
మీ దగా
మే .
సు ప్రీం
భాష ా
భాష లను
ప్రపంచ ములో
స్థాన ం
స్థాన ాలను
రాజ్య ంగా
ప్రాంత ీయ
ప్రాంత ాల్లో
పేరు ,
26 న
langu ag
Hindu ism
Hindu ism,
Hindu stan
dec ades
qu al
దాయ ంలో
వర ీ
వార ి
వర్ ష
వర్ తి
సభ ను
reas ing
region s
క్రీ .పూ.
పార్ట ీ,
Asi an
Asi a,
oc ratic
బా దు
రెండ వ
రెండ ో
వె ల్ల
వె బ్
ప్రభు త్వాన్ని
fore ign
ric a
ect ive
ext en
ext ant
south -
vi dian
పూ ర్తిగా
పో యింది.
బ్ ది
మన దేశం
మి స్తు
వు తుంది.
ముఖ్య ంగా
స్త్ర ీలు
సాం కేతిక
జనాభా తో
do wn
port .
minister .
అతి పెద్ద
జరి గే
పర ీక్ష
బడ ింది.
మహ ి
మహ ాత్మా
క్రీడ ా
క్రీడ లలో
tradition ally
అయిన ా,
Af rica
BCE ,
Ma ur
ta x
గో దా
గో ళిక
గిన ది.
జన తా
జన వరి
లే దు
though t
ప్రస్తు తము
క్క ను
సాధ ించిన
కాంగ్రె స్
కాలంలో ,
ament al
An cient
Con stit
dance -d
ఉప యో
భూ భాగం
భూ టాన్
మాన ం:
యు గ
రంగ ంలో
వల న
వల స
erg y
ప్రతి పక్ష
విస్త ీర్
సిని మాలు
Pakistan .
exp ress
comp an
spec ies
గణ తంత్ర
ఢిల్ల ీ,
నె లకొ
బ్రి టీ
మాత్ర మే
సమా జ
ప్రజ లు
భారత్ ,
సామ ర్థ్యం
పట్టణ ాలు,
influ ence
ప్పటిక ినీ
సింధ ూనది
Buddh ism
సరిహద్దు గా
సౌకర్య ాలు
సౌకర్య ాలలో
ప్రముఖ మైన
constitution al
develop ed
develop ment
rule .
St ates
చైన ా,
చైన ాను
తూ ర్పు
నగర ాలు
పండు గలు
రూ పాంతర
సార స్వ
ప్రజా దర
రైల్వే శాఖ
పాలన లో
ఒకటి గా
ప్రపంచంలో ని
సముద్ర ం,
సముద్ర తీర
Punjab ,
స్వాతంత్ర ్యం
నిర్వహ ించింది.
tro pical
cook ing
culture .
Himalay as
Plate au
cit ies
great er
sing le
vent ion
ఇవ ిక
చి రు
నాయ కత్వ
మల యాళ
సూ చించిన
హా కీ
ిస్త ారు.
third -largest
లోక్ ‌సభ
కుల ాలు,
కుంట ూ
కుంట ారు.
ాయు త
ades h
old est
common ly
contri but
contri bution
feat ures
మేన ని
రాజ్యాలు గా
సభ్య ు
సభ్య ులు
పాకిస్థాన్ ,
ఆధార పడిన
బ్రిటి ష్
బ్రిటి షు
పశ్చ ిమ
పశ్చ ిమాన
agricult ural
cru st
fig ures
tur ned
rel ations
arch itect
areas .
sculpt ure
direct ly
cap it
dan ces
ఇంగ్ల ీషు
కింద కు
టై టి
టర్ లకు
పార్ లమె
భౌ గోళిక
మూ ల
మౌ ర్య
సహ స్రా
సైన ిక
సార్ వత్ర
హై దరా
ర్ష ణ
ర్‌ ల
ప్రారంభ ించ
విద్య ుత్
సంకీర్ ణ
పురు షు
స్థి తి
కూడుకు ని
కోల్ ‌కాత
commer cial
compos ed
నేపాల ్,
పాలించ ారు.
sho w
ఎన్నిక ల్లో
రాజ్యాంగ ం
viol ence
ఉత్తరా న
బడత ారు.
జనగణ న
ప్రతిపాదన కు
సమాఖ్య .
కోర్ట ులు
ఏర్పడ్డ ాయి.
technolog y
కార్యక్రమ ాలు
ఆఫ్ఘ నిస్తాన్
జరుపు కుంటారు.
తెలుగు ,
పీఠ భూ
బంగ్లాదేశ ్‌
శెలవు దినాలు
wa ist
Bra hm
Pr ofile
glo bal
hou se
oper ation
sec ular
indi gen
recor ded
enac ted
estim ated
establ ished
ago .
import ant
spe ak
continu ed
legis lat
famili es
kingdom s
differ ent
Kashm ir
-లా హో
CI A
Dra vidian
Ho wever,
Langu ages
Sing h
Valle y
fund amental
pra ct
phar maceut
ram as
అంత ర్జాతీయ
అమె రిక
ఇండ ో
ఈశ ాన్య
ఈస్ ట్
ఎల క్టోర
ఏప్ర ిల్
ఐరో పా
ఖని జాలు
గెలు చుకోవడ
చూడ ండి
జమ్మ ూ
ట్ర ో
ఢా కా-ఢిల్లీ
తర్ వాత
పిక ్‌
పవి త్ర
పతా క
పర్య ాయాలు
పక్క న
బౌ ద్ధ
బంగ ారు
రచయ ిత
సమర ం
భాగా న్ని
ప్రసి ద్ధి
భారత్‌ లో
నిపు ణులు
నిడి వి
righ ts
తిరు గుబా
conso lid
conduc ted
result ing
స్థావర ాలు
సామా జిక,
కూడుకొ ని
కాపాడు కుంటూ
నేరే డు
మాట్ల ాడే
approxim ately
ఎన్నుకో బడతారు.
కిలోమీ టర్లకు
చెప్ పుకో
చెంద ాయి.
చెందు తున్న
dance-d ramas
ఉపయో గి
ప్రజాదర ణ
సూచించిన ట్లు
సహస్రా బ్ది
సార్వత్ర ిక
కోల్‌కాత ా
pharmaceut ical
ఎలక్టోర ల్
గెలుచుకోవడ ం
ఢాకా-ఢిల్లీ -లాహో
తిరుగుబా టు
6 4
6 00
7 2.
26 .
1 000
2 3
3 6
19 30
196 7
16 .
Re public
st -
ch ived
197 4
Ar chived
( 3
1, 200
200 8
अ भ
अ लावा
आ त
इ तिहास
उ च्च
ए न
क र्म
क िये
ग ई
ग ई।
घ ा
च ना
छ ो
छ ोड़
ज िक
ज हाँ
ण ,
त ट
त म
त गा
द ार
द ारी
ध ार
न ै
न ौ
न दिया
प हु
फ ि
फ ्रा
ब ौ
ब ंगा
ब दल
म े
य क
य त
र -
र ही
ल ,
ल ना
स ल्
ृ त्य
ौ र
ौ द्योग
् ञ
० ,
१ ४
१ ५
२ ४
र् तगा
स् लि
प्र शासन
प्र त्य
प्र चल
प्र ौद्योग
ने मा
वि यत
मा ल
मा ध्य
मा जिक
सा ह
सा माजिक
न् ध
पर ी
पर े
पर ्य
सं गी
क्ष र
को ई
भा ष
राज धान
राज नै
वा स
दे व
दे खा
भी ल
्या दा
तर ह
हि ं
हि स्
ती स
ती सर
बा हरी
मु स्लि
जन वरी
किया ,
ंत्र िक
ची फ
मान सू
भाषा एँ
सरकार ें
जी त
कृ ष
जिस का
दि ल्
पु रा
पु र्तगा
सि ंह
सि नेमा
पूर्व ी
लग ा
मिल ियन
हुई ।
बढ़ कर
स्थ ि
उप महाद्वीप
वे श
संघ ीय
संघ र्ष
सैन िक
अन् तर
आध ार
शु रु
समा प्त
पश्चि मी
गु प्त
विस्त ार
पे क्ष
निर पेक्ष
इंड िया
थे ।
लोग ों
निभा ई
घोष णा
पं जा
विक सित
उस के
कह ते
जै से
अमेरि का
आन् दोलन
जू न
तन त
दृष्ट ि
अभ िया
छो टे
नदिया ँ
सल् तनत
प्रौद्योग िकी
माध्य म
संगी त
राजधान ी
राजनै तिक
मुस्लि म
मानसू न
( 202
- கங்கைச்
- பொருளாதாரச்
4 ஆம்
7 8
9 ஆம்
n s
அ து
அ ல்
அ ங்க
அ கா
அ ரி
அ ச்ச
அ சா
அ தே
அ ணி
அ தற்கு
அ ண்டை
ஆ டை
ஆ தார
ஆ ய்
ஆ ற்று
இ ம்
இ டை
இ ண்டிய
உ ள
உ டை
ஊ ட்ட
எ ல்ல
ஐ க்
ஒ வ்
க ச
க ன
க ே
க ப்ப
க ேர
க டை
க ன்ன
க மீ
ங ்
ச ய
ச ர
ச ம்
ச ல்
ச கா
ச த்
ச வா
ச ப்பா
ச ற்று
ஜ ி
ஜ வு
ட ிக
ட பூ
ண ய
ண ிகள்
த ங்க
த ாவ
த ானது
த ட்ச
த டை
த ைப்
ந ிக்க
ன ே
ப ட
ப ன
ப ில
ப ுள்ள
ப ுகள
ப திய
ப டுத்த
ப ல்ல
ம ங்க
ம ித்த
ம ணி
ம ும்ப
ய ில்
ர த்த
ர ங்க
ர ையும்
ல க
ல ாவ
ள ை
வ ற
வ ன்
வ ிக
வ கி
வ ிக்
வ ுள்ளது
வ ொரு
ஹ ி
ஹ வு
ா ட
ா தார
ீ ன்
ீ டு
ு வி
ு ந்து
ை க்கால
ொ ள்க
ோ ள
ோ பார்
்க ்க
து ற
து டு
து ல்ல
ன் ம
ல் வாய
ந்த ்
ந்த து
ந்த ன.
க்க ள
க்க டி
க்க லை
க்க ப்படுகிறது.
க்க ப்படும்
க்க வோ
ப்ப ான
ப்ப ந்து
த்த ுள்ளது.
த்த னர்.
ரு க்கு
ட்ட ம்
ைய ிலிருந்து
ங்க ா
ங்க ும்
ங்க ாக
ுக ு
ிக ர
ிக ா
ிக ுட
ிர ி
ாவ ்
மு டிய
மு னை
மு ழு
மு டிக
பா ட்ட
ில ுக்கு
ில ும்,
்ச ்ச
ிற ்கு
டி க்கப்பட்ட
பெ ண்கள
ங்கள ான
ங்கள ுக்கும்
ங்கள ையுடைய
தொ ன்ம
வை க்
மை ,
ுள்ள னர்.
ுள்ள ார்.
பொ ழு
பொ றிய
இந்தியாவ ானது
வா ச
வா த
வா ழ்க
கொ டுத்த
வி டு
வி மான
வி சய
ப்பட ை
ப்பட ாத
ப்பட லாம்.
ற்க டிக்கப்பட்ட
உள்ள ார்.
தா ய
தா ன்
தா ய்
தா ண்டிய
தா ராள
நா ணய
த்து றை
த்து தல்
ஆக வும்,
ரி ,
திக ள்
திக ழ்
ப்பு டைய
நில ையின்
நில ைகள்
சம வெளி
பு ட
திய ான
மா றி
வே திப்
சு ய
சு வைய
செ து
பிர ச்ச
பிர தேச
ரா ட்ட
மைய ும்
மைய ைக்
கள ை
ிருந்த ன.
ிருந்த னர்.
மே லும்
மே லும்,
கால ம்
கால த்த
று த்த
று வதற்கு
201 7ஆம்
இருந்த னர்.
ச்ச ி
மாக த்
லா ல்
லா ந்து
லா ம்,
அமை தி
தன் மை
வர ின்
வர தட்ச
பொரு ள்
வு ப்
பர ண
200 7இல்
சா ர்
சா ஸ்த
உரு வ
ல்ல ி
ஆகிய வையாகும்.
விய த்
கி டை
சிய ப்
சி ப்
சி க்க
சி த்த
சி ங்
தெ ல
தெ ளி
கோ டிய
கோ டியாக
உலக ப்
உலக ிலேயே
வைய ானது
நாட ாகும்.
மொ க
ிட ும்
ிகள ைக்
ிக்க ும்
ிக்க ுக்
கூ ற
இத ன
இத ற்க
போது ,
தார ோ
இரு க்கு
நட ந்த
ித்த வ
ுகள் ,
சமய த்தைச்
உய ர்ந்த
உய ிர்
அதிகரி ப்ப
அதிகரி க்கும்
பொருளாதார க்
196 5
லி ,
இல ங்க
ப்பா ட்ட
அமைப்ப ில்
அமைப்ப ுகள்
இரண்ட ிலுமே
இட த்தில்
இரா ச
பெற்ற ன.
மூ ல
உருவா க்கும்
உருவா க்கி
உருவா யின.
ஞ்ச தாரோ
வட கிழக்கு
முன்ன ரே
தாக க்
வரு வாய
வரு க்குப்
செய ல
செய லாட்சி
பகுதிய ை
பகுதிய ின்
நிற ுவி
எண்ண ப்படுகிறது.
சே ர்க்க
ைகள ை
தொழ ில
அடி க்கடி
பி .
தோ ற்ற
தோ ற்கடிக்கப்பட்ட
வன வு
விர ிகுட
வடிவ ம்
வடிவ மானது
சமூக ப்
சமூக க்
சமூக -பொருளாதாரச்
ஆண்டுகள ாக
கூட்ட மைப்பு
இய ற்க
இய க்கம்
கட்ட ாய
நிறுவ ப்பட்ட
ிரு க்கும்
தொடங்க ி
குறிப்பிட ப்பட்டுள்ளது.
உண வுகள
உண வின்
உண வுகள்
கல ையின்
கல ையானது
சை வ
திர ைத்
திர ைப்பட
நேர ங்களில்
நேர டியாக
பகுதிகள ை
பேரரச ின்
3. 2
சட்ட ங்கள்
இராணுவ ச்
த்திற்கு ள்
பிரி க்கப்பட்ட
பிரி வானது
மேற்கு த்
அரசாங்க த்தின்
அரசாங்க த்தை
வீத மானது
வீத ங்களானவை
உயிர ித்
தொக ையில்
தொக ையுடைய
மாற்ற ியது.
என்ப தை
நி தி
நி திய
நி ர்வ
பங்க ை
மெ து
மெ ன்
ான் ,
பெய ர்
வெள ிக்
மக்கள ை
மக்கள ில்
16 0
அறி வி
அறி முக
கண்ட து.
தீ வுகள்
செய்ய ும்
செய்ய ப்பட்டன.
நடத்த ப்படுகின்றன.
நடத்த வுள்ளது
பயன்படுத்த ப்பட்ட
பாதுகா க்கப்பட்ட
அளவ ில்
சிற ப்ப
பத வி
பத ிலுக்கு
ாம ல்
ப்படு வதில்
காண ப்படுகின்றன.
தொலை த்
வாழ் ந்து
வாழ் விட
நாடுகள ுடன்
நிறுவன ங்கள்
நிறுவன த்தின்
நிறுவன மானது
mon soon
சோ ழ
சோ வியத்
பக ்தி
இரண்டு மே
அனைத்து ப்
ரீதிய ில்
ரீதிய ிலான
இணை க்கப்பட்ட
இணை ப்புகள்
மிய ான்
த்தி ,
வரலா று
1991 ஆம்
மதிய ள
நகர மயமாக்க
வருக ின்றன.
பே சுக
பண்ட ைய
பண்ட ைக்கால
செல ு
வெற்ற ிய
வெற்ற ிகர
இலக்கிய மானது
எண்ணிக்க ையில்
உறுப்பின ர்
ஆசிய ா
ஏற்பட்ட து.
சொ ற்ப
பரி மாற்ற
வக ைப்
வக ையில்
வகு ப்பின
இருக்க லாம்
இருக்க லாம்.
குறிப்பாக ,
கடற்கர ைகளில்
பொருட்கள ின்
உயிரின ங்கள்
மனித ர்கள்
உள்ளடக்கிய தாக
உட ன
எதிர் பார்க்கப்படுகிறது.
வில ை
வில க்க
வில ங்கு
முடி ந்த
காட்ட ுகின்றன.
கட்டுப்பா ட்டில்
கட்டுப்பா ட்டை
முசுலி ம
2022 இல்
1947 இல்
ஆட்சிய ின்
இன ங்களாக
இந்திய- இசுலாமிய
வாய் ப்பு
நாயக க்
பிராந்திய க்
சிந்து -கங்கைச்
உருவாக்கப்பட்ட து.
செய்த து.
சீன ா
கணக்கெடு ப்பில்
தசாப்த ங்களின்
க. வால்
தற்க ாக
நடை முறை
நடை பெற்றது.
தாங்க ப்பட்ட
தெற்கா சியாவ
விளை வாக
மயமா க்கப்பட்ட
மதிப்ப ிட
பெயர ளவு
விரிவ டைய
விரிவ டைந்த
அழி ந்து
எதிர ான
எதிர ்த்த
சது ப்பு
சுல்தான கம்
தொடர் ப
சைன ம்
உற்பத்தி ப்
தேர்ந்தெடு க்கப்பட்ட
2009 ஆம்
1951 ஆம்
ஆதி க்கம்
ஆட்சி க்கு
உண் மையில்
கடு மைய
கடு மையான
ஜன தா
ஜன நாயகக்
மண ம
மோ க
ஸ்ட ர்
பாதி க்கப்பட்டுள்ளது.
ுள்ளது :
விவ கார
பொதுவான வையாக
அமைப்புகள ானவை
இராச்சிய ங்கள்
கூட்டணிய ானது
உணவு ப்
அறிக்க ையின்
அறிக்க ையானது
இறக்கு மதி
திருமண ங்கள்
அன்ற ிலிருந்து
இன்ற ிய
சக ்தி
தய ாரி
தற்கா ல
தற்கா ப்பு
பீ டபூ
புர வல
ாளராக வும்,
உற்பத்திய ானது
சனநாயக க்
அமெரிக்க ாவுக்கு
வேலைப்பா டுகள
ஏற்படுத்த ிய
பூர்வீ க
பூர்வீ கமாக
தென்கிழ க்கு
தென்கிழ க்கா
ஆக்கிய ுள்ளது.
நு ழை
நுக ர்வ
காடுகள ின்
தாக்கு தல்
பிரதி பல
தொடுக ற
வெட்ட ப்பட்ட
ுடன ான
த்திற்க ான
முக்கியத்துவ ம்
உறுதி ப்படுத்த
செலவீன மானது
தமிழ ில்
திறன ில்
தக்காண ப்
அர ப
இக்க ொள்க
கிற ித்தவ
நல வாய
மட ங்காக
இந்தோ னே
காற்ற ுகளை
க்குட்ப ட்ட
வாழ ும்
கொள் வனவு
திச ையில்
முன்னே றிய
பங்கெடுத்த ுள்ளது.
அதிகாரப்ப ூர்வ
தேர்ந்தெடுக்கப்படுக ின்றனர்.
விவசாய ிகள்
ஆக்கிர மித்த
அனு மதியள
அலுவ ல்
ஆரம்ப ித்தது.
அல் லாத
ஊட்ட ச்ச
ஒவ் வொரு
கப்ப ல்கள்
கடை சி
சல் வா
சகா ப்த
ஜவு ளி
நிக்க ோபார்
விக ித
ஹி ந்து
துடு ப்பாட்ட
துல்ல ிய
பொழு து
பொறிய ியல்
வாழ்க ்கை
தாய் லாந்து
சுவைய ுடைய
பிரச்ச ின
வரதட்ச ணை
கோடிய ிலிருந்து
வருவாய ்களை
நிறுவி ன.
நிர்வ கி
நடத்தவுள்ளது );
பேசுக ின்றனர்.
ஆக்கிரமித்த ுள்ளது.
( 1.
1 20
1 4.
2 4%
4 8
4 2%
6 8
6 0%
7 0
7 4%
8 1%
li st
7, 6
3. 94
15 00
2, 0
5. 8%
199 9
( "
( 3.
( 2)
2 3%
3 4
3 9%
3 0%),
6 3
7 2%
e di
n d
In ter
201 8
199 6
10 ,
2, 8
9% )
Ne w
12 1,0
70% ),
(0. 36%
(0. 9%)
1,9 3,42
72% ),
Inter national
121,0 1,93,42
( c.
7 000
A k
A sh
B ang
B ay
D A
D al
D ance
E x
E ar
E con
F or
F ron
G eograph
H O
I ,
K al
L ank
M al
M ar
M id
M yan
N ic
N on-
N DA
P ol
P all
S he
S ri
T o
T em
T har
T reat
U PA
V a
V i
W ar
W ayback
W HO
a ic
a ut
b on
b ar
b es
b ly
b ri
c u
c in
c le
c ul
c ro
c ut
c rit
c ame
c av
c ount
c lim
c ould
c ivil
d ro
d ha
d ones
e .
e z
e ly
e ff
e ign
f em
f all
g n
g th
g as
g ain
g et
g end
h u
h an
i .
i x
i ly
i ther
j ect
k h
k il
k et
k ame
l s
l aw
l adesh
m al
m ig
m arg
m uch
m i)
m amm
n am
n ation
n ear
n ame
o s
p at
p ast
p ut
p et
p ts
r an
r ound
s en
s il
s mo
s im
s over
s low
s av
s ect
s ari
s omet
t re
t est
t y,
t ext
u e
u es
u ent
v al
v ic
v is
v arn
w ould
y a,
z e
th en
th or
th reat
th -largest
th ose
he s
in ,
in .
in it
in ing
in ated
in stitution
er a
re st
re ac
re cent
re co
re fer
re ven
on d
on ial
an ch
an ag
an ted
an other
an ced
en s
en ed
en ergy
at i,
or o
or al
or ally
the se
al i
al es
al war
st and
st ri
st ren
di ent
di se
di ment
di scri
ar o,
and ing
In dones
Indi ra
ion s,
as i
es s
it at
is .
is ol
ing s
19 th
20 th
ent er
om ing
to wn
to tal
to day
ur id
ur red
le ve
li ed
li es
li ef
li ke
am ple
ad dition
ad ded
il way
ol ved
ri g
ul ed
em bly
ro le
ra p
ra ther
ra ilway
se par
se lf
ch ang
ch ain
ch ine
ch urid
ce an
ve get
201 1,
be ing
be long
be ll
be lief
lo ss
lo ose
con ce
est -
est ic
ag o,
res er
de l
de vo
un i
un it
un touch
du e
du ct
mo ist
im es
ex port
ex change
ex ample
ac ed
ac tion
ac ter
ac ross
rom ise
si x
po ver
ab ad
et s
us h
us cri
inc ome
199 1,
we ar
we alth
com m
sp ic
1, 000
co -
ha ,
ha ving
pro tec
pro cess
form s
form al
form ation
iv ity
pl es
pl ay
gen ce
ry an
der s
sh or
sh are
part s
part ic
197 5,
ass ert
bec oming
ally ,
econom y.
centur y.
centur ies,
ine qual
lat ter
sc hed
government ,
government s
year .
1950 s,
dec ade
pri mary
uc k
region s.
popul ous
world .
Asi a.
oc rac
ok a
ric ket
system .
pre domin
them .
mer ch
war d
minister s.
BCE .
Ma chine
cult ural
cult ures
main tain
ition s
urban isation
Bud dha
ca use
east .
gr adually
tr ade
life ,
election s
language "
language ,
Empire .
fol k
fol low
sup ported
ris ing
tim e,
set ting
exp ans
comp romise
13 th
-d aro,
subcontinent ,
classical ,
ev al
pres ident
sty l
sty les
cho sen
mark ed
Chin a,
parliament .
St at
op pos
hen jo
here dit
offic e
lead er,
abl es,
app ear
ograph ics
sig ned
col l
col onial
ga ve
disp utes
ould er
soci et
mathem atical
Himalay an
Jan ata
dra in
les s
tri bal
arm ies
omet res
territor ies
sive ly
scri pt
trans mit
origin ally
agricult ure
Dem ographics
Mo henjo
bre ath
cru cial
censu s
censu s,
man uscri
rel ated
remain ing
stat u
medi ately
prov ided
marri ages
painting ,
Ara bian
Bi o
nat al
sum mer
contain s
genc y,
Islam ic
mathematic s
Nor th
aver age
bro ad
gu ard
mak es
vill age
independ ence
organ isation
str ong
stru ct
liber al
resp on
increasing ly
curren c
employ ed
Indo-A ryan
Ass embly
Civil isation
Dec can
Gup ta
Gree k
Guj ar
Mod ern
hab itat
saf e
writ ten
intro duced
char acter
consist s
Maur ya
Constit uent
contribution s
capit a
indigen ous
pract ic
Ash oka
Bang ladesh
Ear ly
Mid dle
Myan mar
Nic ob
Pall av
kil ometres
kame ez
law s
sover eign
sect or
somet imes
vic t
reac hed
reco gn
reven ues
stren gth
discri min
bell ion
devo tion
protec ted
sched uled
president ,
transmit ted
Mohenjo -daro,
India )
6 4%
7 4.
F )
20 19
30 ,000
0. 7
16. 6%
74. 04%
ं ट
अ ग
अ ने
अ ति
अ ल्
आ ज
आ प
आ य
आ स
इ से
ई ,
उ से
उ न्हें
उ ष्ण
ए व
क प
क श्
क ्यों
च ो
च ित
ज ट
ज ों
ज मा
ट क
ट ल
ट ा
ढ ा
त ीय
त नाव
द ु
द ों
न ,
प त्
फ ा
फ ैली
ब ि
ब जट
भ ु
भ ्यता
म ार्
म स्वरूप
य ि
य हाँ
र ख
र ल
ल ै
ल ौ
ल ड़ा
श हर
श स्त्र
श हरी
श िक्
स न्
स हा
स क्र
स भ्यता
ह ॉ
ा मस्वरूप
े क
े क्षा
ो त्
४ .
४ ०
४ ७
का लीन
या ।
से ,
प्र का
प्र िय
प्र दान
प्र णा
प्र भु
ने ह
रा जा
ना गा
ना गर
क् ट
वि रो
वि शेष
मा ता
िया ं
सा गर
न् त्र
पर िण
सं ग
कर ती
कर ते
क्ष ण
त्र ि
भा गी
हैं :
राज वंश
वा ली
वा स्त
हा ल
त् म
पा त
पा या
पा ँच
कि ए
कि सी
नि म्
नि वेश
सम झ
सम ृद्ध
शा ली
ली वि
इस में
इस का
ती न
हो ना
राज्य सभा
मि ला
जि न्हें
रू स
पू रा
पू रे
द्र ो
ले कर
ंध ु
भाषा एं
जी वन
दि रा
पु रु
सि ंधु
बंध ीय
मी र
सद न
साम रिक
उत्तर -
उत्तर ी
तु लना
मंत्र िम
०० ०
स्कृ तिक
बढ़ ती
ष् क
उप योग
टे लीवि
च् छ
रहा ।
शु ष्क
सू ची
गु जरा
मो हन
लोक ता
लोक प्रिय
संबंध ों
हिन्द ु
मैदान ी
उन के
उन की
अव शेष
कार्य काल
कार्य पालिका
२०० ४
ण्ड ल
मौ र्य
जिन में
सदस ्य
सदस ्यों
लं का
लं बे
परंपरा गत
आग मन
ऊँ ची
डा लर
सो वियत
विज य
इं दिरा
इस् ला
कटि बंधीय
श्री लंका
सां स्कृतिक
१९५ ०
अमरी की
नौ सेना
पहु ँच
फ्रा ं
बौ द्ध
्ञ ान
प्रत्य ेक
परी क्षण
पर्य टन
भाष ी
कृष ि
दिल् ली
स्थि ति
शुरु आत
पंजा ब
अने क
कश् मीर
शिक् षा
सहा यक
सक्र िय
हॉ की
प्रणा ली
नागर िक
परिण ामस्वरूप
पुरु ष
मंत्रिम ण्डल
S I
m and
im per
100 ,000
imper ial
198 7
" ஓர்
" கட்டடக்
( மக்கள்
( 5ஆம்
) )
- 9
- ஆசிய
3 9
4 )
4 7
5 இலிருந்து
7 )
அ ஜ
அ ட்ட
அ க்
அ லை
அ ட்ச
அ டுத்த
அ கி
அ ப்பா
அ தில்
அ வ்
அ திரு
அ வருக்குப்
ஆ ர
ஆ க்
ஆ ந்திர
ஆ வது
ஆ பரண
இ ண்ட
இ டு
இ ப்பு
இ வற்ற
இ ளவ
இ க்கி
இ ளம்
இ வற்றில்
இ திகா
ஈ ர்
ஈ டு
உ த
உ ப
உ ந்த
உ த்தி
ஊ ற
ஊ ழ
ஊ ர்
எ ட்டு
எ ந்திர
ஏ ழ்
ஏ ழு
ஐ .
ஒ ழ
ஒ டு
ஒ லி
ஒ ளி
ஒ ழு
ஒ ரே
ஓ ட
க ௌ
க ும்
க ான
க ுக
க மும்
க ிகா
ச ட
ச ரி
ச ேர
ச ர்வ
ச ங்கில
ஜ ்
ஜ வக
ஞ ான
ட ா
ட ம்
ட மை
ட ைக்
ட ேற்ற
ண ்க
ண ம்
ண ிக்
ண ாம
ண க்கான
த க்க
த ரு
த ள்ள
த மான
த ிலிருந்து
த ாவது
த ட்டின்
த மிய
த ல்கள
த ட்ப
த ச்சா
ந ிக
ந ின
ந ிட
ந ராக
ந ம்ப
ன ிய
ப ை
ப து
ப ன்
ப க்க
ப ில்
ப சு
ப டைய
ப ந்து
ப டிய
ப ணி
ப வர்கள
ம ரா
ம று
ம சா
ம ன்ன
ம ிருந்து
ம டைந்த
ம ட்டை
ம டித்து
ம தச்சா
ய ி
ய ோ
ய ில
ய ங்கள
ய ும்,
ய ினர்.
ர ொ
ர ான
ர க்
ர ங்களில்
ர ியாக
ற ும்
ற ைக்
ல ்க
ல வில்லை.
ல த்தீ
ள ு
ள ிர
ள ானது
ள ம்,
ழ ையா
ழ ்ச்ச
வ ண்ட
வ னை
வ ுக்குப்
வ ரால்
வ ல்லி
ஷ ா
ஷ ்
ா ட்சிய
ா மையை
ி ற்
ி த்து
ீ த
ீ கா
ு ங்கு
ூ ர
ூ சி
ூ ரின்
ெ ழு
ெ ஞ்சதாரோ
ே சியா,
ோ ரா
ோ டிய
ோ லிய
ோ ஸ்
ோ ரின்
ோ ரை
் மின்
en ))
்த ிய
ிய ா
ிய ற்
ிய லா
ிய ுள்ளன.
ிய ாட்ட
ம் சம
து ப்பா
ன் ,
ன் மை
ல் ,
ல் வெள
ந்த ா
ந்த ோ
ந்த னர்.
ந்த னை
ந்த ாட்ட
்ட ோ
க்க ப்
க்க ாக
க்க ிறது.
க்க ங்களை
க்க ணக்கான
ப்ப க
ப்ப ெ
ப்ப ர்
ப்ப ால்
ப்ப தில்
த்த ும்
த்த ான
த்த ாக
த்த ுக்
த்த ையும்
ரு வ
ரு க்குப்
ட்ட ா
ட்ட ி
ட்ட து.
ட்ட மைப்பு
ட்ட ிற்கு
ைய ே
ைய ால்
ைய ாள
ைய ைப்
ைய ாகும்.
ைய ையும்
ைய ைச்
ைய ாளர்
ாக ு
ர் வை
ர் பற்ற
ர் லால்
ங்க ுவ
ங்க ைப்
ங்க ுகள்
ங்க ிணை
இந்த ப்
இந்த ிர
ண்ட ி
ண்ட ின்
ண்ட ுவ
ண்ட ு,
ண்ட ாமையை
இந்திய ர்களால்
ிக ை
ிக ின்றனர்.
கு விய
கு ர்த்த
கு ச்சி
ிர ில்
ிர ்கள்
ிர ாவின்
ாவ ைப்
ாவ ைச்
மு ன்
மு ற்
மு லா
மு றிய
மு ந்தி
கா ர்
கா டு
கா சு
கா ட்ச
கா ளி
கா ற்று
கா ட்டின்
கா ய்க
கா ப்பக
பா த
பா ட்டின்
பா ண்டிய
பா ராள
பா யும்
பா சிப்
ில ுள்ள
ில ிருந்த
டு ,
ப்பட்ட ு
டி ,
டி க்க
த் பூ
ருந்த ு
பெ ங்கள
பெ ண்
ன்ற ும்,
ங்கள வை
ங்கள ால்
ங்கள ைத்
ங்கள ுடன்
ங்கள ுக்குப்
ங்கள ுக்கான
தொ ட்ட
வை க்கும்
வை க்கவோ
மை ப்
மை கள்
இந்தியாவ ைக்
இந்தியாவ ைச்
இந்தியாவ ிலேயே
வா று
வா ட்டில்
வா ஸ்த
கொ த்த
கொ டு
கொ ல்க
போ க்க
போ தன
போ ர்த்த
போ யின.
போ ரில்
போ ருக்குப்
வி .
வி ண்
வி ப்பு
வி சு
வி வர
வி க்கப்பட்ட
வி னை
ுகள ானவை
ரச ர்கள்
உள்ள ன
உள்ள தைப்
தா ர்கள்
தா க்கி
தா ஜ்
நா த்
நா ட்டில்
நா ட்டிய
நா ள்,
த்து ப்
த்து டன
ஆக வும்
ரி க்கா
ரி தார்கள்
கொண்ட து.
கொண்ட ுள்ள
கொண்ட தாக
கொண்ட ிருக்க
திக ழ்க
ஒரு ங்கிணை
நில ம்
நில க்க
நில க்
நில ங்கள்
நில ைப்
நில த்தை
சம மான
சம நிலையின்
பு தி
பு ரி
பு ரோ
பு ல்வாய
திய ின்
மா ரத்த
மா றுவதற்கு
மா லத்தீ
வே ள
வே ர்
வே ற்று
வே ண்டும்
வே தம்
வே ங்கைப்
சு .
சு டும்
சு ந்தர
சு ரிதார்கள்
செ ஸ்
பிர ீ
பிர பு
பிர ிக்க
பிர ான்
பிர பஞ்ச
பிர ம்ம
பிர ியா
ரா ,
ரா டை
ஆண்ட ுக்கு
ஆண்ட ிலிருந்து
மைய ப்
மைய மாக
மைய ாத
கள ி
கள ாக
கள ுக்கு
வெ து
வெ ஸ்ட
வெ ண்க
மே லாட்சி
கால மே
கால மாக
கால த்தை
கால நிலை
கால மிட
கால த்திற்க
201 4இல்
201 8இல்
இருந்த ே
இருந்த து
இருந்த ும்
இருந்த ாலும்
ச்ச ு
மாக ப்
மாக ியுள்ளது.
லா ப்
அமை க்க
அமை க்கப்பட்ட
அரச வை
அரச ுகள்
அரச ுகளை
வர ப்பட்ட
வர த்து
வர ம்பு
ற்ப ண்
ற்ப டை
பொரு த்த
பொரு ளானது
வு ள
வு ச்
வு டன
வு டமை
க்கப்பட்ட ிருந்த
200 6
200 8இல்
அதிக மான
சா மா
சா தன
சா ர்க்க
சா ளு
உல ர்
ின ார்.
ின ியாட்ட
இல் லை.
இல் லாத
வாக ப்
வாக க்
வாக ையாளர்
ேர ரச
ர்கள ும்
ர்கள ைப்
ர்கள ுக்க
விய ா
கி ளர்ச்ச
சி ந்தனை
டை ப்பந்து
தெ ரி
ப்படுக ிறார்.
கோ து
கோ சி
கோ டை
கோ யில்
கோ ண்டுவ
உலக ில்
உலக க்கோ
ின்ற ன
வீ ழ்ச்ச
நாட ான
ிட ங்களில்
ிட மிருந்து
ிகள ாக
ிகள ால்
ிகள ைப்
ிகள ுடன்
டிய ா,
பல ர்
பல வீன
ழ் வாய்
ிக்க ிறது.
ிக்க த்தக்க
கூ டைப்பந்து
நீ க்கப்பட்டது.
நீ டித்து
போது ம்
இரு பது
வள ர்ந்த
க்கா மல்
199 8இல்
ரம் ,
ண்ண ின்
தல் ,
195 7
சமய மாக
சமய த்தின்
சமய மானது
சமய ம்,
சமய ங்களும்
சமய த்தையும்
தே வை
பொது வுடமை
பொருளாதார த்
பொருளாதார ங்களில்
196 5ஆம்
தன து
தன ிக்
வந்த ுள்ளது.
வந்த னர்.
ப்பா ற்ற
ப்பா டுகளை
ியல் ,
அமைப்ப ைப்
இரண்ட ும்
இட து
இட ங்கள்
இட ங்களில்
பெற்ற ார்.
பெற்ற ுள்ளன.
மூ ழ்க
மூ டப்பட்ட
ாண்ட ு
ாண்ட ்
முறை ப்
முறை கள்
முறை மையை
கை வின
கை வினை
198 7,
198 5இல்
18 ஆம்
வட மேற்க
வட க்கே
வட மேற்குப்
பாரம்பரிய ங்களின்
1. 8
குறை வாக
குறை த்தது.
குறை ந்தது.
குறை பாடு
முன்ன ணிக்
விள க்கப்படுகிறது.
தாக வே
செய ற்க
பகுதிய ானது
பகுதிய ளவு
6% -உம்,
197 2
சே வைகள
மி ட்டது.
ைகள ால்
ைகள ானவை
என ும்
ஒன்ற ு
ஒன்ற ாகும்.
ஒன்ற ாகக்
கட ந்த
கட லில்
கட ற்படை
கட வுள
்ப ுக்
காரண மா
காரண ிகளைக்
நூற்றாண்ட ு
நூற்றாண்ட ுகள
நூற்றாண்ட ுகளின்
நூற்றாண்ட ுகளில்
7, 15,
தோ ச
பய ன்
பய ிற்
வன வற்றில்
விர ும்ப
வடிவ மாக
வடிவ த்தில்
சமூக ம்
கோடி ப்
கோடி க்கும்
கோடி ),
கூட்ட ணிகள்
இய லவில்லை.
இய ற்பண்
கட்ட மை
கட்ட த்தின்
மொழ ியாக
மொழ ியின்
நிறுவ ப்பட்டன.
நிறுவ ப்படுவதற்கு
டுகள ுக்கு
வேறு பாடுகள
தொடங்க ுகிறது.
தொடங்க ின.
சியாவ ுடனான
குறிப்பிட ப்படுகிறது.
உண ர
கல ையும்
நடு க்கால
நேர டி
ந்திர ாத
பகுதிகள ானவை
பண்பா ட்டை
பண்பா ட்டிற்கு
பேரரச ர்
பேரரச ால்
10 ஆம்
பட்ட ண
மாநில க்
மாநில ங்களுக்கு
மாநில ங்களவை
தொடக்க ம்
தொடக்க ப்
இராணுவ ங்கள்
இராணுவ மானது
1950 ஆம்
வழ ிய
ப்படுத்த ி
பிரி வு
பிரி க்கப்பட்டது.
அரசாங்க மானது
அரசாங்க த்தால்
வீத மாக
வீத த்தை
வீத ங்களின்
உயிர ்க்க
2, 3
அண ுக்க
அண ிகின்றனர்.
அனை வரும்
அனை த்தும்
கிர ாண்ட்
மதி ப்புடைய
வங்க ியின்
முறைய ை
முறைய ின்
முறைய ில்
முறைய ாக
முறைய ானது
முறைய ைத்
தொக ையின்
தொக ையானது
போன்ற வற்றின்
மாற்ற ம்
மாற்ற த்தை
தனி த்
தனி ச்
உடைய ானது
உடைய வர்களாக
என்ப தாகும்.
என்ப தைத்
பங்க ானது
மெ ய்ய
வர்கள ால்
ிட்ட ுள்ளது.
ியான ார்.
ஆகியவற்ற ில்
ஆகியவற்ற ுக்கு
ஆகியவற்ற ுடன்
மக்கள வையின்
அறி வியல்
கண்ட ம்
கண்ட த்தின்
கண்ட த்தில்
கண்ட த்திற்கு
தீ ண்டாமையை
ித ளவு
நடத்த ப்பட்ட
நடத்த ப்படும்
நடத்த ப்பட்டது.
நடத்த ின.
வணிக த்தில்
வணிக ர்கள்,
பயன்படுத்த ப்படும்
பயன்படுத்த ப்பட்டது.
அளவ ானது
அளவ ிலான
ஐஅ$ 2,
ஐஅ$ 100
ஐஅ$ 3.94
சிற ு
சிற ப்பு
சிற ிதளவு
பத விக்
பத க்கங்களை
மலை ச்
ப்படு த்துதல்
காண ப்படும்
வாழ் வை
வாழ் வின்
வாழ் வானது
நாடுகள ும்
நாடுகள ில்
நாடுகள ுக்கு
அடிப்பட ை
ஆயுத ப்
ஆயுத ச்
ஆயுத ங்களை
(₹ 1,
(₹ 7,15,
அக ்டோ
அக ன்றும்,
அக ழ்வாய்
அவை கள
ஆற்ற ின்
ஆற்ற லை
இக்கால ம்
இக்கால மானது
கட்ச ிகள
கட்ச ிகள்
சோ று
வேக ம்
மேற்க ுக்
பரவ ல்
குடியரச ான
குடியரச ாக
பிரித்தானிய ப்
பிரித்தானிய க்
பிரித்தானிய ரால்
இணை த்து
ஒப்ப ிடும்
கரு நாடக
சந்த ையானது
சந்த ையாக
சந்த ாதார
மிய ில்
ல்கள ை
வுகள ில்
பொதுவாக க்
மூன்ற ாம்
இவ் வகைப்
வங்காள ப்
சன வரி
தர ப்பட்ட
மர பு
ரிய ா
வாய ு
வாய ்கள்
வாக்க ை
நகர ங்களில்
மொழிகள ின்
மொழிகள ில்
மொழிகள ைப்
மொழிகள ானவை
தேர்த ல்கள்
தேர்த ல்களில்
இற கு
பே ச
துறைய ில்
துறைய ாக
வெற்ற ி
வெற்ற ிகளைப்
இலக்கிய த்திற்கான
எண்ணிக்க ையானது
கட்டட க்கலை
வெளிய ீ
2001 ஆம்
2001 இல்
அறிய ப்படுகிறது.
அறிய ப்படும்
ஆசிய க்
ஏற்பட்ட ன.
ஓவிய ங்கள்
சொ ந்த
பரி ச
பரி ணாம
வென்ற து.
வென்ற ுள்ளார்.
இருக்க லாம்,
பெரும்பான் மையான
கடற்கர ை
தோன்ற ியது.
தோன்ற ுகின்றன.
பொருட்கள ை
முக்கியமான வையாகும்.
உயிரின ங்களை
உயிரின ங்களாக
கிராம ப்
உள்ளடக்கிய ுள்ளது:
இப்ப குதிய
இப்ப ேரரச
உட லின்
சூ ழ
சூ ன்
சூ ழ்
சூ டேற்ற
தூ ய்
தை க்கப்பட்ட
தான ுந்து
மல ேசியா,
மல ையாள
முடி த்து
புவி த்தட்ட
உருவாக த்
இதற்கு த்
இவ்வா ற
இவ்வா றாக
கட்டுப்பா டுகளை
13 ஆம்
2022 ஆம்
ஆட்சிய ானது
இன மாக
இன ங்களை
ரே கை
இந்திய- ஐரோப்பிய
முத லாம்
முத லீ
கால் பந்து
கால் வாய்கள்
பாணிய ில்
பாணிய ிலான
பெற ும்
வாய் ந்த
பிராந்திய ப்
சார்ந்த தாக
சிந்து வெளி
நீடித்த ிருந்த
இலட்ச த்தீ
குடியரசு "
பஞ்சா பி
பஞ்சா பின்
பஞ்சா பில்
நகர்ப்புற ப்
நகர்ப்புற க்
அரசியலமை ப்பின்
அரசியலமை ப்பானது
தசாப்த ங்களில்
ஆசியாவ ின்
ஆசியாவ ிலிருந்து
உற வுகள
நடை பெறும்
பரு ப்புக்
ம்ப ிக்
போத ிலும்,
திரு த்த
திரு நாள்,
தாங்க ிக்
புற ம்
புற ப்
புவிய ைச்
காலத்திற்கு ப்
காலத்திற்கு த்
2013 ஆம்
சிற்ப ங்கள்
சிற்ப ங்களாக
தெற்கா சியாவின்
நாடக ப்
இடத்த ைப்
இடத்த ையும்
செயல் பாடுகள
செயல் பட
ஒன்றிய ம்
ஒன்றிய த்துடன்
மதிப்ப ீ
பெயர ளவில்
சராச ரியாக
விரிவ டைந்தது.
இசுலா ம்,
அமெ ரிக்கா
ஆற ுகள்
ஆதர வை
ஆதர வு
ஆதர வள
இறு க்க
கவன க்
சது ரங்க
தள ங்களில்
தள ராடை
திற ன்
தடு ப்ப
தடு ப்பு
பங்கள ித்த
பதி வு
மின் சார
வரி சை
ப்புகள ானவை
த்துக்கு ள்
இருப்ப தற்கு
முன்னேற்ற ம்
இயக்க மானது
கல்வி ,
உற்பத்தி த்
விளையாட்ட ுகள்
விளையாட்ட ுகளில்
பரவலாக ப்
கிராமப்புற ப்
2010 ஆம்
1980 இல்
1980 களின்
70% க்கும்
உண் மையான
உச்ச நீதிமன்ற
உச்ச பட்ச
கத க்
கத களி
ஸ்த ான்
பாட ானது
பார த்
பார பட்ச
பார் முலா
விட்ட ன.
தாக்க த்தை
சுதந்திர மான
லாத தாக்க
குறிக்க ிறது.
கூட்டணிய ை
ஆயிர ம்
ஆயிர மா
ஆயிர க்கணக்கான
கீழ ான
நிர்வாக ப்
வரலாற்ற ின்
தமிழ் நாட்டின்
நீதிமன்ற ங்கள்
மாமிச ம்
அருக ில்
திருமண ம்
2023 ஆம்
2023 இல்
2014 ஆம்
அன்ற ாட
அணிய ப்படும்
அவர்கள து
அவர்கள ின்
ஆள ும்
ஆக்க க்
இன்ற ு
கமாக த்
தக வுப்
தய ிரில்
தந்த ை
தந்த ூர்
நிய மிக்க
நிர ந்தர
பண ிகளை
பள்ள ிகள்
பணிய ாற்ற
மகா ராட்ட
மிக்க வையாக
மந்திர ியானார்.
வறு மைய
முடிவ ில்
போக்கு வரத்து
புல ிகள்
செல் வாக்கை
செல் லாததாக்க
வரைய று
பரப்ப ளவு
முறைகள ை
முறைகள ைக்
ஒன்றிணை த்த
உற்பத்திய ாளராகவும்,
அடர்த்த ிய
அடர்த்த ியானது
துணைக்கண்ட த்தின்
ஏற்றுமதிய ாளராக
குழந்த ைத்
பிரபலமான தாக
நெருக்க டி
வேலைப்பா டு
ஏற்படுத்த ியது.
வர்க்கத்தின ர்
பெருமளவ ுக்கு
பெருமளவ ிலான
அழ ிக்க
அழ ியும்
ஈர ப்
ஈர முள்ள
ஊட கமாகத்
எளி மையான
எளி தான
ஐந்த ாவது
ஐந்த ாண்டு
ஒது க்கப்பட்ட
ஒற்ற ைக்
சங்க ீத
ிப்ப ீன்
இந்தியர்கள ில்
குடி சார்
குழு க்கள
குப்த ப்
முயற் சி
காடுகள் ,
வாட்ட ுகள்
வாட்ட த்தைக்
கொள்ள ப்பட்ட
சென்ற ன.
சென்ற தால்
பிரதி நிதி
நடத்திய து.
தனியாக ப்
குடியின ர்
இயற்ற ப்பட்டது.
இயற்ற ப்பட்டன.
ிருக்க லாம்.
முக்கியத்துவ த்தைப்
நிலைக்கு த்
சொல்ல ான
சொல்ல ானது
பெரும்பான்மைய ாகக்
அதிகார த்தை
அரசியலமைப்பு க்கு
இமயமலை கள்
மயமாக்க ல்
திறன ானது
சுல்தானக த்தின்
சுல்தானக மானது
அழைக்க ப்படும்.
நேரு வின்
பெருங்கட லில்
எண்ணெய் ,
ஏவுகணை த்
பாலைவன ம்
சீர்திருத்த ம்
36. 10
இச ையின்
இச ையானது
எழு த்த
எடுத்து ச்
எடுத்து க்கா
ஒடி சி
ஒத்து ழை
ஒத்து ழையா
காவ ல்
கவி ஞ
கல்ல ில்
கல்ல ூர
கணி தம்
டெ ன்னி
தானிய ம்
மாவ ிலிருந்து
லீ க்
ளர்ச்ச ி
திகா ரம்
சமவெளிய ின்
புத்த ரின்
புத்திர ா
செழி ப்பான
செழி ப்படை
மையுடைய ,
பரத வர்
பரத நாட்டிய
மிகு ந்த
குடியிரு ப்ப
ஒன்றாக வும்
தொடங்கிய து
கலக்க ின்றன.
சீக்கிய ம்
பதவிய ில்
வகைகள ாகும்.
உறுப்பினர்கள ை
உட்க ட்டமைப்பு
ஐரோவா சியப்
நடனம் ;
பாக்கித்தான ுக்கு
புதுப்ப ி
புதுப்ப ிக்கத்தக்க
இமயமல ையின்
பாலூட்ட ிகள்
பாலூட்ட ிகளில்
தொடர்பு டைய
இறையாண் மைய
இறையாண் மையுடைய,
கையொப்ப மிட
கையொப்ப மிட்டது.
வயது க்குட்பட்ட
வறுமை க்
சென்னை :
அயல் நாட்டு
டிரில்லியன் )
அங்க ீகா
அகா தமிய
அரி சி
அசா மின்
ஆய் வு
இண்டிய ா
உள வியல்
எல்ல ோரா
கமீ ஸ்
சத் ரியா
சப்பா த்திய
தாவ ரங்களில்
பில ிப்பீன்
புகள ாகக்
மங்க ோலிய
மணி ப்பு
மும்ப ை
வகி த்தனர்.
ோள க்
முடிக ிறது.
பெண்கள ின்
தொன்ம வியல்
வாத ப்
விடு தலை
விமான ம்
விசய நகரப்
தாராள மயமாக்கல்
திகழ் ந்தது.
செது க்கப்பட்ட
பிரதேச த்தின்
சாஸ்த ிர
உருவ ங்களைச்
சிக்க லான
தெல ுங்கு
தெளி வாகக்
மொக ெஞ்சதாரோ
இதன ுடன்
இதற்க ான
உயர்ந்த ுள்ளது.
அதிகரிப்ப ாகும்.
இலங்க ை
இராச புத்திர
செயல திகாரம்
செயலாட்சி ப்
தோற்ற த்தை
தோற்கடிக்கப்பட்ட ார்.
விரிகுட ாவில்
நிதிய ாண்ட
மெது வாக
சிறப்ப ம்ச
ப்படுவதில் லை.
ரீதியிலான ,
இணைக்கப்பட்ட னர்.
மியான் மர்
நகரமயமாக்க லின்
வெற்றிய ைப்
வெற்றிகர மான
இருக்கலாம் ;
விலங்கு ப்
முசுலிம ்கள்
தெற்காசியாவ ில்
விரிவடைந்த ுள்ளது.
மணம கன
மோக ினியாட்ட
இன்றிய மையாத
பீடபூ மியில்
புரவல த்
நுகர்வ ோர்
தொடுகற ிகள
அரப ிக்
ஊட்டச்ச த்துக்
சல்வா ர்
துல்லிய மான
தாய்லாந்து ,
42% ஆக
list en))
39 வது
அதிரு ப்த
ஆர வல்லி
ஆந்திர ப்
இடு ப்புப்
இளவ ரசர்கள்
இக்கி ளர்ச்சி
ஈடு பட்ட
உப நிட
ஒலி ம்பிக்
ஒழு ங்கு
ஓட ானது
குக ைகளில்
சரி வு
சர்வ தேச
ஜவக ர்லால்
தரு விக்கப்பட்ட
நின ை
நம்ப ிக்க
பை சாமா
பக்க வாட்டில்
மசா லாப்
மதச்சா ர்பற்ற
ரொ ட்ட
வண்ட ல்
ாட்சிய ுடைய
்மின் ஸ்டர்
ம்சம ாக
துப்பா க்கி
இந்திர ா
குர்த்த ா
குச்சி ப்பு
காசு மீ
காய்க ற
பாராள ுமன்ற
பெங்கள ூர்
வாஸ்த ு
கொல்க த்த
போர்த்த ப்பட்ட
விண் வெளி
திகழ்க ிறது.
சமமான தாகும்.
மாரத்த ான்,
வேற்று மை
சுந்தர வன
பிரம்ம புத்திரா
வெஸ்ட ்மின்ஸ்டர்
சாளு க்கிய
ர்களுக்க ுக்
கோண்டுவ ான
உலகக்கோ ப்பை
வீழ்ச்ச ிய
இருபது 20
மூழ்க ிக்
கைவின ைப்
கைவினை ஞர்கள்
வடமேற்க ில்
உயிர்க்க ோளக்
அணுக்க ரு
(₹7,15, 160
அகழ்வாய் வு
சூடேற்ற ும்
புவித்தட்ட ுக்கு
மகாராட்ட ிராவின்
குழுக்கள ால்
பிரதிநிதி த்துவ
ஒத்துழையா மை
அங்கீகா ரம்
பிலிப்பீன் சு,
உபநிட த
% ,
( [
( 1991
0 1,
1 6%
1 3.
1 2%
1 1%
1 40
2 9%
2 7%
2 7.
2 8.
2 4.
3 ,000
3 80
4 1%
4 3%
4 5.8%
5 4%
5 3%
6 °
6 5.
6 3.8
7 °
7 ′
7 9.
7 31
8 00
8 2.
9 3.
9 1%
9 40
9 7°
D ire
F ut
K e
O f
W e
W ik
[ ˈ
b ʱ
l as
n ]
t ]
° C
° F)
ə t]
ɦ ɪ
ɾ ət]
ʊ ˈ
ί α
ς ),
ό ς),
₹ 20
st aː
19 1
19 2
19 35
19 28
19 01
20 30
im edi
199 6,
we bs
1, 380
202 4
198 1
18 8
18 9
18 20
18 .1%
18 48
18 %,
1. 5
1. 7%
ct ory
5, 42
17 2
17 6
2. 5
2. 9%
26 ,
26 4
15 25
15 .1%
cast s
30 8
30 ′
fic ial
3, 264
7% ,
2001 ).
6. 0%
7. 9%
9. 39%
5% ,
velop ment
40 ,000
13 00
35 °
25 ′
21. 54%
2020 .
44 ′
55. 6%
55. 8%
(Ἰνδ ία
(Ἰνδ ός),
De velopment
Fore casts
17. 64%
12. 6%
12. 2%
31. 2%
31. 16%
aː ɾət]
At las
26. 3%
(1. 3
68 °
7,6 63
2,0 94
nd ʊˈ
10, 500
New s
([ ɦɪ
13. 7%
27. 81%
28. 7
24. 44
41% ,
65. 46%
63.8 2%
82. 14%
93. 91%
Dire ctory
Fut ures
Ke y
Of ficial
We b
Wik imedi
[ˈ bʱ
staː n]
webs ite
5,42 3
ndʊˈ staːn]
([ɦɪ ndʊˈstaːn]
Wikimedi a
[ˈbʱ aːɾət]
( ०,
- आ
- धीरे
ं तर
ं जन
अ र्
अ नि
अ सम
अ हिं
अ क्ट
अ च्छ
आ ई
आ र
आ ते
आ कर्म
ई द
ई स्ट
उ ठ
उ भरा
ऊ पर
ऑ फ
ऑ परे
क ,
क ल
क मा
क ंप
ख न
ख र
ख े
ख ंड
ग ै
ग ्
ग ों
ग ढ़
ग ्री
च र
च ौ
च ला
च ली
छ ह
ज ु
ज न्
ज ैन
झ े
झ ार
ट ना
ठ क
ठ ार
ड ि
ड ु
ड े
ड िया
त ब
त ार
त रा
थ ल
द िक
द ियों
न म
न र
न ो
न ार
न ियों
न ृत्य
न दियों
प द
प ो
प क्ष
प ड़ा
प ठार
फ ु
ब द
ब हा
ब ियों
ब डी
ब न्ध
भ ो
भ री
म ं
म ल
म ह
म ार
म ना
म ही
म ले
य न
य र
य ें
य द्य
य पालिका
र ों
र िया
र त्
र खा
ल ू
ल िक
व ,
व ृद्ध
श ्र
श िया
श िय
श ्रे
श क्त
श ैली
स ौ
स र्
स ों
स भी
स दी
स मान
स शस्त्र
ह ती
ह ार्
ह त्या
ा फ
ू त
ू ह
ू बर
् ष
१ ,
१ ०
१ ७
२ ५
२ ६
५ २
९ .
्र ो
का ज
ों ने
स् ति
प्र सार
प्र देशों
प्र गति
ने ट
ता ,
वि त
वि ध
वि शा
वि मान
वि द्रो
था न
सा मान
सा क्षर
पर ि
कर े
कर ो
कर वा
त्र ,
त्र ी
जा ने
राज भाषा
राज स्थान
वा म
ड़ ियाँ
कार ी
िय ो
पा न
पा ल
ित ्य
ला ल
भारतीय ों
नि वास
सम ूह
्या त
शा मिल
शा स्त्र
तर िक
वर् षा
हो ने
मि श्र
जि न्ह
मु द्र
नी ति
सर े
लि ख
लि स
१९ ४७
साथ ,
प् ति
मान व
सरकार ों
गया ,
क्षेत्र ों
जिस की
जिस ने
बहु मूल
पु न
पु ड़ा
पु लिस
अप ेक्षा
सी मा
सार ी
धर्म ,
धर्म ों
थी ,
मी .
मी ल
मी णा
चु की
हुआ ,
निर् भर
ज़ ्यादा
सेना ओं
बढ़ ा
बढ़ ने
महा सागर
रु प
केंद्र ीय
स्थ ल
एश न
क्र य
क्र ि
चा ई
पह ली
मन मोहन
मध्य म
सू चना
प्राचीन तम
गु ट
न्या यपालिका
मो र्
मो दी
साम्राज्य ों
लोक सभा
सम् पूर्ण
पार्ट ियों
उन का
स्ट ाफ
स्थान ीय
अव धि
बन ने
स्थाप ित
सक ता
सक ते
संसद ीय
१९९ १
धीरे -धीरे
विकास शील
इंड ो
दर् शन
राजनी ति
निभा ई।
अन्त र्
अन्त तः
घोष ित
निय ु
निय ंत्र
पं थी
बने ।
२० १४
केन्द्र शासित
काम काज
सेवा ओं
प्रारम्भ िक
आं दोलन
आं तरिक
आग े
ऊँ चाई
पहा ड़ी
बै ठक
वै दिक
सत पुड़ा
विज ्ञान
वर्ण न
१९८ ४
प्रभाव शाली
घा टी
छोड़ कर
प्रचल ित
माल दी
साह ित्य
हिस् सा
तीसर ी
पुर्तगा ली
लगा तार
अभिया न
अग स्त
आस पास
पत् ति
प्रका श
नेह रू
विरो ध
भागी दारी
वास्त विक
समझ ौ
गुजरा त
लोकता ंत्रिक
पुरुष ों
अक्ट ूबर
आकर्म ण
ऑपरे शन
कमा ंड
गै र-
गों ड
फु ट
यद्य पि
वृद्ध ि
सौ हार्
विशा ल
विद्रो ह
साक्षर ता
बहुमूल ्य
सौहार् द
" )
" గ
" భారతదేశం
" నేరేడు
( i
( ఆ
( ఉ
( ట
( బ
( య
( రా
( భారత
( సా
( తా
( 5.
( గి
( 8.
( including
( Ar
( 17.
( ఇదే
( శక
( CEE
) :
- 5
- 7
- k
- ఇ
- 19
- దేశ
- sc
- year
- ఆర్
- టె
- ga
- majority
- body
- style
- ఖో
- దండ
. ఇ
. ఈ
. ఏ
. కి
. మీ
/ G
0 -19
1 st
1 42
2 30
2 5%
3 2,8
5 2
5 46
5 9-
6 th
7 th
7 లో
7 00
7 5,
7 40
8 2,
8 3,
8 1-
8 3.8
8 -7
A j
A ch
A genc
B S
B a
B al
B et
B /G
C ,
C l
C he
C ult
C up
C av
C lim
C arn
C ricket
D is
D om
E th
E mer
E ty
F ol
G o
G r
G en
G ang
G ond
H Z
H e
H istor
I N
I m
I I,
J har
J aw
J amm
J une
K o
K eral
K aver
L i
L at
L aksh
M e
M in
M an
M um
N i
N o
N at
N etwork
O c
O r
O ver
O ut
O ld
O cean
P .
P l
P u
P ar
P art
P resident
R am
S o
S in
S im
S ab
S ant
S ome
S arn
S ultanate
T i
T y
T er
T ha
U r
V .
V ;
V is
V aj
V edic
Y aksh
Z oro
a em
a im
a har
a ism,
b a
b ul
b our
b rough
b ron
b ai,
b ably
b uck
c er
c at
c il
c are
c over
c ak
c iv
c hed
c ris
c ust
c reasing
d a
d y
d re
d ent
d est
d ry
d ates
e ;
e w
e al
e ld
e ous
e ither
f r
f il
f ul
f lo
f est
f ac
f oun
f el
f low
f ish
f ire
f av
f lower
f ash
g in
g ro
g ig
g ive
g overn
g ods
h ā
h or
h al
h am
h ol
h un
h ous
i th
i at
i du
i a.
i ff
j ur
j ay
j ack
k at
k ur
k ill
k ho
l al
l eng
l ared
l ic,
m s
m at
m ay
m olog
m ns
m ix
n in
n on
n ar
n it
n ic
n ext
n etwork
o th
o or
o ch
o ve
p a
p i
p p
p al
p ic
p il
p ically
p aren
p ush
r ing
r ang
r ical
r anges
r ange
s :
s he
s on
s ar
s ol
s ha
s aw
t i
t an
t and
t un
t ex
t el
t a,
t ection
t reat
t y.
t led
u ,
u k
u su
u de
u fact
v as
v ary
v alle
w he
w at
w ing
w et
w here
z ed
z es
ం జ
ం థ
ం తి,
ం ",
అ ర
అ ల
అ స్
అ ది
అ న్న
అ ల్
అ రు
అ క్ష
అ ంది
అ ద్ద
అ లం
అ ధి
అ ంద
అ ఖండ
అ మల
అ రే
అ ంటే
అ ంక
అ ధీన
అ శో
ఆ గ
ఆ లో
ఆ దేశ
ఆ వి
ఆ తి
ఆ క్ర
ఆ నా
ఆ యా
ఆ డు
ఆ ధ్య
ఆ దాయ
ఆ గ్
ఆ వల
ఆ ణి
ఆ చార
ఆ సియా
ఆ క్షరాస్యత
ఆ టలు
ఆ నం
ఆ లస్య
ఆ సియాలో
ఇ -
ఇ య
ఇ న్
ఇ ను
ఇ ము
ఇ తి
ఇ ంది
ఇ తరు
ఇ ప్పటిక
ఇ ందు
ఇ ంకా
ఇ తను
ఇ ంటి
ఇ చ్చే
ఉ ర్
ఉ ద్
ఉ పా
ఉ ండి
ఉ ండు
ఉ ష్ణ
ఉ నిక
ఋ తు
ఎ మ
ఎ దు
ఎ గు
ఎ ల్ల
ఎ ంతో
ఎ గువ
ఏ క
ఏ డ
ఏ డు
ఏ టా
ఏ కత్వ
ఏ ళ్ళ
ఐ దు
ఒ క్
ఒ రి
ఒ లిం
ఒ డిస్
ఓ డ
ఓ టర్
ఔ ట్‌
క ర్
క రా
క ిం
క ని
క ాయ
క ంట
క ార్
క ష్ట
క ట్ట
క మైన
క మీ
క ్యం
క ెలు
క ితా
క మల
క మేన
క ెట్
క ర్‌
క త్తా
క ానీ
క వరీ
ఖ ిక
ఖ గో
ఖ ర్చు
ఖ ాతం
గ మ
గ ృ
గ ె
గ ర్
గ తి
గ ల్
గ ించ
గ ులు
గ ింది.
గ లి
గ ి,
గ లు,
గ మించ
గ నులు,
గ ర్,
గ ౌర
ఘ న
ఘ ు
ఘ ట్ట
ఘ ోర
ఘ ిక,
ఘ ర్షణ
చ ా
చ ూ
చ ో
చ ్
చ ము
చ ిన
చ ింది.
చ ిత
చ క్ర
చ ట్ట
చ ీ,
చ ులు,
చ ీర
చ ూప
చ ర్,
చ .కి
ఛ ాయుత
జ ె
జ ై
జ ౌ
జ ్ర
జ ాన
జ ిన
జ ంత
జ ైన
జ పా
జ ిత
జ ్‌
జ ీ,
జ ెండ
జ నాలు
జ ్యం
జ ిల్ల
జ వహ
జ ెట్
ఞ ాన
ట న
ట ో
ట స్
ట ్య
ట ిన
ట ాయి
ట ంలో
ట ం,
ట చే
ట ్రా
ట ంతో
ట మూ
ఠ ీ;
డ ్ర
డ ాల
డ ్య
డ ింది.
డ ్చ
డ ్ల
డ ాలు,
డ ్‌
డ ానికి
డ ించింది.
డ బు
డ మ్
ఢ వి
ణ ే
ణ ిక
ణ ాలు
ణ ించ
ణ ంతో
ణ దారులు,
ణ ుల
త ,
త ార
త ాయ
త ాయి.
త దు
త నా
త ీ,
త క్కు
త లం
త గ్
త మై
త మ్య
త ాలతో
త దేశపు
త వర్ష
థ మ
థ ి
థ ాత
థ ాన
థ ార్
ద శ
ద స
ద ూ
ద ృ
ద ాన
ద ీయ
ద ులు
ద ైన
ద ారు
ద ం,
ద ులు,
ద ీన
ద గ్
ద ీర్
ద గినది.
ద క్కను
ధ ర
ధ ా
ధ ు
ధ ాల
ధ ిన
ధ రి
ధ ం,
ధ నా
ధ ిల్ల
న ,
న ృ
న ై
న ో
న ాల
న లు
న ర్
న వి
న ంలో
న సా
న ికి
న డు
న ీ,
న లలో
న నీ
న ాలతో
న వచ్చు.
న బడిన
న ప్పటికినీ
న దులు
ప క
ప బ
ప స
ప ి
ప ర్
ప ది
ప ిన
ప ంలో
ప ూడ
ప ిత
ప రాజ
ప చ్చ
ప లి
ప ట్
ప త్య
ప రో
ప ించింది.
ప ం:
ప కళ
ప టం
ప ిస్త
ప స్,
ప ిక్
ప ర్ష
ప వనాలు
ప ౌర
ప ండ్
ప టంలో
ఫ ు
ఫ ్ర
ఫ ర్
ఫ రా
ఫ ్ట
ఫ లం
ఫ ిక్
బ ల
బ ై
బ ొ
బ ్ర
బ ాల
బ ండ
బ ంగా
బ డ్
బ ిన్న
బ ్రా
బ ద్ధం
బ ్యా
భ ్య
భ ిం
భ ంగ
భ దాయ
భ ాలో
భ జిత
మ .
మ ో
మ ార
మ ాల
మ రా
మ ిం
మ ిక
మ ని
మ ాయ
మ ిన
మ ంత
మ ంలో
మ లి
మ ికి
మ ాలు,
మ ్‌
మ ి,
మ లు,
మ ాల్
మ ించిన
మ ిత్ర
మ ణి
మ స్,
మ ంచి
మ యన్
మ సాల
మ ద్రా
మ ంజ
య ం
య ి
య స్
య ము
య ిన
య ల్
య ులు
య ం,
య ం:
య ంతో
య నులు,
య ింది
య ంలో,
య థాత
ర ,
ర ొ
ర ‌
ర లో
ర ద్
ర త్
ర ంగా
ర క్ష
ర మైన
ర వే
ర వీ
ర ించిన
ర ం.
ర ీ;
ర క్షరాస్యత
ర ాలు.
ర ారి
ర కు,
ర తాయ
ర బద్ధం
ల ,
ల ిక
ల ిన
ల ైన
ల కాల
ల ీ,
ల బె
ల పై
ల హా
ల మానం:
ల ఘు
ల బై
ల భ్య
ళ ల
ళ ు
ళ ులు,
ళ ూరు
ళ విం
వ త
వ ‌
వ ులు
వ లి
వ స్తు
వ ద్ద
వ లను
వ న్య
వ స్థానంలో
వ ూప
వ నాథ
వ జ్ర
వ మి,
శ ే
శ ాల
శ ంలో
శ ్రా
శ ిల్
శ ించే
శ ాతం
శ రద్
ష ే
ష న్
ష ులు
ష ం.
ష కాహార
స ొ
స భా
స ాలు
స గా
స ాయ
స ిన
స ల్
స వా
స ీ,
స త్య
స మి
స త్తా
స ాయుత
స లహా
హ ె
హ ొ
హ ్
హ ర్
హ ిం
హ ాయ
హ స్త
హ పు
హ ాలు,
హ క్కు
హ ్మ
హ ్వ
ా )
ా ంబ
ా శ్ర
ా ము.
ా నిస్తాన్
ా దాయంలో
ా ంతి,
ా ధిన
ా పక
ా మని
ి :
ి ని
ి పె
ి లే
ి రంగ
ి ళ్ళ
ి టన్
ి యనులు,
ి శ్రా
ీ లో
ీ కృ
ీ కరణ
ీ కులు
ీ -దండ
ు ను
ు ల్
ు ర్య
ు వు
ు పూర్వ
ు డైన
ు నిక
ు ళూరు
ూ ,
ూ —
ూ లా
ూ దులు,
ృ తంగా
ె ,
ె ర్
ె స్
ె న్న
ె నే
ె ల్లో
ె క్కను
ే త
ే ది
ే కా
ే ),
ే ష్
ే ...
ే కమైన
ే ననీ
ే యులు
ై క
ై స్త
ై పో
ై వరు
ో ,
ో త్
ో ంది.
ో త్ర
ో ద్య
్ ;
్ లో
్ తదేశపు
‌ కు
‌ టిక
‌ తంలో
‌ ఫర్
‌ వ‌
– 201
– 2004
th ,
th .
th m
th ic
he st
he ren
in al
in s.
in no
in formation
er c
er ly
er ial
er t,
re am
re ce
re me
re pe
re lat
re pt
re port
re ement
re fl
re present
re turned
re bellion
on ic
on ly
on set
on omet
an a
an at
an ing
an s.
an ism
en ing
en ces
en house
at s
at or
at tra
or d
or ce
or s.
or ies
ార ణంగా
ార మ్‌
ాల ని
ాల ే.
ాల న్నీ
ాల ెక్కను
ాల ేకా
లు పలి
ర్ టి
ర్ కొ
ర్ తా
ర్ సిం
ర్ లు.
ర్ జాలు
ర్ భవ
ర్ చిన
ర్ జె
లో న్
లో ని
లో కాల
లో పం
స్ లో
స్ వే
స్ వర
స్ లే
స్ టా
స్ టే
స్ వర్ణ
స్ టలు
్య ులు
్య ంలో
భా వి
భా జపా
రా .
రా తి
రా మన
రా టం
రా ణించ
రా మాయ
రా సిన
the s
al ed
al a,
al liance
st ant
st ud
st ian
st iff
di d
di ed
di fied
ar c
ar as
ar is
ar ter
ar s.
ar dis
and y
In creasing
as s.
as ures
as ured
es )
es :
es e,
it al
it ies
it ics
it ude
ic .
ic s,
is ion
is es
is ing
is ans
is ine
is dic
is ions
19 3
న్ సీ
న్ లుగా
ది ,
ది రి
ది కి
ది గ్
ది భాగం
ది గువ
ది ర్చిన
దే .
దే మాత
ప్ర మా
ప్ర యా
ప్ర ఖ్య
ప్ర ణా
ప్ర దేశాల
ప్ర ార్థ
ప్ర గతి
ప్ర థమ
ిం పు
ిం సాయుత
దేశ ిక
దేశ ము
దేశ రాజకీయ
దేశ ాన్ని
దేశ మంత
దేశ ాధిన
ent ly
ent ial
ent ually
ిక లు
ిక ులు
ిక ం,
om ic
భార ్తదేశపు
భార ‌తంలో
to p
to ber
భారత ,
భారత ంలో,
ou ry
న్న త
న్న ా,
ాలు న్నాయి.
ly .
ly ing
గా ంచిన
గా యి
కు ండ
కు నే
కు డు
కు డి
కు మార్
కు లం
కు లను
కు మారు
కు డ్య
కు ర్తా
కు దిర్చిన
ని వా
ని చ్చ
ని యా
ని స్తు
ని వార
ని యో
ని ధి
ని వి.
ని వల్ల
ని లిచ
ని రక్షరాస్యత
ని లబె
ని షే
వి డ
వి డి
వి ధాన
వి వర
వి శాఖ
వి జన్
వి నాయ
వి తంలో
వి జ్
వి ఫల
వి శి
వి వాదం
వి భజిత
వి శే
వి సభా
ాయ తి
ాయ కార
ాయ ీలు
క్ ,
క్ త
క్ నాల
క్ ‌టిక
ాత ి
ాత ో
ాత ్మ
li ,
li g
li ve
li gion
li ved
li ving
li fer
ver al
ver sity
am ,
am ed
am end
ను ,
ను లు
ను న్న
The y
ad o
ad em
ad we
ad op
ad vent
il ar
il ing
il ding
ాన ెట్
ol ution
ri ,
ri al
ri ya,
ri stian
ండ ర్
ండ ్రా
ండ మస్,
ండ ్యులు
ము ద్ర
ము త్య
ము ందు
ము లు.
em er
em per
em ission
ద్ వై
ద్ దిభాగం
ద్ విసభా
ra .
ra id
తి రి
తి శ్ర
త్ త
త్ తల
ల్ స్
ల్ తా
స్త ాయి.
స్త ానీ
స్త ాంబ
స్త ూ,
ించ ి
ించ ుకు
ించ వచ్చు.
ించ ుకోవడ
ించ బడింది.
se ,
se x
se als
se diment
se ats
ch ap
ch ild
ce ed
tion s
Indian s.
201 0.
be gin
for ce
ist s
ist ing
ist ers
ంత ల
ంత ై
con sum
రి ,
రి .
రి ట్ల
రి ట్లు
సం .
సం స్థ
సం క్ర
సం ధి
సం దర్
సం గమ
ag reement
ter .
ter -ga
res .
res our
res olved
su c
su per
su pre
రు ,
రు గా
రు ష్
రు చులు,
పు తో
పు లి
పు త్ర
పు లా
పు ష్
పు నర్
పు రి.
200 1,
200 8,
200 5-0
de ,
de v
de fe
de leg
de vast
స్థ ‌
స్థ ాయి
స్థ ాపక
స్థ ూలా
un g
