#version: 0.2
் த
் க
ி ய
ம ்
ப ்
த ு
t h
ன ்
a n
ல ்
ந ்த
் ட
i n
க ்க
ப் ப
ு ம்
th e
த ்த
e r
ள ்
o n
ர ு
ற ்
ட ்ட
్ ర
ா ன
r e
ை ய
ி ன்
ி ல்
ற் ற
e n
a l
ా ర
s t
d i
ா க
= =
a t
ர ்
ల ు
a r
e d
ங ்க
இ ந்த
an d
ा र
I n
o r
o f
् र
ு க
ண ்ட
இந்த ிய
क े
ி க
In di
ల ో
i on
a s
e s
े ं
i t
స ్
ள் ள
i c
म ें
్ య
ம ற்ற
மற்ற ும்
i s
க ு
in g
ி ர
న ్
ா வ
1 9
ம ு
ద ి
ह ै
ద ే
ప ్ర
ి ం
2 0
க ்
దే శ
् य
en t
ా ల
க ா
Indi a
ப ா
ి క
ி ல
o m
ర ్
భ ార
t o
భార త
o u
ான து
க்க ு
भ ार
भार त
న్ న
ా లు
क ा
் ச
र ्
ி ற
ட ு
ப்ப ட்ட
e c
ட ி
த ்
ரு ந்த
य ा
ो ं
ப ெ
ன் ற
ங்க ள
l y
గ ా
த ொ
क ी
வ ை
औ र
स े
ம ை
ு ள்ள
u r
स ्
ப ொ
క ు
== =
प ्र
న ి
l e
न े
వ ి
இந்திய ாவ
ர ்க
ా య
வ ா
र ा
క ్
ా త
க ொ
h e
ப ோ
வ ி
0 0
ுக ள
न ा
l i
த ி
ல ை
ि क
ப்ப ட
దేశ ం
v er
ர ச
a m
ற ்க
ా న
உ ள்ள
a d
i l
ర ా
్ ట
क ्
న ు
त ा
த ா
ந ா
த்த ு
ஆ க
ண ்
व ि
o l
r i
ர ி
ுள்ள து
u l
at ion
ం డ
మ ు
கொ ண்ட
T he
c h
த ிக
ీ య
थ ा
म ा
ப்ப ு
e m
இ து
ద ్
ి న
r o
ஒ ரு
ந ில
ी य
r a
இந்திய ா
ि या
ச ம
త ్
ப ு
த ிய
ம ா
త ి
ల ్
స్ త
ిం చ
स ा
c e
t ion
வ ே
ு க்கு
b y
न ्
v e
प र
ச ு
Indi an
b e
s e
ం ది
स ं
f or
i st
ச ெ
ப ிர
ர ா
a st
ஆ ண்ட
ை க்
ం త
क र
ம ைய
தொ ட
c on
e st
l o
க ள
ర ి
20 1
ச ்
re s
त ि
ற ை
ி ருந்த
స ం
क् ष
வ ெ
a g
t er
s u
ஆ ம்
ம ே
கா ல
त ्र
ட ைய
ற ு
ర ు
w i
இ ருந்த
ச ்ச
क ो
ம ாக
ல ா
ி ன
ప ు
ు లు
இந்தியாவ ின்
d e
ட ்ச
ங்க ள்
స్ థ
ిం ది
ற ி
ட்ட ு
भ ा
ா ல்
பெ ர
है ं
u n
அ மை
அ ரச
த ன்
த்த ின்
20 0
i r
w h
ज ा
ం ట
ాయ ి
வ ர
ற் ப
பொ ரு
g h
வ ு
க்க ிய
భారత దేశం
க்க ப்பட்ட
d u
m o
ப ர
ం లో
భ ా
ై న
wi th
i m
at e
ह ु
e x
அ திக
रा ज
t s
w as
ச ா
ன ர்
ం గ
ந்த ு
व ा
द े
உ ல
ம ானது
ూ డ
இ ல்
வ ாக
டு த்த
உ ரு
ம ான
ே ர
ிற து
ह ा
a re
r om
ப கு
ல் ல
ர்க ள
ஆக ிய
ड ़
an g
m ent
வ ிய
on g
d er
p o
க ி
ச ிய
a b
a c
i es
ச ி
ం గా
ధ ిక
వ ా
స ా
క్ ష
a in
s i
ா ள
ு வ
ற்க ு
u t
क ार
ட ை
ఉ న్న
ప ా
ార ు
त ्
o ver
w er
த ெ
ம ிக
ை ப்
ic al
ர்க ள்
ப்பட ுக
ि य
க ோ
ట ి
த்த ில்
ార ్
உல க
प ा
ि त
u s
ின் ற
h as
வ ீ
வ ைய
ल ा
f rom
ள ா
ి త
్ చ
ar t
நா ட
e t
ம ொ
ic h
i al
ி ட
in c
ிக ள
s o
भारत ीय
ட ிய
भ ी
ा न
a y
ப ல
ழ ்
ு ட
ష ్ట
ி க்க
ன் ன
p er
e l
क ि
க ூ
ந ீ
ம க்க
క ూడ
జ ాత
ுக ்
ప్ర ా
il l
రా జ
wh ich
दे श
இ த
போ து
தா ர
न ि
स म
्य ा
e ar
క ో
క ్ర
்க ள
த்த ை
கு றி
பெர ும்
19 9
द ्
श ा
ாக ும்
it y
त था
ल ी
c om
l d
s p
ं ग
इ स
त र
् ट
இ ரு
ந ட
ய ்
క ా
చ ్చ
ట ్ట
న ే
మ ొ
19 5
u m
r it
ண ை
வ ள
ி த்த
க்க ா
the r
ுக ள்
con t
ए क
c ent
u re
ం చ
ద ు
ప ే
మ ా
య ా
it s
భారత ీయ
உள்ள து
ul t
கொண்ட ுள்ளது
பொரு ளா
व र्
ह ि
a k
m e
t ed
ர ம்
்க ள்
ிக ள்
ou n
ண் ண
त ी
द ी
ह ो
19 6
c o
s h
அ ல்ல
எ ன்ற
த ல்
న ా
ర ై
ల ి
వ ్య
స ి
్ ల
ைய ும்
త్ వ
राज ्य
அல்ல து
ब ा
i d
சம ய
20 2
म ि
l u
உ ய
த ே
ப டி
ற ைய
త ర
వ ాత
க்க ும்
பொ து
రా ష్ట
ஆண்ட ு
அதிக ரி
జాత ీయ
பொருளா தார
రాష్ట ్ర
i g
ज ि
त े
र ू
) ,
p ro
w or
ப ிற
ன் ப
ar g
wer e
குறி ப்ப
a p
प ू
గ ు
త ం
త ో
వ చ్చ
த்த ிய
ர் ந்த
ர் ச்ச
ar y
ిక ి
ద్ ధ
ల్ ల
g en
i ve
w e
இ ர
த ன
வ ும்
வ ற்ற
an s
en d
at ed
ங்கள ில்
for m
ிருந்த ு
i v
00 0
म ु
श ्
र् व
l arg
p l
p or
ண ிய
ல ி
ழ ி
అ ధిక
క ొ
ఖ ్య
డ ు
ప ాల
మ ైన
వ ే
భారత దేశ
ec on
இந்தியாவ ில்
ంత ్ర
h a
n o
இ ல
வ ந்த
ப்ப ா
ின்ற ன
ज न
ष ा
g ion
r y
क िया
न ी
स र
க ள்
ள வ
ள ி
ఒ క
క ాల
డ ి
ణ ా
ద ్ర
మ ార్
ிய ல்
ండ ి
201 1
அமை ப்ப
over n
ப்படுக ிறது
பெரும் பா
இர ண்ட
19 8
ं त्र
त क
ह ी
m in
o d
இ ட
இ ரா
ான வை
as s
is h
is m
பெ ற்ற
1 8
a f
m a
r u
ம ூ
ா ண்ட
ఉ ంది
చ ే
ధ ్య
శ ా
్ ‌
்க ு
ிய து
மு றை
ిం ద
దేశ ాల
ou gh
மைய ான
lo w
உரு வா
ఉన్న ాయి
వ్య వ
h i
अ न
द ्र
ध िक
p e
க ை
த லை
ந ூ
ம ீ
ைய ில்
ou s
am e
ag e
overn ment
च ी
ल े
स् था
C E
H in
o g
ं ध
ि ण
ஞ ்ச
வ ட
ை த்
ఎ న్న
క ి
ట ు
ప ార
ప ంచ
ా బ
ా న్
an t
ந்த ிய
ற்ற ு
கு டிய
மு தல்
பா ரம்
ou th
న్న ి
டி வ
பெர ிய
భారతదేశం లో
பர ிய
பாரம் பரிய
19 7
ल ि
ष ्ट
१ ९
सा थ
2 6
b er
b ec
m ar
p art
ன ை
ர ண
ல ும்
த்த து
al l
al ly
கு றை
வி ள
ப்பட ும்
ிருந்த து
ட்ச ி
மக்க ள்
econ om
C h
ध ान
प ्
य ु
n or
u p
த ாக
ந க
வ ரு
చ ె
డ ్
ధ ాన
ప ె
ి న్న
ె ండ
an y
an ce
ர் ந்து
ర్ వ
ou r
ur ing
ஆக ும்
செ ய
பகு திய
கி ழ
என்ற ு
మార్ గ
వ్యవ స్థ
c t
19 4
मा न
भा षा
m ill
ந ிற
ா ர்
ிய ாக
in to
ang u
உலக ின்
cent ur
उ त्
द ो
द क्ष
ो ग
क्ष े
शा स
दक्ष िण
f o
p le
p ul
र ी
எ ண்ண
ச ே
ம ி
ை கள
ం బ
క ృ
క ే
క ార
త ు
ద ా
హ ింద
er n
st it
ில ிருந்து
ங்கள ை
தொ ழ
ాన ికి
உள்ள ன
స్త ు
பகு திக
ுட ன்
కూడ ా
మొ ద
हि न्
అధిక ార
सर कार
1 5
ओ ं
ग या
ज ी
व ी
्र े
र् म
बा द
क्षे त्र
b o
d ing
f e
u tion
அ டி
இ வ
எ ன
ஒ ன்ற
க ட
ண ி
ப ி
் ப
்த ்த
in e
க்க ி
த்த ிற
ற்ற ாண்ட
at es
கா ரண
ுள்ள ன
res s
su b
ஆகிய வை
நூ ற்றாண்ட
य ह
रू प
a v
l at
n e
w est
த ோ
ப ய
ல ான
வ ன
வ ிர
வ டிவ
ூ க
క ర
ట ్
త ్ర
త ్య
ద క్ష
ప ర
ప రి
మ త
మ ీ
మ ే
మ ధ్య
వ ర
స ు
ந்த து
ிக ்
ప్ర పంచ
ప్ర ధాన
நா ட்டு
ద్ ద
சம ூக
ஆண்ட ுகள
స్థ ాన
భా ష
மிக ப்
கோ டி
கூ ட்ட
ప్రా ంత
రాజ ్య
పే రు
రై లు
1 7
T h
i re
ढ ़
er s
b ut
f ir
g overnment
l angu
y ear
ஆ ய
இ ய
க ட்ட
த ில்
ப ண்
ப ேர
ழ ு
ாக க்
ப்பட்ட து
மொ ழ
inc lu
வள ர்ச்ச
min ist
Hin du
நிற ுவ
1 0
क ृ
ब से
स बसे
प्र ा
जि स
195 0
c i
c es
d ec
p ri
q u
u c
द ि
ब हु
அ தன்
இ வை
இ தன்
க ீ
ட ுகள
ம ுக
ற ிய
வ ான
ி ரு
ద ాయ
న ాలు
ప ్
వ ార
వ ర్
స భ
re gion
ைய ின்
ைய ானது
క్ కు
ాత ్ర
దేశం లో
్ట ీ
ப்பு ற
வே று
தொட ங்க
பொரு ட
po pul
சிய ாவ
క్ర ీ
wor ld
குறிப்ப ிட
मु ख
పార ్టీ
தொழ ில்
దక్ష ి
194 7
प ु
ष्ट ्र
A si
o k
s y
u d
v ed
உ ண
க ல
ச ீ
ச ை
த ிர
ந டு
ந ேர
ப ின்
ந்த ிர
er al
ாவ து
ில ான
om e
இருந்த து
ற்ப ட்ட
ின்ற னர்
பகுதிக ள
fir st
பண் பா
பேர ரச
3 0
अ प
स ि
स ी
ंग ्रे
वर् ष
c l
l and
t ra
இ டைய
ஓ ர்
ச ட்ட
ண ுவ
த ற்கு
ப ட்ட
ம ய
ூ ர்
అ య
ఆ ర్
జ నా
భ ు
మ ి
ర ో
ర ెండ
ల ం
ల ా
వ ె
re as
re li
ைய ா
en ce
di tion
இந்த ு
్య ం
ప్ర జ
ప్ర భు
ec tion
மா நில
ించ ింది
தொட க்க
இருந்த ு
der n
வைய ாக
இத ில்
இரா ணுவ
హింద ూ
த்திற ்கு
ro w
1 6
5 0
ज ो
ब ंध
स ार
स् व
द् ध
पू र्व
2 1
c ast
d uring
g an
h ad
l ong
o c
s c
ஆ ன
ப ்த
ம ன்ற
வ ழ
ா ங்க
ெ டு
ை ச்
ப்ப டுத்த
ட்ட ின்
st em
மு க்கிய
மு ன்ன
ec t
த்து வ
ation al
பிர ி
ag es
மே ற்கு
லா ம்
அரச ாங்க
us ed
வீ த
க்கா ல
உய ிர
af ter
bec ame
fo re
stit ution
sy stem
ध र्म
्र ा
र् थ
स् त
रा ष्ट्र
c ed
f ic
j or
n i
p h
p re
p ar
p ire
r ic
s er
v i
अ धिक
थ ी
द िया
प ार
म ी
ल ग
स द
அ ண
அ னை
உ று
க ல்
க ிர
ம தி
வ ண
வ ங்க
ு டைய
ం ద్ర
ఇ తర
గ ి
త ా
త రు
ప ూ
ప ో
మ న
ల కు
వ ీ
వ ు
శ ్ర
ష ్
ీ న
the m
ான ிய
re at
al so
இந்திய ப்
స్ కృ
மு றைய
ాల ్
தொ க
போ ன்ற
ము ఖ్య
मा ण
மா ற்ற
స్త ్ర
ించ ిన
be en
సా ం
வீ ன
ய் ய
cont in
मि ल
వచ్చ ింది
தன ி
श् व
larg est
ha ve
పె ద్ద
centur y
शास न
பய ன்ப
క్కు వ
d o
r al
4 0
ं ड
ब ी
र े
ल ्
ना म
वि श्व
सा म
ची न
C ong
E m
p t
p ol
w o
w ar
உ டைய
எ ன்ப
ந ி
ப ங்க
ம ெ
வ ானது
வ ர்கள
ா ன்
ி ட்ட
ிய ான
er e
ic s
பா து
பெ ய
ur al
ர்க ்க
வெ ள
su ch
mo re
mo st
ex t
ஆகிய வற்ற
மக்க ள
199 1
com m
ther n
mill ion
Cong ress
) .
b l
क ु
ब ना
ल ो
प् त
उत् तर
4 2
S outh
b an
c ial
d h
n um
t a
u res
w n
அ றி
உ ற்ப
க ண்ட
த ீ
ல ில்
ி த
ை கள்
అ తి
ఉ త్
ఉ ంట
గ ర
గ ీ
జ రి
ప ట్ట
బ డ
బ ా
బ ె
బ ్ర
మ హ
ల లో
వ ంట
ు కు
th at
in f
ப்பட்ட ன
వి ధ
போ ட்ட
ver s
ad e
செ ய்ய
mo dern
భా గ
వా ణా
inc reas
நட த்த
oun t
பெரும்பா லான
ma jor
விள ையா
మార్గ ాలు
కే ంద్ర
year s
ప్ ప
క్రీ డ
cl ass
tra dition
అయ ిన
జనా భా
ప్రభు త్వ
ஆன ால்
வண ிக
తరు వాత
பயன்ப டுத்த
பாது கா
च ु
त ु
ब ड़
स् ता
हु आ
हु ई
नि र्
अन ु
A f
c a
c or
g row
t wo
அ ளவ
ஐ அ
க லை
ச ிற
ட ன்
ந ுட
ப த
ப ல்
ம லை
ல ிய
ா ம
ு த
ு க்க
ப்ப டு
ப்ப ின
த்த ைக்
ar i
கா ண
ங்கள ின்
தொ லை
வா ழ்
li m
நில ைய
தொட ர்ந்து
im al
ப்படுக ின்றன
நாட ுகள
மொ த்த
oun d
பிற கு
bo th
அடி ப்பட
ஆய ுத
நிறுவ ன
pri me
கீ ழ்
நுட ்ப
च ि
ज ़
ध ्य
भ ू
म ्
म ंत्र
व ार
व ्य
ै न
ो ड़
० ०
से ना
जा ता
हिन् दी
% ,
( ₹
B CE
M a
c ult
d om
f f
m ain
r ough
t y
ं द्र
द ा
ल य
அ க
அ வை
ஆ ற்ற
இ க்கால
உ ள்
க ட்ச
ச ோ
த ாகும்
ப க
ர ீ
ர ோ
வ ில்
வ ழி
வ கை
అ నే
ఇ ది
ఎ క్కువ
ఏ ర్
క ీయ
క లి
గ ో
గ ్
గ ిన
జ న
ట ిక
ణ ం
బ హ
మ ంత్ర
ర వాణా
ల ే
ల ను
స ిం
స రి
ి ల్ల
th ough
க்க ம்
த்த க்க
ரு ம
్ర ా
్ర ె
it ion
ప్ర స్తు
ప్ర దాయ
ில ும்
का ल
ur ban
स् कृ
le ar
క్ క
ற்க ா
ol og
స్త ాన్
வே க
ுக்கு ப்
be t
ంది న
ist an
பிர ித்த
மே ற்க
un der
அரச ியல்
200 1
பர வ
ంగ ్రె
வாக ும்
సా ధ
పా కి
రాజ కీయ
देश ों
सम य
కా ంగ్రె
அதிகரி த்து
we en
larg e
por t
no t
కాల ంలో
இரண்ட ு
ఎన్న ో
ాబ ్
குடிய ரச
మొద టి
minist er
దక్షి ణ
Asi a
இடைய ில்
cast e
அனை த்து
ரீ திய
பிரித்த ானிய
p u
1 3
ग ा
त िक
ब ढ़
म हा
र ि
र ु
व ं
ष ्
के ंद्र
स् थ
ना व
राज्य ों
ही ं
B rit
B ud
U n
e ast
g r
l ed
t r
அ ண்
இ ணை
ஒ ப்ப
க ரு
ச ந்த
ச ரா
த ேர
ம ன
ம ிய
ர ்த்த
ல ்கள
வ து
வ ுகள
th is
in ce
the ir
த்த ி
en g
ங்க ிர
or y
இந்திய த்
is ation
கா ங்கிர
ou t
li fe
am ent
உள்ள ட
கொண்ட ிருந்தது
நில ை
வெ ளி
wh o
வர லா
el ection
கூ ட
தே சிய
பொது வாக
பெற்ற து
மூ ன்ற
கிழ க்கு
இவ ்
ne w
langu age
வளர்ச்ச ி
uc lear
popul ation
வங்க ாள
contin ent
Em pire
num ber
Brit ish
उ प
ए श
क ्र
ख ा
ट ि
ट े
द ान
व े
प्र मुख
सं घ
िय ों
अन ्य
लि ए
स्ता न
A n
C on
P ak
d ance
f ol
k h
l es
l it
m any
s s
s outh
ச ன
த ர
ந ்
ப ஞ்ச
ம ர
ம திய
ர ிய
ர ும்
ள வு
ு மன்ற
ே ற்ற
అ త్య
ఇ ండి
ఉ ప
క ్య
గ ల
చ ిన్న
ద ం
ప ం
ప ై
ప తి
భ ూ
మ ై
మ ాన
య ు
య ో
ర ంగ
ల తో
వ ల
శ ్
ష ు
ా వర
ు కో
ె లు
్ మ
ும் ப
er g
ுக ிறது
மு தன்
ప్ర తి
ాల లో
ాల ను
వి స్త
வா ய
வா க்க
ation s
ండ ు
ించ ి
be gan
lo p
సం స్కృ
సం గీ
su p
லா ய
ட்ச ிய
வர ை
ంగ ్ల
உரு வானது
ang es
ical ly
ిత ్ర
ప్రా చ
క్ర మ
196 5
సి ని
సి యా
த்திய ில்
ద్ధ ి
శా స్త్ర
low ing
econom ic
nor th
நக ர
நக ர்
வரு க
west ern
மொழ ிகள
முக லாய
நேர த்தில்
ఆర్ ధిక
அண ு
ount ry
உள் நாட்டு
సరి హ
bet ween
தேர ்த
Pak istan
అత్య ధిక
ఇండి యా
bl ic
pu blic
1 2
5 00
च ा
त ्य
न ों
स ैन
ार ी
क् त
जा ति
3 6
7 0
E ur
I t
b i
r at
r is
r ate
t ec
t im
அ ட
இ ற
க ண
க ட்டு
ச ில
ண ்கள
ந வீன
ப ே
ப ௌ
ப ண்ட
ர ாக
ழ ை
வ தற்கு
ஸ ்
ோ ர்
து றைய
த்த ிர
ட்ட ில்
al s
ங்க ு
it e
it ed
ாவ ில்
டி த்த
le g
உள்ள ிட்ட
il it
em ent
பு திய
ve lop
se t
செ ல
வெ ற்ற
ex p
po wer
ab le
ac k
டை ந்த
வைய ாகும்
ial ly
ன்ன ி
per i
com p
sp ec
இல க்கிய
econom y
nor thern
எண்ண ிக்க
சே ர்ந்த
lat er
விர ி
கட்ட ட
குறிப்பிட த்தக்க
உறு ப்பின
வெள ிய
vers ity
பாதுகா ப்பு
1 4
l ate
अ न्
आ ध
इ न
ग र
च ्
ज ्य
द श
द ्य
प श्
ब ्
र हा
श ु
स मा
सं स्कृ
कर ने
िय े
ंग ा
202 2
पश् चि
e f
2 4
% ),
) ;
. .
3 5
A l
B y
N e
c y
c our
d s
d ed
h er
h um
i gh
l ish
n on
n ational
o ther
s ince
t en
u gh
v ing
अ म
अ ंग्रे
क ई
ग ी
ण ा
त ंत्र
न हीं
प ह
म न
म ै
म ध्य
य ोग
स ू
ह र
அ றிய
ஆ சிய
ஏ ற்பட்ட
ஓ விய
ச ொ
த ற்
த மி
ந ான
ப ூ
ப ரி
வ க
வ ்
வ ர்
வ கு
ం ధ
ఆ ధ
క ాలు
గ ణ
గ లు
జ ాబ
ట ్ల
ఢ ిల్ల
ణ ి
త ిక
త ంత్ర
ద ార
ధ ి
న ీ
న ె
న డి
భ ిన్న
మ ె
మ ూడ
మ ాత్ర
ర ం
ర హ
వ ై
స ౌ
స ము
స ింది
స మా
హ ార
ీ ర్
து ணை
th an
ந்த ைய
in s
ப்ப ின்
the re
த்த ால்
on e
ில் லிய
्र ी
ண்ட ும்
ion s
స్ య
స్ వ
స్ వా
్య ాయ
மு ன்
ప్ర ము
భారత ్
వి విధ
ுகள ை
தி ர்
am ong
ற்க ர
நா ட்டின்
वि धान
ul ar
கொண்ட ு
ద్ దు
ra ph
ంత ో
கள ின்
வெ ன்ற
இருந்த ன
हु ए
సా మ
ாள ுமன்ற
कार ण
त् व
पा कि
நாட ாளுமன்ற
ிகள ை
நீ ண்ட
కో ర్
इस के
పే ర్
हो ता
உய ர்
రాష్ట్ర ాలు
రాష్ట్ర పతి
குறிப்ப ாக
பெரும்பா ன்
శా ఖ
pe o
வட க்கு
డ్ డ
మొద ల
கட ற்கர
sub continent
தோ ன்ற
కర ్య
ప్రాంత ాలు
inclu ding
प्रा चीन
దేశంలో ని
தொடங்க ியது
பொருட ்கள
பொருட ்கள்
రెండ ు
முக்கிய மான
உயிர ின
கிர ாம
ాల్ లో
ఉత్ తర
పట్ట ణ
బె ంగ
బ్ర ి
inf lu
భాగ ం
increas ed
ప్ప టిక
class ical
चु नाव
अनु सार
Af ter
व्य व
ఏర్ ప
బహ ు
మంత్ర ి
సిం ధ
Bud dh
மன ித
உள்ளட க்கிய
एश िया
lit er
முதன் மையான
సరిహ ద్దు
பௌ த்த
ఢిల్ల ీ
దార ులు
నడి ప
సౌ కర్య
ில்லிய ன்
ప్రము ఖ
पाकि स्तान
C om
u st
In do
5 5
201 3
195 1
क ॉ
ग ण
ग ु
ध ी
न ्या
म ो
प्र ति
प्र धान
क् ति
न् ह
सं विधान
कर ोड़
क्ष ा
ड़ ा
द् वार
भाषा ओं
्रा ज्य
साम ्राज्य
लो क
भू मि
मंत्र ी
दश क
3 1
4 00
M o
M ugh
U S
W or
a i
a w
a ch
b al
b as
c al
e v
h o
h ar
h ist
k rit
m us
m id
m ilit
n g
n uclear
o s
p res
t ing
இ ப்ப
உ ட
எ திர்
ஏ ற்று
ஐ க்கிய
ஐ ரோ
க ங்க
ச ூ
ச ுக
த ம
த ூ
த ை
த ான
ப ழ
ம ல
ர ப்ப
ல ாக
ல மை
ள ்க
வ ின்
வ ில
வ ர்கள்
ு க்கும்
re e
st y
st ate
di versity
is ed
ாவ ின்
மு டி
மு சு
கா ட்ட
ங்கள ாக
வி ட
li ament
இது வாகும்
பு வி
வே ளா
ரா ல்
con stitution
de velop
அரச ிய
வர ும்
க்கப்பட்ட து
du c
உரு வாக
பகு தி
விய ல்
po s
ac t
தெ ன்
தெ ற்கு
தெ ன்னி
ிகள ில்
so cial
நீ தி
இத ற்கு
இரு க்க
நட ன
அதிகரி த்த
wor k
gen eral
2011 ஆம்
ru le
197 1
mar k
Ch in
ci ent
வேறு பட்ட
oc c
par liament
கல் விய
காங்கிர சு
இவ் வா
கண க்க
கட்டு ப்பா
peri od
spec ies
peo ple
Wor ld
முசு லி
வேளா ண்
தென்னி ந்திய
in ter
ig n
m on
ख ्या
ग ठ
च ल
ब ्र
य ू
र ह
न् न
सं बंध
सम ्
196 2
पू र्
हिन् द
ंग्रे स
स्व तंत्र
राष्ट्र ीय
पार ्ट
बी च
मै दान
चुनाव ों
व्यव स्था
द्वार ा
% -
% .
4 இல்
B eng
E ast
M us
P un
S t
S ans
W est
c ountry
g i
g re
h m
j ab
n ed
o p
o pe
r on
t e
y a
ஆ ட்சிய
இ ண
இ ன
இ சு
எ ஞ்ச
த ங்கள
த சா
ந ப
ப ற்ற
ம த்தியில்
ய க
ர ே
ர ின்
ல ம்
ல ்கள்
ா ந்திய
ே ய
ం ద
ం దు
అ భ
అ ను
క ం
క ళ
క ల్
గ ే
గ ంగా
చ ార
చ రి
చ ైన
జ ్య
ట ం
ట ీ
ట ె
త న
త ూ
త మి
త ాబ్
థ ిక
న గర
ప త
ప ొ
ప ద్ధ
ప ండు
మ లు
మ ్య
ర ూ
ళ ం
ళ ్ల
వ డ
వ హ
వ ృ
వ త్
శ తాబ్
స మ
స ై
స ార
స ర్వ
ి మ
ు ంది
து றை
th rough
க்க ித்த
ப்ப ை
en ni
di c
ர் வ
ar m
In du
of fic
இந்திய க்
it ies
స్ వాత
கு ழ
மு த
ాల తో
கா ல்
பா ணிய
பா க்கித்த
க்கு ப்
న్న ాయి
பெ ற
வை த்த
ని ర్వ
le ad
வா ய்
ను క
ను ండి
நா யக
ri ver
em erg
త్ తం
பு து
ల్ వే
ించ ే
பிர தம
பிர ாந்திய
ஆண்ட ின்
201 0
సం ఖ్య
வெ ப்ப
மே ற்பட்ட
அமை ப்பு
ate ly
அதிக ா
சா ர்ந்த
ர்கள ால்
சி ந்து
ain s
ిత ా
நீ டித்த
కూడ ిన
మొ త్తం
ult an
రై ల్వే
202 3
వాత ావర
ap p
పాల న
భారతదేశ ానికి
இல ட்ச
ఒక టి
இரண்ட ாவது
18 5
చే య
దేశాల లో
og raph
குறை வான
செய ்த
mill enni
ைகள ில்
కార ం
తు న్న
అధికార ిక
ట్ లు
ప్రపంచ ంలో
భాష లు
langu ages
சீ ன
వె బ
reli gion
ప్రజ ా
fore st
ser ved
them at
pol it
ఉంట ాయి
జరి గిన
వంట ి
ca used
அடிப்பட ைய
అనే క
ఎక్కువ గా
ప్రస్తు తం
కాంగ్రె సు
குடியரச ு
பஞ்ச ா
ప్రాచ ీన
நகர் ப்புற
Eur ope
tec h
கட்டட க்
தற் போது
జాబ ితా
రహ దారులు
సము ద్ర
முன் னர்
Mugh al
milit ary
அரசிய லமை
Chin a
கணக்க ெடு
Beng al
Pun jab
Sans krit
எஞ்ச ிய
தசா ப்த
అభ ి
చరి త్ర
శతాబ్ దం
స్వాత ంత్ర
నిర్వ హ
వాతావర ణం
millenni um
1 00
2 8
4 6
si g
आ र्थ
उ न
ट ी
ण ्
त ृ
ध ि
प ी
फ ़
ब र
ब े
म त
र ो
ल ों
स् ट
प्र देश
ने तृ
वि का
वि स्त
सं ख्या
जा ती
द् वी
धिक ार
स्था न
बहु त
निर् माण
सैन ्य
द्य ोग
कॉ ंग्रेस
आर्थ िक
द्वी प
198 0
0 1
2 5
C ent
H imal
I s
S i
b ill
c an
c ol
d ay
f i
f am
g a
i de
k ing
m er
n at
n olog
r ural
s ur
s ome
t ro
u ally
v ement
ஆ சியாவ
இ மய
உ ற
க ம்
ட ுகள்
ண ்கள்
த ம்
த ற்க
த ிலும்
ந டை
ப ரு
ற ாக
ள ம்
வ ுகள்
ா த
ா லும்
ி ணை
்த ான
ம் ப
ப்ப ானது
the ast
த்த ையும்
er ed
ைய ை
ைய ுடைய
di re
di sp
ங்க ும்
ங்க ில
es e
es p
கு ட
ாவ ிய
பா ல
டு த்து
ப்பட்ட ுள்ளது
தொ கை
இந்தியாவ ை
தி ரு
தா ங்க
கொண்ட ுள்ளன
பு ற
பு விய
பிர பல
ஆண்ட ில்
தொட ர்ச்ச
கால த்திற்கு
wi de
200 9
ir d
du ced
are d
சி ற்ப
ாள ர்கள்
தெ ற்கா
நாட க
so ci
el l
ித்த து
co ok
id ent
gen er
we ver
வற்ற ின்
அமைப்ப ானது
ma themat
hi gh
மீ ண்டும்
விள ை
செய ல்
centur ies
ஒன்ற ிய
காரண மாக
மய மா
reli gi
மதி ப்ப
என்ப து
போட்ட ிகள்
major ity
cor ding
cult ure
வில் லை
வேக மாக
சரா ச
வாக்க ில்
ண்கள ுக்கு
உள்ளிட்ட வை
விரி வ
நான ்கு
mus ic
வேளாண் மை
Mus lim
இண ைய
தங்கள து
நப ர்
Indu s
அடிப்படைய ாகக்
Himal ay
bill ion
A r
P late
R e
ं प
अ र
अ व
क र्
च ार
ज ब
द र
प र्व
ब न
ल र
ल िया
श े
ो ष
्य ों
स् त्र
पर माण
ang e
कार ्य
जन जाति
स्था प
वी ं
च् च
पश्चि म
गण राज्य
न्या या
प्रधान मंत्री
पूर् ण
परमाण ु
2 2
2 9
3 00
8 0
8 இல்
A c
D el
G and
G overnment
J an
S e
a j
a ce
a ir
b ack
c re
d le
d ra
f l
f in
f er
g reat
i li
l ast
m ade
o b
o se
p any
r ol
s ing
s ch
t al
t ri
v ent
w om
ं ति
ई सा
ओ र
ग ई
ग ति
प े
ब ो
भ ग
र क्षा
ल िये
श न
श ी
श ता
स क
स ह
स भा
२ ००
அ ந்த
அ டைய
அ ழி
அ மெ
அ ந்
ஆ ற
ஆ தர
இ று
எ திர
க வன
ச து
ச மை
த ள
த ிற
த டு
ந ெ
ப ங்கள
ப தி
ப த்திய
ப ில்லியன்
ம ும்
ம ின்
ய ின
ல ்தான
வ ரி
வ லி
ி ர்
ீ ட்ட
అ ని
ఆ ఫ
ఇ వ
క ల
ఖ ండ
చ ి
జ ి
జ న్
ట ా
డ ే
ణ ంగా
ద న
ద ీ
ద ్య
న ాయ
న ్యాయ
ప ద
ప శ
ప క్ష
ప ాత్ర
మ ల
మ ాలు
మ ్మ
య ాలు
ర ే
ర ్య
ర కాల
ల క్ష
వ రి
స ర
స ూ
హ ా
ి ల్
ి స్త
ీ లు
ు ల
ె ల
ో ర
து ண
th ird
an n
an ts
an ces
ந்த ி
க்க ுக்
ப்ப ுகள
த்த ின
ரு க்க
ரு ங்க
ட்ட ை
re d
re n
en su
ாக வும்
== ==
at i
ार ्
or ies
or ig
ண்ட ிய
లో క్
స్ లా
ic e
கு திய
ది నాలు
ప్ర కారం
ాల ీ
ాల కు
ిక త
ిక ్
ில ேய
om et
ec ted
ங்கள ானவை
కు ల
కు ంట
కు టు
ని ర్
ాయ ు
கொ ள்க
போ திலும்
ver y
ad es
రా స్య
த்து க்கு
ol d
ri gh
ரி க்க
ము లో
ము ంబ
ద్ వీ
நில ையில்
சம ீ
திய ாக
மா ர்
மா மி
ల్ లో
வே லை
न् द्र
न् तु
சு ல்தான
சு மார்
Indian s
सं सद
மைய ை
தொட ர்
lo wer
கள ாவிய
సం ఘ
సం ప్రదాయ
సం వత్
ag o
ag ric
ter rit
மே ல்
கால த்தின்
கால த்தில்
పు ట్ట
స్థ ాన్
றி வு
भा ई
भा ग
भा ज
அமை ந்த
ంట ే
ex por
உல களாவிய
हा ला
are as
ர்கள ின்
ment s
ac y
క్ష రాస్య
si ve
ఉన్న ారు
పా క్
టి లో
உலக க்
नि र
ear ly
த்தை ச்
இரு ப்ப
cont ri
cont rol
cent ral
ంచ ి
co al
co ast
రై ళ్ల
தே ச
தே ர்ந்த
பொது த்
அதிகரி த்தது
రాష్ట్ర ాల
వచ్చ ిన
form s
iv es
కొ న్ని
పాల ిత
మైన ది
వే గంగా
భారతదేశ పు
ளவ ில்
ణా సియా
உருவா க்கிய
தலை மை
భారతదేశంలో ని
१९ ९
part y
यु द्ध
வரு மான
చె ందిన
డ్ డు
கிழ க்கி
వ్యవస్థ లో
కార ్య
क्षेत्र ीय
fe at
பி ந்தைய
நூற்றாண்ட ின்
நூற்றாண்ட ில்
కర ణ
పర ంగా
పరి శ్ర
మే న
ప్రధాన మంత్రి
ஆண்டுகள ில்
ஆண்டுகள ுக்கு
స్థాన ంలో
రాజ్య ాలు
இய க்க
தில் லி
inclu de
Hindu ism
प्रा प्त
जिस में
వార స
సభ ్య
मुख ्य
சை ன
वर्ष ों
land s
ఆర్ థిక
రో డ్డు
sc ri
முன்ன ேற்ற
கல் வி
ముఖ్య మైన
సాం ప్రదాయ
பெய ர
comm on
உற்ப த்தி
బా ద్
விளையா ட்ட
விளையா ட்டு
కేంద్ర పాలిత
ప్రభుత్వ ం
grow th
பல் வேறு
பல் வகை
dom in
కలి గి
பரவ லாக
పాకి స్తాన్
పాకి స్థాన్
దక్షిణ ాన
tr ans
fol lowing
పై గా
సంస్కృ తి
సంగీ తం
సిని మా
శాస్త్ర ం
tim e
ब् दी
समा ज
hum an
पह ले
ఆధ ార
మూడ ు
మాత్ర ం
స్వ తంత్ర
స్వా మ్య
సామ ్రా
கிராம ப்புற
బెంగ ాలీ
బ్రి టి
influ en
ప్పటిక ీ
నడిప ించ
Com pany
धी रे
இருக்க லாம்
கல்விய றிவு
முசுலி ம்
ब्र ि
వృ ద్ధి
సర్వ ీ
emerg ed
ultan ate
polit ical
అభి వృద్ధి
ण् ड
नेतृ त्व
विका स
Cent ral
Si kh
குட ும்ப
religi ous
अर ब
शे ष
Del hi
Gand hi
wom en
शता ब्दी
ఆఫ ్
పశ ్చ
ensu s
ிலேய ே
కుటు ంబ
agric ult
క్షరాస్య త
தேர்ந்த ெடு
கிழக்கி ந்திய
A m
S h
201 4
iv ed
7 2
6 4
इ ंड
ए ँ
ए वं
ग ंगा
थ े
द ल
द र्
न िक
प ै
म ू
म ौ
ल न
ल ोग
व ्या
स ु
ह री
सा ल
राज नी
वा यु
दे ख
हा ँ
ड़ ी
वर् त
जि न
जन संख्या
प् ले
यु क्त
दो नों
अप ने
बंध न
लग भग
सद स
कु छ
कु ल
म् भ
स्थ ित
टि श
अन् त
संस्कृ ति
न्ह ें
भूमि का
स्वतंत्र ता
ब्रि टिश
7 இல்
B J
D em
E ng
G anges
I ts
J ain
a u
a th
b re
b ir
c k
c ar
c ur
c ru
c ensus
d es
d am
e th
f t
f ar
f ed
f ast
f ig
f ound
g e
g ar
h ru
i a
i le
k e
l ine
m an
m en
p en
p ed
p ain
p end
r ul
r ates
s ou
s econ
t i
t ur
u ch
v en
v ast
w an
அ ரு
அ ழை
ஆ ப்ப
ஆ தி
ஆ ட்சி
ஆ ங்கில
இ றைய
உ ண்
உ ச்ச
உ ண்ண
எ ந்த
ஏ ற்ப
க த
க டு
ஜ ன
த ல
த விர
த ந்திர
ந ே
ந ோ
ப கி
ம ண
ம ோ
ம ருந்த
ம றை
ர ிக
ற ுக
ழ ்க
வ ோ
வ ண்
வ ர்க்க
ஸ ்த
ஸ ்ட
ா ம்
ா ற்ற
ி ழ
ி த்
ீ க
ு மே
ெ டுத்த
an k
an imal
an cient
in es
in du
க்க ே
க்க ப்படும்
ப்ப ிய
the y
த்த ட்ட
ட்ட ிய
re l
re main
ைய ல்
ைய ிலான
al le
st e
st ates
di v
di ff
at a
at s
ர் வாக
ar ch
or s
ுக ின்றன
ண்ட ு
es s
it es
கு றுக
ிர ிக்க
மு ழ
பா ட
பா ர
பா ர்
பா தி
ec ially
பெ ரும
பெ ருங்க
ங்கள ும்
ங்கள ுக்கு
வா ல்
வி ன
வி வ
வி ட்ட
ுகள ும்
ுகள ின்
தி ரும
ப்பட ியான
ver se
il d
தா க்க
த்து டன்
ul pt
em p
ுக்கு ள்
சு தந்திர
ist s
ist ic
lo cal
ச்ச ிய
லா த
ின ும்
de pend
un d
அமை ச்ச
அரச ு
அரச ின்
mo vement
பர விய
சா தி
கி ட்ட
நாட ாக
et y
மொ ழி
டிய ாக
நீ ர்
குறி க்க
வள ரும்
me di
sh o
பொது வான
pro v
form ed
iv il
இரா ச்சிய
உருவா க்கப்பட்ட
Hin di
mar ri
பகுதிய ில்
என ினும்
காரண மானது
கூட்ட ணிய
Th ere
ஆய ிர
வளர்ச்ச ிய
ces s
கீ ழ
region s
உண வு
சீ ர
நடு வண்
பின் பற்ற
பகுதிகள ில்
பேரரச ு
sc ulpt
வழ க்க
தொக ைக்
நி ர்வாக
ஆகியவற்ற ை
மக்கள ின்
அறி க்க
தீ பக
செய்ய ப்பட்ட
அளவ ுக்கு
ுக்க ான
Un ited
வரலா ற்ற
மூன்ற ாவது
Con stitution
வருக ிறது
முகலாய ப்
தேர்த லில்
இற க்கு
துறைய ானது
Ne hru
தமி ழ்
வகு த்தது
liter acy
bas ed
தூ ர
நீதி மன்ற
occ up
parliament ary
இவ்வா று
gre w
இசு லா
இலட்ச ம்
religion s
Europe an
dire ct
esp ecially
அந் நேரத்தில்
துண ைக்
orig in
சமீ பத்திய
மாமி ச
BJ P
Eng lish
pain ting
secon d
அரு க
ஆப்ப ிரிக்க
indu st
திரும ண
தீபக ற்ப
2 3
7 4
8 3
9 3
A ct
200 3
199 0
% )
ँ च
ँ कि
अ प्र
अ र्थ
अ लग
आ धिकार
घ ोष
ज ल
ड ी
ड ॉ
त ्या
त मिल
थ िय
न िय
प ं
प ड़
ब ने
ब नी
य े
ल ं
व ल
व िक
श ि
श क्ति
स ित
ह थिय
ु निक
ृ त
२ ०
ार म्भ
के न्द्र
20 20
का म
से वा
स् तर
प्र भा
प्र कार
प्र ारम्भ
िक ्
वि देश
मा लय
िया ँ
पर ंप
सं युक्त
कर ना
201 2
जा ते
so on
नि भाई
इस ी
वर् ग
हि मालय
दो लन
शास ित
अप नी
बड़ ा
ज़ ी
आध ुनिक
अम े
गठ बंधन
रह े
पार्ट ी
न्याया लय
भाज पा
हाला ँकि
मू ल
प्ले ट
आधिकार िक
हथिय ार
परंप रा
1 200
2 7
5 ஆம்
5 இல்
8 1
8 2
A ra
B N
B i
D P
D uring
G DP
I S
N ational
P er
P ro
T am
b od
c ap
c ities
d em
e p
e ts
f ive
h ere
i ans
l ing
l am
l ay
n al
o re
p rom
r ation
s ultanate
t il
u al
u se
v ol
w on
w ell
y an
அ ள
அ ன்ற
அ ணிய
அ வர்கள
ஆ ள
ஆ க்க
இ ன்ற
இ ந்
உ ம்
ஏ வ
க ைய
க மாக
ச க
ட ்
ட ்ப
த க
த ய
த ந்த
த ற்கா
ந ிய
ந ாக
ந ிர
ந ன்ற
ந டுத்த
ன ்க
ப ண
ப ீ
ப ள்ள
ப ணிய
ப ூர்
ம ர்
ம கா
ம ிட
ம ிக்க
ம ந்திர
ய ும்
ர ை
ல ின்
வ ய
வ று
ா ட்சி
ொ ண்ட
ం భ
అ హ
అ వి
ఆ క్రమ
ఆ హార
ఇ వి
ఇ ంగ్ల
ఇ స్లా
ఉ ండ
క థ
క ూ
క న్న
క త్వ
క ింద
క ీర్
చ న
చ ు
చ ాల
చ ిత్ర
జ ీ
జ ాలు
జ రు
జ ంబ
ట ే
ట ై
ట ర్
ట ులు
డ ిన
త ల
త ీ
త ె
త ే
త ము
త ులు
త ంలో
త ెలు
ద ర
న ది
ప ీ
ప ార్
బ ి
బ ంగ్ల
బ ంధ
బ డ్డ
భ ర
భ ౌ
మ ర
మ ూ
మ ౌ
మ తి
మ ంది
మ ారు
య ం
య ింది
ర ీ
ల ీ
ల ె
ల ిం
ళ ్
ళ ిక
వ ులు
వ ల్ల
వ లం
శ ెల
స హ
స ే
స ్ర
స ులు
స ైన
స ార్
హ ై
హ ిమ
ా దేశ
ా ంగ
ా పార
ి గా
ు కొ
ూ రు
ె ట్
్ వ
்த ி
ிய ும்
து க
ல் லை
in di
க்க ள்
க்க ண்ட
ப்ப ரப்ப
த்த ன
த்த ைப்
er t
ட்ட ம்
re public
en s
ార ంభ
st at
di s
di verse
ar s
ed uc
of ten
ுக ின்றனர்
లో య
్య ా
கு சரா
மு டிவ
ప్ర ారంభ
దేశ పు
దేశ ానికి
ాల నే
ాల ెండ
பா ரச
பா ர்க்க
ిక ా
ర్ త
ర్ ష
ర్ ‌
ou p
ou ld
న్న ది
న్న ారు
ec ut
ங்கள ைக்
ங்கள ைப்
గా ంధ
மை ப்பு
ur ther
కు లు
ని స్తాన్
వి ధ్య
వి భిన్న
వి ద్య
క్ తి
ాత ో
he ad
போ க்கு
ுகள ில்
தி ட்ட
దేశం గా
am m
am p
ను లు
ను ంచి
தா க்கம்
கொண்ட ிருந்த
em ber
ద్ వార
ro ck
நில ப்பரப்ப
சம ையல்
త్ వా
త్ తా
பு ர
பு ல
tion s
வே த
se ver
se qu
செ ல்
மைய ில்
lo y
கள ில்
201 7
సం కీర్
సం బంధ
ter m
su m
மே லும்
கால ப்
పు రు
de fin
స్థ ి
un ion
200 4
ంట ు
வர ைய
பர ப்ப
ex ecut
அதிக ப்படியான
சா ர
ர்கள ைக்
der s
கி ண்ண
వా హ
వా ణి
ாள ர்
ாள ராக
పా టు
పా దన
தெ ற்க
தெ ன்க
கோ ப்பை
et ic
కూడ ుకు
జాత ి
రాజ ు
ear li
కో ల్
199 6
com pos
நட ுக்
కా గా
కా శ్
ట్ట మొదటి
నే పాల
మొ ట్టమొదటి
வள ர்ந்து
க்கா ட்சி
మా బాద్
నా గర
లి చ
వ్య ాపార
சமய ம்
சமய ப்
202 6
గు వ
గు ర్త
వచ్చ ు
ద్ధ ం
வற்ற ில்
end em
పాల ించ
ఒక ే
அமைப்ப ுகள
od s
இட ம்
இட த்தையும்
மூ லம்
చే సింది
్‌ సై
முறை கள
உருவா க்க
தலை வர
மீ து
ఎన్న ిక
பாரம்பரிய மாக
bec ome
all ed
పె నీ
எண்ண ெ
కే వలం
కార ణంగా
తు ంది
దా పు
దా దాపు
హింద ీ
ஒன்ற ிணை
பி ற்ப
త్ర ి
మత ాలు
நாட்டு ப்புற
స్థాన ం
భాష ా
రాజ్య ాంగ
Th ese
నాలు గు
వర్ గ
వర్ ణ
region al
popul ar
దక్షి ణాసియా
பின் னர்
பண்பா டு
பண்பா ட்டு
వె నుక
ప్రజ ల
హిందూ దేశం
long er
வழ ியாக
ப்படுத்த ப்பட்ட
fic ant
ni ficant
ser v
vi ol
పూ ర్వ
వీ టిలో
శ్ర ీ
ష్ ణ
స్కృ తిక
సాం స్కృతిక
வர்கள ாக
comm er
உற்ப த்திய
ఉంట ుంది
బడ త
బడ ిన
బడ ింది
మహ ా
ుకు ంట
క్రీడ లు
tradition al
తరువాత ి
பயன்படுத்த ப்படுகிறது
grow ing
தொலை க்காட்சி
அக ணிய
ஆற்ற ல்
இக்கால த்தின்
కలి సి
జన గణ
లే దా
సాధ ించ
ரீதிய ாக
east ern
ஒப்ப ீட்ட
who se
election s
An dam
சன நாயக
ఉప ఖండ
క్య ాలెండ
ుకో వడ
ప్రతి పాదన
విస్త ారు
ిత్ర క
సిని మాలు
శాస్త్ర ీయ
ris e
அட ர்த்த
அட ங்கும்
எண்ணிக்க ையிலான
அறிய ப்பட்ட
వై విధ్య
సమా ఖ్య
துணை க்கண்ட
வென்ற ுள்ளது
కోర్ టు
కోర్ టులు
పేర్ లు
పేర్ కొ
మొదల ైన
పట్టణ ాలు
ఏర్ప డ్డ
బహు ళ
సింధ ు
Buddh ism
hist or
ஏற்று மதிய
ஐரோ ப்பிய
கங்க ைச்
sty les
St ates
West ern
కం పెనీ
చార ిత్రక
తమి ళం
నగర ాలు
పత కాలు
పొ ందిన
పద్ధ తి
పండు గలు
offic ial
குழ ந்த
பாணிய ானது
பாக்கித்த ான்
ఒకటి గా
వెబ ్‌సై
ప్రజా స్వామ్య
குடியரசு த்
tech nolog
సముద్ర ం
స్వాతంత్ర ్య
నిర్వహ ణ
Is lam
fi ed
உற வு
புவிய ியல்
பிரபல மான
wide ly
சராச ரி
Himalay as
Ac cording
cre ated
அமெ ரிக்க
நெ ருக்க
வலி மையான
జన్ మ
ముంబ ై
வேலை ப்பா
సంప్రదాయ ాలు
அமைந்த ுள்ளது
రైళ్ల ను
కార్య క్రమ
పరిశ్ర మలు
వారస త్వ
సాంప్రదాయ ిక
సర్వీ సులు
ఆఫ్ ఘ
Am ong
fed eral
pen ins
sou thern
ஏற்ப டுத்த
தவிர ்த்த
பகி ர்ந்து
வர்க்க த்தின
alle y
முழ ுவ
பெரும ளவ
IS BN
Per si
Tam il
bod y
ஏவ ுக
நடுத்த ர
பூர் வீ
ఇస్లా మాబాద్
కన్న డ
చాల ా
జరు పు
జంబ ూ
తెలు గు
పీ ఠ
బంగ్ల ాదేశ
ళ్ ళ
శెల వు
హిమ ాల
educ ation
பாரச ீக
గాంధ ీ
ద్వార ా
త్వా న్ని
sequ ent
వాణి జ్య
தென்க ிழ
కాశ్ మీ
నాగర ికత
వెనుక టి
Andam an
క్యాలెండ ర్
వెబ్‌సై టు
1 1
i an
w a
ं क
अ फ
आ ं
आ ग
उ स
ऊ ँ
ए ं
क ह
ग ए
ग त
ग ्र
ज ै
ड ा
ण ी
त ो
द ृ
प हा
फ ल
ब ै
ब ार
भ र
भ ि
य ों
व न
व ै
व री
स त
स ो
स र्व
ृ द्ध
ै ली
१ ८
्य ता
वि ज
कर ण
ति हा
200 8
वा द
वा दी
िय न
पा लि
ला वा
कि न्तु
शा ंति
ली न
वर् ण
हो ती
जन ता
ंध ी
१९ ७
१९ ८
यु ग
जिस के
बहु मत
बड़ ी
बड़ े
गा ंधी
महा द्वीप
वं श
शु रू
संस्कृ त
अंग्रे जी
विस्त ृत
कर् ज
पर्व त
शी ल
सह योग
डॉ लर
विदेश ी
अमे रि
पालि का
199 9
196 0
" ,
3 9
4 3
4 4
6 3
8 ஆம்
9 1
9 4
9 00
B h
B ra
B har
D e
F act
F ore
K as
N or
P A
P r
R aj
S ou
a ver
b s
b or
b le
b ro
c he
c ri
c lo
d ances
e very
f our
f act
f urther
g u
g lo
h en
h ou
i p
i z
j o
k no
l a
m i
m it
m ak
m ary
m ember
n ing
o ol
o per
p r
p ical
p ay
r ich
s ec
t t
t le
t em
u j
u ary
v o
v ill
v ari
w ay
ν δ
அ ழ
அ டைந்த
அ வர்கள்
அ வற்றின்
ஆ க்கிய
ஆ ண்கள்
ஆ ண்களுக்கு
ஈ ர
ஊ ட
எ ரி
எ ளி
ஐ ந்த
ஐ ந்து
ஐ சி
ஒ து
ஒ ற்ற
க ர்
ச ங்க
த ட்ட
த க்கா
ந ு
ந ுக
ன ும்
ப ட்ச
ப டை
ப ன்ன
ம ண்ட
ம கள
ய ற்
ல ிருந்து
வ ல
வ ப்
வ ல்
வ டி
வ தில்
ா ட்டு
ி ப்ப
ூ ட்ட
ொ ரு
Ἰ νδ
்த ிரு
ிய ின்
ிய ானது
ிய ுள்ளது
ம் பு
து ம்
th ree
ந்த ா
in depend
க்க ோ
க்க ப்படுக
க்க ின்றன
ப்ப ுகள்
த்த ீ
on s
re g
re ad
re cor
ைய ான
ைய ாக
ற்ற ி
en ac
al e
al th
al es
al ong
st r
st re
st ru
di st
ாக ப்
at ic
at ive
ar n
ar ound
or gan
of f
ண்ட ை
இந்திய ர்கள
இந்திய ர்கள்
is e
கு டி
கு ழு
கு ப்த
ாவ ுக்கு
19 ஆம்
மு யற்
கா டுகள
கா டுகள்
பா லை
பா டுகள
ிற ார்
ங்கள ையும்
le ft
வா ட்ட
கொ ள்ள
he ld
போ ல
போ ர்
வி ட்டு
ுகள ாக
li d
li ber
ப்பட லாம்
am as
ad minist
il ity
தா ல்
தா க்கு
ஆக வும்
ch ar
ch anges
em pire
ro ss
சம சுக
மா ற
மா ன்
சு ற்றி
செ ன்ற
செ ன்ன
செ வ்
பிர தி
ரா த
ரா ள
தொட ுக
தொட ர்கள
con s
con si
est im
est ab
res p
res ident
வெ ட்ட
ter nal
கால மானது
மாக ும்
லா ட்சி
un til
அமை த்தது
200 6
க்கப்பட்ட ுள்ளது
பர ந்த
im port
ang ered
po in
ut es
டை ந்தது
மிக க்
மிக வும்
இத ே
இத ைத்
்கள ை
com ple
sp e
sp read
நட த்திய
wor n
gen cy
தன ியாக
end angered
pl ain
pl ace
no w
பெரும்பா லும்
பெற்ற ுள்ளது
குடிய ின
197 7
பகுதிய ாக
கிழ க்கே
சே வைய
ைகள ின்
பகுதிக ள்
bo ok
இவ ர்
த்திற ்க
sub sequent
வடிவ ங்கள்
கூட்ட ணி
கூட்ட ாட்சி
Th is
இய ற்ற
ிரு த
ிரு க்க
சியாவ ின்
தொடக்க த்தில்
முக்கிய த்துவ
த்துவ மான
அரசாங்க ம்
உறு தி
contin u
தனி த்துவமான
pol ic
போட்ட ிகளில்
increas ing
tradition s
சிற ிய
ப்படு வதற்கு
காண ப்படுகிறது
நிலைய ை
நிலைய ான
நாடுகள ின்
dom s
கட்ச ியாக
though t
மேற்க ே
மேற்க ொண்ட
பரவ லான
Un ion
gr oup
ஒப்ப ந்த
கரு த
கரு துக
நிலை க்கு
sup p
bi o
tim es
பண்ட ைக்
leg is
செல வீன
பாதுகாப்பு ச்
Al though
cour t
cour ts
igh t
சொ ல்ல
தமி ழ
பெரும்பான் மை
பெரும்பான் மைய
Buddh ist
பௌத்த ம்
ho wever
mid dle
pres ent
ஏற்று மதி
sty le
முடி ந்தது
புவி த்
develop ed
நடன ம்
mark et
lead ing
அதிகா ர
அரசியலமை ப்பு
கணக்கெடு ப்பின்
sig nificant
fam ili
king doms
sur v
இமய மலை
cook ed
மயமா க்க
இணைய த்த
Jan uary
அந்த மான்
இறு தியாக
சமை க்கப்பட்ட
திற ன
குதிய ில்
சுல்தான க
territ ories
coal ition
உருவாக்கிய து
influen ced
Jain ism
bir th
cur ren
fig ures
நே ரு
நோ க்கி
மருந்த ு
diff er
குறுக ிய
பெருங்க ட
emp loy
பரவிய து
கிட்ட த்தட்ட
சீர ்திரு
sculpt ure
இசுலா மிய
அருக ிய
indust ry
நாக ரிக
நன்ற ாக
execut ive
தெற்க ே
earli est
எண்ணெ ய்
பிற்ப குதியில்
ஒப்பீட்ட ளவில்
technolog y
penins ular
முழுவ தும்
Persi an
ஏவுக ணை
Fact book
Kas hm
Sou theast
kno wn
oper ation
ஐசி சி
தக்கா ண
பன்ன ாட்டு
பாலை வன
சமசுக ிருத
சென்ன ை
செவ் வியல்
consi der
estab lish
famili es
சீர்திரு த்த
0 4
D es
ं स
ं ह
अ ब
अ भी
अ धि
आ या
आ न्
आ दि
इ ं
इ स्
उ द्योग
ऋ तु
क म
क टि
ग ो
च े
ज ू
ज रा
ज लो
ट न
त ः
त न
द ू
न व
न गर
प ि
प ीय
भ रा
र ्य
र िक
ल ु
श त
श ्री
स फल
ह न
ह ार
ह रा
ि म
ि की
ै ल
ो सी
ो च्च
के वल
र् ष
या स
प्र यास
वि भि
वि वाद
मा ना
सा ं
कर ता
201 6
जा ना
वा ली
पा द
पा स
ला ख
सम र्थ
199 8
इस की
हो ते
196 7
मि ला
१९ ५
१९ ६
उत् पाद
अप ना
स्व रूप
अधिक ार
बना ने
ष् ठ
ष् ण
क्र म
अम री
अंग्रे ज़ी
्री का
प्रति शत
यू रो
हिन्द ू
जब कि
स्थाप ना
व्या पार
राजनी तिक
वर्त मान
अप्र ैल
अर्थ व्यवस्था
जल वायु
पड़ ोसी
प्रभा व
अफ ्रीका
दृ ष्ट
सर्व ोच्च
तिहा स
जलो ढ़
विभि न्न
समर्थ न
यूरो पीय
198 7
" .
4 1
5 17
6 0
6 2
6 5
6 8
A s
A t
A ry
A ss
B B
C I
C ountry
C ivil
D ec
D ra
G h
G up
G ree
G uj
H o
L angu
M e
M any
N uclear
S ing
V alley
W ar
a h
a ː
a di
b u
b ar
b and
b ution
c oun
c reat
c alled
d r
d en
d ri
e qu
e dic
e ograph
f und
g o
g ra
h y
h is
h ab
j ust
k s
k en
l l
l s
l in
m ult
m all
n om
o wn
p ur
p ra
p ass
s af
s ine
s ari
s mall
t u
t ic
t ak
u es
w in
w ent
w ear
w rit
w ild
x im
अ भ
अ लावा
आ त
इ तिहास
उ च्च
ए न
क र्म
क िये
घ ा
च ना
च ला
छ ो
छ ोड़
ज िक
ज हाँ
त ट
त म
त गा
द ार
द ारी
ध ार
न ै
न ौ
न दिया
प हु
फ ि
फ ्रा
ब ौ
ब ंगा
ब दल
म े
य क
य त
र ही
ल ना
स ल्
ृ त्य
ौ र
ौ द्योग
् ञ
१ ४
१ ५
२ ४
அ ன
அ ய
அ ர
அ ல
அ ப்ப
அ டு
அ ளவு
அ டுத்து
ஆ ரம்
ஆ ரிய
இ ச
இ க்க
இ ன்ன
இ சை
உ ரி
உ டன்
ஊ டு
எ ழு
எ டுத்து
எ ல்லை
ஒ டி
ஒ த்து
ஒ ட்டு
க ாவ
க ில
க ிற
க வி
க ல்ல
க ட்சி
க ணி
ஞ ர்கள்
ட ெ
ட ும்
ட ிர
ட ப்பட்ட
த ைத்
த ானிய
ந ல
ன ான
ம ட
ம ௌ
ம ல்
ம ரு
ம ாவ
ம ட்டு
ய ்க
ர ில்
ல ீ
ல ானது
ள ர்ச்ச
ா ய
ா ண்
ா ரி
ி ப்
ு த்த
ு மொ
ே க்க
ை ப்பட
ொ ப்ப
ோ து
ோ மீ
ோ ட்டிய
ం క
అ ణ
అ వ
అ ంత
అ ంట
అ న్ని
అ ప్ప
అ మె
అ క్షరాస్యత
ఆ సియా
ఇ దే
ఇ ండ
ఇ క్క
ఇ టీ
ఈ శ
ఈ స్
ఎ డ
ఎ ల
ఏ ప్ర
ఐ రో
ఐ క్య
ఒ లం
క ీ
క లు
క ిక
క ాత
క ను
క నుక
క ంటే
క బడ్డ
ఖ ో
ఖ ని
గ త
గ మ
గ ్ర
గ ర్
గ ంగ
గ మన
గ ్రా
గ ెలు
చ ద
చ య
చ ీ
చ ూ
చ వి
చ ూడ
చ ించిన
చ ుకోవడ
జ ల
జ ో
జ ్
జ ిక
జ ్యం
జ మ్మ
ట క
ట ్ర
ట లు
ట న్
ట ్‌
ట ాన్
ట ోర
డ ైన
ఢ ా
ణ ులు
త ర్
త ను
త ంగా
త త్వ
త క్కువ
థ ాలు
థ ్యం
ద ర్
ద గా
ద రా
ద ండ
ద ులు
ధ ీన
న ం
న ూ
న ిక
ప లు
ప ిక
ప వి
ప ్ల
ప ల్ల
ప డు
ప ర్వ
ప తా
ప క్క
ప డిన
ఫ ల
బ ు
బ ౌ
బ ంగ
భ వ
భ క్తి
భ ాతో
మ ్
మ ాత
మ ించ
మ ిత
మ రో
య ాత్ర
య మించ
ర కాలు
ర ికా
ర చయ
ల ౌ
ల కొ
ల మె
ల స్య
ళ ా
ళ ి
వ ం
వ ిం
వ ంత
వ రు
వ ైన
వ ార్
వ త్ర
వ నాలు
వ ాయు
శ క
శ ి
శ ీ
శ ై
శ ో
శ కు
ష ం
ష యాలు
స న
స ీ
స ె
స ాల
స ిక్
హ ో
హ ్ర
ా మ
ా న్ని
ా డే
ి మాన
ీ ం
ీ క్ష
ీ షు
ు త్
ూ నది
ౌ ర
్ మా
‌ సభ
‌ కాత
்க ை
ிய ா
ம் ச
ம் ம
an i
ந்த ர
in tro
in vol
க்க ான
க்க ப்படுகிறது
ப்ப ில்
ப்ப ாக
ப்ப ுக்
er a
on es
ட்ட ர்கள்
re new
re ach
re duced
al i
al ity
ార ి
di an
di sh
at ing
ர் ப்
లు గా
ar a
ar d
ar ies
ar ma
இந்த ோ
of ile
లో ను
లో మీ
as h
as soci
it ect
స్ వీ
స్ కరణ
స్ లిం
ic es
மற்ற ுமொ
is s
ாவ ிட
19 35
மு ள்ள
மு டைய
மு த்திர
மு ந்தைய
ది న
ప్ర దేశ
ప్ర ాయ
ప్ర సి
ప్ర త్య
ప్ర యో
ప్ర ీం
దేశ ీ
దేశ ాలు
ాల ే
கா ர
கா ற்ற
கா ந்தி
பா ண
பா டு
பா றை
பா ணி
ில ுமே
om y
ర్ తి
ర్ పు
ర్ జాతీయ
ర్ చు
ర్ థ్యం
to ok
to uch
భారత ం
భారత ్‌
ou l
க்கு ட்ப
న్న ీ
న్న ై
र् तगा
டி த்து
பெ ண்கள்
பெ ண்களுக்கு
గా న్ని
வை கள
வை க்கப்பட்ட
வை த்தது
स् लि
प्र शासन
प्र त्य
प्र चल
प्र ौद्योग
ని పు
ని డి
ని యమించ
ने मा
వి లు
వి మాన
వి శ్
వి షయాలు
వి దేశీ
இந்தியாவ ுக்குள்
வா ழ
క్ టోర
ాత ం
ాత ి
ాత ్మా
கொ ள்
போ ல்
li ance
தி ச
தி ப்
ப்பட ியாக
ரச ்
ాన ీ
ాన ు
ాన ్య
உள்ள னர்
உள்ள ூர்
ad v
ad ually
தா ர்ப்
தா ரச்
वि यत
ండ ్
ము లు
ము డి
ము స్లిం
The ir
ch ange
திக ா
मा ल
मा ध्य
मा जिक
ப்பு ப்
ப்பு ச்
ిన ీ
நில வர
நில ையானது
சம வெளிய
பு த்த
பு த்திர
மா றாக
తి రు
స్త ులు
స్త ారు
सा ह
सा माजिक
ce ut
ுக்கு த்
न् ध
पर ी
पर े
पर ्य
be low
be fore
se l
ంది ంది
सं गी
செ ழி
ast ri
மைய ானது
மைய ுடைய
con so
con duc
201 8
res ult
సం స్కరణ
क्ष र
வெ ள்ள
ag ain
को ई
மாக க்
పు కో
పు తూ
స్థ ావర
भा ष
un e
அமை ந்தது
200 2
wh en
wh ere
ంట ి
பொரு ள்
வு ட
க்கப்பட்ட ுள்ளன
பர த
భా విస్తారు
భా గాన్ని
with in
im e
ex ts
ex ternal
அதிக மாக
राज धान
राज नै
சா ய
சா ராத
वा स
दे व
दे खा
are n
ல்ல ி
ஆகிய ோர்
சிய ா
ab ly
ab out
ab ility
వా దం
సా హ
సా మా
ain ed
ாள ர்களைக்
ut ed
పా వ
పా ంత
పా డు
மிக ு
வீ ர
வைய ின்
வைய ில்
et work
inc t
भी ल
ay back
el ected
el ites
நீ ள
కూడ ి
కూడ ుకొ
జాత ులు
्या दा
కో ట్ల
క్ర ి
்கள ில்
த்தை த்
sp or
तर ह
కా హార
కా పాడు
చ్చ ే
నే రే
మొ గలు
195 6
ure d
ంచ ిన
దు గా
మా ట్ల
యా ళం
பொருளா தாரச்
हि ं
हि स्
ak sh
me at
ती स
ती सर
నా థ
बा हरी
id ed
202 4
202 4இல்
படி ப்படியாக
తర ాలు
பொருளாதார ம்
பொருளாதார மாக
रू स
pro duc
pro cess
pro xim
குறிப்ப ிட்ட
ap proxim
గు బా
వచ్చ ని
gen ous
we ap
end ing
मु स्लि
pl es
pl ate
por tion
por ted
వే ద
వే ల
இல ிருந்து
வந்த து
जन वरी
కాల ే
డి స్
ద్ర ా
அமைப்ப ை
அமைப்ப ின்
இரண்ட ாம்
ंत्र िक
af f
శా సన
దేశాల ను
தலை வர்
நூ ல்கள
மீ தான
ous ly
ची फ
CE E
ఎన్న ుకో
ఎన్న ుకుంట
కి లోమీ
குடிய ிரு
குடிய ேற்ற
பெரிய தாகும்
பாரம்பரிய ங்கள்
197 5
26 న
part ition
குறை ந்த
up per
చె ప్
చె ంద
చె ందు
చె న్నై
వ్యవస్థ కు
मान सू
भाषा एँ
కే తిక
తు లతో
ங்களை ச்
అధికార ం
सरकार ें
जी त
இவ ர்கள்
காரண ம்
வடிவ ங்களில்
త్య ం
పర ్యాయ
పర ీక్ష
పరి పాలన
మీ దగా
వర ీ
సు ప్రీం
ప్రపంచ ములో
ஆண்டுகள ுக்கும்
స్థాన ాలను
భాష లను
ప్రాంత ీయ
ప్రాంత ాల్లో
రాజ్య ంగా
மொழ ிகள்
Hindu st
कृ ष
जिस का
dec ades
qu ality
दि ल्
டுகள ை
దాయ ంలో
వార ి
వర్ తి
సభ ను
சியாவ ுடன்
தொழில் நுட்ப
पु रा
पु र्तगा
Asi an
சீ க்கிய
திர ாவிட
பண்பா ட்டில்
பேரரச ானது
सि ंह
सि नेमा
இடைய ிலான
ூர் வ
జనా భాతో
మి స్తు
రెండ వ
రెండ ో
లం క
లా హో
వె ల్ల
reas ing
ప్రజ లు
ప్రభు త్వాన్ని
மாநில ங்கள்
இராணுவ த்
पूर्व ी
oc rat
முன்ன ே
ect ive
பிரி வுகள
மேற்கு ப்
fore ign
ph arma
ric a
vi dian
लग ा
கிர ேக்க
పూ ర్తి
పో యింది
మన దేశం
వు తుంది
முறைய ே
ముఖ్య ంగా
స్త్ర ీలు
సాం కేతిక
मिल ियन
do wn
war s
war ds
பங்க ு
பங்க ெடுத்த
ext ant
बना ई
42 2
ta x
உற்ப த்தியில்
అతి పెద్ద
జరి గే
మహ ి
మహ ాత్మా
క్రీడ ా
క్రీడ లలో
tradition ally
అయిన ా
வணிக ம்
Af rica
பத விய
மலை த்
ுக்க ாக
தொலை தூர
நிலைய ாக
அடிப்பட ையில்
நிறுவன ம்
நுட்ப த்
Ma ur
சோ தன
வகை கள
గో దా
గో ళిక
గిన ది
జన తా
జన వరి
లే దు
ప్రస్తు తము
క్క ను
సాధ ించిన
కాంగ్రె స్
ాబ్ ది
ரீதிய ான
बढ़ कर
स्थ ि
சந்த ை
ல்கள ில்
காங்கிர ச
ament al
வரலா ற்று
மூன்ற ு
வங்காள த்தின்
number s
उप महाद्वीप
वे श
संघ ीय
संघ र्ष
An cient
Con stit
மர ப
ఉప యో
భూ భాగం
భూ టాన్
మాన ం
యు గ
రంగ ంలో
వల న
వల స
erg y
ప్రతి పక్ష
విస్త ీర్
sup port
நகர ப்
நகர் ப்
सैन िक
bi an
பே ர்
exp ress
சேர்ந்த வையாக
உறுப்பின ர்கள
வெளிய ிட
अन् तर
आध ार
शु रु
समा प्त
पश्चि मी
Al l
பரி மாற
గణ తంత్ర
నె లకొ
మాత్ర మే
సమా జ
స్వ తం
సామ ర్థ్యం
நாடாளுமன்ற த்தின்
கடற்கர ைகள்
பொருட்கள ாக
உயிரின ப்
ఉత్తర ాన
బ్రి టీ
influ ence
ప్పటిక ినీ
సింధ ూనది
மனித ர்கள்
సరిహద్దు గా
సౌకర్య ాలు
సౌకర్య ాలలో
गु प्त
hist ory
இப்ப ோட்டிய
உட ்க
ஐரோ வா
கங்க ை
பழ க்க
பழ மையான
constitution al
develop ment
உருவாக ியது
இதற்கு ப்
அதிகரித்த ுள்ளது
தென்னிந்திய ாவில்
ஆட்சிய ாள
కళ లు
చైన ా
చైన ాను
తూ ర్పు
తమి ళ
రూ పాంత
సమ రం
సార స్వతం
முத லில்
பாக்கித்த ான
lead er
புது ப்ப
பிரதம ர்
సంఖ్య ా
அதிகா ரப்ப
நீடித்த ிருந்தது
రైల్వే శాఖ
పాలన లో
செய்த து
ప్రపంచంలో ని
சீன ா
వెబ ్
ప్రజా దర
பஞ்சா ப்
సముద్ర తీ
స్వాతంత్ర ్యం
నిర్వహ ించింది
विस्त ार
tro pical
இமய மல
தற்க ுக்
பால ின
பால ூட்ட
தொடர்ச்ச ி
தொடர்ச்ச ியான
தெற்கா சிய
cook ing
mathemat ics
ஒன்றிய ப்
Plate au
Se a
great er
sing le
sch ool
vent ion
पे क्ष
அடைய ாள
பங்கள ி
చి రు
నాయ కత్వ
పద వి
మల యాళం
సూ చించిన
హా కీ
ిస్త ారు
లోక్ ‌సభ
కుల ాలు
కుంట ూ
కుంట ారు
నిర్ మ
ాయు త
ades h
old est
righ t
righ ts
ద్వీ ప
தொடர் பு
సంవత్ సర
expor ts
निर पेक्ष
contri but
contri bution
வருமான மானது
feat ures
మేన ని
రాజ్యాలు గా
సభ్య ు
సభ్య ులు
common ly
விளையாட்டு ப்
பல்வகை மை
ఆధార పడిన
సామ్రా జ్య
సామ్రా జ్యం
బ్రిటి ష్
బ్రిటి షు
குடும்ப ங்கள்
పశ్చ ిమ
పశ్చ ిమాన
agricult ure
agricult ural
தேர்ந்தெடு க்கப்படுக
इंड िया
लोग ों
cru st
tur ned
ஆதி க்க
ஆங்கில ம்
இறைய ாண்
தல ைய
மறை ப்பு
rel ations
arch itect
விவ சாய
அமைச்ச ர
குறிக்க ப்
sho w
வரலாற்ற ாளர்கள்
இறக்கு மதிய
direct ly
ஆப்பிரிக்க ாவில்
घोष णा
पं जा
विक सित
cap it
ஆக்க ிர
கைய ொப்ப
தக வல்
வய து
வறு மை
ఆహార ం
ఇంగ్ల ీషు
ఉండ టం
కింద కు
టై టి
టర్ లకు
పార్ లమె
భర త
భౌ గోళిక
మూ ల
మౌ ర్య
సహ స్ర
సైన ిక
సార్ వత్ర
హై దరా
indi genous
குசரா த்தின்
ప్రారంభ ించ
பார்க்க ப்படுகிறது
ర్ష ణ
ర్‌ ల
విద్య ుత్
நிலப்பரப்ப ில்
సంకీర్ ణ
పురు షు
స్థి తి
ாளராக வும்
కూడుకు ని
కోల్ ‌కాత
compos ed
నేపాల ్
పాలించ ారు
ఎన్నిక ల్లో
రాజ్యాంగ ం
viol ence
commer cial
బడత ారు
మహా సముద్రం
జనగణ న
ప్రతిపాదన కు
మొదలైన వి
ఏర్పడ్డ ాయి
ஏற்றுமதிய ில்
நெருக்க மான
కార్యక్రమ ాలు
ఆఫ్ఘ నిస్తాన్
தவிர்த்த ு
జరుపు కుంటారు
పీఠ భూ
బంగ్లాదేశ ్‌
శెలవు దినాలు
హిమాల య
wa ist
उस के
कह ते
जै से
अमेरि का
Bra hm
Bhar at
Pr ofile
glo bal
hou se
sec ular
தட்ட ானது
மண்ட ல
மகள ிர்
வதில் லை
recor ded
enac ted
estim ated
import ant
spe ak
சேவைய ாற்ற
continu ed
கருத ப்படுகிறது
கருதுக ின்றனர்
legis lat
இணையத்த ளம்
differ ent
Kashm ir
establish ed
आन् दोलन
जू न
तन त
दृष्ट ि
BB C
CI A
Dra vidian
Gh ats
Ho wever
Langu ages
Sing h
dr amas
fund amental
pra ct
अभ िया
छो टे
नदिया ँ
सल् तनत
அன ு
அய ல்
அல ுவ
அப்ப ோது
ஆரம் ப
இன்ன ும்
ஊடு ரு
கில ோமீ
டிர ில்லியன்
மௌ ரிய
மரு த்துவ
மட்டு மே
అంత ర్జాతీయ
అమె రికా
ఇండ ో
ఈశ ాన్య
ఈస్ ట్
ఎల క్టోర
ఏప్ర ిల్
ఐరో పా
కను మలు
కబడ్డ ీ
ఖని జాలు
గెలు చుకోవడ
చూడ ండి
జమ్మ ూ
ట్ర ో
ఢా కా
తర్ వాత
పిక ్‌
పవి త్ర
పక్క న
బౌ ద్ధ
బంగ ారు
రచయ ిత
లౌ కిక
மற்றுமொ ரு
ప్రసి ద్ధి
భారత్‌ లో
प्रौद्योग िकी
నిపు ణులు
నిడి వి
माध्य म
நிலவர ப்
తిరు గుబా
ceut ical
संगी त
conso lid
conduc ted
result ing
స్థావర ాలు
राजधान ी
राजनै तिक
సామా జిక
కూడుకొ ని
కాపాడు కుంటూ
నేరే డు
మాట్ల ాడే
approxim ately
मुस्लि म
ఎన్నుకో బడతారు
కిలోమీ టర్లకు
చెప్ పుకో
చెంద ాయి
చెందు తున్న
मानसू न
పర్యాయ ాలు
दिल् ली
ocrat ic
pharma ceutical
పూర్తి గా
ఉపయో గి
இப்போட்டிய ை
ప్రజాదర ణ
సూచించిన ట్లు
సహస్ర ాబ్ది
సార్వత్ర ిక
కోల్‌కాత ా
கிலோமீ ட்டர்கள்
ఎలక్టోర ల్
గెలుచుకోవడ ం
తిరుగుబా టు
1 000
1 21
4 5
6 00
7 5
7 8
o t
19 30
ch ived
200 7
202 1
198 4
197 4
Ar chived
Re public
3 3
n s
mon soon
ं ट
अ ग
अ ने
अ ति
अ ल्
आ ज
आ प
आ य
आ स
इ से
उ से
उ न्हें
उ ष्ण
ए व
क प
क श्
क ्यों
च ो
च ित
च ली
ज ट
ज ों
ज मा
ट क
ट ल
ट ा
ढ ा
त ीय
त नाव
द ु
द ों
प त्
फ ा
फ ैली
ब ि
ब जट
भ ु
भ ्यता
म ार्
म स्वरूप
य ि
य हाँ
र ख
र ल
ल ै
ल ौ
ल ड़ा
श हर
श स्त्र
श हरी
श िक्
स न्
स हा
स क्र
स भ्यता
ह ॉ
ा मस्वरूप
े क
े क्षा
ो त्
१ ०
२ २
४ ०
४ ७
का लीन
प्र का
प्र िय
प्र दान
प्र णा
प्र भु
ने ह
रा जा
ना गा
ना गर
क् ट
वि रो
वि शेष
मा ता
िया ं
सा गर
न् त्र
पर िण
सं ग
कर ती
कर ते
क्ष ण
त्र ि
भा गी
राज वंश
वा स्त
हा ल
त् न
त् म
पा त
पा न
पा या
पा ँच
कि ए
कि सी
नि म्
नि वेश
सम झ
सम ृद्ध
शा ली
ली वि
इस में
इस का
ती न
हो ना
राज्य सभा
जि न्हें
पू रा
पू रे
द्र ो
ले कर
ंध ु
भाषा एं
जी वन
दि रा
पु रु
सि ंधु
बंध ीय
मी र
सद न
साम रिक
उत्तर ी
तु लना
मंत्र िम
०० ०
स्कृ तिक
बढ़ ती
ष् क
उप योग
टे लीवि
च् छ
शु ष्क
सू ची
गु जरा
मो हन
लोक ता
लोक प्रिय
संबंध ों
हिन्द ु
मैदान ी
उन के
उन की
अव शेष
कार्य काल
कार्य पालिका
२०० ४
ण्ड ल
मौ र्य
जिन में
सदस ्य
सदस ्यों
लं का
लं बे
परंपरा गत
आग मन
ऊँ ची
डा लर
सो वियत
विज य
इं दिरा
इस् ला
कटि बंधीय
श्री लंका
सां स्कृतिक
१९५ ०
अमरी की
नौ सेना
पहु ँच
फ्रा ंस
बौ द्ध
्ञ ान
प्रत्य ेक
परी क्षण
पर्य टन
भाष ी
कृष ि
स्थि ति
शुरु आत
पंजा ब
अने क
कश् मीर
शिक् षा
सहा यक
सक्र िय
हॉ की
प्रणा ली
नागर िक
परिण ामस्वरूप
पुरु ष
मंत्रिम ण्डल
( "
0 7
1 20
1 42
3 2
4 8
5 2
5 3
5 9
7 000
9 ஆம்
A k
A sh
B ang
B ay
D A
D al
D ance
E x
E ar
E con
F or
F ron
G eograph
H O
K al
L ank
M al
M ar
M id
M yan
N on
N ic
N DA
P ol
P all
S o
S he
S ri
T o
T em
T reat
U PA
V a
V i
W i
W ayback
W HO
a ic
a ut
b on
b es
b ly
b ri
c u
c le
c ul
c ro
c ut
c rit
c ame
c av
c ount
c lim
c ivil
c ould
d ar
d ro
d ha
d ones
e z
e ly
e ff
e ign
f em
f all
g n
g as
g ation
g et
h u
h an
h ig
i i
i ly
i ther
j ect
k ed
k il
k et
k ame
l aw
l adesh
m ig
m arg
m uch
m amm
n d
n am
n ation
n ear
n ame
p at
p tion
p ast
p ts
p et
r an
r ing
r ound
r ange
s il
s mo
s im
s over
s low
s av
s ect
s omet
s ites
t re
t est
t exts
u e
u ent
v al
v ic
v is
v arn
w ould
z e
அ து
அ ல்
அ ங்க
அ கா
அ ரி
அ ச்ச
அ சா
அ தே
அ ணி
அ தற்கு
அ ண்டை
ஆ டை
ஆ தார
ஆ ய்
ஆ ற்று
இ ம்
இ டை
இ ண்டிய
உ ள
உ டை
ஊ ட்ட
எ ல்ல
ஐ க்
ஒ வ்
க ச
க ே
க ப்ப
க ேர
க டை
க ன்ன
க மீ
ங ்
ச ய
ச ர
ச ம்
ச ல்
ச கா
ச த்
ச வா
ச ப்பா
ச ற்று
ஜ ி
ஜ வு
ட ம்
ட ிக
ட பூ
ண ய
ண ம்
ண ிகள்
த ங்க
த ாவ
த ானது
த ட்ச
த டை
த ைப்
ந ிக்க
ன ே
ப ட
ப ன
ப ில
ப ுள்ள
ப ுகள
ப திய
ப டுத்த
ப ல்ல
ம க
ம ங்க
ம ித்த
ம ணி
ம ும்ப
ய ில்
ர ங்க
ர ையும்
ல க
ல ாவ
ள ை
வ ற
வ ம்
வ ன்
வ ிக
வ ுள்ளது
வ கி
வ ிக்
வ ொரு
ஹ ி
ஹ வு
ா ட
ா தார
ீ ன்
ீ டு
ு ந்து
ு வின
ை க்கால
ொ ள்க
ோ ள
ோ பார்
்க ்க
து ற
து டு
து ல்ல
th or
th reat
th ose
ன் ம
an a
an ch
an ag
an ies
an ted
an ism
an ced
an other
ல் வாய
ந்த ன
ந்த ்
in it
in ing
in ated
in stitution
க்க ள
க்க டி
க்க லை
க்க வோ
ப்ப ான
ப்ப ந்து
the n
the se
த்த ுள்ளது
த்த னர்
er gency
on d
on ial
ரு க்கு
re st
re cent
re co
re port
re fer
re ven
ைய ிலிருந்து
en ed
en sive
en ergy
st and
st ri
di a
di t
di ent
di se
di ment
di scri
at ure
ar ts
ar nat
ed ul
ங்க ா
ங்க ாக
and ing
In ter
In dones
or o
or al
or ally
ுக ு
ண்ட ி
ிக ர
ிக ா
ிக ுட
Indi ra
is ol
ing s
ிர ா
ிர ி
ாவ ்
19 th
மு டிய
மு னை
மு ழு
மு டிக
20 th
ent er
பா ட்ட
ில ுக்கு
om ing
to wn
to day
to tal
்ச ்ச
ிற ்கு
டி க்கப்பட்ட
பெ ண்கள
ங்கள ான
ங்கள ுக்கும்
ங்கள ையுடைய
தொ ன்ம
வை க்
ுள்ள னர்
ுள்ள ார்
ur id
ur red
பொ ழு
பொ றிய
le ve
இந்தியாவ ானது
வா ச
வா த
வா ழ்க
கொ டுத்த
போ யின
வி டு
வி மான
வி சய
li st
li ed
li es
li ef
li ke
ப்பட ை
ப்பட ாத
ver ty
am s
am ple
ற்க டிக்கப்பட்ட
உள்ள ார்
ad a
ad dition
ad ded
ad her
il way
தா ய
தா ன்
தா ய்
தா ண்டிய
தா ராள
நா ள்
நா ணய
த்து றை
த்து தல்
ol ved
ri vers
ch ed
ch ine
ch os
ch urid
திக ள்
திக ழ்
ப்பு டைய
em bly
ro le
நில ையின்
நில ைகள்
ra p
ra ther
ra cy
ra ilway
சம வெளி
பு ட
பு ரி
திய ான
மா றி
ce an
வே ண்டும்
வே திப்
ve get
சு ய
சு வைய
be ing
be long
be ll
be lief
se par
se als
செ து
பிர ச்ச
பிர தேச
ரா ட்ட
மைய ும்
மைய ைக்
con ce
est ic
lo ss
lo ose
கள ை
res er
ிருந்த ன
ிருந்த னர்
கால ம்
கால த்த
று த்த
று வதற்கு
இருந்த னர்
ச்ச ி
மாக த்
மாக வும்
லா ல்
லா ந்து
de l
de vo
un i
un touch
அமை தி
தன் மை
200 7இல்
ir t
வர ின்
வர தட்ச
வு ப்
du e
du ct
mo ist
பர ண
im es
ex change
ex ample
சா ர்
சா ஸ்த
உரு வ
are a
rom ise
ர்கள ும்
ஆகிய வையாகும்
ang ed
விய த்
po verty
கி டை
சிய ப்
ab ad
ab les
ac ed
ac tion
ac ter
ac ross
சி ப்
சி க்க
சி த்த
சி ங்
si x
தெ ல
தெ ளி
கோ டிய
கோ டியாக
உலக ப்
உலக ிலேயே
us h
us cri
வைய ானது
நாட ாகும்
மொ க
ிட ும்
inc ome
ிகள ைக்
ுட னான
ிக்க ும்
ிக்க ுக்
per s
கூ ற
இத ன
இத ற்க
போது ம்
தார ோ
199 5
இரு க்கு
நட ந்த
195 7
cont ain
cont ains
ult ure
196 4
sh a
sh or
sh are
id ly
சமய த்தைச்
உய ர்ந்த
உய ிர்
அதிகரி ப்ப
அதிகரி க்கும்
பொருளாதார க்
pro tec
gen ce
we alth
form al
iv ity
pl ay
pl ains
por ts
ha ving
இல ங்க
ப்பா ட்ட
அமைப்ப ில்
அமைப்ப ுகள்
இரண்ட ிலுமே
198 1
198 5
இட த்தில்
இரா ச
ass ert
பெற்ற ன
மூ ல
low s
உருவா க்கும்
உருவா க்கப்பட்டது
உருவா யின
ஞ்ச தாரோ
வட கிழக்கு
ant a
197 2
bec oming
part ic
குறை ந்தது
தாக க்
தாக வும்
வரு வாய
வரு க்குப்
our ces
செய ல
செய லாட்சி
பகுதிய ை
பகுதிய ின்
நிற ுவின
எண்ண ப்படுகிறது
சே ர்க்க
ைகள ை
தொழ ில
15 00
அடி க்கடி
ine quality
lat ter
தோ ற்ற
தோ ற்கடிக்கப்பட்ட
வன வு
விர ிகுட
வடிவ ம்
வடிவ மானது
சமூக ப்
சமூக க்
கூட்ட மைப்பு
Th ar
government s
இய ற்க
இய க்கம்
கட்ட ாய
minist ers
நிறுவ ப்பட்ட
1950 s
dec ade
pri mary
ிரு க்கும்
தொடங்க ி
தொடங்க ின
popul ous
குறிப்பிட ப்பட்டுள்ளது
1947 இல்
ok a
உண வுகள
உண வின்
உண வுகள்
கல ையின்
கல ையானது
கல க்கின்றன
சை வ
திர ைத்
திர ைப்பட
நேர ங்களில்
நேர டியாக
பகுதிகள ை
பேரரச ின்
சட்ட ங்கள்
ection s
இராணுவ ச்
த்திற்கு ள்
16 0
cast es
oc racy
முன்ன ரே
பிரி க்கப்பட்ட
பிரி வானது
மேற்கு த்
அரசாங்க த்தின்
அரசாங்க த்தை
வீத மானது
வீத ங்களானவை
உயிர ித்
pre domin
par ts
ric ket
தொக ையில்
தொக ையுடைய
மாற்ற ியது
என்ப தை
நி தி
நி திய
நி ர்வ
பங்க ை
மெ து
மெ ன்
ான் மர்
பெய ர்
வெள ிக்
ext ensive
மக்கள ை
மக்கள ில்
1991 ஆம்
அறி வி
அறி முக
கண்ட து
தீ வுகள்
செய்ய ும்
செய்ய ப்பட்டன
நடத்த ப்படுகின்றன
நடத்த வுள்ளது
class es
பாதுகா க்கப்பட்ட
ca use
அளவ ில்
சிற ப்ப
பத வி
பத ிலுக்கு
ாம ல்
ப்படு வதில்லை
காண ப்படும்
காண ப்படுகின்றன
தொலை த்
வாழ் ந்து
வாழ் விட
நாடுகள ுடன்
நிறுவன ங்கள்
நிறுவன த்தின்
நிறுவன மானது
Ma chine
cult ural
cult ures
main t
சோ ழ
சோ வியத்
பக ்தி
ition s
urban isation
இரண்டு மே
அனைத்து ப்
ரீதிய ில்
ரீதிய ிலான
13 th
Bud dha
gr adually
tr ade
இணை க்கப்பட்ட
இணை ப்புகள்
மிய ான்மர்
வரலா று
fol k
les s
மதிய ள
sup ported
north west
நகர மயமாக்க
வருக ின்றன
Eur as
ris ing
பே சுக
பண்ட ைய
பண்ட ைக்கால
set ting
செல ு
வெற்ற ிய
வெற்ற ிகர
exp ans
comp anies
comp romise
இலக்கிய மானது
எண்ணிக்க ையில்
உறுப்பின ர்
2022 இல்
.. .
Ne w
other s
ஆசிய ா
ஏற்பட்ட து
சொ ற்ப
பரி மாற்ற
வக ைப்
வக ையில்
வகு ப்பின
கடற்கர ைகளில்
பொருட்கள ின்
உயிரின ங்கள்
உள்ளடக்கிய தாக
1951 ஆம்
Mo dern
Mo hen
bas in
ev al
ng th
pres ident
உட ன
எதிர் பார்க்கப்படுகிறது
வில ை
வில க்க
வில ங்கு
முடி ந்த
காட்ட ுகின்றன
mark ed
கட்டுப்பா ட்டில்
கட்டுப்பா ட்டை
முசுலி ம
op pos
ஆட்சிய ின்
இன ங்களாக
arm ies
offic e
வாய் ப்பு
நாயக க்
பிராந்திய க்
app ear
185 7
185 8
ograph ics
forest s
கணக்கெடு ப்பில்
தசாப்த ங்களின்
sig ned
Is lands
col l
col onial
ga ve
mer ch
nat al
தற்க ாக
நடை முறை
நடை பெற்றது
disp utes
தாங்க ப்பட்ட
2009 ஆம்
தெற்கா சியாவ
soci ety
gener ally
mathemat ical
விளை வாக
மதிப்ப ிட
விரிவ டைய
விரிவ டைந்த
Himalay an
Jan ata
dra in
ob ar
sch edul
tri bal
அழி ந்து
எதிர ான
எதிர ்த்த
சது ப்பு
omet res
சுல்தான கம்
தொடர் ப
சைன ம்
scri pt
பெயர ளவு
உற்பத்தி ப்
trans mit
influen ces
Sikh ism
தேர்ந்தெடு க்கப்பட்ட
Dem ographics
bre ath
cru cial
man uscri
wan a
அழை க்கப்படும்
ஆதி க்கம்
ஆட்சி க்கு
உண் மையில்
கடு மைய
கடு மையான
ஜன தா
ஜன நாயகக்
மோ க
ஸ்ட ர்
animal s
rel ated
remain ing
பாதி க்கப்பட்டுள்ளது
விவ கார
medi ately
பொதுவான வையாக
prov ided
இராச்சிய ங்கள்
marri ages
கூட்டணிய ானது
உணவு ப்
அறிக்க ையின்
அறிக்க ையானது
இறக்கு மதி
origin ally
திருமண ங்கள்
Ara bian
Bi o
அன்ற ிலிருந்து
அணிய ப்படும்
இன்ற ிய
சக ்தி
தய ாரி
தற்கா ல
தற்கா ப்பு
பீ டபூ
stat us
புர வல
2017 ஆம்
sum mer
endem ic
அமைப்புகள ானவை
தலைவர ாக
உற்பத்திய ானது
சனநாயக க்
Islam ic
அமெரிக்க ாவுக்கு
வேலைப்பா டுகள
ஏற்படுத்த ியது
பூர்வீ க
பூர்வீ கமாக
தென்கிழ க்கு
தென்கிழ க்கா
Nor th
aver age
bro ad
gu ard
mak es
vill age
ஆக்கிய ுள்ளது
நு ழை
நுக ர்வ
independ ence
str ong
stre ngth
stru ct
organ isation
காடுகள ின்
liber al
administ ration
தாக்கு தல்
char acter
பிரதி பல
தொடுக ற
cons ists
resp on
resident s
வெட்ட ப்பட்ட
த்திற்க ான
முக்கியத்துவ ம்
உறுதி ப்படுத்த
polic ies
increasing ly
செலவீன மானது
தமிழ ில்
திறன ில்
curren cy
employ ed
தக்காண ப்
சீர்திருத்த ம்
Des ert
Ary an
Ass embly
Civil isation
Dec can
Gup ta
Gree k
Guj ar
go ods
hab it
mult i
saf e
writ ten
wild life
அர ப
இக்க ொள்க
கிற ித்த
நல வாய
மட ங்காக
intro duced
reach ed
dish es
இந்தோ னே
காற்ற ுகளை
oul der
க்குட்ப ட்ட
வாழ ும்
கொள் வனவு
திச ையில்
sel f
weap ons
சீக்கிய ம்
முன்னே றிய
பங்கெடுத்த ுள்ளது
Maur ya
Constit uent
அதிகாரப்ப ூர்வ
school s
contribution s
தேர்ந்தெடுக்கப்படுக ின்றனர்
architect ure
விவசாய ிகள்
capit a
ஆக்கிர மித்த
pract ices
அனு மதியள
அலுவ ல்
ஆரம்ப ித்தது
Ash oka
Bang ladesh
Ear ly
Fron t
Mid dle
Myan mar
Nic obar
Pall av
Treat y
dar o
eign ty
kil ometres
kame ez
law s
marg ins
mamm als
sover eignty
sect or
somet imes
vic t
அல் லாத
ஊட்ட ச்ச
ஒவ் வொரு
கப்ப ல்கள்
கடை சி
சல் வா
சகா ப்த
ஜவு ளி
நிக்க ோபார்
மும்ப ை
விக ித
ஹி ந்து
துடு ப்பாட்ட
துல்ல ிய
reco gn
reven ues
discri min
Inter national
Indones ia
பொழு து
பொறிய ியல்
வாழ்க ்கை
தாய் லாந்து
chos en
churid ars
சுவைய ுடைய
bell ion
பிரச்ச ின
devo tion
வரதட்ச ணை
கோடிய ிலிருந்து
protec ted
வருவாய ்களை
நிர்வ கி
பேசுக ின்றனர்
Mohen jo
schedul ed
transmit ted
ஆக்கிரமித்த ுள்ளது
1 40
P I
S I
m and
20 19
im per
196 6
194 8
imper ial
ं तर
ं जन
अ र्
अ नि
अ सम
अ हिं
अ क्ट
अ च्छ
आ ई
आ र
आ ते
आ कर्म
ई द
ई स्ट
उ ठ
उ भरा
ऊ पर
ऑ फ
ऑ परे
क ल
क मा
क ंप
ख न
ख र
ख े
ख ंड
ग ै
ग ्
ग ों
ग ढ़
ग ्री
च र
च ौ
छ ह
ज ु
ज न्
ज ैन
झ े
झ ार
ट ना
ठ क
ठ ार
ड ि
ड ु
ड े
ड िया
त ब
त ार
त रा
थ ल
द िक
द ियों
न म
न र
न ो
न ार
न ियों
न ृत्य
न दियों
प द
प ो
प क्ष
प ड़ा
प ठार
फ ु
ब द
ब ल
ब हा
ब ियों
ब डी
ब न्ध
भ ो
भ री
म ं
म ल
म ह
म ार
म ना
म ही
म ले
य न
य र
य ें
य द्य
य पालिका
र ों
र िया
र खा
र त्न
ल ू
ल िक
व ृद्ध
श ्र
श िया
श िय
श ्रे
श क्त
श ैली
स ौ
स र्
स ों
स भी
स दी
स मान
स शस्त्र
ह ती
ह ार्
ह त्या
ा फ
ू त
ू ह
ू बर
् ष
१ ७
२ ५
२ ६
५ २
्र ो
का ज
ों ने
स् ति
प्र सार
प्र देशों
प्र गति
ने ट
वि त
वि ध
वि शा
वि मान
वि द्रो
था न
सा मान
सा क्षर
पर ि
कर े
कर ो
कर वा
त्र ी
जा ने
राज भाषा
राज स्थान
वा म
ड़ ियाँ
कार ी
िय ो
पा ई
पा ल
ित ्य
ला ल
भारतीय ों
नि वास
सम ूह
्या त
शा मिल
शा स्त्र
तर िक
वर् षा
दी व
हो ने
मि श्र
जि न्ह
मु द्र
नी ति
सर े
लि ख
लि स
१९ ४७
प् ति
मान व
सरकार ों
क्षेत्र ों
जिस की
जिस ने
बहु मूल
पु न
पु ड़ा
पु लिस
अप ेक्षा
सी मा
सार ी
धर्म ों
मी ल
मी णा
ंड र
बना या
चु की
निर् भर
ज़ ्यादा
सेना ओं
बढ़ ा
बढ़ ने
महा सागर
रु प
केंद्र ीय
स्थ ल
एश न
क्र य
क्र ि
चा ई
पह ली
मन मोहन
मध्य म
सू चना
प्राचीन तम
गु ट
न्या यपालिका
मो र्
मो दी
साम्राज्य ों
लोक सभा
सम् पूर्ण
पार्ट ियों
उन का
स्ट ाफ
स्थान ीय
अव धि
बन ने
स्थाप ित
सक ता
सक ते
संसद ीय
१९९ १
विकास शील
इंड ो
दर् शन
राजनी ति
अन्त र्
अन्त तः
घोष ित
निय ु
निय ंत्र
पं थी
२० १४
केन्द्र शासित
काम काज
सेवा ओं
प्रारम्भ िक
आं दोलन
आं तरिक
आग े
ऊँ चाई
पहा ड़ी
बै ठक
वै दिक
सत पुड़ा
विज ्ञान
वर्ण न
१९८ ४
प्रभाव शाली
घा टी
चला या
छोड़ कर
बंगा ल
प्रचल ित
माल दीव
साह ित्य
हिस् सा
तीसर ी
पुर्तगा ली
लगा तार
अभिया न
अग स्त
आस पास
पत् ति
प्रका श
नेह रू
विरो ध
भागी दारी
वास्त विक
समझ ौ
गुजरा त
लोकता ंत्रिक
इस्ला म
पुरुष ों
अक्ट ूबर
आकर्म ण
ऑपरे शन
कमा ंडर
गै र
गों ड
फु ट
यद्य पि
वृद्ध ि
सौ हार्
विशा ल
विद्रो ह
साक्षर ता
बहुमूल ्य
सौहार् द
" )
% ).
( [
) )
) :
, "
0 5
0 94
1 st
2 30
3 4
3 ஆம்
3 80
4 21
5 4
5 7
5 46
5 62
6 th
6 ஆம்
6 01
6 63
7 1
7 3
7 9
7 th
7 00
7 40
7 31
8 5
8 6
8 7
8 00
9 7
9 40
A j
A ch
A gency
B S
B a
B al
B et
C l
C up
C av
C lim
C arnat
C ulture
C ricket
D is
D om
D ire
E th
E ty
F ol
F ut
G o
G r
G en
G ang
G ond
H Z
H e
H ist
I I
I m
J aw
J har
J amm
J une
K e
K o
K eral
K aver
L i
L aksh
M an
M in
M um
N i
N o
N at
N etwork
O c
O f
O r
O ver
O ld
O cean
P P
P l
P u
P ar
P art
P resident
S in
S im
S ab
S ant
S ome
S ultanate
S arn
T i
T y
T er
T ha
U r
V is
V aj
V edic
W e
Y aksh
Z oro
a em
a im
a ism
a har
b a
b ʱ
b ul
b ra
b our
b uc
b rough
b ai
b ron
b ably
c in
c at
c it
c ing
c il
c tion
c are
c over
c ity
c ak
c iv
c ere
c ris
c ust
c tions
c reasing
d a
d y
d re
d ent
d est
d ry
d ates
d ata
e e
e w
e igh
e ight
e ously
e ither
f r
f il
f ul
f est
f lo
f are
f ac
f oun
f ish
f low
f av
f arm
f lower
f ash
g l
g in
g on
g ro
g ig
g ive
g overn
g ods
g ained
h ā
h al
h or
h am
h ol
h un
h ous
i du
i ff
i fied
j ur
j ay
j ack
k k
k n
k ur
k ill
k ime
l al
l as
l ic
l eng
l ared
l ines
m s
m at
m ay
m ass
m olog
m ales
m ns
n in
n ar
n ic
n ext
n etwork
o th
o or
o li
o ch
o ve
p a
p i
p p
p il
p ically
p ants
p tions
p aren
p ush
r ical
r anges
s he
s ol
s aw
t and
t un
t ies
t ection
t reat
t ext
t led
t able
u su
u de
u fact
v a
v as
v es
v ary
v alley
w ing
w et
w el
x ed
z ed
z es
ə t
ɦ ɪ
ɾ ət
ʊ ˈ
ˈ bʱ
ί α
ό ς
அ ஜ
அ ட்ட
அ க்
அ லை
அ ட்ச
அ டுத்த
அ கி
அ ப்பா
அ தில்
அ வ்
அ திரு
அ வருக்குப்
ஆ ர
ஆ க்
ஆ ந்திர
ஆ வது
ஆ பரண
இ ண்ட
இ டு
இ ப்பு
இ ச்ச
இ வற்ற
இ ளவ
இ க்கி
இ ளம்
இ வற்றில்
இ திகா
ஈ ர்
ஈ டு
உ த
உ ப
உ ந்த
உ த்தி
ஊ ற
ஊ ழ
ஊ ர்
எ ட்டு
எ ந்திர
ஏ ழ்
ஏ ழு
ஒ ழ
ஒ டு
ஒ லி
ஒ ளி
ஒ ழு
ஒ ரே
ஓ ட
ஓ ர
க ௌ
க ும்
க ான
க ுக
க ச்ச
க மும்
க ிகா
ச ட
ச ரி
ச ேர
ச ர்வ
ச ங்கில
ஜ ்
ஜ வக
ஞ ான
ட ா
ட ைக்
ட ேற்ற
ண ்க
ண ிக்
ண ாம
ண க்கான
த க்க
த ரு
த ைய
த ள்ள
த ச்ச
த மான
த ிலிருந்து
த ாவது
த ட்டின்
த மிய
த ல்கள
த ட்ப
ந ிக
ந ின
ந ிட
ந ராக
ந ம்ப
ன ிய
ன ின்
ப ை
ப து
ப ன்
ப க்க
ப ில்
ப சு
ப டைய
ப ந்து
ப டிய
ப ணி
ப வர்கள
ம ம்
ம ரா
ம று
ம சா
ம ன்ன
ம ிருந்து
ம டைந்த
ம ட்டை
ம டித்து
ம தச்ச
ய ி
ய ோ
ய ில
ர ொ
ர த்த
ர ான
ர க்
ர ங்களில்
ர ியாக
ற ும்
ற ைக்
ல ்க
ல வில்லை
ல த்தீ
ள ு
ள ிர
ள ானது
ழ ையா
ழ ்ச்ச
வ ண்ட
வ னை
வ ுக்குப்
வ ரால்
வ ல்லி
ஷ ா
ஷ ்
ா ட்சிய
ா மையை
ி ற்
ி த்து
ீ த
ீ கா
ு ங்கு
ூ ர
ூ சி
ூ ரின்
ெ ழு
ெ ஞ்சதாரோ
ே சியா
ோ ரா
ோ டிய
ோ லிய
ோ ஸ்
ோ ரின்
ோ ரை
் மின்
ం జ
ం తి
ం కా
ం కాగా
ం థాలు
అ ర
అ ల
అ స్
అ ది
అ న్న
అ ల్
అ ంది
అ రు
అ క్ష
అ వర
అ ద్ద
అ లం
అ ధి
అ ంద
అ ఖండ
అ మల
అ రే
అ ంటే
అ ంక
అ ధీన
అ శో
ఆ గ
ఆ లో
ఆ వి
ఆ తి
ఆ క్ర
ఆ యా
ఆ నా
ఆ డు
ఆ ధ్య
ఆ దాయ
ఆ గ్
ఆ వల
ఆ ంగ్ల
ఆ ణి
ఆ చార
ఆ ర్య
ఆ క్షరాస్యత
ఆ టలు
ఆ నం
ఆ లస్య
ఆ దేశాలు
ఇ య
ఇ న్
ఇ ను
ఇ ము
ఇ తి
ఇ స్త
ఇ ంది
ఇ తరు
ఇ ందు
ఇ ప్పటికీ
ఇ తను
ఇ ంటి
ఇ చ్చే
ఇ ంకా
ఉ ర్
ఉ ద్
ఉ పా
ఉ ండి
ఉ దా
ఉ ండు
ఉ ష్ణ
ఉ నిక
ఋ తు
ఎ మ
ఎ దు
ఎ గు
ఎ ల్ల
ఎ ంతో
ఎ గువ
ఏ క
ఏ డ
ఏ డు
ఏ టా
ఏ కత్వ
ఏ ళ్ళ
ఐ దు
ఒ క్
ఒ రి
ఒ లిం
ఒ డిస్
ఓ డ
ఓ టర్
ఔ ట్‌
క ిం
క ర్
క ని
క ాయ
క రా
క ము
క ంట
క ార్
క ిత
క ష్ట
క ట్ట
క మైన
క మీ
క ్యం
క మల
క మేన
క ెట్
క ర్‌
క త్తా
క ానీ
క వరీ
ఖ ిక
ఖ గో
ఖ ర్చు
ఖ ాతం
గ ృ
గ ె
గ తి
గ ల్
గ ించ
గ ులు
గ ింది
గ లి
గ ిన్న
గ నులు
గ ౌర
ఘ న
ఘ ు
ఘ ిక
ఘ ట్ట
ఘ ోర
ఘ ర్షణ
చ ా
చ ో
చ ్
చ ర్
చ ము
చ ిన
చ ులు
చ ింది
చ ిత
చ క్ర
చ ట్ట
ఛ ాయుత
జ ా
జ ె
జ ై
జ ౌ
జ ్ర
జ ాన
జ ిన
జ ంత
జ ైన
జ పా
జ ిత
జ ్‌
జ ెండ
జ నాలు
జ ిల్ల
జ వహ
జ ెట్
ఞ ాన
ట న
ట ో
ట స్
ట ండ
ట ిన
ట ాయి
ట ంలో
ట చే
ట ్యం
ట ్రా
ట ంతో
ట మూ
ఠ ీ
డ ్ర
డ ్య
డ ాల
డ ాలు
డ ింది
డ ్చ
డ ్ల
డ ్‌
డ ానికి
డ ించింది
డ బు
డ మ్
ఢ వి
ణ ే
ణ ిక
ణ ాలు
ణ ించ
ణ ంతో
ణ దారులు
ణ ుల
త ార
త ాయ
త ాన
త రా
త ాయి
త దు
త క్కు
త లం
త గ్
త మై
త మ్య
త ాలతో
త దేశపు
థ న
థ మ
థ ి
థ ాత
థ ాన
థ ార్
ద శ
ద స
ద ూ
ద ృ
ద ాన
ద ీయ
ద ైన
ద ారు
ద ాబ
ద ీన
ద గ్
ద ీర్
ద గినది
ద క్కను
ధ ం
ధ ర
ధ ు
ధ ాల
ధ ిన
ధ రి
ధ నా
ధ ిల్ల
న ృ
న ై
న ో
న లు
న ్య
న ాల
న ర్
న వి
న ంలో
న సా
న ికి
న డు
న నీ
న ాలతో
న వచ్చు
న బడిన
న దులు
న ప్పటికినీ
ప క
ప బ
ప ి
ప స్
ప ది
ప ిన
ప ింది
ప ంలో
ప ూడ
ప ిత
ప రాజ
ప చ్చ
ప లి
ప ట్
ప ించింది
ప కళ
ప టం
ప ించే
ప ిక్
ప స్ర
ప ర్ష
ప బడింది
ప వనాలు
ప ౌర
ప ండ్
ప త్యం
ప టంలో
ఫ ు
ఫ ్ర
ఫ ర్
ఫ రా
ఫ ్ట
ఫ లం
ఫ ిక్
బ ల
బ ై
బ ొ
బ ాల
బ ండ
బ ంగా
బ డ్
బ ిన్న
బ ాబ్
బ ్యా
బ ద్ధం
భ ్య
భ ిం
భ ంగ
భ దాయ
భ జిత
మ య
మ ో
మ ార
మ స్
మ ిం
మ ాల
మ ాయ
మ రా
మ ిన
మ ంత
మ ంలో
మ లి
మ తం
మ ికి
మ ్‌
మ ాల్
మ ిత్ర
మ ణి
మ ంచి
మ సాల
మ ద్రా
మ ంజ
య ి
య ూ
య స్
య ము
య ిన
య ులు
య ంలో
య ంతో
య నులు
య థాత
ర ొ
ర ‌
ర లో
ర ాలు
ర కు
ర ాయ
ర ము
ర ద్
ర త్
ర ంగా
ర క్ష
ర మైన
ర వే
ర మే
ర వీ
ర ించిన
ర క్షరాస్యత
ర ారి
ర ాతి
ర తాయ
ర బద్ధం
ల ిక
ల ిన
ల ైన
ల కాల
ల బె
ల పై
ల హా
ల మానం
ల ఘు
ల బై
ల భ్య
ళ ల
ళ ు
ళ ులు
ళ ూరు
ళ విం
వ త
వ ూ
వ ‌
వ లి
వ స్తు
వ ద్ద
వ మి
వ లను
వ స్థానంలో
వ నాథ
వ జ్ర
వ న్య
శ ే
శ ాల
శ క్
శ ంలో
శ ించే
శ ిల్
శ క్తి
శ ాతం
శ రద్
ష ే
ష న్
ష ాలు
ష ులు
ష కాహార
స ొ
స ాలు
స గా
స ాయ
స ిన
స ల్
స భా
స వా
స త్య
స మి
స రం
స ీలు
స త్తా
స ాయుత
స లహా
హ ె
హ ొ
హ ్
హ ిం
హ ర్
హ ాలు
హ ాయ
హ స్త
హ పు
హ క్కు
హ ్మ
హ ్వ
ా లో
ా ము
ా దు
ా ంబ
ా శ్ర
ా లోయ
ా నిస్తాన్
ా దాయంలో
ా ంతి
ా డ్‌
ా ధిన
ా పక
ి ని
ి చె
ి శ్ర
ి లే
ి రంగ
ి ద్ధి
ి ళ్ళ
ి టన్
ి యనులు
ీ కృ
ీ కరణ
ీ కులు
ు ని
ు ను
ు ల్
ు వు
ు ర్య
ు పూర్వ
ు డైన
ు నిక
ు ళూరు
ూ లా
ూ పం
ృ తంగా
ె స్
ె ర్
ె న్న
ె నే
ె డ్
ె ల్లో
ె క్కను
ే త
ే ష్
ే కమైన
ే ననీ
ే యులు
ై క
ై స్త
ై పో
ై వరు
ో త్
ో ంది
ో క్ష
ో ద్య
ో త్రి
ో ధాల
్ లో
్ తదేశపు
‌ కు
‌ టిక
‌ తంలో
‌ ఫర్
‌ వ‌
்த ிய
ிய ற்
ிய லா
ிய ுள்ளன
ம் சம
து மை
து ப்பா
th m
th ic
ன் மை
an at
an ing
ல் வெள
ந்த ோ
ந்த னர்
ந்த னை
்ட ோ
in al
in form
in no
க்க ப்
க்க ாக
க்க ிறது
க்க ங்களை
க்க ணக்கான
ப்ப க
ப்ப ெ
ப்ப ர்
ப்ப ால்
ப்ப தில்
the s
த்த ும்
த்த ான
த்த ாக
த்த ுக்
er c
er ly
er ial
on ic
on ly
on set
ரு வ
ரு க்குப்
ட்ட ா
ட்ட ி
ட்ட து
ட்ட மைப்பு
ட்ட ிற்கு
్ర ిచె
re ce
re me
re form
re pe
re lat
re pt
re ement
re fl
re forms
re present
re turned
re bellion
ைய ே
ைய ால்
ைய ாள
ைய ைப்
ைய ாகும்
ைய ையும்
ைய ைச்
ைய ாளர்
en n
en ing
en ab
en ces
en house
al a
al ed
al ty
al liance
al wars
ార ణంగా
ార మ్‌
st s
st ant
st ress
st ud
st ian
st aː
st iff
di d
di ed
di fied
ாக ு
at ist
at ts
at tra
at ory
at ives
ர் வை
ர் லால்
లు పలి
ar c
ar as
ar is
ar ter
ar dis
ங்க ுவ
ங்க ைப்
ங்க ுகள்
ங்க ிணை
இந்த ி
இந்த ப்
இந்த ிரா
and s
and y
In creasing
or d
or ation
or ce
or ial
ண்ட ின்
ண்ட ுவ
ண்ட ாமையை
இந்திய ர்களால்
ிக ை
ிக ின்றனர்
లో న్
లో ని
లో కాల
లో పం
as e
as i
as ures
as ions
as ured
it al
it ary
it ics
it te
it ude
స్ లో
స్ వే
స్ వర
స్ లే
స్ టా
స్ టే
స్ వర్ణ
స్ టలు
ic ians
్య ులు
్య ంలో
is ion
is es
is ing
is ans
is ine
is ions
is dic
கு விய
கு ர்த்த
கு ச்சி
ிர ில்
ிர ்கள்
ிர ாவின்
న్ మార్
న్ సీ
న్ లుగా
ாவ ைப்
ாவ ைச்
19 21
19 28
19 01
19 11
மு ற்
மு லா
மு றிய
மு ந்தி
ది ర్
ది రి
ది కి
ది గ్
ది భాగం
ది గువ
దే మాత
ప్ర ార్
ప్ర మా
ప్ర యా
ప్ర ఖ్య
ప్ర ణా
ప్ర దేశాల
ప్ర గతి
ప్ర థమ
ిం పు
ిం సాయుత
20 4
20 30
దేశ ిక
దేశ ము
దేశ రాజకీయ
దేశ ాన్ని
దేశ మంత
దేశ ాధిన
ent ly
ent ial
ent ually
ాల ని
ాల న్నీ
ాల ెక్కను
கா ர்
கா டு
கா சு
கா ட்ச
கா ளி
கா ற்று
கா ட்டின்
கா ய்க
கா ப்பக
பா த
பா ட்டின்
பா ண்டிய
பா யும்
பா ராள
பா சிப்
ిక ం
ిక లు
ిక ులు
ిక ూడ
ில ுள்ள
ில ிருந்த
om s
om ic
ర్ లు
ర్ టి
ర్ కొ
ర్ తా
ర్ సిం
ర్ జాలు
ర్ భవ
ర్ జె
భార ్తదేశపు
భార ‌తంలో
to p
to ber
భారత ంలో
ou ry
న్న త
న్న ా
ాలు న్నాయి
ப்பட்ட ு
ப்பட்ட ுள்ள
டி க்க
த் பூ
ருந்த ு
பெ ங்கள
பெ ண்
ன்ற ும்
ங்கள வை
ங்கள ால்
ங்கள ைத்
ங்கள ுடன்
ங்கள ுக்குப்
ங்கள ுக்கான
ly ing
గా ంచిన
గా యి
தொ ட்ட
வை க்கும்
வை க்கவோ
மை ப்
மை கள்
ur i
కు ండ
కు నే
కు డు
కు డి
కు మార్
కు లం
కు లను
కు మారు
కు డ్య
కు దిర్
కు ర్తా
ని వి
ని వా
ని చ్చ
ని యా
ని వార
ని యో
ని ధి
ని వల్ల
ని లిచ
ని రక్షరాస్యత
ని లబె
ని షే
వి డ
వి డి
వి ధాన
వి స్తు
వి వర
వి శాఖ
వి జన్
వి నాయ
వి తంలో
వి జ్
వి ఫల
వి శి
వి వాదం
వి భజిత
వి శే
వి సభా
இந்தியாவ ைக்
இந்தியாவ ைச்
இந்தியாவ ிலேயே
ాయ తి
ాయ కార
ాయ ీలు
வா று
வா ட்டில்
வா ஸ்த
క్ త
క్ నాల
క్ ‌టిక
ాత ్మ
கொ த்த
கொ டு
கொ ல்க
he st
போ க்க
போ தன
போ ர்த்த
போ ரில்
போ ருக்குப்
வி ண்
வி ப்பு
வி சு
வி வர
வி க்கப்பட்ட
வி னை
ுகள ானவை
li g
li ve
li gion
li ved
li ving
li fer
ver al
ரச ர்கள்
am y
am ed
am end
ాన ెట్
உள்ள தைப்
ad o
ad em
ad we
ad op
ad vent
il s
il ar
il and
il es
il ing
il ding
రా మన
రా టం
రా ణించ
రా మాయ
రా సిన
ను న్న
தா ர்கள்
தா க்கி
தா ஜ்
நா டு
நா த்
நா ட்டில்
நா ட்டிய
த்து ட
த்து ப்
ol ution
ri al
ri es
ri ya
ri ors
ri stian
ரி க்கா
ரி தார்கள்
ండ ర్
ండ మస్
ండ ్యులు
ము ద్ర
ము లకు
ము ందు
ము త్యం
கொண்ட து
கொண்ட ுள்ள
கொண்ட ிருக்க
The y
ch ap
ch ains
ch ild
ch anged
திக ழ்க
ப்பு டி
ப்பு ரி
em per
em iss
ద్ వై
ద్ దిభాగం
ద్ విసభా
ஒரு ங்கிணை
நில ம்
நில க்க
நில க்
நில ங்கள்
நில ைப்
நில த்தை
சம மான
சம நிலையின்
త్ త
త్ తల
பு தி
பு ரோ
பு ல்வாய
திய ின்
மா யின
மா றுவதற்கு
மா ரத்த
மா லத்தீ
తి రి
ల్ స్
ల్ తాన
స్త ూ
స్త ాయి
స్త ానీ
ించ ుకు
ించ వచ్చు
ించ బడింది
ించ ుకోవడ
ce ed
வே ள
வே ர்
வே ண்ட
வே ற்று
வே தம்
வே ங்கைப்
சு டும்
சு ந்தர
சு ரிதார்கள்
be st
be gin
se x
se ats
se diment
for ce
for ti
for table
ist ing
ist ers
செ ஸ்
பிர ீ
பிர பு
பிர ிக்க
பிர ான்
பிர பஞ்ச
பிர ியா
பிர ம்ம
ரா டை
ஆண்ட ுக்கு
ஆண்ட ிலிருந்து
ంత ల
ంత ై
மைய ப்
மைய ாத
con sum
கள ி
கள ாக
கள ுக்கு
రి ట్ల
రి ట్లు
201 4இல்
201 8இல்
res olved
res ources
సం స్థ
సం క్ర
సం ధి
సం గమ
సం దర్
வெ து
வெ ஸ்ட
வெ ண்க
ag ana
ag reement
su c
su per
su pre
மே லாட்சி
கால மே
கால மாக
கால த்தை
கால நிலை
கால மிட
கால த்திற்க
రు గా
రు ష్
రు చులు
இருந்த ே
இருந்த ும்
இருந்த ாலும்
ச்ச ு
மாக ப்
மாக ியுள்ளது
லா ப்
ின ார்
ின ியா
పు రి
పు లి
పు తో
పు త్ర
పు లా
పు ష్
పు నర్
de v
de fe
de leg
de vast
స్థ ‌
స్థ ాయి
స్థ ాపక
స్థ ూలా
un g
un ited
un common
un itary
un resolved
அமை க்க
அமை க்கப்பட்ட
அரச வை
அரச ுகள்
அரச ுகளை
200 5
200 8இல்
ir on
wh at
ంట ో
ంట ుంది
ంట రీ
வர ப்பட்ட
வர த்து
வர ம்பு
ற்ப ண்
ற்ப டை
பொரு த்த
பொரு ளானது
வு ள
வு ச்
க்கப்பட்ட ிருந்த
du ce
mo del
భా జపా
భా విస్తు
ైన ెర్
im pro
im ple
im mediately
ex cav
ex erc
ex isting
அதிக மான
ts po
ts ide
சா மா
சா தன
சா ர்க்க
சா ளு
ంగ ల
உல ர்
இல் லை
இல் லாத
வாக ப்
வாக க்
வாக ையாளர்
ேர ரச
ர்கள ைப்
ர்கள ுக்க
ang ra
ment al
ment ed
விய ா
der ived
po p
po t
கி ளர்ச்ச
ab ove
ac cording
ac cess
சி ந்தனை
వా ద
వా టి
వా దన
వా టిలో
వా మిత్ర
సా మీ
సా కర్‌
సా ఫ్ట
సా నియా
క్ష ం
క్ష ిక
క్ష ంగా
si a
si de
ut e
ut ra
டை ப்பந்து
ఉన్న ట్లు
ఉన్న తంగా
పా ద
పా ండి
పా ండ్యులు
పా క్షిక
over ran
தெ ரி
ப்படுக ிறார்
கோ சி
கோ டை
கோ யில்
கோ துமை
கோ ண்டுவ
ార్ థాలు
ార్ క్‌టిక
உலக ில்
உலக க்கோ
us ing
வீ ழ்ச்ச
வைய ையும்
ిత ం
ిత ే
ిత ంగా
ిత ్యం
art ic
art ists
art istic
art isans
நாட ும்
நாட ான
நாட ுகள்
et ah
ிட ங்களில்
ிட ப்பட்டது
ிட மிருந்து
inc es
ிகள ாக
ிகள ால்
ிகள ைப்
ிகள ுடன்
so le
டிய ா
பல ர்
பல வீன
ழ் வாய்
ష్ట ి
ష్ట ు
ష్ట మైన
ష్ట ్యా
ிக்க ிறது
ிக்க த்தக்க
per cent
el ect
கூ டைப்பந்து
நீ க்கப்பட்டது
நீ டித்து
ప్రా ముఖ్య
ప్రా సె
ప్రా జా
ప్రా ణుల
ప్రా బల
ప్రా దేశిక
రాజ ధాన
కో సం
కో టి
కో డు
కో వార
కో వడ
క్ర ైస్త
199 8இல்
com fortable
sp ic
sp here
sp ending
இரு பது
కా వడ
కా కుండ
ట్ట ు
ట్ట ూ
ట్ట ారు
ట్ట ుకు
ట్ట ెల
నే య
నే సియా
నే రుగా
வள ர்ந்த
க்கா மல்
ther ers
cont ra
cent re
ంచ ే
దు వు
దు స్తులు
పే స్
పే దర
మా మి
మా దిరి
మా ండమస్
యా వత్
యా ండర్
భారతీయ ులు
భారతీయ ుల
భారతీయ ుడైన
me dic
me ga
me aning
ண்ண ின்
co st
co sine
sh y
sh ared
sh ip
sh oulder
నా టి
నా డు
నా మాలు
నా ట్యం
లి సింది
లి థిక
లి యం
లి విజన్
లి యాండర్
వ్య యంతో
వ్య ‌వ‌
సి ద్ధ
సి గ్
సి ద్ధం
్ల ను
త్వ ం
త్వ ాలు
త్వ ంలో
త్వ రలో
id ence
சமய மாக
சமய த்தின்
சமய மானது
சமய த்தையும்
சமய ங்களும்
lu tion
தே வை
తర ించింది
తర తరాలు
பொது வுட
జాతీయ వాదం
జాతీయ ాదాయంలో
பொருளாதார த்
பொருளாதார ங்களில்
రాష్ట్ర పు
రాష్ట్ర ానికి
రాష్ట్ర పత
ig er
pro j
pro duced
pro bably
pro duce
ap s
ap poin
ap utra
గు తో
గు ప్
గు త్తా
గు తాయి
గు నవి
తో ష్ణ
వచ్చ ి
ద్ధ ాలు
ద్ధ లతో
ల్ల ీ
ల్ల ింది
ల్ల ాయి
ల్ల యిన
gen der
we bs
தன து
தன ிக்
end s
end ed
ated ly
form ally
iv a
iv al
iv ing
larg er
pl ant
pl anted
pl aced
కొ క్క
కొ ంక
కొ నసా
కొ లమానం
కొ ద్దిభాగం
కొ త్త
డు ంబ
పాల యింది
పాల కులు
పాల ిటన్
పాల కులను
మైన దే
మైన వి
వే ర్
వే త్తల
భారతదేశ ము
భారతదేశ మే
ha u
வந்த ுள்ளது
வந்த னர்
ப்பா ற்ற
ப்பா டுகளை
ఒక టో
కాల పరి
కాల ాల్లో
డి గించ
ణా న్ని
ణా టక
ణా దికి
మార్ కెట్
அமைப்ப ைப்
இரண்ட ும்
198 5இல்
min i
min or
இட து
இட ங்கள்
இட ங்களில்
இட த்தைப்
ass ical
ass ass
ish ed
பெற்ற ார்
பெற்ற ுள்ளன
18 th
18 20
18 ஆம்
18 91
18 48
af fir
மூ ழ்க
மூ டப்பட்ட
ாண்ட ு
ாண்ட ்
చే త
చే ర
చే సు
చే సే
శా శ్
శా కాహార
్‌ వేర్
முறை ப்
முறை கள்
முறை மையை
దేశాల కు
దేశాల తో
దేశాల కూ
దేశాల ్లో
ough t
low ed
உருவா க்கி
உருவா க்கம்
వ్యవ హార
వ్యవ సాయ
pe ace
கை வின
கை வினை
ame work
og amy
ஞ்ச ி
வட மேற்க
வட க்கே
வட மேற்குப்
ఎన్న ుకొ
కి మీ
టు వంటి
పార ిశ్ర
పంచ ె
పంచ ుకుంట
పంచ ాయతి
ాబ ుని
ాన్ స్
న్ని స్లో
பாரம்பரிய ங்களின்
26 3
26 4
ber cul
mar ry
mar shy
part ies
part ially
குறை வாக
குறை த்தது
குறை பாடு
விள க்கப்படுகிறது
econom ies
Ch and
Ch ol
Ch ess
Ch amp
Ch ristian
Ch hau
தாக வே
చె ంది
చె ందింది
డ్ స్
డ్ మిం
పె ట్రో
పె ట్టారు
செய ற்க
பகுதிய ானது
பகுதிய ளவு
మార్గ ం
మార్గ ము
మార్గ ంలో
మార్గ ాలలో
మార్గ ాలను
మార్గ ాలే
వ్యవస్థ ల
వ్యవస్థ గా
వ్యవస్థ ీకరణ
ct ory
194 9
ார் பற்ற
fo od
fo etic
சே வைகள
மி ட்டது
ைகள ால்
ைகள ானவை
ంబ ే
కృ ష్
కృ ష్ణ
కృ ష్టమైన
తు డు
తు లకాల
తు రుష్
దా టే
దా టిన
stit utes
స్తు ంది
స్తు న్నారు
అధికార క
అధికార ి
అధికార ాలు
అధికార ంలో
అధికార ాన్ని
15 న
15 25
bo tt
என ும்
ஒன்ற ு
ஒன்ற ாக
ஒன்ற ாகும்
ஒன்ற ாகக்
ஒன்ற ாகவும்
கட ந்த
கட லில்
கட ற்படை
கட வுள
்ப ுக்
காரண ிகளைக்
காரண மாயின
sub stant
நூற்றாண்ட ு
நூற்றாண்ட ுகள
நூற்றாண்ட ுகளின்
நூற்றாண்ட ுகளில்
ne igh
தோ ச
பய ன்
பய ிற்
வன வும்
வன வற்றில்
விர ும்ப
வடிவ மாக
வடிவ த்தில்
కర ించింది
కర మేనని
కర ంతై
ట్ కా
దక్ష ణాసియా
పర మైన
పర ్యా
పర చింది
పర మో
పర ోక్ష
పరి ధి
పరి పాలించ
పరి శో
పరి స్థితి
పరి ఢవి
మత ాల
మత ాలతో
మత ాలకు
మత ములు
మత స్తులు
మత ములకు
మీ దుగా
మీ ర్జాలు
మే రో
మే రకు
మే ళవిం
మే షన్
మధ్య ల
మధ్య కాలంలో
మధ్య వర్తి
వర కూ
సు ను
సు మారు
సు దీర్
సు ల్తాన
ప్రపంచ దేశాలలో
ప్రధాన మంత్ర
ద్ద ులు
சமூக ம்
ஆண்டுகள ாகவும்
స్థాన ే
స్థాన ిక
స్థాన ాలు
స్థాన మైన
భాష లలో
భాష లతో
கோடி ப்
கோடி க்கும்
கூட்ட ணிகள்
ప్రాంత ాల
ప్రాంత ాలతో
ప్రాంత ాలకు
రాజ్య ాలను
రాజ్య సమి
పేరు తో
పేరు మీదుగా
17 2
17 th
இய லவில்லை
இய ற்பண்
கட்ட மை
கட்ட த்தின்
மொழ ியாக
மொழ ியின்
inclu ded
inclu des
Hindu s
நிறுவ ப்பட்டன
நிறுவ ப்படுவதற்கு
10 th
10 ஆம்
10 10
1950 ஆம்
dec lin
dec reasing
dec idu
dec lared
டுகள ுக்கு
వార ిగా
వర్ గీ
వర్ షం
వర్ ధిల్ల
వర్ షాలు
வேறு பாடுகள
தொடங்க ிய
தொடங்க ுகிறது
சியாவ ுடனான
குறிப்பிட ப்படுகிறது
పార్టీ ల
పార్టీ లు
పార్టీ గా
పార్టీ కి
పార్టీ లతో
దక్షి ణాదికి
Asi ans
உண ர
கல ையும்
நடு க்கால
நேர டி
ந்திர ாத
eral s
பகுதிகள ானவை
பண்பா ட்டை
பண்பா ட்டிற்கு
பேரரச ர்
பேரரச ால்
30 8
cl aim
అయ ింది
అయ ితే
మి గి
రో డ్ల
రెండ ుకో
లా ంటి
లా గృ
లా భదాయ
వె లుపలి
reli ef
ప్రజ లకు
மாநில க்
மாநில ங்களுக்கு
மாநில ங்களவை
தொடக்க ம்
தொடக்க ப்
இராணுவ ங்கள்
இராணுவ மானது
హిందూ స్తాన్
హిందూ స్తానీ
16 52
cast s
gan iz
sc en
sc ale
வழ ிய
ப்படுத்த ி
முன்ன ணிக்
பிரி வு
பிரி க்கப்பட்டது
அரசாங்க மானது
அரசாங்க த்தால்
வீத மாக
வீத த்தை
வீத ங்களின்
உயிர ்க்க
system s
fic ial
ni qu
pre ad
pre vent
ser ies
ser ving
vi de
vi et
vi ew
அண ுக்க
அண ிகின்றனர்
அனை வரும்
அனை த்தும்
கிர ாண்ட்
மதி ப்புடைய
வங்க ியின்
ంద్ర నాథ
ఇతర దేశాలను
ఇతర దేశాలకు
గి పోయింది
గి ల్లీ
తా మర
తా జ్‌
పూ ణే
పో లో
పో టీ
పో తూ
పో ర్చు
పో షకాహార
పో స్టలు
పో రాటం
మన మే
మన దేశంలో
మన ోర
వు ని
వు న్నా
వు ంటుంది
శ్ర ద్ధలతో
ీన ములో
ీన ోద్య
முறைய ை
முறைய ின்
முறைய ில்
முறைய ாக
முறைய ானது
முறைய ைத்
தொக ையின்
தொக ையானது
போன்ற வற்றின்
மாற்ற ம்
மாற்ற த்தை
ించిన వే
ించిన ందు
సాం ఘిక
தனி த்
தனி ச்
పెద్ద గా
పెద్ద పులి
Em ergency
pol lution
wo od
war riors
உடைய ானது
உடைய வர்களாக
என்ப தாகும்
என்ப தைத்
பங்க ானது
பங்க ையும்
மெ ய்ய
வர்கள ால்
ிட்ட ுள்ளது
ியான ார்
ext inct
ext reme
ext ends
ஆகியவற்ற ில்
ஆகியவற்ற ுக்கு
ஆகியவற்ற ுடன்
மக்கள வையின்
1991 లో
comm itte
bl ack
42 3
42 8
num erals
ta il
அறி வியல்
கண்ட ம்
கண்ட த்தின்
கண்ட த்தில்
கண்ட த்திற்கு
தீ ண்டாமையை
ித ளவு
అతి వేగంగా
అతి ముఖ్యమైన
అతి శీ
ఉత్ సాహ
ఉత్ తరా
ఉత్ కృష్టమైన
ఉంట ూ
గర లో
గీ తం
జరి గింది
జరి గాయి
పట్ట ాలు
పట్ట ును
పట్ట ాలెక్కను
బా గా
బా దు
బా ంబే
బె ల్
బె ట్కా
బ్ర హ్మ
బ్ర ాడ్‌
బ్ర ెడ్
మహ ల్
మహ ేష్
వంట లు
వంట లకు
వంట కాలు
ుకు ంది
విధ ి
విధ ంగా
విధ ించిన
భాగ ే
భాగ స్వా
భాగ మేనని
நடத்த ப்பட்ட
நடத்த ின
நடத்த ப்படும்
நடத்த ப்பட்டது
కేంద్ర ాల్లో
కేంద్ర ీకృ
ప్ప ించుకోవడ
క్రీడ ల
అయిన ప్పటికీ
అయిన ప్పటికినీ
జనాభా లో
ప్రభుత్వ ంలో
ప్రభుత్వ ాలన్నీ
ప్రభుత్వ ంచే
வணிக ர்கள்
வணிக த்தில்
பயன்படுத்த ப்படும்
பயன்படுத்த ப்பட்டது
பயன்படுத்த ப்பட்டுள்ளது
அளவ ானது
அளவ ிலான
சிற ு
சிற ப்பு
சிற ிதளவு
பத விக்
பத க்கங்களை
மலை ச்
ப்படு த்துதல்
வாழ் வை
வாழ் வானது
வாழ் வின்
lim ited
நாடுகள ும்
நாடுகள ில்
நாடுகள ுக்கு
அடிப்பட ை
ஆயுத ப்
ஆயுத ச்
ஆயுத ங்களை
Ma jor
dom estic
main ly
அக ்டோ
அக ன்றும்
அக ழ்வாய்
அவை கள
ஆற்ற ின்
ஆற்ற லை
இக்கால ம்
இக்கால மானது
கட்ச ிகள
கட்ச ிகள்
சோ று
ఎక్కువ ైపో
ఏర్ పాటు
ఏర్ పరచింది
కలి గిన
గో ర్
గో ధు
గో డుంబ
గ్ గులు
గ్ డమ్
జన కరమేనని
టిక ంటే
బహ ిరంగ
బహ ాయీలు
మంత్ర ుల
లే నివి
సిం హపు
సరి స్తూ
ప్రస్తు త
క్క లు
olog ical
olog ically
வேக ம்
மேற்க ுக்
2001 ஆம்
2001 இல்
பரவ ல்
సాధ ించింది
సాధ ించి
సాధ ారణంగా
రాజకీయ ాలు
కాంగ్రె సే
large ly
not able
not ably
குடியரச ான
குடியரச ாக
మొదటి ది
మొదటి సార
దక్షిణ దిగ్
பிரித்தானிய ப்
பிரித்தானிய க்
பிரித்தானிய ரால்
pu ts
13 00
13 ஆம்
tr ad
இணை த்து
ஒப்ப ிடும்
கரு நாடக
சந்த ையானது
சந்த ையாக
சந்த ாதார
மிய ில்
ல்கள ை
வுகள ும்
வுகள ில்
பொதுவாக க்
மூன்ற ாம்
இவ் வகைப்
வங்காள ப்
fol lowed
kh o
kh and
south west
சன வரி
தர ப்பட்ட
மர பு
ரிய ா
ఉప యు
ఉప రాష్ట్రపత
క్య ులు
క్య ారమ్‌
పం జాబ
పం పిన
భూ పతి
మై ంది
మై తే
మై త్రి
మై థి
మై దాన
మాన వుని
యు ద్ధం
యు నై
యు ద్ధాలు
యో చన
యో రారి
రంగ ం
రంగ ాల
రంగ ము
రంగ ాల్లో
వల ెనే
శ్ లోకాల
ుకో వచ్చని
్మ దీయ
ప్రతి నిధి
ాలలో ను
ాలను ండి
విస్త రించిన
విస్త ృతంగా
வாய ு
வாய ்கள்
வாக்க ை
సంస్కృ తం
సంస్కృ తీ
సంస్కృ తులతో
సంగీ త
సంగీ తము
సంగీ తంలో
sup planted
ప్రాచ ్య
ప్రాచ ుర్య
క్రమ ంగా
1965 ஆம்
நகர ங்களில்
மொழிகள ின்
மொழிகள ில்
மொழிகள ைப்
மொழிகள ையும்
மொழிகள ானவை
సరిహ ద్దులు
தேர்த ல்கள்
தேர்த ல்களில்
అత్యధిక ంగా
ఇండియా లో
12 50
36 1
rat i
rat ive
இற கு
பே ச
துறைய ில்
துறைய ாக
த்திர ங்கள்
leg al
leg es
ilit ated
velop ment
set tle
வெற்ற ி
வெற்ற ிகளைப்
exp anding
comp any
comp rising
spec i
இலக்கிய த்திற்கான
எண்ணிக்க ையானது
கட்டட க்கலை
வெளிய ீ
2022 ஆம்
ef ly
.. ..
35 9
Al liance
Ne p
cour se
hum ans
non viol
national ist
அறிய ப்படுகிறது
அறிய ப்படும்
ஆசிய ப்
ஆசிய க்
ஏற்பட்ட ன
ஓவிய ங்கள்
சொ ந்த
பூ ண்டு
பரி ச
பரி ணாம
ఆధ ునిక
ఆధ ీనములో
గణ ితం
గలు పు
ట్ల కు
ధి పత్యం
నీ తి
నె హ్ర
నె మలి
నె రవే
నె హ్వ
భిన్న త్వాలు
మె ట్రో
మె హర్
మూడ వ
మూడ ే
రహ దారు
వై శాల
వై పులా
సము చిత
సమా చార
there after
there fore
స్వా ధీన
வென்ற து
வென்ற ுள்ளார்
రాష్ట్రాలు గా
రాష్ట్రపతి చే
பெரும்பான் மையான
మొదల గువ
మొదల వుతుంది
మొదల గునవి
கடற்கர ை
தோன்ற ியது
தோன்ற ுகின்றன
பொருட்கள ை
రెండు వైపులా
முக்கியமான வையாகும்
உயிரின ங்களை
உயிரின ங்களாக
கிராம ப்
పట్టణ ాల
పట్టణ ాలను
బెంగ ాల్
బెంగ ుళూరు
ఏర్ప డే
ఏర్ప డిన
ఏర్ప డింది
బహు మతి
బహు భాషా
మంత్రి త్వ
మంత్రి వర్గ
సింధ ్
உள்ளடக்கிய ுள்ளது
liter ary
liter ature
సరిహద్దు న
సరిహద్దు లలో
సరిహద్దు లను
నడిప ించి
నడిప ిస్త
సౌకర్య ము
సౌకర్య వంత
ప్రముఖ మైనది
ప్రముఖ మైనదే
Com mon
2013 ஆம்
Mo di
ai th
aw atts
cal end
ev entually
ho od
ho tspo
os is
pres ence
இப்ப குதிய
இப்ப ேரரச
உட லின்
சூ ழ
சூ ன்
சூ ழ்
சூ டேற்ற
தூ ய்
தை க்கப்பட்ட
தான ுந்து
மல ேசியா
மல ையாள
முடி த்து
புவி த்தட்ட
duc tion
உருவாக த்
இதற்கு த்
work s
1971 లోను
mark ets
occ urred
occ asions
இவ்வா ற
இவ்வா றாக
கட்டுப்பா டுகளை
inter national
inter vention
1962 లో
East ern
St ill
gre enhouse
op en
ron ic
te en
ஆட்சிய ானது
இன மாக
இன ங்களை
இசு லாம்
ரே கை
ంద ని
ంద రో
అను నది
అను మతి
అను వైన
అను సరిస్తూ
కళ ి
కల్ పే
కల్ గి
కల్ పం
కల్ పుతూ
కల్ పించే
గే జి
గే యం
చైన ాతో
టె డ్
టె హ్ర
టె క్నాల
టె లివిజన్
టె న్నిస్లో
తన లో
నగర ాలనే
నగర ాలనుండి
పత కం
పొ ందింది
పొ డిగించ
పద్ధ తులు
పద్ధ తులతో
రూ పంలో
రూ పొందింది
ళ్ల ను
వహ ించింది
వహ ించి
వహ ించే
వహ ిస్త
వృ క్షం
సమ శీ
సమ యంలో
సమ ష్టి
సై తం
సై ట్లు
సార ాల
సార వంత
సర్వ సత్తా
arm s
முத லாம்
முத லீ
கால் பந்து
கால் வாய்கள்
பாணிய ில்
பாணிய ிலான
பெற ும்
பெற ப்பட்டது
வாய் ந்த
ించే ది
பிராந்திய ப்
2010 ஆம்
సంఖ్య లో
சார்ந்த தாக
சிந்து வெளி
நீடித்த ிருந்த
కూడిన ది
ultan eously
2023 ஆம்
2023 இல்
app lied
இலட்ச த்தீ
185 3
చేయ బడింది
చేయ లేదు
చేయ ిస్తారు
చేయ టంతో
చేయ డానికి
తున్న ారు
తున్న ప్పటికీ
తున్న వార్
అధికారిక ంగా
ప్రపంచంలో నే
కాంగ్రెసు ను
பஞ்சா பி
பஞ்சா பின்
பஞ்சா பில்
நகர்ப்புற ப்
நகர்ப்புற க்
tech niqu
జాబితా లో
அரசியலமை ப்பின்
அரசியலமை ப்பானது
Punjab i
தசாப்த ங்களில்
అభి ప్రాయ
చరిత్ర లో
46 1
1980 இல்
1980 களின்
col leges
fam ily
ga therers
nolog ue
ஆசியாவ ின்
ஆசியாவ ிலிருந்து
நடை பெறும்
பரு த்தி
பரு ப்புக்
ம்ப ிக்
disp lay
disp uted
esp ite
திரு த்த
திரு நாள்
தாங்க ிக்
புற ம்
புற ப்
புவிய ைச்
பிரபல மானது
காலத்திற்கு ப்
காலத்திற்கு த்
சிற்ப ங்கள்
சிற்ப ங்களாக
தெற்கா சியாவின்
நாடக ப்
gener ated
mathemat icians
high ly
செயல் பாடுகள
செயல் பட
ஒன்றிய ம்
ஒன்றிய த்துடன்
மயமா க்கப்பட்ட
மதிப்ப ீ
சராச ரியாக
விரிவ டைந்தது
Muslim s
Ar tic
Re ligion
Se veral
air s
back s
fl our
ili an
last ed
அமெ ரிக்கா
ஆற ுகள்
ஆதர வை
ஆதர வு
ஆதர வள
இறு க்க
கவன க்
சது ரங்க
சமை க்கப்படும்
தள ங்களில்
தள ராடை
திற ன்
தடு ப்ப
தடு ப்பு
பங்கள ித்த
பதி வு
மின் சார
வரி சை
ఇవ ్వ
ఇవ ికా
ఇవ న్నీ
ఇవ ికూడ
కల దు
కల కత్తా
కల గలుపు
చి పూడ
చి హ్
జి త్
జి స్లే
టా గోర్
దీ న్ని
దీ వులు
దీ పావ
దీ నివల్ల
నాయ కుల
న్యాయ వ్యవస్థ
న్యాయ వ్యవస్థలో
న్యాయ స్థానమైన
పద ార్థాలు
పక్ష ం
పక్ష ి
మ్మ దాబ
లక్ష ల
లక్ష ణాలు
లక్ష ణాన్ని
సర ఫరా
సర మైతే
సూ చన
సూ రత్
హా సాల
ిల్ లు
ann ually
ann ual
ப்புகள ானவை
స్లా మ్
నిర్ వాహ
నిర్ మిస్తు
த்துக்கு ள்
ముంబ ాయి
ద్వీ పే
ద్వీ పం
సంఘ ం
సంఘ ము
సంఘ ర్షణ
సంప్రదాయ ాలను
సంవత్ సరం
సంవత్ సారాల
territ orial
పుట్ట ాయి
పుట్ట ిని
పుట్ట ుపూర్వ
పుట్ట ిల్లు
expor ter
expor ted
இருப்ப தற்கு
coast s
coast al
coast line
వచ్చిన ది
వచ్చిన వారి
వ్యవస్థలో ని
కార్య నిర్వాహ
feat ure
కరణ లో
పరిశ్ర మ
మేన కల
ప్రధానమంత్రి ని
இயக்க மானது
వారస త్వాన్ని
రోడ్డు కు
முன்னேற்ற ம்
பெயர ளவில்
உற்பத்தி த்
விளையாட்ட ுகள்
விளையாட்ட ுகளில்
domin ion
domin ance
பரவலாக ப்
పాకిస్తాన్ తో
పాకిస్థాన్ కు
trans formed
సంస్కృతి లో
ఆధార ాలు
ఆధార ిత
స్వతంత్ర ం
கிராமப்புற ப்
నడిపించ టం
నడిపించ ాలనే
నడిపించ వచ్చని
నడిపించ టమూ
సర్వీ సును
Sikh s
కుటుంబ ాలు
కుటుంబ ాలకు
Sh astri
Sh iva
