{
  "version": "1.0",
  "truncation": null,
  "padding": null,
  "added_tokens": [
    {
      "id": 0,
      "content": "[UNK]",
      "single_word": false,
      "lstrip": false,
      "rstrip": false,
      "normalized": false,
      "special": true
    },
    {
      "id": 1,
      "content": "[CLS]",
      "single_word": false,
      "lstrip": false,
      "rstrip": false,
      "normalized": false,
      "special": true
    },
    {
      "id": 2,
      "content": "[SEP]",
      "single_word": false,
      "lstrip": false,
      "rstrip": false,
      "normalized": false,
      "special": true
    },
    {
      "id": 3,
      "content": "[PAD]",
      "single_word": false,
      "lstrip": false,
      "rstrip": false,
      "normalized": false,
      "special": true
    },
    {
      "id": 4,
      "content": "[MASK]",
      "single_word": false,
      "lstrip": false,
      "rstrip": false,
      "normalized": false,
      "special": true
    }
  ],
  "normalizer": {
    "type": "NFC"
  },
  "pre_tokenizer": {
    "type": "Whitespace"
  },
  "post_processor": null,
  "decoder": null,
  "model": {
    "type": "BPE",
    "dropout": null,
    "unk_token": "[UNK]",
    "continuing_subword_prefix": null,
    "end_of_word_suffix": null,
    "fuse_unk": false,
    "byte_fallback": false,
    "ignore_merges": false,
    "vocab": {
      "[UNK]": 0,
      "[CLS]": 1,
      "[SEP]": 2,
      "[PAD]": 3,
      "[MASK]": 4,
      "\"": 5,
      "$": 6,
      "%": 7,
      "&": 8,
      "'": 9,
      "(": 10,
      ")": 11,
      "+": 12,
      ",": 13,
      "-": 14,
      ".": 15,
      "/": 16,
      "0": 17,
      "1": 18,
      "2": 19,
      "3": 20,
      "4": 21,
      "5": 22,
      "6": 23,
      "7": 24,
      "8": 25,
      "9": 26,
      ":": 27,
      ";": 28,
      "=": 29,
      "A": 30,
      "B": 31,
      "C": 32,
      "D": 33,
      "E": 34,
      "F": 35,
      "G": 36,
      "H": 37,
      "I": 38,
      "J": 39,
      "K": 40,
      "L": 41,
      "M": 42,
      "N": 43,
      "O": 44,
      "P": 45,
      "R": 46,
      "S": 47,
      "T": 48,
      "U": 49,
      "V": 50,
      "W": 51,
      "Y": 52,
      "Z": 53,
      "[": 54,
      "]": 55,
      "^": 56,
      "a": 57,
      "b": 58,
      "c": 59,
      "d": 60,
      "e": 61,
      "f": 62,
      "g": 63,
      "h": 64,
      "i": 65,
      "j": 66,
      "k": 67,
      "l": 68,
      "m": 69,
      "n": 70,
      "o": 71,
      "p": 72,
      "q": 73,
      "r": 74,
      "s": 75,
      "t": 76,
      "u": 77,
      "v": 78,
      "w": 79,
      "x": 80,
      "y": 81,
      "z": 82,
      "|": 83,
      "°": 84,
      "Ö": 85,
      "á": 86,
      "â": 87,
      "í": 88,
      "ā": 89,
      "ī": 90,
      "Ś": 91,
      "ū": 92,
      "ə": 93,
      "ɦ": 94,
      "ɪ": 95,
      "ɾ": 96,
      "ʊ": 97,
      "ʱ": 98,
      "ˈ": 99,
      "ː": 100,
      "ί": 101,
      "α": 102,
      "δ": 103,
      "ν": 104,
      "ο": 105,
      "ς": 106,
      "ό": 107,
      "ँ": 108,
      "ं": 109,
      "ः": 110,
      "अ": 111,
      "आ": 112,
      "इ": 113,
      "ई": 114,
      "उ": 115,
      "ऊ": 116,
      "ऋ": 117,
      "ए": 118,
      "ऐ": 119,
      "ऑ": 120,
      "ओ": 121,
      "औ": 122,
      "क": 123,
      "ख": 124,
      "ग": 125,
      "घ": 126,
      "च": 127,
      "छ": 128,
      "ज": 129,
      "झ": 130,
      "ञ": 131,
      "ट": 132,
      "ठ": 133,
      "ड": 134,
      "ढ": 135,
      "ण": 136,
      "त": 137,
      "थ": 138,
      "द": 139,
      "ध": 140,
      "न": 141,
      "प": 142,
      "फ": 143,
      "ब": 144,
      "भ": 145,
      "म": 146,
      "य": 147,
      "र": 148,
      "ल": 149,
      "व": 150,
      "श": 151,
      "ष": 152,
      "स": 153,
      "ह": 154,
      "़": 155,
      "ा": 156,
      "ि": 157,
      "ी": 158,
      "ु": 159,
      "ू": 160,
      "ृ": 161,
      "े": 162,
      "ै": 163,
      "ॉ": 164,
      "ो": 165,
      "ौ": 166,
      "्": 167,
      "।": 168,
      "०": 169,
      "१": 170,
      "२": 171,
      "३": 172,
      "४": 173,
      "५": 174,
      "६": 175,
      "७": 176,
      "८": 177,
      "९": 178,
      "॰": 179,
      "ஃ": 180,
      "அ": 181,
      "ஆ": 182,
      "இ": 183,
      "ஈ": 184,
      "உ": 185,
      "ஊ": 186,
      "எ": 187,
      "ஏ": 188,
      "ஐ": 189,
      "ஒ": 190,
      "ஓ": 191,
      "க": 192,
      "ங": 193,
      "ச": 194,
      "ஜ": 195,
      "ஞ": 196,
      "ட": 197,
      "ண": 198,
      "த": 199,
      "ந": 200,
      "ன": 201,
      "ப": 202,
      "ம": 203,
      "ய": 204,
      "ர": 205,
      "ற": 206,
      "ல": 207,
      "ள": 208,
      "ழ": 209,
      "வ": 210,
      "ஷ": 211,
      "ஸ": 212,
      "ஹ": 213,
      "ா": 214,
      "ி": 215,
      "ீ": 216,
      "ு": 217,
      "ூ": 218,
      "ெ": 219,
      "ே": 220,
      "ை": 221,
      "ொ": 222,
      "ோ": 223,
      "ௌ": 224,
      "்": 225,
      "ం": 226,
      "ః": 227,
      "అ": 228,
      "ఆ": 229,
      "ఇ": 230,
      "ఈ": 231,
      "ఉ": 232,
      "ఋ": 233,
      "ఎ": 234,
      "ఏ": 235,
      "ఐ": 236,
      "ఒ": 237,
      "ఓ": 238,
      "ఔ": 239,
      "క": 240,
      "ఖ": 241,
      "గ": 242,
      "ఘ": 243,
      "చ": 244,
      "ఛ": 245,
      "జ": 246,
      "ఞ": 247,
      "ట": 248,
      "ఠ": 249,
      "డ": 250,
      "ఢ": 251,
      "ణ": 252,
      "త": 253,
      "థ": 254,
      "ద": 255,
      "ధ": 256,
      "న": 257,
      "ప": 258,
      "ఫ": 259,
      "బ": 260,
      "భ": 261,
      "మ": 262,
      "య": 263,
      "ర": 264,
      "ల": 265,
      "ళ": 266,
      "వ": 267,
      "శ": 268,
      "ష": 269,
      "స": 270,
      "హ": 271,
      "ా": 272,
      "ి": 273,
      "ీ": 274,
      "ు": 275,
      "ూ": 276,
      "ృ": 277,
      "ె": 278,
      "ే": 279,
      "ై": 280,
      "ొ": 281,
      "ో": 282,
      "ౌ": 283,
      "్": 284,
      "ṅ": 285,
      "ṇ": 286,
      "ṣ": 287,
      "ṭ": 288,
      "Ἰ": 289,
      "‌": 290,
      "‍": 291,
      "–": 292,
      "—": 293,
      "‘": 294,
      "’": 295,
      "“": 296,
      "”": 297,
      "†": 298,
      "′": 299,
      "₹": 300,
      "்த": 301,
      "்க": 302,
      "ிய": 303,
      "ம்": 304,
      "ப்": 305,
      "து": 306,
      "th": 307,
      "ன்": 308,
      "an": 309,
      "ல்": 310,
      "ந்த": 311,
      "்ட": 312,
      "in": 313,
      "க்க": 314,
      "ப்ப": 315,
      "ும்": 316,
      "the": 317,
      "த்த": 318,
      "er": 319,
      "ள்": 320,
      "on": 321,
      "ரு": 322,
      "ற்": 323,
      "ட்ட": 324,
      "్ర": 325,
      "ான": 326,
      "re": 327,
      "ைய": 328,
      "ின்": 329,
      "ில்": 330,
      "ற்ற": 331,
      "en": 332,
      "al": 333,
      "ార": 334,
      "st": 335,
      "di": 336,
      "ாக": 337,
      "==": 338,
      "at": 339,
      "ர்": 340,
      "లు": 341,
      "ar": 342,
      "ed": 343,
      "ங்க": 344,
      "இந்த": 345,
      "and": 346,
      "ार": 347,
      "In": 348,
      "or": 349,
      "of": 350,
      "्र": 351,
      "ுக": 352,
      "ண்ட": 353,
      "இந்திய": 354,
      "के": 355,
      "ிக": 356,
      "Indi": 357,
      "లో": 358,
      "ion": 359,
      "as": 360,
      "es": 361,
      "ें": 362,
      "it": 363,
      "స్": 364,
      "ள்ள": 365,
      "ic": 366,
      "में": 367,
      "్య": 368,
      "மற்ற": 369,
      "மற்றும்": 370,
      "is": 371,
      "கு": 372,
      "ing": 373,
      "ிர": 374,
      "న్": 375,
      "ாவ": 376,
      "19": 377,
      "மு": 378,
      "ది": 379,
      "है": 380,
      "దే": 381,
      "ప్ర": 382,
      "ిం": 383,
      "20": 384,
      "க்": 385,
      "దేశ": 386,
      "्य": 387,
      "ent": 388,
      "ాల": 389,
      "கா": 390,
      "India": 391,
      "பா": 392,
      "ిక": 393,
      "ில": 394,
      "om": 395,
      "ర్": 396,
      "భార": 397,
      "to": 398,
      "భారత": 399,
      "ou": 400,
      "ானது": 401,
      "க்கு": 402,
      "भार": 403,
      "भारत": 404,
      "న్న": 405,
      "ాలు": 406,
      "का": 407,
      "்ச": 408,
      "र्": 409,
      "ிற": 410,
      "டு": 411,
      "ப்பட்ட": 412,
      "ec": 413,
      "டி": 414,
      "த்": 415,
      "ருந்த": 416,
      "या": 417,
      "ों": 418,
      "பெ": 419,
      "ன்ற": 420,
      "ங்கள": 421,
      "ly": 422,
      "గా": 423,
      "தொ": 424,
      "की": 425,
      "வை": 426,
      "और": 427,
      "से": 428,
      "மை": 429,
      "ுள்ள": 430,
      "ur": 431,
      "स्": 432,
      "பொ": 433,
      "కు": 434,
      "===": 435,
      "प्र": 436,
      "ని": 437,
      "le": 438,
      "ने": 439,
      "వి": 440,
      "இந்தியாவ": 441,
      "ர்க": 442,
      "ాయ": 443,
      "வா": 444,
      "रा": 445,
      "క్": 446,
      "ాత": 447,
      "கொ": 448,
      "he": 449,
      "போ": 450,
      "வி": 451,
      "00": 452,
      "ுகள": 453,
      "ना": 454,
      "li": 455,
      "தி": 456,
      "லை": 457,
      "िक": 458,
      "ப்பட": 459,
      "దేశం": 460,
      "ver": 461,
      "ரச": 462,
      "am": 463,
      "ற்க": 464,
      "ాన": 465,
      "உள்ள": 466,
      "ad": 467,
      "il": 468,
      "రా": 469,
      "్ట": 470,
      "क्": 471,
      "ను": 472,
      "ता": 473,
      "தா": 474,
      "நா": 475,
      "த்து": 476,
      "ஆக": 477,
      "ண்": 478,
      "वि": 479,
      "ol": 480,
      "ri": 481,
      "ரி": 482,
      "ுள்ளது": 483,
      "ul": 484,
      "ation": 485,
      "ండ": 486,
      "ము": 487,
      "கொண்ட": 488,
      "The": 489,
      "ch": 490,
      "திக": 491,
      "ీయ": 492,
      "था": 493,
      "मा": 494,
      "ப்பு": 495,
      "em": 496,
      "இது": 497,
      "ద్": 498,
      "ిన": 499,
      "ro": 500,
      "ஒரு": 501,
      "நில": 502,
      "ीय": 503,
      "ra": 504,
      "இந்தியா": 505,
      "िया": 506,
      "சம": 507,
      "త్": 508,
      "பு": 509,
      "திய": 510,
      "மா": 511,
      "తి": 512,
      "ల్": 513,
      "స్త": 514,
      "ించ": 515,
      "सा": 516,
      "ce": 517,
      "tion": 518,
      "வே": 519,
      "ுக்கு": 520,
      "by": 521,
      "न्": 522,
      "ve": 523,
      "पर": 524,
      "சு": 525,
      "Indian": 526,
      "be": 527,
      "se": 528,
      "ంది": 529,
      "सं": 530,
      "for": 531,
      "ist": 532,
      "செ": 533,
      "பிர": 534,
      "ரா": 535,
      "ast": 536,
      "ஆண்ட": 537,
      "ைக்": 538,
      "ంత": 539,
      "कर": 540,
      "மைய": 541,
      "தொட": 542,
      "con": 543,
      "est": 544,
      "lo": 545,
      "கள": 546,
      "రి": 547,
      "201": 548,
      "ச்": 549,
      "res": 550,
      "ति": 551,
      "றை": 552,
      "ிருந்த": 553,
      "సం": 554,
      "क्ष": 555,
      "வெ": 556,
      "ag": 557,
      "ter": 558,
      "su": 559,
      "ஆம்": 560,
      "மே": 561,
      "கால": 562,
      "त्र": 563,
      "டைய": 564,
      "று": 565,
      "రు": 566,
      "wi": 567,
      "இருந்த": 568,
      "ச்ச": 569,
      "को": 570,
      "மாக": 571,
      "லா": 572,
      "ின": 573,
      "పు": 574,
      "ులు": 575,
      "இந்தியாவின்": 576,
      "de": 577,
      "ட்ச": 578,
      "ங்கள்": 579,
      "స్థ": 580,
      "ింది": 581,
      "றி": 582,
      "ட்டு": 583,
      "भा": 584,
      "ால்": 585,
      "பெர": 586,
      "हैं": 587,
      "un": 588,
      "அமை": 589,
      "அரச": 590,
      "தன்": 591,
      "த்தின்": 592,
      "200": 593,
      "ir": 594,
      "wh": 595,
      "जा": 596,
      "ంట": 597,
      "ాయి": 598,
      "வர": 599,
      "ற்ப": 600,
      "பொரு": 601,
      "gh": 602,
      "வு": 603,
      "க்கிய": 604,
      "భారతదేశం": 605,
      "க்கப்பட்ட": 606,
      "du": 607,
      "mo": 608,
      "பர": 609,
      "ంలో": 610,
      "భా": 611,
      "ైన": 612,
      "with": 613,
      "im": 614,
      "ate": 615,
      "हु": 616,
      "ex": 617,
      "அதிக": 618,
      "राज": 619,
      "ts": 620,
      "was": 621,
      "சா": 622,
      "னர்": 623,
      "ంగ": 624,
      "ந்து": 625,
      "वा": 626,
      "दे": 627,
      "உல": 628,
      "மானது": 629,
      "ూడ": 630,
      "இல்": 631,
      "வாக": 632,
      "டுத்த": 633,
      "உரு": 634,
      "மான": 635,
      "ேர": 636,
      "ிறது": 637,
      "हा": 638,
      "are": 639,
      "rom": 640,
      "பகு": 641,
      "ல்ல": 642,
      "ர்கள": 643,
      "ஆகிய": 644,
      "ड़": 645,
      "ang": 646,
      "ment": 647,
      "விய": 648,
      "ong": 649,
      "der": 650,
      "po": 651,
      "கி": 652,
      "சிய": 653,
      "ab": 654,
      "ac": 655,
      "ies": 656,
      "சி": 657,
      "ంగా": 658,
      "ధిక": 659,
      "వా": 660,
      "సా": 661,
      "క్ష": 662,
      "ain": 663,
      "si": 664,
      "ாள": 665,
      "ுவ": 666,
      "ற்கு": 667,
      "ut": 668,
      "कार": 669,
      "டை": 670,
      "ఉన్న": 671,
      "పా": 672,
      "ారు": 673,
      "त्": 674,
      "over": 675,
      "wer": 676,
      "தெ": 677,
      "மிக": 678,
      "ைப்": 679,
      "ical": 680,
      "ர்கள்": 681,
      "ப்படுக": 682,
      "िय": 683,
      "கோ": 684,
      "టి": 685,
      "த்தில்": 686,
      "ార్": 687,
      "உலக": 688,
      "पा": 689,
      "ित": 690,
      "us": 691,
      "ின்ற": 692,
      "has": 693,
      "வீ": 694,
      "வைய": 695,
      "ला": 696,
      "from": 697,
      "ளா": 698,
      "ిత": 699,
      "్చ": 700,
      "art": 701,
      "நாட": 702,
      "et": 703,
      "மொ": 704,
      "ich": 705,
      "ial": 706,
      "ிட": 707,
      "inc": 708,
      "ிகள": 709,
      "so": 710,
      "भारतीय": 711,
      "டிய": 712,
      "भी": 713,
      "ान": 714,
      "ay": 715,
      "பல": 716,
      "ழ்": 717,
      "ுட": 718,
      "ష్ట": 719,
      "ிக்க": 720,
      "ன்ன": 721,
      "per": 722,
      "el": 723,
      "कि": 724,
      "கூ": 725,
      "நீ": 726,
      "மக்க": 727,
      "కూడ": 728,
      "జాత": 729,
      "ுக்": 730,
      "ప్రా": 731,
      "ill": 732,
      "రాజ": 733,
      "which": 734,
      "देश": 735,
      "இத": 736,
      "போது": 737,
      "தார": 738,
      "नि": 739,
      "सम": 740,
      "्या": 741,
      "ear": 742,
      "కో": 743,
      "క్ర": 744,
      "்கள": 745,
      "த்தை": 746,
      "குறி": 747,
      "பெரும்": 748,
      "199": 749,
      "द्": 750,
      "शा": 751,
      "ாகும்": 752,
      "ity": 753,
      "तथा": 754,
      "ली": 755,
      "com": 756,
      "ld": 757,
      "sp": 758,
      "ंग": 759,
      "इस": 760,
      "तर": 761,
      "्ट": 762,
      "இரு": 763,
      "நட": 764,
      "ய்": 765,
      "కా": 766,
      "చ్చ": 767,
      "ట్ట": 768,
      "నే": 769,
      "మొ": 770,
      "195": 771,
      "um": 772,
      "rit": 773,
      "ணை": 774,
      "வள": 775,
      "ித்த": 776,
      "க்கா": 777,
      "ther": 778,
      "ுகள்": 779,
      "cont": 780,
      "एक": 781,
      "cent": 782,
      "ure": 783,
      "ంచ": 784,
      "దు": 785,
      "పే": 786,
      "మా": 787,
      "యా": 788,
      "its": 789,
      "భారతీయ": 790,
      "உள்ளது": 791,
      "ult": 792,
      "கொண்டுள்ளது": 793,
      "பொருளா": 794,
      "वर्": 795,
      "हि": 796,
      "ak": 797,
      "me": 798,
      "ted": 799,
      "ரம்": 800,
      "்கள்": 801,
      "ிகள்": 802,
      "oun": 803,
      "ண்ண": 804,
      "ती": 805,
      "दी": 806,
      "हो": 807,
      "196": 808,
      "co": 809,
      "sh": 810,
      "அல்ல": 811,
      "என்ற": 812,
      "தல்": 813,
      "నా": 814,
      "రై": 815,
      "లి": 816,
      "వ్య": 817,
      "సి": 818,
      "్ల": 819,
      "ையும்": 820,
      "త్వ": 821,
      "राज्य": 822,
      "அல்லது": 823,
      "बा": 824,
      "id": 825,
      "சமய": 826,
      "202": 827,
      "मि": 828,
      "lu": 829,
      "உய": 830,
      "தே": 831,
      "படி": 832,
      "றைய": 833,
      "తర": 834,
      "వాత": 835,
      "க்கும்": 836,
      "பொது": 837,
      "రాష్ట": 838,
      "ஆண்டு": 839,
      "அதிகரி": 840,
      "జాతీయ": 841,
      "பொருளாதார": 842,
      "రాష్ట్ర": 843,
      "ig": 844,
      "जि": 845,
      "ते": 846,
      "रू": 847,
      "),": 848,
      "pro": 849,
      "wor": 850,
      "பிற": 851,
      "ன்ப": 852,
      "arg": 853,
      "were": 854,
      "குறிப்ப": 855,
      "ap": 856,
      "पू": 857,
      "గు": 858,
      "తం": 859,
      "తో": 860,
      "వచ్చ": 861,
      "த்திய": 862,
      "ர்ந்த": 863,
      "ர்ச்ச": 864,
      "ary": 865,
      "ికి": 866,
      "ద్ధ": 867,
      "ల్ల": 868,
      "gen": 869,
      "ive": 870,
      "we": 871,
      "இர": 872,
      "தன": 873,
      "வும்": 874,
      "வற்ற": 875,
      "ans": 876,
      "end": 877,
      "ated": 878,
      "ங்களில்": 879,
      "form": 880,
      "ிருந்து": 881,
      "iv": 882,
      "000": 883,
      "मु": 884,
      "श्": 885,
      "र्व": 886,
      "larg": 887,
      "pl": 888,
      "por": 889,
      "ணிய": 890,
      "லி": 891,
      "ழி": 892,
      "అధిక": 893,
      "కొ": 894,
      "ఖ్య": 895,
      "డు": 896,
      "పాల": 897,
      "మైన": 898,
      "వే": 899,
      "భారతదేశ": 900,
      "econ": 901,
      "இந்தியாவில்": 902,
      "ంత్ర": 903,
      "ha": 904,
      "no": 905,
      "இல": 906,
      "வந்த": 907,
      "ப்பா": 908,
      "ின்றன": 909,
      "जन": 910,
      "षा": 911,
      "gion": 912,
      "ry": 913,
      "किया": 914,
      "नी": 915,
      "सर": 916,
      "கள்": 917,
      "ளவ": 918,
      "ளி": 919,
      "ఒక": 920,
      "కాల": 921,
      "డి": 922,
      "ణా": 923,
      "ద్ర": 924,
      "మార్": 925,
      "ியல்": 926,
      "ండి": 927,
      "2011": 928,
      "அமைப்ப": 929,
      "overn": 930,
      "ப்படுகிறது": 931,
      "பெரும்பா": 932,
      "இரண்ட": 933,
      "198": 934,
      "ंत्र": 935,
      "तक": 936,
      "ही": 937,
      "min": 938,
      "od": 939,
      "இட": 940,
      "இரா": 941,
      "ானவை": 942,
      "ass": 943,
      "ish": 944,
      "ism": 945,
      "பெற்ற": 946,
      "18": 947,
      "af": 948,
      "ma": 949,
      "ru": 950,
      "மூ": 951,
      "ாண்ட": 952,
      "ఉంది": 953,
      "చే": 954,
      "ధ్య": 955,
      "శా": 956,
      "్‌": 957,
      "்கு": 958,
      "ியது": 959,
      "முறை": 960,
      "ింద": 961,
      "దేశాల": 962,
      "ough": 963,
      "மையான": 964,
      "low": 965,
      "உருவா": 966,
      "ఉన్నాయి": 967,
      "వ్యవ": 968,
      "hi": 969,
      "अन": 970,
      "द्र": 971,
      "धिक": 972,
      "pe": 973,
      "கை": 974,
      "தலை": 975,
      "நூ": 976,
      "மீ": 977,
      "ையில்": 978,
      "ous": 979,
      "ame": 980,
      "age": 981,
      "overnment": 982,
      "ची": 983,
      "ले": 984,
      "स्था": 985,
      "CE": 986,
      "Hin": 987,
      "og": 988,
      "ंध": 989,
      "िण": 990,
      "ஞ்ச": 991,
      "வட": 992,
      "ைத்": 993,
      "ఎన్న": 994,
      "కి": 995,
      "టు": 996,
      "పార": 997,
      "పంచ": 998,
      "ాబ": 999,
      "ాన్": 1000,
      "ant": 1001,
      "ந்திய": 1002,
      "ற்று": 1003,
      "குடிய": 1004,
      "முதல்": 1005,
      "பாரம்": 1006,
      "outh": 1007,
      "న్ని": 1008,
      "டிவ": 1009,
      "பெரிய": 1010,
      "భారతదేశంలో": 1011,
      "பரிய": 1012,
      "பாரம்பரிய": 1013,
      "197": 1014,
      "लि": 1015,
      "ष्ट": 1016,
      "१९": 1017,
      "साथ": 1018,
      "26": 1019,
      "ber": 1020,
      "bec": 1021,
      "mar": 1022,
      "part": 1023,
      "னை": 1024,
      "ரண": 1025,
      "லும்": 1026,
      "த்தது": 1027,
      "all": 1028,
      "ally": 1029,
      "குறை": 1030,
      "விள": 1031,
      "ப்படும்": 1032,
      "ிருந்தது": 1033,
      "ட்சி": 1034,
      "மக்கள்": 1035,
      "econom": 1036,
      "Ch": 1037,
      "धान": 1038,
      "प्": 1039,
      "यु": 1040,
      "nor": 1041,
      "up": 1042,
      "தாக": 1043,
      "நக": 1044,
      "வரு": 1045,
      "చె": 1046,
      "డ్": 1047,
      "ధాన": 1048,
      "పె": 1049,
      "ిన్న": 1050,
      "ెండ": 1051,
      "any": 1052,
      "ance": 1053,
      "ர்ந்து": 1054,
      "ర్వ": 1055,
      "our": 1056,
      "uring": 1057,
      "ஆகும்": 1058,
      "செய": 1059,
      "பகுதிய": 1060,
      "கிழ": 1061,
      "என்று": 1062,
      "మార్గ": 1063,
      "వ్యవస్థ": 1064,
      "ct": 1065,
      "194": 1066,
      "मान": 1067,
      "भाषा": 1068,
      "mill": 1069,
      "நிற": 1070,
      "ார்": 1071,
      "ியாக": 1072,
      "into": 1073,
      "angu": 1074,
      "உலகின்": 1075,
      "centur": 1076,
      "उत्": 1077,
      "दो": 1078,
      "दक्ष": 1079,
      "ोग": 1080,
      "क्षे": 1081,
      "शास": 1082,
      "दक्षिण": 1083,
      "fo": 1084,
      "ple": 1085,
      "pul": 1086,
      "री": 1087,
      "எண்ண": 1088,
      "சே": 1089,
      "மி": 1090,
      "ைகள": 1091,
      "ంబ": 1092,
      "కృ": 1093,
      "కే": 1094,
      "కార": 1095,
      "తు": 1096,
      "దా": 1097,
      "హింద": 1098,
      "ern": 1099,
      "stit": 1100,
      "ிலிருந்து": 1101,
      "ங்களை": 1102,
      "தொழ": 1103,
      "ానికి": 1104,
      "உள்ளன": 1105,
      "స్తు": 1106,
      "பகுதிக": 1107,
      "ுடன்": 1108,
      "కూడా": 1109,
      "మొద": 1110,
      "हिन्": 1111,
      "అధికార": 1112,
      "सरकार": 1113,
      "15": 1114,
      "ओं": 1115,
      "गया": 1116,
      "जी": 1117,
      "वी": 1118,
      "्रे": 1119,
      "र्म": 1120,
      "बाद": 1121,
      "क्षेत्र": 1122,
      "bo": 1123,
      "ding": 1124,
      "fe": 1125,
      "ution": 1126,
      "அடி": 1127,
      "இவ": 1128,
      "என": 1129,
      "ஒன்ற": 1130,
      "கட": 1131,
      "ணி": 1132,
      "பி": 1133,
      "்ப": 1134,
      "்த்த": 1135,
      "ine": 1136,
      "க்கி": 1137,
      "த்திற": 1138,
      "ற்றாண்ட": 1139,
      "ates": 1140,
      "காரண": 1141,
      "ுள்ளன": 1142,
      "ress": 1143,
      "sub": 1144,
      "ஆகியவை": 1145,
      "நூற்றாண்ட": 1146,
      "यह": 1147,
      "रूप": 1148,
      "av": 1149,
      "lat": 1150,
      "ne": 1151,
      "west": 1152,
      "தோ": 1153,
      "பய": 1154,
      "லான": 1155,
      "வன": 1156,
      "விர": 1157,
      "வடிவ": 1158,
      "ூக": 1159,
      "కర": 1160,
      "ట్": 1161,
      "త్ర": 1162,
      "త్య": 1163,
      "దక్ష": 1164,
      "పర": 1165,
      "పరి": 1166,
      "మత": 1167,
      "మీ": 1168,
      "మే": 1169,
      "మధ్య": 1170,
      "వర": 1171,
      "సు": 1172,
      "ந்தது": 1173,
      "ிக்": 1174,
      "ప్రపంచ": 1175,
      "ప్రధాన": 1176,
      "நாட்டு": 1177,
      "ద్ద": 1178,
      "சமூக": 1179,
      "ஆண்டுகள": 1180,
      "స్థాన": 1181,
      "భాష": 1182,
      "மிகப்": 1183,
      "கோடி": 1184,
      "கூட்ட": 1185,
      "ప్రాంత": 1186,
      "రాజ్య": 1187,
      "పేరు": 1188,
      "రైలు": 1189,
      "17": 1190,
      "Th": 1191,
      "ire": 1192,
      "ढ़": 1193,
      "ers": 1194,
      "but": 1195,
      "fir": 1196,
      "government": 1197,
      "langu": 1198,
      "year": 1199,
      "ஆய": 1200,
      "இய": 1201,
      "கட்ட": 1202,
      "தில்": 1203,
      "பண்": 1204,
      "பேர": 1205,
      "ழு": 1206,
      "ாகக்": 1207,
      "ப்பட்டது": 1208,
      "மொழ": 1209,
      "inclu": 1210,
      "வளர்ச்ச": 1211,
      "minist": 1212,
      "Hindu": 1213,
      "நிறுவ": 1214,
      "10": 1215,
      "कृ": 1216,
      "बसे": 1217,
      "सबसे": 1218,
      "प्रा": 1219,
      "जिस": 1220,
      "1950": 1221,
      "ci": 1222,
      "ces": 1223,
      "dec": 1224,
      "pri": 1225,
      "qu": 1226,
      "uc": 1227,
      "दि": 1228,
      "बहु": 1229,
      "அதன்": 1230,
      "இவை": 1231,
      "இதன்": 1232,
      "கீ": 1233,
      "டுகள": 1234,
      "முக": 1235,
      "றிய": 1236,
      "வான": 1237,
      "ிரு": 1238,
      "దాయ": 1239,
      "నాలు": 1240,
      "ప్": 1241,
      "వార": 1242,
      "వర్": 1243,
      "సభ": 1244,
      "region": 1245,
      "ையின்": 1246,
      "ையானது": 1247,
      "క్కు": 1248,
      "ాత్ర": 1249,
      "దేశంలో": 1250,
      "్టీ": 1251,
      "ப்புற": 1252,
      "வேறு": 1253,
      "தொடங்க": 1254,
      "பொருட": 1255,
      "popul": 1256,
      "சியாவ": 1257,
      "క్రీ": 1258,
      "world": 1259,
      "குறிப்பிட": 1260,
      "मुख": 1261,
      "పార్టీ": 1262,
      "தொழில்": 1263,
      "దక్షి": 1264,
      "1947": 1265,
      "पु": 1266,
      "ष्ट्र": 1267,
      "Asi": 1268,
      "ok": 1269,
      "sy": 1270,
      "ud": 1271,
      "ved": 1272,
      "உண": 1273,
      "கல": 1274,
      "சீ": 1275,
      "சை": 1276,
      "திர": 1277,
      "நடு": 1278,
      "நேர": 1279,
      "பின்": 1280,
      "ந்திர": 1281,
      "eral": 1282,
      "ாவது": 1283,
      "ிலான": 1284,
      "ome": 1285,
      "இருந்தது": 1286,
      "ற்பட்ட": 1287,
      "ின்றனர்": 1288,
      "பகுதிகள": 1289,
      "first": 1290,
      "பண்பா": 1291,
      "பேரரச": 1292,
      "30": 1293,
      "अप": 1294,
      "सि": 1295,
      "सी": 1296,
      "ंग्रे": 1297,
      "वर्ष": 1298,
      "cl": 1299,
      "land": 1300,
      "tra": 1301,
      "இடைய": 1302,
      "ஓர்": 1303,
      "சட்ட": 1304,
      "ணுவ": 1305,
      "தற்கு": 1306,
      "பட்ட": 1307,
      "மய": 1308,
      "ூர்": 1309,
      "అయ": 1310,
      "ఆర్": 1311,
      "జనా": 1312,
      "భు": 1313,
      "మి": 1314,
      "రో": 1315,
      "రెండ": 1316,
      "లం": 1317,
      "లా": 1318,
      "వె": 1319,
      "reas": 1320,
      "reli": 1321,
      "ையா": 1322,
      "ence": 1323,
      "dition": 1324,
      "இந்து": 1325,
      "్యం": 1326,
      "ప్రజ": 1327,
      "ప్రభు": 1328,
      "ection": 1329,
      "மாநில": 1330,
      "ించింది": 1331,
      "தொடக்க": 1332,
      "இருந்து": 1333,
      "dern": 1334,
      "வையாக": 1335,
      "இதில்": 1336,
      "இராணுவ": 1337,
      "హిందూ": 1338,
      "த்திற்கு": 1339,
      "row": 1340,
      "16": 1341,
      "50": 1342,
      "जो": 1343,
      "बंध": 1344,
      "सार": 1345,
      "स्व": 1346,
      "द्ध": 1347,
      "पूर्व": 1348,
      "21": 1349,
      "cast": 1350,
      "during": 1351,
      "gan": 1352,
      "had": 1353,
      "long": 1354,
      "oc": 1355,
      "sc": 1356,
      "ஆன": 1357,
      "ப்த": 1358,
      "மன்ற": 1359,
      "வழ": 1360,
      "ாங்க": 1361,
      "ெடு": 1362,
      "ைச்": 1363,
      "ப்படுத்த": 1364,
      "ட்டின்": 1365,
      "stem": 1366,
      "முக்கிய": 1367,
      "முன்ன": 1368,
      "ect": 1369,
      "த்துவ": 1370,
      "ational": 1371,
      "பிரி": 1372,
      "ages": 1373,
      "மேற்கு": 1374,
      "லாம்": 1375,
      "அரசாங்க": 1376,
      "used": 1377,
      "வீத": 1378,
      "க்கால": 1379,
      "உயிர": 1380,
      "after": 1381,
      "became": 1382,
      "fore": 1383,
      "stitution": 1384,
      "system": 1385,
      "धर्म": 1386,
      "्रा": 1387,
      "र्थ": 1388,
      "स्त": 1389,
      "राष्ट्र": 1390,
      "ced": 1391,
      "fic": 1392,
      "jor": 1393,
      "ni": 1394,
      "ph": 1395,
      "pre": 1396,
      "par": 1397,
      "pire": 1398,
      "ric": 1399,
      "ser": 1400,
      "vi": 1401,
      "अधिक": 1402,
      "थी": 1403,
      "दिया": 1404,
      "पार": 1405,
      "मी": 1406,
      "लग": 1407,
      "सद": 1408,
      "அண": 1409,
      "அனை": 1410,
      "உறு": 1411,
      "கல்": 1412,
      "கிர": 1413,
      "மதி": 1414,
      "வண": 1415,
      "வங்க": 1416,
      "ுடைய": 1417,
      "ంద్ర": 1418,
      "ఇతర": 1419,
      "గి": 1420,
      "తా": 1421,
      "తరు": 1422,
      "పూ": 1423,
      "పో": 1424,
      "మన": 1425,
      "లకు": 1426,
      "వీ": 1427,
      "వు": 1428,
      "శ్ర": 1429,
      "ష్": 1430,
      "ీన": 1431,
      "them": 1432,
      "ானிய": 1433,
      "reat": 1434,
      "also": 1435,
      "இந்தியப்": 1436,
      "స్కృ": 1437,
      "முறைய": 1438,
      "ాల్": 1439,
      "தொக": 1440,
      "போன்ற": 1441,
      "ముఖ్య": 1442,
      "माण": 1443,
      "மாற்ற": 1444,
      "స్త్ర": 1445,
      "ించిన": 1446,
      "been": 1447,
      "సాం": 1448,
      "வீன": 1449,
      "ய்ய": 1450,
      "contin": 1451,
      "मिल": 1452,
      "వచ్చింది": 1453,
      "தனி": 1454,
      "श्व": 1455,
      "largest": 1456,
      "have": 1457,
      "పెద్ద": 1458,
      "century": 1459,
      "शासन": 1460,
      "பயன்ப": 1461,
      "క్కువ": 1462,
      "do": 1463,
      "ral": 1464,
      "40": 1465,
      "ंड": 1466,
      "बी": 1467,
      "रे": 1468,
      "ल्": 1469,
      "नाम": 1470,
      "विश्व": 1471,
      "साम": 1472,
      "चीन": 1473,
      "Cong": 1474,
      "Em": 1475,
      "pt": 1476,
      "pol": 1477,
      "wo": 1478,
      "war": 1479,
      "உடைய": 1480,
      "என்ப": 1481,
      "நி": 1482,
      "பங்க": 1483,
      "மெ": 1484,
      "வானது": 1485,
      "வர்கள": 1486,
      "ான்": 1487,
      "ிட்ட": 1488,
      "ியான": 1489,
      "ere": 1490,
      "ics": 1491,
      "பாது": 1492,
      "பெய": 1493,
      "ural": 1494,
      "ர்க்க": 1495,
      "வெள": 1496,
      "such": 1497,
      "more": 1498,
      "most": 1499,
      "ext": 1500,
      "ஆகியவற்ற": 1501,
      "மக்கள": 1502,
      "1991": 1503,
      "comm": 1504,
      "thern": 1505,
      "million": 1506,
      "Congress": 1507,
      ").": 1508,
      "bl": 1509,
      "कु": 1510,
      "बना": 1511,
      "लो": 1512,
      "प्त": 1513,
      "उत्तर": 1514,
      "42": 1515,
      "South": 1516,
      "ban": 1517,
      "cial": 1518,
      "dh": 1519,
      "num": 1520,
      "ta": 1521,
      "ures": 1522,
      "wn": 1523,
      "அறி": 1524,
      "உற்ப": 1525,
      "கண்ட": 1526,
      "தீ": 1527,
      "லில்": 1528,
      "ித": 1529,
      "ைகள்": 1530,
      "అతి": 1531,
      "ఉత్": 1532,
      "ఉంట": 1533,
      "గర": 1534,
      "గీ": 1535,
      "జరి": 1536,
      "పట్ట": 1537,
      "బడ": 1538,
      "బా": 1539,
      "బె": 1540,
      "బ్ర": 1541,
      "మహ": 1542,
      "లలో": 1543,
      "వంట": 1544,
      "ుకు": 1545,
      "that": 1546,
      "inf": 1547,
      "ப்பட்டன": 1548,
      "విధ": 1549,
      "போட்ட": 1550,
      "vers": 1551,
      "ade": 1552,
      "செய்ய": 1553,
      "modern": 1554,
      "భాగ": 1555,
      "వాణా": 1556,
      "increas": 1557,
      "நடத்த": 1558,
      "ount": 1559,
      "பெரும்பாலான": 1560,
      "major": 1561,
      "விளையா": 1562,
      "మార్గాలు": 1563,
      "కేంద్ర": 1564,
      "years": 1565,
      "ప్ప": 1566,
      "క్రీడ": 1567,
      "class": 1568,
      "tradition": 1569,
      "అయిన": 1570,
      "జనాభా": 1571,
      "ప్రభుత్వ": 1572,
      "ஆனால்": 1573,
      "வணிக": 1574,
      "తరువాత": 1575,
      "பயன்படுத்த": 1576,
      "பாதுகா": 1577,
      "चु": 1578,
      "तु": 1579,
      "बड़": 1580,
      "स्ता": 1581,
      "हुआ": 1582,
      "हुई": 1583,
      "निर्": 1584,
      "अनु": 1585,
      "Af": 1586,
      "ca": 1587,
      "cor": 1588,
      "grow": 1589,
      "two": 1590,
      "அளவ": 1591,
      "ஐஅ": 1592,
      "கலை": 1593,
      "சிற": 1594,
      "டன்": 1595,
      "நுட": 1596,
      "பத": 1597,
      "பல்": 1598,
      "மலை": 1599,
      "லிய": 1600,
      "ாம": 1601,
      "ுத": 1602,
      "ுக்க": 1603,
      "ப்படு": 1604,
      "ப்பின": 1605,
      "த்தைக்": 1606,
      "ari": 1607,
      "காண": 1608,
      "ங்களின்": 1609,
      "தொலை": 1610,
      "வாழ்": 1611,
      "lim": 1612,
      "நிலைய": 1613,
      "தொடர்ந்து": 1614,
      "imal": 1615,
      "ப்படுகின்றன": 1616,
      "நாடுகள": 1617,
      "மொத்த": 1618,
      "ound": 1619,
      "பிறகு": 1620,
      "both": 1621,
      "அடிப்பட": 1622,
      "ஆயுத": 1623,
      "நிறுவன": 1624,
      "prime": 1625,
      "கீழ்": 1626,
      "நுட்ப": 1627,
      "चि": 1628,
      "ज़": 1629,
      "ध्य": 1630,
      "भू": 1631,
      "म्": 1632,
      "मंत्र": 1633,
      "वार": 1634,
      "व्य": 1635,
      "ैन": 1636,
      "ोड़": 1637,
      "००": 1638,
      "सेना": 1639,
      "जाता": 1640,
      "हिन्दी": 1641,
      "%,": 1642,
      "(₹": 1643,
      "BCE": 1644,
      "Ma": 1645,
      "cult": 1646,
      "dom": 1647,
      "ff": 1648,
      "main": 1649,
      "rough": 1650,
      "ty": 1651,
      "ंद्र": 1652,
      "दा": 1653,
      "लय": 1654,
      "அக": 1655,
      "அவை": 1656,
      "ஆற்ற": 1657,
      "இக்கால": 1658,
      "உள்": 1659,
      "கட்ச": 1660,
      "சோ": 1661,
      "தாகும்": 1662,
      "பக": 1663,
      "ரீ": 1664,
      "ரோ": 1665,
      "வில்": 1666,
      "வழி": 1667,
      "வகை": 1668,
      "అనే": 1669,
      "ఇది": 1670,
      "ఎక్కువ": 1671,
      "ఏర్": 1672,
      "కీయ": 1673,
      "కలి": 1674,
      "గో": 1675,
      "గ్": 1676,
      "గిన": 1677,
      "జన": 1678,
      "టిక": 1679,
      "ణం": 1680,
      "బహ": 1681,
      "మంత్ర": 1682,
      "రవాణా": 1683,
      "లే": 1684,
      "లను": 1685,
      "సిం": 1686,
      "సరి": 1687,
      "ిల్ల": 1688,
      "though": 1689,
      "க்கம்": 1690,
      "த்தக்க": 1691,
      "ரும": 1692,
      "్రా": 1693,
      "్రె": 1694,
      "ition": 1695,
      "ప్రస్తు": 1696,
      "ప్రదాయ": 1697,
      "ிலும்": 1698,
      "काल": 1699,
      "urban": 1700,
      "स्कृ": 1701,
      "lear": 1702,
      "క్క": 1703,
      "ற்கா": 1704,
      "olog": 1705,
      "స్తాన్": 1706,
      "வேக": 1707,
      "ுக்குப்": 1708,
      "bet": 1709,
      "ందిన": 1710,
      "istan": 1711,
      "பிரித்த": 1712,
      "மேற்க": 1713,
      "under": 1714,
      "அரசியல்": 1715,
      "2001": 1716,
      "பரவ": 1717,
      "ంగ్రె": 1718,
      "வாகும்": 1719,
      "సాధ": 1720,
      "పాకి": 1721,
      "రాజకీయ": 1722,
      "देशों": 1723,
      "समय": 1724,
      "కాంగ్రె": 1725,
      "அதிகரித்து": 1726,
      "ween": 1727,
      "large": 1728,
      "port": 1729,
      "not": 1730,
      "కాలంలో": 1731,
      "இரண்டு": 1732,
      "ఎన్నో": 1733,
      "ాబ్": 1734,
      "குடியரச": 1735,
      "మొదటి": 1736,
      "minister": 1737,
      "దక్షిణ": 1738,
      "Asia": 1739,
      "இடையில்": 1740,
      "caste": 1741,
      "அனைத்து": 1742,
      "ரீதிய": 1743,
      "பிரித்தானிய": 1744,
      "pu": 1745,
      "13": 1746,
      "गा": 1747,
      "तिक": 1748,
      "बढ़": 1749,
      "महा": 1750,
      "रि": 1751,
      "रु": 1752,
      "वं": 1753,
      "ष्": 1754,
      "केंद्र": 1755,
      "स्थ": 1756,
      "नाव": 1757,
      "राज्यों": 1758,
      "हीं": 1759,
      "Brit": 1760,
      "Bud": 1761,
      "Un": 1762,
      "east": 1763,
      "gr": 1764,
      "led": 1765,
      "tr": 1766,
      "அண்": 1767,
      "இணை": 1768,
      "ஒப்ப": 1769,
      "கரு": 1770,
      "சந்த": 1771,
      "சரா": 1772,
      "தேர": 1773,
      "மன": 1774,
      "மிய": 1775,
      "ர்த்த": 1776,
      "ல்கள": 1777,
      "வது": 1778,
      "வுகள": 1779,
      "this": 1780,
      "ince": 1781,
      "their": 1782,
      "த்தி": 1783,
      "eng": 1784,
      "ங்கிர": 1785,
      "ory": 1786,
      "இந்தியத்": 1787,
      "isation": 1788,
      "காங்கிர": 1789,
      "out": 1790,
      "life": 1791,
      "ament": 1792,
      "உள்ளட": 1793,
      "கொண்டிருந்தது": 1794,
      "நிலை": 1795,
      "வெளி": 1796,
      "who": 1797,
      "வரலா": 1798,
      "election": 1799,
      "கூட": 1800,
      "தேசிய": 1801,
      "பொதுவாக": 1802,
      "பெற்றது": 1803,
      "மூன்ற": 1804,
      "கிழக்கு": 1805,
      "இவ்": 1806,
      "new": 1807,
      "language": 1808,
      "வளர்ச்சி": 1809,
      "uclear": 1810,
      "population": 1811,
      "வங்காள": 1812,
      "continent": 1813,
      "Empire": 1814,
      "number": 1815,
      "British": 1816,
      "उप": 1817,
      "एश": 1818,
      "क्र": 1819,
      "खा": 1820,
      "टि": 1821,
      "टे": 1822,
      "दान": 1823,
      "वे": 1824,
      "प्रमुख": 1825,
      "संघ": 1826,
      "ियों": 1827,
      "अन्य": 1828,
      "लिए": 1829,
      "स्तान": 1830,
      "An": 1831,
      "Con": 1832,
      "Pak": 1833,
      "dance": 1834,
      "fol": 1835,
      "kh": 1836,
      "les": 1837,
      "lit": 1838,
      "many": 1839,
      "ss": 1840,
      "south": 1841,
      "சன": 1842,
      "தர": 1843,
      "ந்": 1844,
      "பஞ்ச": 1845,
      "மர": 1846,
      "மதிய": 1847,
      "ரிய": 1848,
      "ரும்": 1849,
      "ளவு": 1850,
      "ுமன்ற": 1851,
      "ேற்ற": 1852,
      "అత్య": 1853,
      "ఇండి": 1854,
      "ఉప": 1855,
      "క్య": 1856,
      "గల": 1857,
      "చిన్న": 1858,
      "దం": 1859,
      "పం": 1860,
      "పై": 1861,
      "పతి": 1862,
      "భూ": 1863,
      "మై": 1864,
      "మాన": 1865,
      "యు": 1866,
      "యో": 1867,
      "రంగ": 1868,
      "లతో": 1869,
      "వల": 1870,
      "శ్": 1871,
      "షు": 1872,
      "ావర": 1873,
      "ుకో": 1874,
      "ెలు": 1875,
      "్మ": 1876,
      "ும்ப": 1877,
      "erg": 1878,
      "ுகிறது": 1879,
      "முதன்": 1880,
      "ప్రతి": 1881,
      "ాలలో": 1882,
      "ాలను": 1883,
      "విస్త": 1884,
      "வாய": 1885,
      "வாக்க": 1886,
      "ations": 1887,
      "ండు": 1888,
      "ించి": 1889,
      "began": 1890,
      "lop": 1891,
      "సంస్కృ": 1892,
      "సంగీ": 1893,
      "sup": 1894,
      "லாய": 1895,
      "ட்சிய": 1896,
      "வரை": 1897,
      "ంగ్ల": 1898,
      "உருவானது": 1899,
      "anges": 1900,
      "ically": 1901,
      "ిత్ర": 1902,
      "ప్రాచ": 1903,
      "క్రమ": 1904,
      "1965": 1905,
      "సిని": 1906,
      "సియా": 1907,
      "த்தியில்": 1908,
      "ద్ధి": 1909,
      "శాస్త్ర": 1910,
      "lowing": 1911,
      "economic": 1912,
      "north": 1913,
      "நகர": 1914,
      "நகர்": 1915,
      "வருக": 1916,
      "western": 1917,
      "மொழிகள": 1918,
      "முகலாய": 1919,
      "நேரத்தில்": 1920,
      "ఆర్ధిక": 1921,
      "அணு": 1922,
      "ountry": 1923,
      "உள்நாட்டு": 1924,
      "సరిహ": 1925,
      "between": 1926,
      "தேர்த": 1927,
      "Pakistan": 1928,
      "అత్యధిక": 1929,
      "ఇండియా": 1930,
      "blic": 1931,
      "public": 1932,
      "12": 1933,
      "500": 1934,
      "चा": 1935,
      "त्य": 1936,
      "नों": 1937,
      "सैन": 1938,
      "ारी": 1939,
      "क्त": 1940,
      "जाति": 1941,
      "36": 1942,
      "70": 1943,
      "Eur": 1944,
      "It": 1945,
      "bi": 1946,
      "rat": 1947,
      "ris": 1948,
      "rate": 1949,
      "tec": 1950,
      "tim": 1951,
      "அட": 1952,
      "இற": 1953,
      "கண": 1954,
      "கட்டு": 1955,
      "சில": 1956,
      "ண்கள": 1957,
      "நவீன": 1958,
      "பே": 1959,
      "பௌ": 1960,
      "பண்ட": 1961,
      "ராக": 1962,
      "ழை": 1963,
      "வதற்கு": 1964,
      "ஸ்": 1965,
      "ோர்": 1966,
      "துறைய": 1967,
      "த்திர": 1968,
      "ட்டில்": 1969,
      "als": 1970,
      "ங்கு": 1971,
      "ite": 1972,
      "ited": 1973,
      "ாவில்": 1974,
      "டித்த": 1975,
      "leg": 1976,
      "உள்ளிட்ட": 1977,
      "ilit": 1978,
      "ement": 1979,
      "புதிய": 1980,
      "velop": 1981,
      "set": 1982,
      "செல": 1983,
      "வெற்ற": 1984,
      "exp": 1985,
      "power": 1986,
      "able": 1987,
      "ack": 1988,
      "டைந்த": 1989,
      "வையாகும்": 1990,
      "ially": 1991,
      "ன்னி": 1992,
      "peri": 1993,
      "comp": 1994,
      "spec": 1995,
      "இலக்கிய": 1996,
      "economy": 1997,
      "northern": 1998,
      "எண்ணிக்க": 1999,
      "சேர்ந்த": 2000,
      "later": 2001,
      "விரி": 2002,
      "கட்டட": 2003,
      "குறிப்பிடத்தக்க": 2004,
      "உறுப்பின": 2005,
      "வெளிய": 2006,
      "versity": 2007,
      "பாதுகாப்பு": 2008,
      "14": 2009,
      "late": 2010,
      "अन्": 2011,
      "आध": 2012,
      "इन": 2013,
      "गर": 2014,
      "च्": 2015,
      "ज्य": 2016,
      "दश": 2017,
      "द्य": 2018,
      "पश्": 2019,
      "ब्": 2020,
      "रहा": 2021,
      "शु": 2022,
      "समा": 2023,
      "संस्कृ": 2024,
      "करने": 2025,
      "िये": 2026,
      "ंगा": 2027,
      "2022": 2028,
      "पश्चि": 2029,
      "ef": 2030,
      "24": 2031,
      "%),": 2032,
      ");": 2033,
      "..": 2034,
      "35": 2035,
      "Al": 2036,
      "By": 2037,
      "Ne": 2038,
      "cy": 2039,
      "cour": 2040,
      "ds": 2041,
      "ded": 2042,
      "her": 2043,
      "hum": 2044,
      "igh": 2045,
      "lish": 2046,
      "non": 2047,
      "national": 2048,
      "other": 2049,
      "since": 2050,
      "ten": 2051,
      "ugh": 2052,
      "ving": 2053,
      "अम": 2054,
      "अंग्रे": 2055,
      "कई": 2056,
      "गी": 2057,
      "णा": 2058,
      "तंत्र": 2059,
      "नहीं": 2060,
      "पह": 2061,
      "मन": 2062,
      "मै": 2063,
      "मध्य": 2064,
      "योग": 2065,
      "सू": 2066,
      "हर": 2067,
      "அறிய": 2068,
      "ஆசிய": 2069,
      "ஏற்பட்ட": 2070,
      "ஓவிய": 2071,
      "சொ": 2072,
      "தற்": 2073,
      "தமி": 2074,
      "நான": 2075,
      "பூ": 2076,
      "பரி": 2077,
      "வக": 2078,
      "வ்": 2079,
      "வர்": 2080,
      "வகு": 2081,
      "ంధ": 2082,
      "ఆధ": 2083,
      "కాలు": 2084,
      "గణ": 2085,
      "గలు": 2086,
      "జాబ": 2087,
      "ట్ల": 2088,
      "ఢిల్ల": 2089,
      "ణి": 2090,
      "తిక": 2091,
      "తంత్ర": 2092,
      "దార": 2093,
      "ధి": 2094,
      "నీ": 2095,
      "నె": 2096,
      "నడి": 2097,
      "భిన్న": 2098,
      "మె": 2099,
      "మూడ": 2100,
      "మాత్ర": 2101,
      "రం": 2102,
      "రహ": 2103,
      "వై": 2104,
      "సౌ": 2105,
      "సము": 2106,
      "సింది": 2107,
      "సమా": 2108,
      "హార": 2109,
      "ీర్": 2110,
      "துணை": 2111,
      "than": 2112,
      "ந்தைய": 2113,
      "ins": 2114,
      "ப்பின்": 2115,
      "there": 2116,
      "த்தால்": 2117,
      "one": 2118,
      "ில்லிய": 2119,
      "्री": 2120,
      "ண்டும்": 2121,
      "ions": 2122,
      "స్య": 2123,
      "స్వ": 2124,
      "స్వా": 2125,
      "్యాయ": 2126,
      "முன்": 2127,
      "ప్రము": 2128,
      "భారత్": 2129,
      "వివిధ": 2130,
      "ுகளை": 2131,
      "திர்": 2132,
      "among": 2133,
      "ற்கர": 2134,
      "நாட்டின்": 2135,
      "विधान": 2136,
      "ular": 2137,
      "கொண்டு": 2138,
      "ద్దు": 2139,
      "raph": 2140,
      "ంతో": 2141,
      "களின்": 2142,
      "வென்ற": 2143,
      "இருந்தன": 2144,
      "हुए": 2145,
      "సామ": 2146,
      "ாளுமன்ற": 2147,
      "कारण": 2148,
      "त्व": 2149,
      "पाकि": 2150,
      "நாடாளுமன்ற": 2151,
      "ிகளை": 2152,
      "நீண்ட": 2153,
      "కోర్": 2154,
      "इसके": 2155,
      "పేర్": 2156,
      "होता": 2157,
      "உயர்": 2158,
      "రాష్ట్రాలు": 2159,
      "రాష్ట్రపతి": 2160,
      "குறிப்பாக": 2161,
      "பெரும்பான்": 2162,
      "శాఖ": 2163,
      "peo": 2164,
      "வடக்கு": 2165,
      "డ్డ": 2166,
      "మొదల": 2167,
      "கடற்கர": 2168,
      "subcontinent": 2169,
      "தோன்ற": 2170,
      "కర్య": 2171,
      "ప్రాంతాలు": 2172,
      "including": 2173,
      "प्राचीन": 2174,
      "దేశంలోని": 2175,
      "தொடங்கியது": 2176,
      "பொருட்கள": 2177,
      "பொருட்கள்": 2178,
      "రెండు": 2179,
      "முக்கியமான": 2180,
      "உயிரின": 2181,
      "கிராம": 2182,
      "ాల్లో": 2183,
      "ఉత్తర": 2184,
      "పట్టణ": 2185,
      "బెంగ": 2186,
      "బ్రి": 2187,
      "influ": 2188,
      "భాగం": 2189,
      "increased": 2190,
      "ప్పటిక": 2191,
      "classical": 2192,
      "चुनाव": 2193,
      "अनुसार": 2194,
      "After": 2195,
      "व्यव": 2196,
      "ఏర్ప": 2197,
      "బహు": 2198,
      "మంత్రి": 2199,
      "సింధ": 2200,
      "Buddh": 2201,
      "மனித": 2202,
      "உள்ளடக்கிய": 2203,
      "एशिया": 2204,
      "liter": 2205,
      "முதன்மையான": 2206,
      "సరిహద్దు": 2207,
      "பௌத்த": 2208,
      "ఢిల్లీ": 2209,
      "దారులు": 2210,
      "నడిప": 2211,
      "సౌకర్య": 2212,
      "ில்லியன்": 2213,
      "ప్రముఖ": 2214,
      "पाकिस्तान": 2215,
      "Com": 2216,
      "ust": 2217,
      "Indo": 2218,
      "55": 2219,
      "2013": 2220,
      "1951": 2221,
      "कॉ": 2222,
      "गण": 2223,
      "गु": 2224,
      "धी": 2225,
      "न्या": 2226,
      "मो": 2227,
      "प्रति": 2228,
      "प्रधान": 2229,
      "क्ति": 2230,
      "न्ह": 2231,
      "संविधान": 2232,
      "करोड़": 2233,
      "क्षा": 2234,
      "ड़ा": 2235,
      "द्वार": 2236,
      "भाषाओं": 2237,
      "्राज्य": 2238,
      "साम्राज्य": 2239,
      "लोक": 2240,
      "भूमि": 2241,
      "मंत्री": 2242,
      "दशक": 2243,
      "31": 2244,
      "400": 2245,
      "Mo": 2246,
      "Mugh": 2247,
      "US": 2248,
      "Wor": 2249,
      "ai": 2250,
      "aw": 2251,
      "ach": 2252,
      "bal": 2253,
      "bas": 2254,
      "cal": 2255,
      "ev": 2256,
      "ho": 2257,
      "har": 2258,
      "hist": 2259,
      "krit": 2260,
      "mus": 2261,
      "mid": 2262,
      "milit": 2263,
      "ng": 2264,
      "nuclear": 2265,
      "os": 2266,
      "pres": 2267,
      "ting": 2268,
      "இப்ப": 2269,
      "உட": 2270,
      "எதிர்": 2271,
      "ஏற்று": 2272,
      "ஐக்கிய": 2273,
      "ஐரோ": 2274,
      "கங்க": 2275,
      "சூ": 2276,
      "சுக": 2277,
      "தம": 2278,
      "தூ": 2279,
      "தை": 2280,
      "தான": 2281,
      "பழ": 2282,
      "மல": 2283,
      "ரப்ப": 2284,
      "லாக": 2285,
      "லமை": 2286,
      "ள்க": 2287,
      "வின்": 2288,
      "வில": 2289,
      "வர்கள்": 2290,
      "ுக்கும்": 2291,
      "ree": 2292,
      "sty": 2293,
      "state": 2294,
      "diversity": 2295,
      "ised": 2296,
      "ாவின்": 2297,
      "முடி": 2298,
      "முசு": 2299,
      "காட்ட": 2300,
      "ங்களாக": 2301,
      "விட": 2302,
      "liament": 2303,
      "இதுவாகும்": 2304,
      "புவி": 2305,
      "வேளா": 2306,
      "ரால்": 2307,
      "constitution": 2308,
      "develop": 2309,
      "அரசிய": 2310,
      "வரும்": 2311,
      "க்கப்பட்டது": 2312,
      "duc": 2313,
      "உருவாக": 2314,
      "பகுதி": 2315,
      "வியல்": 2316,
      "pos": 2317,
      "act": 2318,
      "தென்": 2319,
      "தெற்கு": 2320,
      "தென்னி": 2321,
      "ிகளில்": 2322,
      "social": 2323,
      "நீதி": 2324,
      "இதற்கு": 2325,
      "இருக்க": 2326,
      "நடன": 2327,
      "அதிகரித்த": 2328,
      "work": 2329,
      "general": 2330,
      "2011ஆம்": 2331,
      "rule": 2332,
      "1971": 2333,
      "mark": 2334,
      "Chin": 2335,
      "cient": 2336,
      "வேறுபட்ட": 2337,
      "occ": 2338,
      "parliament": 2339,
      "கல்விய": 2340,
      "காங்கிரசு": 2341,
      "இவ்வா": 2342,
      "கணக்க": 2343,
      "கட்டுப்பா": 2344,
      "period": 2345,
      "species": 2346,
      "people": 2347,
      "World": 2348,
      "முசுலி": 2349,
      "வேளாண்": 2350,
      "தென்னிந்திய": 2351,
      "inter": 2352,
      "ign": 2353,
      "mon": 2354,
      "ख्या": 2355,
      "गठ": 2356,
      "चल": 2357,
      "ब्र": 2358,
      "यू": 2359,
      "रह": 2360,
      "न्न": 2361,
      "संबंध": 2362,
      "सम्": 2363,
      "1962": 2364,
      "पूर्": 2365,
      "हिन्द": 2366,
      "ंग्रेस": 2367,
      "स्वतंत्र": 2368,
      "राष्ट्रीय": 2369,
      "पार्ट": 2370,
      "बीच": 2371,
      "मैदान": 2372,
      "चुनावों": 2373,
      "व्यवस्था": 2374,
      "द्वारा": 2375,
      "%-": 2376,
      "%.": 2377,
      "4இல்": 2378,
      "Beng": 2379,
      "East": 2380,
      "Mus": 2381,
      "Pun": 2382,
      "St": 2383,
      "Sans": 2384,
      "West": 2385,
      "country": 2386,
      "gi": 2387,
      "gre": 2388,
      "hm": 2389,
      "jab": 2390,
      "ned": 2391,
      "op": 2392,
      "ope": 2393,
      "ron": 2394,
      "te": 2395,
      "ya": 2396,
      "ஆட்சிய": 2397,
      "இண": 2398,
      "இன": 2399,
      "இசு": 2400,
      "எஞ்ச": 2401,
      "தங்கள": 2402,
      "தசா": 2403,
      "நப": 2404,
      "பற்ற": 2405,
      "மத்தியில்": 2406,
      "யக": 2407,
      "ரே": 2408,
      "ரின்": 2409,
      "லம்": 2410,
      "ல்கள்": 2411,
      "ாந்திய": 2412,
      "ேய": 2413,
      "ంద": 2414,
      "ందు": 2415,
      "అభ": 2416,
      "అను": 2417,
      "కం": 2418,
      "కళ": 2419,
      "కల్": 2420,
      "గే": 2421,
      "గంగా": 2422,
      "చార": 2423,
      "చరి": 2424,
      "చైన": 2425,
      "జ్య": 2426,
      "టం": 2427,
      "టీ": 2428,
      "టె": 2429,
      "తన": 2430,
      "తూ": 2431,
      "తమి": 2432,
      "తాబ్": 2433,
      "థిక": 2434,
      "నగర": 2435,
      "పత": 2436,
      "పొ": 2437,
      "పద్ధ": 2438,
      "పండు": 2439,
      "మలు": 2440,
      "మ్య": 2441,
      "రూ": 2442,
      "ళం": 2443,
      "ళ్ల": 2444,
      "వడ": 2445,
      "వహ": 2446,
      "వృ": 2447,
      "వత్": 2448,
      "శతాబ్": 2449,
      "సమ": 2450,
      "సై": 2451,
      "సార": 2452,
      "సర్వ": 2453,
      "ిమ": 2454,
      "ుంది": 2455,
      "துறை": 2456,
      "through": 2457,
      "க்கித்த": 2458,
      "ப்பை": 2459,
      "enni": 2460,
      "dic": 2461,
      "ர்வ": 2462,
      "arm": 2463,
      "Indu": 2464,
      "offic": 2465,
      "இந்தியக்": 2466,
      "ities": 2467,
      "స్వాత": 2468,
      "குழ": 2469,
      "முத": 2470,
      "ాలతో": 2471,
      "கால்": 2472,
      "பாணிய": 2473,
      "பாக்கித்த": 2474,
      "க்குப்": 2475,
      "న్నాయి": 2476,
      "பெற": 2477,
      "வைத்த": 2478,
      "నిర్వ": 2479,
      "lead": 2480,
      "வாய்": 2481,
      "నుక": 2482,
      "నుండి": 2483,
      "நாயக": 2484,
      "river": 2485,
      "emerg": 2486,
      "త్తం": 2487,
      "புது": 2488,
      "ల్వే": 2489,
      "ించే": 2490,
      "பிரதம": 2491,
      "பிராந்திய": 2492,
      "ஆண்டின்": 2493,
      "2010": 2494,
      "సంఖ్య": 2495,
      "வெப்ப": 2496,
      "மேற்பட்ட": 2497,
      "அமைப்பு": 2498,
      "ately": 2499,
      "அதிகா": 2500,
      "சார்ந்த": 2501,
      "ர்களால்": 2502,
      "சிந்து": 2503,
      "ains": 2504,
      "ితా": 2505,
      "நீடித்த": 2506,
      "కూడిన": 2507,
      "మొత్తం": 2508,
      "ultan": 2509,
      "రైల్వే": 2510,
      "2023": 2511,
      "వాతావర": 2512,
      "app": 2513,
      "పాలన": 2514,
      "భారతదేశానికి": 2515,
      "இலட்ச": 2516,
      "ఒకటి": 2517,
      "இரண்டாவது": 2518,
      "185": 2519,
      "చేయ": 2520,
      "దేశాలలో": 2521,
      "ograph": 2522,
      "குறைவான": 2523,
      "செய்த": 2524,
      "millenni": 2525,
      "ைகளில்": 2526,
      "కారం": 2527,
      "తున్న": 2528,
      "అధికారిక": 2529,
      "ట్లు": 2530,
      "ప్రపంచంలో": 2531,
      "భాషలు": 2532,
      "languages": 2533,
      "சீன": 2534,
      "వెబ": 2535,
      "religion": 2536,
      "ప్రజా": 2537,
      "forest": 2538,
      "served": 2539,
      "themat": 2540,
      "polit": 2541,
      "ఉంటాయి": 2542,
      "జరిగిన": 2543,
      "వంటి": 2544,
      "caused": 2545,
      "அடிப்படைய": 2546,
      "అనేక": 2547,
      "ఎక్కువగా": 2548,
      "ప్రస్తుతం": 2549,
      "కాంగ్రెసు": 2550,
      "குடியரசு": 2551,
      "பஞ்சா": 2552,
      "ప్రాచీన": 2553,
      "நகர்ப்புற": 2554,
      "Europe": 2555,
      "tech": 2556,
      "கட்டடக்": 2557,
      "தற்போது": 2558,
      "జాబితా": 2559,
      "రహదారులు": 2560,
      "సముద్ర": 2561,
      "முன்னர்": 2562,
      "Mughal": 2563,
      "military": 2564,
      "அரசியலமை": 2565,
      "China": 2566,
      "கணக்கெடு": 2567,
      "Bengal": 2568,
      "Punjab": 2569,
      "Sanskrit": 2570,
      "எஞ்சிய": 2571,
      "தசாப்த": 2572,
      "అభి": 2573,
      "చరిత్ర": 2574,
      "శతాబ్దం": 2575,
      "స్వాతంత్ర": 2576,
      "నిర్వహ": 2577,
      "వాతావరణం": 2578,
      "millennium": 2579,
      "100": 2580,
      "28": 2581,
      "46": 2582,
      "sig": 2583,
      "आर्थ": 2584,
      "उन": 2585,
      "टी": 2586,
      "ण्": 2587,
      "तृ": 2588,
      "धि": 2589,
      "पी": 2590,
      "फ़": 2591,
      "बर": 2592,
      "बे": 2593,
      "मत": 2594,
      "रो": 2595,
      "लों": 2596,
      "स्ट": 2597,
      "प्रदेश": 2598,
      "नेतृ": 2599,
      "विका": 2600,
      "विस्त": 2601,
      "संख्या": 2602,
      "जाती": 2603,
      "द्वी": 2604,
      "धिकार": 2605,
      "स्थान": 2606,
      "बहुत": 2607,
      "निर्माण": 2608,
      "सैन्य": 2609,
      "द्योग": 2610,
      "कॉंग्रेस": 2611,
      "आर्थिक": 2612,
      "द्वीप": 2613,
      "1980": 2614,
      "01": 2615,
      "25": 2616,
      "Cent": 2617,
      "Himal": 2618,
      "Is": 2619,
      "Si": 2620,
      "bill": 2621,
      "can": 2622,
      "col": 2623,
      "day": 2624,
      "fi": 2625,
      "fam": 2626,
      "ga": 2627,
      "ide": 2628,
      "king": 2629,
      "mer": 2630,
      "nat": 2631,
      "nolog": 2632,
      "rural": 2633,
      "sur": 2634,
      "some": 2635,
      "tro": 2636,
      "ually": 2637,
      "vement": 2638,
      "ஆசியாவ": 2639,
      "இமய": 2640,
      "உற": 2641,
      "கம்": 2642,
      "டுகள்": 2643,
      "ண்கள்": 2644,
      "தம்": 2645,
      "தற்க": 2646,
      "திலும்": 2647,
      "நடை": 2648,
      "பரு": 2649,
      "றாக": 2650,
      "ளம்": 2651,
      "வுகள்": 2652,
      "ாத": 2653,
      "ாலும்": 2654,
      "ிணை": 2655,
      "்தான": 2656,
      "ம்ப": 2657,
      "ப்பானது": 2658,
      "theast": 2659,
      "த்தையும்": 2660,
      "ered": 2661,
      "ையை": 2662,
      "ையுடைய": 2663,
      "dire": 2664,
      "disp": 2665,
      "ங்கும்": 2666,
      "ங்கில": 2667,
      "ese": 2668,
      "esp": 2669,
      "குட": 2670,
      "ாவிய": 2671,
      "பால": 2672,
      "டுத்து": 2673,
      "ப்பட்டுள்ளது": 2674,
      "தொகை": 2675,
      "இந்தியாவை": 2676,
      "திரு": 2677,
      "தாங்க": 2678,
      "கொண்டுள்ளன": 2679,
      "புற": 2680,
      "புவிய": 2681,
      "பிரபல": 2682,
      "ஆண்டில்": 2683,
      "தொடர்ச்ச": 2684,
      "காலத்திற்கு": 2685,
      "wide": 2686,
      "2009": 2687,
      "ird": 2688,
      "duced": 2689,
      "ared": 2690,
      "சிற்ப": 2691,
      "ாளர்கள்": 2692,
      "தெற்கா": 2693,
      "நாடக": 2694,
      "soci": 2695,
      "ell": 2696,
      "ித்தது": 2697,
      "cook": 2698,
      "ident": 2699,
      "gener": 2700,
      "wever": 2701,
      "வற்றின்": 2702,
      "அமைப்பானது": 2703,
      "mathemat": 2704,
      "high": 2705,
      "மீண்டும்": 2706,
      "விளை": 2707,
      "செயல்": 2708,
      "centuries": 2709,
      "ஒன்றிய": 2710,
      "காரணமாக": 2711,
      "மயமா": 2712,
      "religi": 2713,
      "மதிப்ப": 2714,
      "என்பது": 2715,
      "போட்டிகள்": 2716,
      "majority": 2717,
      "cording": 2718,
      "culture": 2719,
      "வில்லை": 2720,
      "வேகமாக": 2721,
      "சராச": 2722,
      "வாக்கில்": 2723,
      "ண்களுக்கு": 2724,
      "உள்ளிட்டவை": 2725,
      "விரிவ": 2726,
      "நான்கு": 2727,
      "music": 2728,
      "வேளாண்மை": 2729,
      "Muslim": 2730,
      "இணைய": 2731,
      "தங்களது": 2732,
      "நபர்": 2733,
      "Indus": 2734,
      "அடிப்படையாகக்": 2735,
      "Himalay": 2736,
      "billion": 2737,
      "Ar": 2738,
      "Plate": 2739,
      "Re": 2740,
      "ंप": 2741,
      "अर": 2742,
      "अव": 2743,
      "कर्": 2744,
      "चार": 2745,
      "जब": 2746,
      "दर": 2747,
      "पर्व": 2748,
      "बन": 2749,
      "लर": 2750,
      "लिया": 2751,
      "शे": 2752,
      "ोष": 2753,
      "्यों": 2754,
      "स्त्र": 2755,
      "परमाण": 2756,
      "ange": 2757,
      "कार्य": 2758,
      "जनजाति": 2759,
      "स्थाप": 2760,
      "वीं": 2761,
      "च्च": 2762,
      "पश्चिम": 2763,
      "गणराज्य": 2764,
      "न्याया": 2765,
      "प्रधानमंत्री": 2766,
      "पूर्ण": 2767,
      "परमाणु": 2768,
      "22": 2769,
      "29": 2770,
      "300": 2771,
      "80": 2772,
      "8இல்": 2773,
      "Ac": 2774,
      "Del": 2775,
      "Gand": 2776,
      "Government": 2777,
      "Jan": 2778,
      "Se": 2779,
      "aj": 2780,
      "ace": 2781,
      "air": 2782,
      "back": 2783,
      "cre": 2784,
      "dle": 2785,
      "dra": 2786,
      "fl": 2787,
      "fin": 2788,
      "fer": 2789,
      "great": 2790,
      "ili": 2791,
      "last": 2792,
      "made": 2793,
      "ob": 2794,
      "ose": 2795,
      "pany": 2796,
      "rol": 2797,
      "sing": 2798,
      "sch": 2799,
      "tal": 2800,
      "tri": 2801,
      "vent": 2802,
      "wom": 2803,
      "ंति": 2804,
      "ईसा": 2805,
      "ओर": 2806,
      "गई": 2807,
      "गति": 2808,
      "पे": 2809,
      "बो": 2810,
      "भग": 2811,
      "रक्षा": 2812,
      "लिये": 2813,
      "शन": 2814,
      "शी": 2815,
      "शता": 2816,
      "सक": 2817,
      "सह": 2818,
      "सभा": 2819,
      "२००": 2820,
      "அந்த": 2821,
      "அடைய": 2822,
      "அழி": 2823,
      "அமெ": 2824,
      "அந்": 2825,
      "ஆற": 2826,
      "ஆதர": 2827,
      "இறு": 2828,
      "எதிர": 2829,
      "கவன": 2830,
      "சது": 2831,
      "சமை": 2832,
      "தள": 2833,
      "திற": 2834,
      "தடு": 2835,
      "நெ": 2836,
      "பங்கள": 2837,
      "பதி": 2838,
      "பத்திய": 2839,
      "பில்லியன்": 2840,
      "மும்": 2841,
      "மின்": 2842,
      "யின": 2843,
      "ல்தான": 2844,
      "வரி": 2845,
      "வலி": 2846,
      "ிர்": 2847,
      "ீட்ட": 2848,
      "అని": 2849,
      "ఆఫ": 2850,
      "ఇవ": 2851,
      "కల": 2852,
      "ఖండ": 2853,
      "చి": 2854,
      "జి": 2855,
      "జన్": 2856,
      "టా": 2857,
      "డే": 2858,
      "ణంగా": 2859,
      "దన": 2860,
      "దీ": 2861,
      "ద్య": 2862,
      "నాయ": 2863,
      "న్యాయ": 2864,
      "పద": 2865,
      "పశ": 2866,
      "పక్ష": 2867,
      "పాత్ర": 2868,
      "మల": 2869,
      "మాలు": 2870,
      "మ్మ": 2871,
      "యాలు": 2872,
      "రే": 2873,
      "ర్య": 2874,
      "రకాల": 2875,
      "లక్ష": 2876,
      "వరి": 2877,
      "సర": 2878,
      "సూ": 2879,
      "హా": 2880,
      "ిల్": 2881,
      "ిస్త": 2882,
      "ీలు": 2883,
      "ుల": 2884,
      "ెల": 2885,
      "ోర": 2886,
      "துண": 2887,
      "third": 2888,
      "ann": 2889,
      "ants": 2890,
      "ances": 2891,
      "ந்தி": 2892,
      "க்குக்": 2893,
      "ப்புகள": 2894,
      "த்தின": 2895,
      "ருக்க": 2896,
      "ருங்க": 2897,
      "ட்டை": 2898,
      "red": 2899,
      "ren": 2900,
      "ensu": 2901,
      "ாகவும்": 2902,
      "====": 2903,
      "ati": 2904,
      "ार्": 2905,
      "ories": 2906,
      "orig": 2907,
      "ண்டிய": 2908,
      "లోక్": 2909,
      "స్లా": 2910,
      "ice": 2911,
      "குதிய": 2912,
      "దినాలు": 2913,
      "ప్రకారం": 2914,
      "ాలీ": 2915,
      "ాలకు": 2916,
      "ికత": 2917,
      "ిక్": 2918,
      "ிலேய": 2919,
      "omet": 2920,
      "ected": 2921,
      "ங்களானவை": 2922,
      "కుల": 2923,
      "కుంట": 2924,
      "కుటు": 2925,
      "నిర్": 2926,
      "ాయు": 2927,
      "கொள்க": 2928,
      "போதிலும்": 2929,
      "very": 2930,
      "ades": 2931,
      "రాస్య": 2932,
      "த்துக்கு": 2933,
      "old": 2934,
      "righ": 2935,
      "ரிக்க": 2936,
      "ములో": 2937,
      "ముంబ": 2938,
      "ద్వీ": 2939,
      "நிலையில்": 2940,
      "சமீ": 2941,
      "தியாக": 2942,
      "மார்": 2943,
      "மாமி": 2944,
      "ల్లో": 2945,
      "வேலை": 2946,
      "न्द्र": 2947,
      "न्तु": 2948,
      "சுல்தான": 2949,
      "சுமார்": 2950,
      "Indians": 2951,
      "संसद": 2952,
      "மையை": 2953,
      "தொடர்": 2954,
      "lower": 2955,
      "களாவிய": 2956,
      "సంఘ": 2957,
      "సంప్రదాయ": 2958,
      "సంవత్": 2959,
      "ago": 2960,
      "agric": 2961,
      "territ": 2962,
      "மேல்": 2963,
      "காலத்தின்": 2964,
      "காலத்தில்": 2965,
      "పుట్ట": 2966,
      "స్థాన్": 2967,
      "றிவு": 2968,
      "भाई": 2969,
      "भाग": 2970,
      "भाज": 2971,
      "அமைந்த": 2972,
      "ంటే": 2973,
      "expor": 2974,
      "உலகளாவிய": 2975,
      "हाला": 2976,
      "areas": 2977,
      "ர்களின்": 2978,
      "ments": 2979,
      "acy": 2980,
      "క్షరాస్య": 2981,
      "sive": 2982,
      "ఉన్నారు": 2983,
      "పాక్": 2984,
      "టిలో": 2985,
      "உலகக்": 2986,
      "निर": 2987,
      "early": 2988,
      "த்தைச்": 2989,
      "இருப்ப": 2990,
      "contri": 2991,
      "control": 2992,
      "central": 2993,
      "ంచి": 2994,
      "coal": 2995,
      "coast": 2996,
      "రైళ్ల": 2997,
      "தேச": 2998,
      "தேர்ந்த": 2999,
      "பொதுத்": 3000,
      "அதிகரித்தது": 3001,
      "రాష్ట్రాల": 3002,
      "వచ్చిన": 3003,
      "forms": 3004,
      "ives": 3005,
      "కొన్ని": 3006,
      "పాలిత": 3007,
      "మైనది": 3008,
      "వేగంగా": 3009,
      "భారతదేశపు": 3010,
      "ளவில்": 3011,
      "ణాసియా": 3012,
      "உருவாக்கிய": 3013,
      "தலைமை": 3014,
      "భారతదేశంలోని": 3015,
      "१९९": 3016,
      "party": 3017,
      "युद्ध": 3018,
      "வருமான": 3019,
      "చెందిన": 3020,
      "డ్డు": 3021,
      "கிழக்கி": 3022,
      "వ్యవస్థలో": 3023,
      "కార్య": 3024,
      "क्षेत्रीय": 3025,
      "feat": 3026,
      "பிந்தைய": 3027,
      "நூற்றாண்டின்": 3028,
      "நூற்றாண்டில்": 3029,
      "కరణ": 3030,
      "పరంగా": 3031,
      "పరిశ్ర": 3032,
      "మేన": 3033,
      "ప్రధానమంత్రి": 3034,
      "ஆண்டுகளில்": 3035,
      "ஆண்டுகளுக்கு": 3036,
      "స్థానంలో": 3037,
      "రాజ్యాలు": 3038,
      "இயக்க": 3039,
      "தில்லி": 3040,
      "include": 3041,
      "Hinduism": 3042,
      "प्राप्त": 3043,
      "जिसमें": 3044,
      "వారస": 3045,
      "సభ్య": 3046,
      "मुख्य": 3047,
      "சைன": 3048,
      "वर्षों": 3049,
      "lands": 3050,
      "ఆర్థిక": 3051,
      "రోడ్డు": 3052,
      "scri": 3053,
      "முன்னேற்ற": 3054,
      "கல்வி": 3055,
      "ముఖ్యమైన": 3056,
      "సాంప్రదాయ": 3057,
      "பெயர": 3058,
      "common": 3059,
      "உற்பத்தி": 3060,
      "బాద్": 3061,
      "விளையாட்ட": 3062,
      "விளையாட்டு": 3063,
      "కేంద్రపాలిత": 3064,
      "ప్రభుత్వం": 3065,
      "growth": 3066,
      "பல்வேறு": 3067,
      "பல்வகை": 3068,
      "domin": 3069,
      "కలిగి": 3070,
      "பரவலாக": 3071,
      "పాకిస్తాన్": 3072,
      "పాకిస్థాన్": 3073,
      "దక్షిణాన": 3074,
      "trans": 3075,
      "following": 3076,
      "పైగా": 3077,
      "సంస్కృతి": 3078,
      "సంగీతం": 3079,
      "సినిమా": 3080,
      "శాస్త్రం": 3081,
      "time": 3082,
      "ब्दी": 3083,
      "समाज": 3084,
      "human": 3085,
      "पहले": 3086,
      "ఆధార": 3087,
      "మూడు": 3088,
      "మాత్రం": 3089,
      "స్వతంత్ర": 3090,
      "స్వామ్య": 3091,
      "సామ్రా": 3092,
      "கிராமப்புற": 3093,
      "బెంగాలీ": 3094,
      "బ్రిటి": 3095,
      "influen": 3096,
      "ప్పటికీ": 3097,
      "నడిపించ": 3098,
      "Company": 3099,
      "धीरे": 3100,
      "இருக்கலாம்": 3101,
      "கல்வியறிவு": 3102,
      "முசுலிம்": 3103,
      "ब्रि": 3104,
      "వృద్ధి": 3105,
      "సర్వీ": 3106,
      "emerged": 3107,
      "ultanate": 3108,
      "political": 3109,
      "అభివృద్ధి": 3110,
      "ण्ड": 3111,
      "नेतृत्व": 3112,
      "विकास": 3113,
      "Central": 3114,
      "Sikh": 3115,
      "குடும்ப": 3116,
      "religious": 3117,
      "अरब": 3118,
      "शेष": 3119,
      "Delhi": 3120,
      "Gandhi": 3121,
      "women": 3122,
      "शताब्दी": 3123,
      "ఆఫ్": 3124,
      "పశ్చ": 3125,
      "ensus": 3126,
      "ிலேயே": 3127,
      "కుటుంబ": 3128,
      "agricult": 3129,
      "క్షరాస్యత": 3130,
      "தேர்ந்தெடு": 3131,
      "கிழக்கிந்திய": 3132,
      "Am": 3133,
      "Sh": 3134,
      "2014": 3135,
      "ived": 3136,
      "72": 3137,
      "64": 3138,
      "इंड": 3139,
      "एँ": 3140,
      "एवं": 3141,
      "गंगा": 3142,
      "थे": 3143,
      "दल": 3144,
      "दर्": 3145,
      "निक": 3146,
      "पै": 3147,
      "मू": 3148,
      "मौ": 3149,
      "लन": 3150,
      "लोग": 3151,
      "व्या": 3152,
      "सु": 3153,
      "हरी": 3154,
      "साल": 3155,
      "राजनी": 3156,
      "वायु": 3157,
      "देख": 3158,
      "हाँ": 3159,
      "ड़ी": 3160,
      "वर्त": 3161,
      "जिन": 3162,
      "जनसंख्या": 3163,
      "प्ले": 3164,
      "युक्त": 3165,
      "दोनों": 3166,
      "अपने": 3167,
      "बंधन": 3168,
      "लगभग": 3169,
      "सदस": 3170,
      "कुछ": 3171,
      "कुल": 3172,
      "म्भ": 3173,
      "स्थित": 3174,
      "टिश": 3175,
      "अन्त": 3176,
      "संस्कृति": 3177,
      "न्हें": 3178,
      "भूमिका": 3179,
      "स्वतंत्रता": 3180,
      "ब्रिटिश": 3181,
      "7இல்": 3182,
      "BJ": 3183,
      "Dem": 3184,
      "Eng": 3185,
      "Ganges": 3186,
      "Its": 3187,
      "Jain": 3188,
      "au": 3189,
      "ath": 3190,
      "bre": 3191,
      "bir": 3192,
      "ck": 3193,
      "car": 3194,
      "cur": 3195,
      "cru": 3196,
      "census": 3197,
      "des": 3198,
      "dam": 3199,
      "eth": 3200,
      "ft": 3201,
      "far": 3202,
      "fed": 3203,
      "fast": 3204,
      "fig": 3205,
      "found": 3206,
      "ge": 3207,
      "gar": 3208,
      "hru": 3209,
      "ia": 3210,
      "ile": 3211,
      "ke": 3212,
      "line": 3213,
      "man": 3214,
      "men": 3215,
      "pen": 3216,
      "ped": 3217,
      "pain": 3218,
      "pend": 3219,
      "rul": 3220,
      "rates": 3221,
      "sou": 3222,
      "secon": 3223,
      "ti": 3224,
      "tur": 3225,
      "uch": 3226,
      "ven": 3227,
      "vast": 3228,
      "wan": 3229,
      "அரு": 3230,
      "அழை": 3231,
      "ஆப்ப": 3232,
      "ஆதி": 3233,
      "ஆட்சி": 3234,
      "ஆங்கில": 3235,
      "இறைய": 3236,
      "உண்": 3237,
      "உச்ச": 3238,
      "உண்ண": 3239,
      "எந்த": 3240,
      "ஏற்ப": 3241,
      "கத": 3242,
      "கடு": 3243,
      "ஜன": 3244,
      "தல": 3245,
      "தவிர": 3246,
      "தந்திர": 3247,
      "நே": 3248,
      "நோ": 3249,
      "பகி": 3250,
      "மண": 3251,
      "மோ": 3252,
      "மருந்த": 3253,
      "மறை": 3254,
      "ரிக": 3255,
      "றுக": 3256,
      "ழ்க": 3257,
      "வோ": 3258,
      "வண்": 3259,
      "வர்க்க": 3260,
      "ஸ்த": 3261,
      "ஸ்ட": 3262,
      "ாம்": 3263,
      "ாற்ற": 3264,
      "ிழ": 3265,
      "ித்": 3266,
      "ீக": 3267,
      "ுமே": 3268,
      "ெடுத்த": 3269,
      "ank": 3270,
      "animal": 3271,
      "ancient": 3272,
      "ines": 3273,
      "indu": 3274,
      "க்கே": 3275,
      "க்கப்படும்": 3276,
      "ப்பிய": 3277,
      "they": 3278,
      "த்தட்ட": 3279,
      "ட்டிய": 3280,
      "rel": 3281,
      "remain": 3282,
      "ையல்": 3283,
      "ையிலான": 3284,
      "alle": 3285,
      "ste": 3286,
      "states": 3287,
      "div": 3288,
      "diff": 3289,
      "ata": 3290,
      "ats": 3291,
      "ர்வாக": 3292,
      "arch": 3293,
      "ors": 3294,
      "ுகின்றன": 3295,
      "ண்டு": 3296,
      "ess": 3297,
      "ites": 3298,
      "குறுக": 3299,
      "ிரிக்க": 3300,
      "முழ": 3301,
      "பாட": 3302,
      "பார": 3303,
      "பார்": 3304,
      "பாதி": 3305,
      "ecially": 3306,
      "பெரும": 3307,
      "பெருங்க": 3308,
      "ங்களும்": 3309,
      "ங்களுக்கு": 3310,
      "வால்": 3311,
      "வின": 3312,
      "விவ": 3313,
      "விட்ட": 3314,
      "ுகளும்": 3315,
      "ுகளின்": 3316,
      "திரும": 3317,
      "ப்படியான": 3318,
      "verse": 3319,
      "ild": 3320,
      "தாக்க": 3321,
      "த்துடன்": 3322,
      "ulpt": 3323,
      "emp": 3324,
      "ுக்குள்": 3325,
      "சுதந்திர": 3326,
      "ists": 3327,
      "istic": 3328,
      "local": 3329,
      "ச்சிய": 3330,
      "லாத": 3331,
      "ினும்": 3332,
      "depend": 3333,
      "und": 3334,
      "அமைச்ச": 3335,
      "அரசு": 3336,
      "அரசின்": 3337,
      "movement": 3338,
      "பரவிய": 3339,
      "சாதி": 3340,
      "கிட்ட": 3341,
      "நாடாக": 3342,
      "ety": 3343,
      "மொழி": 3344,
      "டியாக": 3345,
      "நீர்": 3346,
      "குறிக்க": 3347,
      "வளரும்": 3348,
      "medi": 3349,
      "sho": 3350,
      "பொதுவான": 3351,
      "prov": 3352,
      "formed": 3353,
      "ivil": 3354,
      "இராச்சிய": 3355,
      "உருவாக்கப்பட்ட": 3356,
      "Hindi": 3357,
      "marri": 3358,
      "பகுதியில்": 3359,
      "எனினும்": 3360,
      "காரணமானது": 3361,
      "கூட்டணிய": 3362,
      "There": 3363,
      "ஆயிர": 3364,
      "வளர்ச்சிய": 3365,
      "cess": 3366,
      "கீழ": 3367,
      "regions": 3368,
      "உணவு": 3369,
      "சீர": 3370,
      "நடுவண்": 3371,
      "பின்பற்ற": 3372,
      "பகுதிகளில்": 3373,
      "பேரரசு": 3374,
      "sculpt": 3375,
      "வழக்க": 3376,
      "தொகைக்": 3377,
      "நிர்வாக": 3378,
      "ஆகியவற்றை": 3379,
      "மக்களின்": 3380,
      "அறிக்க": 3381,
      "தீபக": 3382,
      "செய்யப்பட்ட": 3383,
      "அளவுக்கு": 3384,
      "ுக்கான": 3385,
      "United": 3386,
      "வரலாற்ற": 3387,
      "மூன்றாவது": 3388,
      "Constitution": 3389,
      "வருகிறது": 3390,
      "முகலாயப்": 3391,
      "தேர்தலில்": 3392,
      "இறக்கு": 3393,
      "துறையானது": 3394,
      "Nehru": 3395,
      "தமிழ்": 3396,
      "வகுத்தது": 3397,
      "literacy": 3398,
      "based": 3399,
      "தூர": 3400,
      "நீதிமன்ற": 3401,
      "occup": 3402,
      "parliamentary": 3403,
      "இவ்வாறு": 3404,
      "grew": 3405,
      "இசுலா": 3406,
      "இலட்சம்": 3407,
      "religions": 3408,
      "European": 3409,
      "direct": 3410,
      "especially": 3411,
      "அந்நேரத்தில்": 3412,
      "துணைக்": 3413,
      "origin": 3414,
      "சமீபத்திய": 3415,
      "மாமிச": 3416,
      "BJP": 3417,
      "English": 3418,
      "painting": 3419,
      "second": 3420,
      "அருக": 3421,
      "ஆப்பிரிக்க": 3422,
      "indust": 3423,
      "திருமண": 3424,
      "தீபகற்ப": 3425,
      "23": 3426,
      "74": 3427,
      "83": 3428,
      "93": 3429,
      "Act": 3430,
      "2003": 3431,
      "1990": 3432,
      "%)": 3433,
      "ँच": 3434,
      "ँकि": 3435,
      "अप्र": 3436,
      "अर्थ": 3437,
      "अलग": 3438,
      "आधिकार": 3439,
      "घोष": 3440,
      "जल": 3441,
      "डी": 3442,
      "डॉ": 3443,
      "त्या": 3444,
      "तमिल": 3445,
      "थिय": 3446,
      "निय": 3447,
      "पं": 3448,
      "पड़": 3449,
      "बने": 3450,
      "बनी": 3451,
      "ये": 3452,
      "लं": 3453,
      "वल": 3454,
      "विक": 3455,
      "शि": 3456,
      "शक्ति": 3457,
      "सित": 3458,
      "हथिय": 3459,
      "ुनिक": 3460,
      "ृत": 3461,
      "२०": 3462,
      "ारम्भ": 3463,
      "केन्द्र": 3464,
      "2020": 3465,
      "काम": 3466,
      "सेवा": 3467,
      "स्तर": 3468,
      "प्रभा": 3469,
      "प्रकार": 3470,
      "प्रारम्भ": 3471,
      "िक्": 3472,
      "विदेश": 3473,
      "मालय": 3474,
      "ियाँ": 3475,
      "परंप": 3476,
      "संयुक्त": 3477,
      "करना": 3478,
      "2012": 3479,
      "जाते": 3480,
      "soon": 3481,
      "निभाई": 3482,
      "इसी": 3483,
      "वर्ग": 3484,
      "हिमालय": 3485,
      "दोलन": 3486,
      "शासित": 3487,
      "अपनी": 3488,
      "बड़ा": 3489,
      "ज़ी": 3490,
      "आधुनिक": 3491,
      "अमे": 3492,
      "गठबंधन": 3493,
      "रहे": 3494,
      "पार्टी": 3495,
      "न्यायालय": 3496,
      "भाजपा": 3497,
      "हालाँकि": 3498,
      "मूल": 3499,
      "प्लेट": 3500,
      "आधिकारिक": 3501,
      "हथियार": 3502,
      "परंपरा": 3503,
      "1200": 3504,
      "27": 3505,
      "5ஆம்": 3506,
      "5இல்": 3507,
      "81": 3508,
      "82": 3509,
      "Ara": 3510,
      "BN": 3511,
      "Bi": 3512,
      "DP": 3513,
      "During": 3514,
      "GDP": 3515,
      "IS": 3516,
      "National": 3517,
      "Per": 3518,
      "Pro": 3519,
      "Tam": 3520,
      "bod": 3521,
      "cap": 3522,
      "cities": 3523,
      "dem": 3524,
      "ep": 3525,
      "ets": 3526,
      "five": 3527,
      "here": 3528,
      "ians": 3529,
      "ling": 3530,
      "lam": 3531,
      "lay": 3532,
      "nal": 3533,
      "ore": 3534,
      "prom": 3535,
      "ration": 3536,
      "sultanate": 3537,
      "til": 3538,
      "ual": 3539,
      "use": 3540,
      "vol": 3541,
      "won": 3542,
      "well": 3543,
      "yan": 3544,
      "அள": 3545,
      "அன்ற": 3546,
      "அணிய": 3547,
      "அவர்கள": 3548,
      "ஆள": 3549,
      "ஆக்க": 3550,
      "இன்ற": 3551,
      "இந்": 3552,
      "உம்": 3553,
      "ஏவ": 3554,
      "கைய": 3555,
      "கமாக": 3556,
      "சக": 3557,
      "ட்": 3558,
      "ட்ப": 3559,
      "தக": 3560,
      "தய": 3561,
      "தந்த": 3562,
      "தற்கா": 3563,
      "நிய": 3564,
      "நாக": 3565,
      "நிர": 3566,
      "நன்ற": 3567,
      "நடுத்த": 3568,
      "ன்க": 3569,
      "பண": 3570,
      "பீ": 3571,
      "பள்ள": 3572,
      "பணிய": 3573,
      "பூர்": 3574,
      "மர்": 3575,
      "மகா": 3576,
      "மிட": 3577,
      "மிக்க": 3578,
      "மந்திர": 3579,
      "யும்": 3580,
      "ரை": 3581,
      "லின்": 3582,
      "வய": 3583,
      "வறு": 3584,
      "ாட்சி": 3585,
      "ொண்ட": 3586,
      "ంభ": 3587,
      "అహ": 3588,
      "అవి": 3589,
      "ఆక్రమ": 3590,
      "ఆహార": 3591,
      "ఇవి": 3592,
      "ఇంగ్ల": 3593,
      "ఇస్లా": 3594,
      "ఉండ": 3595,
      "కథ": 3596,
      "కూ": 3597,
      "కన్న": 3598,
      "కత్వ": 3599,
      "కింద": 3600,
      "కీర్": 3601,
      "చన": 3602,
      "చు": 3603,
      "చాల": 3604,
      "చిత్ర": 3605,
      "జీ": 3606,
      "జాలు": 3607,
      "జరు": 3608,
      "జంబ": 3609,
      "టే": 3610,
      "టై": 3611,
      "టర్": 3612,
      "టులు": 3613,
      "డిన": 3614,
      "తల": 3615,
      "తీ": 3616,
      "తె": 3617,
      "తే": 3618,
      "తము": 3619,
      "తులు": 3620,
      "తంలో": 3621,
      "తెలు": 3622,
      "దర": 3623,
      "నది": 3624,
      "పీ": 3625,
      "పార్": 3626,
      "బి": 3627,
      "బంగ్ల": 3628,
      "బంధ": 3629,
      "బడ్డ": 3630,
      "భర": 3631,
      "భౌ": 3632,
      "మర": 3633,
      "మూ": 3634,
      "మౌ": 3635,
      "మతి": 3636,
      "మంది": 3637,
      "మారు": 3638,
      "యం": 3639,
      "యింది": 3640,
      "రీ": 3641,
      "లీ": 3642,
      "లె": 3643,
      "లిం": 3644,
      "ళ్": 3645,
      "ళిక": 3646,
      "వులు": 3647,
      "వల్ల": 3648,
      "వలం": 3649,
      "శెల": 3650,
      "సహ": 3651,
      "సే": 3652,
      "స్ర": 3653,
      "సులు": 3654,
      "సైన": 3655,
      "సార్": 3656,
      "హై": 3657,
      "హిమ": 3658,
      "ాదేశ": 3659,
      "ాంగ": 3660,
      "ాపార": 3661,
      "ిగా": 3662,
      "ుకొ": 3663,
      "ూరు": 3664,
      "ెట్": 3665,
      "్వ": 3666,
      "்தி": 3667,
      "ியும்": 3668,
      "துக": 3669,
      "ல்லை": 3670,
      "indi": 3671,
      "க்கள்": 3672,
      "க்கண்ட": 3673,
      "ப்பரப்ப": 3674,
      "த்தன": 3675,
      "த்தைப்": 3676,
      "ert": 3677,
      "ட்டம்": 3678,
      "republic": 3679,
      "ens": 3680,
      "ారంభ": 3681,
      "stat": 3682,
      "dis": 3683,
      "diverse": 3684,
      "ars": 3685,
      "educ": 3686,
      "often": 3687,
      "ுகின்றனர்": 3688,
      "లోయ": 3689,
      "్యా": 3690,
      "குசரா": 3691,
      "முடிவ": 3692,
      "ప్రారంభ": 3693,
      "దేశపు": 3694,
      "దేశానికి": 3695,
      "ాలనే": 3696,
      "ాలెండ": 3697,
      "பாரச": 3698,
      "பார்க்க": 3699,
      "ికా": 3700,
      "ర్త": 3701,
      "ర్ష": 3702,
      "ర్‌": 3703,
      "oup": 3704,
      "ould": 3705,
      "న్నది": 3706,
      "న్నారు": 3707,
      "ecut": 3708,
      "ங்களைக்": 3709,
      "ங்களைப்": 3710,
      "గాంధ": 3711,
      "மைப்பு": 3712,
      "urther": 3713,
      "కులు": 3714,
      "నిస్తాన్": 3715,
      "విధ్య": 3716,
      "విభిన్న": 3717,
      "విద్య": 3718,
      "క్తి": 3719,
      "ాతో": 3720,
      "head": 3721,
      "போக்கு": 3722,
      "ுகளில்": 3723,
      "திட்ட": 3724,
      "దేశంగా": 3725,
      "amm": 3726,
      "amp": 3727,
      "నులు": 3728,
      "నుంచి": 3729,
      "தாக்கம்": 3730,
      "கொண்டிருந்த": 3731,
      "ember": 3732,
      "ద్వార": 3733,
      "rock": 3734,
      "நிலப்பரப்ப": 3735,
      "சமையல்": 3736,
      "త్వా": 3737,
      "త్తా": 3738,
      "புர": 3739,
      "புல": 3740,
      "tions": 3741,
      "வேத": 3742,
      "sever": 3743,
      "sequ": 3744,
      "செல்": 3745,
      "மையில்": 3746,
      "loy": 3747,
      "களில்": 3748,
      "2017": 3749,
      "సంకీర్": 3750,
      "సంబంధ": 3751,
      "term": 3752,
      "sum": 3753,
      "மேலும்": 3754,
      "காலப்": 3755,
      "పురు": 3756,
      "defin": 3757,
      "స్థి": 3758,
      "union": 3759,
      "2004": 3760,
      "ంటు": 3761,
      "வரைய": 3762,
      "பரப்ப": 3763,
      "execut": 3764,
      "அதிகப்படியான": 3765,
      "சார": 3766,
      "ர்களைக்": 3767,
      "ders": 3768,
      "கிண்ண": 3769,
      "వాహ": 3770,
      "వాణి": 3771,
      "ாளர்": 3772,
      "ாளராக": 3773,
      "పాటు": 3774,
      "పాదన": 3775,
      "தெற்க": 3776,
      "தென்க": 3777,
      "கோப்பை": 3778,
      "etic": 3779,
      "కూడుకు": 3780,
      "జాతి": 3781,
      "రాజు": 3782,
      "earli": 3783,
      "కోల్": 3784,
      "1996": 3785,
      "compos": 3786,
      "நடுக்": 3787,
      "కాగా": 3788,
      "కాశ్": 3789,
      "ట్టమొదటి": 3790,
      "నేపాల": 3791,
      "మొట్టమొదటి": 3792,
      "வளர்ந்து": 3793,
      "க்காட்சி": 3794,
      "మాబాద్": 3795,
      "నాగర": 3796,
      "లిచ": 3797,
      "వ్యాపార": 3798,
      "சமயம்": 3799,
      "சமயப்": 3800,
      "2026": 3801,
      "గువ": 3802,
      "గుర్త": 3803,
      "వచ్చు": 3804,
      "ద్ధం": 3805,
      "வற்றில்": 3806,
      "endem": 3807,
      "పాలించ": 3808,
      "ఒకే": 3809,
      "அமைப்புகள": 3810,
      "ods": 3811,
      "இடம்": 3812,
      "இடத்தையும்": 3813,
      "மூலம்": 3814,
      "చేసింది": 3815,
      "్‌సై": 3816,
      "முறைகள": 3817,
      "உருவாக்க": 3818,
      "தலைவர": 3819,
      "மீது": 3820,
      "ఎన్నిక": 3821,
      "பாரம்பரியமாக": 3822,
      "become": 3823,
      "alled": 3824,
      "పెనీ": 3825,
      "எண்ணெ": 3826,
      "కేవలం": 3827,
      "కారణంగా": 3828,
      "తుంది": 3829,
      "దాపు": 3830,
      "దాదాపు": 3831,
      "హిందీ": 3832,
      "ஒன்றிணை": 3833,
      "பிற்ப": 3834,
      "త్రి": 3835,
      "మతాలు": 3836,
      "நாட்டுப்புற": 3837,
      "స్థానం": 3838,
      "భాషా": 3839,
      "రాజ్యాంగ": 3840,
      "These": 3841,
      "నాలుగు": 3842,
      "వర్గ": 3843,
      "వర్ణ": 3844,
      "regional": 3845,
      "popular": 3846,
      "దక్షిణాసియా": 3847,
      "பின்னர்": 3848,
      "பண்பாடு": 3849,
      "பண்பாட்டு": 3850,
      "వెనుక": 3851,
      "ప్రజల": 3852,
      "హిందూదేశం": 3853,
      "longer": 3854,
      "வழியாக": 3855,
      "ப்படுத்தப்பட்ட": 3856,
      "ficant": 3857,
      "nificant": 3858,
      "serv": 3859,
      "viol": 3860,
      "పూర్వ": 3861,
      "వీటిలో": 3862,
      "శ్రీ": 3863,
      "ష్ణ": 3864,
      "స్కృతిక": 3865,
      "సాంస్కృతిక": 3866,
      "வர்களாக": 3867,
      "commer": 3868,
      "உற்பத்திய": 3869,
      "ఉంటుంది": 3870,
      "బడత": 3871,
      "బడిన": 3872,
      "బడింది": 3873,
      "మహా": 3874,
      "ుకుంట": 3875,
      "క్రీడలు": 3876,
      "traditional": 3877,
      "తరువాతి": 3878,
      "பயன்படுத்தப்படுகிறது": 3879,
      "growing": 3880,
      "தொலைக்காட்சி": 3881,
      "அகணிய": 3882,
      "ஆற்றல்": 3883,
      "இக்காலத்தின்": 3884,
      "కలిసి": 3885,
      "జనగణ": 3886,
      "లేదా": 3887,
      "సాధించ": 3888,
      "ரீதியாக": 3889,
      "eastern": 3890,
      "ஒப்பீட்ட": 3891,
      "whose": 3892,
      "elections": 3893,
      "Andam": 3894,
      "சனநாயக": 3895,
      "ఉపఖండ": 3896,
      "క్యాలెండ": 3897,
      "ుకోవడ": 3898,
      "ప్రతిపాదన": 3899,
      "విస్తారు": 3900,
      "ిత్రక": 3901,
      "సినిమాలు": 3902,
      "శాస్త్రీయ": 3903,
      "rise": 3904,
      "அடர்த்த": 3905,
      "அடங்கும்": 3906,
      "எண்ணிக்கையிலான": 3907,
      "அறியப்பட்ட": 3908,
      "వైవిధ్య": 3909,
      "సమాఖ్య": 3910,
      "துணைக்கண்ட": 3911,
      "வென்றுள்ளது": 3912,
      "కోర్టు": 3913,
      "కోర్టులు": 3914,
      "పేర్లు": 3915,
      "పేర్కొ": 3916,
      "మొదలైన": 3917,
      "పట్టణాలు": 3918,
      "ఏర్పడ్డ": 3919,
      "బహుళ": 3920,
      "సింధు": 3921,
      "Buddhism": 3922,
      "histor": 3923,
      "ஏற்றுமதிய": 3924,
      "ஐரோப்பிய": 3925,
      "கங்கைச்": 3926,
      "styles": 3927,
      "States": 3928,
      "Western": 3929,
      "కంపెనీ": 3930,
      "చారిత్రక": 3931,
      "తమిళం": 3932,
      "నగరాలు": 3933,
      "పతకాలు": 3934,
      "పొందిన": 3935,
      "పద్ధతి": 3936,
      "పండుగలు": 3937,
      "official": 3938,
      "குழந்த": 3939,
      "பாணியானது": 3940,
      "பாக்கித்தான்": 3941,
      "ఒకటిగా": 3942,
      "వెబ్‌సై": 3943,
      "ప్రజాస్వామ్య": 3944,
      "குடியரசுத்": 3945,
      "technolog": 3946,
      "సముద్రం": 3947,
      "స్వాతంత్ర్య": 3948,
      "నిర్వహణ": 3949,
      "Islam": 3950,
      "fied": 3951,
      "உறவு": 3952,
      "புவியியல்": 3953,
      "பிரபலமான": 3954,
      "widely": 3955,
      "சராசரி": 3956,
      "Himalayas": 3957,
      "According": 3958,
      "created": 3959,
      "அமெரிக்க": 3960,
      "நெருக்க": 3961,
      "வலிமையான": 3962,
      "జన్మ": 3963,
      "ముంబై": 3964,
      "வேலைப்பா": 3965,
      "సంప్రదాయాలు": 3966,
      "அமைந்துள்ளது": 3967,
      "రైళ్లను": 3968,
      "కార్యక్రమ": 3969,
      "పరిశ్రమలు": 3970,
      "వారసత్వ": 3971,
      "సాంప్రదాయిక": 3972,
      "సర్వీసులు": 3973,
      "ఆఫ్ఘ": 3974,
      "Among": 3975,
      "federal": 3976,
      "penins": 3977,
      "southern": 3978,
      "ஏற்படுத்த": 3979,
      "தவிர்த்த": 3980,
      "பகிர்ந்து": 3981,
      "வர்க்கத்தின": 3982,
      "alley": 3983,
      "முழுவ": 3984,
      "பெருமளவ": 3985,
      "ISBN": 3986,
      "Persi": 3987,
      "Tamil": 3988,
      "body": 3989,
      "ஏவுக": 3990,
      "நடுத்தர": 3991,
      "பூர்வீ": 3992,
      "ఇస్లామాబాద్": 3993,
      "కన్నడ": 3994,
      "చాలా": 3995,
      "జరుపు": 3996,
      "జంబూ": 3997,
      "తెలుగు": 3998,
      "పీఠ": 3999,
      "బంగ్లాదేశ": 4000,
      "ళ్ళ": 4001,
      "శెలవు": 4002,
      "హిమాల": 4003,
      "education": 4004,
      "பாரசீக": 4005,
      "గాంధీ": 4006,
      "ద్వారా": 4007,
      "త్వాన్ని": 4008,
      "sequent": 4009,
      "వాణిజ్య": 4010,
      "தென்கிழ": 4011,
      "కాశ్మీ": 4012,
      "నాగరికత": 4013,
      "వెనుకటి": 4014,
      "Andaman": 4015,
      "క్యాలెండర్": 4016,
      "వెబ్‌సైటు": 4017,
      "11": 4018,
      "ian": 4019,
      "wa": 4020,
      "ंक": 4021,
      "अफ": 4022,
      "आं": 4023,
      "आग": 4024,
      "उस": 4025,
      "ऊँ": 4026,
      "एं": 4027,
      "कह": 4028,
      "गए": 4029,
      "गत": 4030,
      "ग्र": 4031,
      "जै": 4032,
      "डा": 4033,
      "णी": 4034,
      "तो": 4035,
      "दृ": 4036,
      "पहा": 4037,
      "फल": 4038,
      "बै": 4039,
      "बार": 4040,
      "भर": 4041,
      "भि": 4042,
      "यों": 4043,
      "वन": 4044,
      "वै": 4045,
      "वरी": 4046,
      "सत": 4047,
      "सो": 4048,
      "सर्व": 4049,
      "ृद्ध": 4050,
      "ैली": 4051,
      "१८": 4052,
      "्यता": 4053,
      "विज": 4054,
      "करण": 4055,
      "तिहा": 4056,
      "2008": 4057,
      "वाद": 4058,
      "वादी": 4059,
      "ियन": 4060,
      "पालि": 4061,
      "लावा": 4062,
      "किन्तु": 4063,
      "शांति": 4064,
      "लीन": 4065,
      "वर्ण": 4066,
      "होती": 4067,
      "जनता": 4068,
      "ंधी": 4069,
      "१९७": 4070,
      "१९८": 4071,
      "युग": 4072,
      "जिसके": 4073,
      "बहुमत": 4074,
      "बड़ी": 4075,
      "बड़े": 4076,
      "गांधी": 4077,
      "महाद्वीप": 4078,
      "वंश": 4079,
      "शुरू": 4080,
      "संस्कृत": 4081,
      "अंग्रेजी": 4082,
      "विस्तृत": 4083,
      "कर्ज": 4084,
      "पर्वत": 4085,
      "शील": 4086,
      "सहयोग": 4087,
      "डॉलर": 4088,
      "विदेशी": 4089,
      "अमेरि": 4090,
      "पालिका": 4091,
      "1999": 4092,
      "1960": 4093,
      "\",": 4094,
      "39": 4095,
      "43": 4096,
      "44": 4097,
      "63": 4098,
      "8ஆம்": 4099,
      "91": 4100,
      "94": 4101,
      "900": 4102,
      "Bh": 4103,
      "Bra": 4104,
      "Bhar": 4105,
      "De": 4106,
      "Fact": 4107,
      "Fore": 4108,
      "Kas": 4109,
      "Nor": 4110,
      "PA": 4111,
      "Pr": 4112,
      "Raj": 4113,
      "Sou": 4114,
      "aver": 4115,
      "bs": 4116,
      "bor": 4117,
      "ble": 4118,
      "bro": 4119,
      "che": 4120,
      "cri": 4121,
      "clo": 4122,
      "dances": 4123,
      "every": 4124,
      "four": 4125,
      "fact": 4126,
      "further": 4127,
      "gu": 4128,
      "glo": 4129,
      "hen": 4130,
      "hou": 4131,
      "ip": 4132,
      "iz": 4133,
      "jo": 4134,
      "kno": 4135,
      "la": 4136,
      "mi": 4137,
      "mit": 4138,
      "mak": 4139,
      "mary": 4140,
      "member": 4141,
      "ning": 4142,
      "ool": 4143,
      "oper": 4144,
      "pr": 4145,
      "pical": 4146,
      "pay": 4147,
      "rich": 4148,
      "sec": 4149,
      "tt": 4150,
      "tle": 4151,
      "tem": 4152,
      "uj": 4153,
      "uary": 4154,
      "vo": 4155,
      "vill": 4156,
      "vari": 4157,
      "way": 4158,
      "νδ": 4159,
      "அழ": 4160,
      "அடைந்த": 4161,
      "அவர்கள்": 4162,
      "அவற்றின்": 4163,
      "ஆக்கிய": 4164,
      "ஆண்கள்": 4165,
      "ஆண்களுக்கு": 4166,
      "ஈர": 4167,
      "ஊட": 4168,
      "எரி": 4169,
      "எளி": 4170,
      "ஐந்த": 4171,
      "ஐந்து": 4172,
      "ஐசி": 4173,
      "ஒது": 4174,
      "ஒற்ற": 4175,
      "கர்": 4176,
      "சங்க": 4177,
      "தட்ட": 4178,
      "தக்கா": 4179,
      "நு": 4180,
      "நுக": 4181,
      "னும்": 4182,
      "பட்ச": 4183,
      "படை": 4184,
      "பன்ன": 4185,
      "மண்ட": 4186,
      "மகள": 4187,
      "யற்": 4188,
      "லிருந்து": 4189,
      "வல": 4190,
      "வப்": 4191,
      "வல்": 4192,
      "வடி": 4193,
      "வதில்": 4194,
      "ாட்டு": 4195,
      "ிப்ப": 4196,
      "ூட்ட": 4197,
      "ொரு": 4198,
      "Ἰνδ": 4199,
      "்திரு": 4200,
      "ியின்": 4201,
      "ியானது": 4202,
      "ியுள்ளது": 4203,
      "ம்பு": 4204,
      "தும்": 4205,
      "three": 4206,
      "ந்தா": 4207,
      "independ": 4208,
      "க்கோ": 4209,
      "க்கப்படுக": 4210,
      "க்கின்றன": 4211,
      "ப்புகள்": 4212,
      "த்தீ": 4213,
      "ons": 4214,
      "reg": 4215,
      "read": 4216,
      "recor": 4217,
      "ையான": 4218,
      "ையாக": 4219,
      "ற்றி": 4220,
      "enac": 4221,
      "ale": 4222,
      "alth": 4223,
      "ales": 4224,
      "along": 4225,
      "str": 4226,
      "stre": 4227,
      "stru": 4228,
      "dist": 4229,
      "ாகப்": 4230,
      "atic": 4231,
      "ative": 4232,
      "arn": 4233,
      "around": 4234,
      "organ": 4235,
      "off": 4236,
      "ண்டை": 4237,
      "இந்தியர்கள": 4238,
      "இந்தியர்கள்": 4239,
      "ise": 4240,
      "குடி": 4241,
      "குழு": 4242,
      "குப்த": 4243,
      "ாவுக்கு": 4244,
      "19ஆம்": 4245,
      "முயற்": 4246,
      "காடுகள": 4247,
      "காடுகள்": 4248,
      "பாலை": 4249,
      "பாடுகள": 4250,
      "ிறார்": 4251,
      "ங்களையும்": 4252,
      "left": 4253,
      "வாட்ட": 4254,
      "கொள்ள": 4255,
      "held": 4256,
      "போல": 4257,
      "போர்": 4258,
      "விட்டு": 4259,
      "ுகளாக": 4260,
      "lid": 4261,
      "liber": 4262,
      "ப்படலாம்": 4263,
      "amas": 4264,
      "administ": 4265,
      "ility": 4266,
      "தால்": 4267,
      "தாக்கு": 4268,
      "ஆகவும்": 4269,
      "char": 4270,
      "changes": 4271,
      "empire": 4272,
      "ross": 4273,
      "சமசுக": 4274,
      "மாற": 4275,
      "மான்": 4276,
      "சுற்றி": 4277,
      "சென்ற": 4278,
      "சென்ன": 4279,
      "செவ்": 4280,
      "பிரதி": 4281,
      "ராத": 4282,
      "ராள": 4283,
      "தொடுக": 4284,
      "தொடர்கள": 4285,
      "cons": 4286,
      "consi": 4287,
      "estim": 4288,
      "estab": 4289,
      "resp": 4290,
      "resident": 4291,
      "வெட்ட": 4292,
      "ternal": 4293,
      "காலமானது": 4294,
      "மாகும்": 4295,
      "லாட்சி": 4296,
      "until": 4297,
      "அமைத்தது": 4298,
      "2006": 4299,
      "க்கப்பட்டுள்ளது": 4300,
      "பரந்த": 4301,
      "import": 4302,
      "angered": 4303,
      "poin": 4304,
      "utes": 4305,
      "டைந்தது": 4306,
      "மிகக்": 4307,
      "மிகவும்": 4308,
      "இதே": 4309,
      "இதைத்": 4310,
      "்களை": 4311,
      "comple": 4312,
      "spe": 4313,
      "spread": 4314,
      "நடத்திய": 4315,
      "worn": 4316,
      "gency": 4317,
      "தனியாக": 4318,
      "endangered": 4319,
      "plain": 4320,
      "place": 4321,
      "now": 4322,
      "பெரும்பாலும்": 4323,
      "பெற்றுள்ளது": 4324,
      "குடியின": 4325,
      "1977": 4326,
      "பகுதியாக": 4327,
      "கிழக்கே": 4328,
      "சேவைய": 4329,
      "ைகளின்": 4330,
      "பகுதிகள்": 4331,
      "book": 4332,
      "இவர்": 4333,
      "த்திற்க": 4334,
      "subsequent": 4335,
      "வடிவங்கள்": 4336,
      "கூட்டணி": 4337,
      "கூட்டாட்சி": 4338,
      "This": 4339,
      "இயற்ற": 4340,
      "ிருத": 4341,
      "ிருக்க": 4342,
      "சியாவின்": 4343,
      "தொடக்கத்தில்": 4344,
      "முக்கியத்துவ": 4345,
      "த்துவமான": 4346,
      "அரசாங்கம்": 4347,
      "உறுதி": 4348,
      "continu": 4349,
      "தனித்துவமான": 4350,
      "polic": 4351,
      "போட்டிகளில்": 4352,
      "increasing": 4353,
      "traditions": 4354,
      "சிறிய": 4355,
      "ப்படுவதற்கு": 4356,
      "காணப்படுகிறது": 4357,
      "நிலையை": 4358,
      "நிலையான": 4359,
      "நாடுகளின்": 4360,
      "doms": 4361,
      "கட்சியாக": 4362,
      "thought": 4363,
      "மேற்கே": 4364,
      "மேற்கொண்ட": 4365,
      "பரவலான": 4366,
      "Union": 4367,
      "group": 4368,
      "ஒப்பந்த": 4369,
      "கருத": 4370,
      "கருதுக": 4371,
      "நிலைக்கு": 4372,
      "supp": 4373,
      "bio": 4374,
      "times": 4375,
      "பண்டைக்": 4376,
      "legis": 4377,
      "செலவீன": 4378,
      "பாதுகாப்புச்": 4379,
      "Although": 4380,
      "court": 4381,
      "courts": 4382,
      "ight": 4383,
      "சொல்ல": 4384,
      "தமிழ": 4385,
      "பெரும்பான்மை": 4386,
      "பெரும்பான்மைய": 4387,
      "Buddhist": 4388,
      "பௌத்தம்": 4389,
      "however": 4390,
      "middle": 4391,
      "present": 4392,
      "ஏற்றுமதி": 4393,
      "style": 4394,
      "முடிந்தது": 4395,
      "புவித்": 4396,
      "developed": 4397,
      "நடனம்": 4398,
      "market": 4399,
      "leading": 4400,
      "அதிகார": 4401,
      "அரசியலமைப்பு": 4402,
      "கணக்கெடுப்பின்": 4403,
      "significant": 4404,
      "famili": 4405,
      "kingdoms": 4406,
      "surv": 4407,
      "இமயமலை": 4408,
      "cooked": 4409,
      "மயமாக்க": 4410,
      "இணையத்த": 4411,
      "January": 4412,
      "அந்தமான்": 4413,
      "இறுதியாக": 4414,
      "சமைக்கப்பட்ட": 4415,
      "திறன": 4416,
      "குதியில்": 4417,
      "சுல்தானக": 4418,
      "territories": 4419,
      "coalition": 4420,
      "உருவாக்கியது": 4421,
      "influenced": 4422,
      "Jainism": 4423,
      "birth": 4424,
      "curren": 4425,
      "figures": 4426,
      "நேரு": 4427,
      "நோக்கி": 4428,
      "மருந்து": 4429,
      "differ": 4430,
      "குறுகிய": 4431,
      "பெருங்கட": 4432,
      "employ": 4433,
      "பரவியது": 4434,
      "கிட்டத்தட்ட": 4435,
      "சீர்திரு": 4436,
      "sculpture": 4437,
      "இசுலாமிய": 4438,
      "அருகிய": 4439,
      "industry": 4440,
      "நாகரிக": 4441,
      "நன்றாக": 4442,
      "executive": 4443,
      "தெற்கே": 4444,
      "earliest": 4445,
      "எண்ணெய்": 4446,
      "பிற்பகுதியில்": 4447,
      "ஒப்பீட்டளவில்": 4448,
      "technology": 4449,
      "peninsular": 4450,
      "முழுவதும்": 4451,
      "Persian": 4452,
      "ஏவுகணை": 4453,
      "Factbook": 4454,
      "Kashm": 4455,
      "Southeast": 4456,
      "known": 4457,
      "operation": 4458,
      "ஐசிசி": 4459,
      "தக்காண": 4460,
      "பன்னாட்டு": 4461,
      "பாலைவன": 4462,
      "சமசுகிருத": 4463,
      "சென்னை": 4464,
      "செவ்வியல்": 4465,
      "consider": 4466,
      "establish": 4467,
      "families": 4468,
      "சீர்திருத்த": 4469,
      "04": 4470,
      "Des": 4471,
      "ंस": 4472,
      "ंह": 4473,
      "अब": 4474,
      "अभी": 4475,
      "अधि": 4476,
      "आया": 4477,
      "आन्": 4478,
      "आदि": 4479,
      "इं": 4480,
      "इस्": 4481,
      "उद्योग": 4482,
      "ऋतु": 4483,
      "कम": 4484,
      "कटि": 4485,
      "गो": 4486,
      "चे": 4487,
      "जू": 4488,
      "जरा": 4489,
      "जलो": 4490,
      "टन": 4491,
      "तः": 4492,
      "तन": 4493,
      "दू": 4494,
      "नव": 4495,
      "नगर": 4496,
      "पि": 4497,
      "पीय": 4498,
      "भरा": 4499,
      "र्य": 4500,
      "रिक": 4501,
      "लु": 4502,
      "शत": 4503,
      "श्री": 4504,
      "सफल": 4505,
      "हन": 4506,
      "हार": 4507,
      "हरा": 4508,
      "िम": 4509,
      "िकी": 4510,
      "ैल": 4511,
      "ोसी": 4512,
      "ोच्च": 4513,
      "केवल": 4514,
      "र्ष": 4515,
      "यास": 4516,
      "प्रयास": 4517,
      "विभि": 4518,
      "विवाद": 4519,
      "माना": 4520,
      "सां": 4521,
      "करता": 4522,
      "2016": 4523,
      "जाना": 4524,
      "वाली": 4525,
      "पाद": 4526,
      "पास": 4527,
      "लाख": 4528,
      "समर्थ": 4529,
      "1998": 4530,
      "इसकी": 4531,
      "होते": 4532,
      "1967": 4533,
      "मिला": 4534,
      "१९५": 4535,
      "१९६": 4536,
      "उत्पाद": 4537,
      "अपना": 4538,
      "स्वरूप": 4539,
      "अधिकार": 4540,
      "बनाने": 4541,
      "ष्ठ": 4542,
      "ष्ण": 4543,
      "क्रम": 4544,
      "अमरी": 4545,
      "अंग्रेज़ी": 4546,
      "्रीका": 4547,
      "प्रतिशत": 4548,
      "यूरो": 4549,
      "हिन्दू": 4550,
      "जबकि": 4551,
      "स्थापना": 4552,
      "व्यापार": 4553,
      "राजनीतिक": 4554,
      "वर्तमान": 4555,
      "अप्रैल": 4556,
      "अर्थव्यवस्था": 4557,
      "जलवायु": 4558,
      "पड़ोसी": 4559,
      "प्रभाव": 4560,
      "अफ्रीका": 4561,
      "दृष्ट": 4562,
      "सर्वोच्च": 4563,
      "तिहास": 4564,
      "जलोढ़": 4565,
      "विभिन्न": 4566,
      "समर्थन": 4567,
      "यूरोपीय": 4568,
      "1987": 4569,
      "\".": 4570,
      "41": 4571,
      "517": 4572,
      "60": 4573,
      "62": 4574,
      "65": 4575,
      "68": 4576,
      "As": 4577,
      "At": 4578,
      "Ary": 4579,
      "Ass": 4580,
      "BB": 4581,
      "CI": 4582,
      "Country": 4583,
      "Civil": 4584,
      "Dec": 4585,
      "Dra": 4586,
      "Gh": 4587,
      "Gup": 4588,
      "Gree": 4589,
      "Guj": 4590,
      "Ho": 4591,
      "Langu": 4592,
      "Me": 4593,
      "Many": 4594,
      "Nuclear": 4595,
      "Sing": 4596,
      "Valley": 4597,
      "War": 4598,
      "ah": 4599,
      "aː": 4600,
      "adi": 4601,
      "bu": 4602,
      "bar": 4603,
      "band": 4604,
      "bution": 4605,
      "coun": 4606,
      "creat": 4607,
      "called": 4608,
      "dr": 4609,
      "den": 4610,
      "dri": 4611,
      "equ": 4612,
      "edic": 4613,
      "eograph": 4614,
      "fund": 4615,
      "go": 4616,
      "gra": 4617,
      "hy": 4618,
      "his": 4619,
      "hab": 4620,
      "just": 4621,
      "ks": 4622,
      "ken": 4623,
      "ll": 4624,
      "ls": 4625,
      "lin": 4626,
      "mult": 4627,
      "mall": 4628,
      "nom": 4629,
      "own": 4630,
      "pur": 4631,
      "pra": 4632,
      "pass": 4633,
      "saf": 4634,
      "sine": 4635,
      "sari": 4636,
      "small": 4637,
      "tu": 4638,
      "tic": 4639,
      "tak": 4640,
      "ues": 4641,
      "win": 4642,
      "went": 4643,
      "wear": 4644,
      "writ": 4645,
      "wild": 4646,
      "xim": 4647,
      "अभ": 4648,
      "अलावा": 4649,
      "आत": 4650,
      "इतिहास": 4651,
      "उच्च": 4652,
      "एन": 4653,
      "कर्म": 4654,
      "किये": 4655,
      "घा": 4656,
      "चना": 4657,
      "चला": 4658,
      "छो": 4659,
      "छोड़": 4660,
      "जिक": 4661,
      "जहाँ": 4662,
      "तट": 4663,
      "तम": 4664,
      "तगा": 4665,
      "दार": 4666,
      "दारी": 4667,
      "धार": 4668,
      "नै": 4669,
      "नौ": 4670,
      "नदिया": 4671,
      "पहु": 4672,
      "फि": 4673,
      "फ्रा": 4674,
      "बौ": 4675,
      "बंगा": 4676,
      "बदल": 4677,
      "मे": 4678,
      "यक": 4679,
      "यत": 4680,
      "रही": 4681,
      "लना": 4682,
      "सल्": 4683,
      "ृत्य": 4684,
      "ौर": 4685,
      "ौद्योग": 4686,
      "्ञ": 4687,
      "१४": 4688,
      "१५": 4689,
      "२४": 4690,
      "அன": 4691,
      "அய": 4692,
      "அர": 4693,
      "அல": 4694,
      "அப்ப": 4695,
      "அடு": 4696,
      "அளவு": 4697,
      "அடுத்து": 4698,
      "ஆரம்": 4699,
      "ஆரிய": 4700,
      "இச": 4701,
      "இக்க": 4702,
      "இன்ன": 4703,
      "இசை": 4704,
      "உரி": 4705,
      "உடன்": 4706,
      "ஊடு": 4707,
      "எழு": 4708,
      "எடுத்து": 4709,
      "எல்லை": 4710,
      "ஒடி": 4711,
      "ஒத்து": 4712,
      "ஒட்டு": 4713,
      "காவ": 4714,
      "கில": 4715,
      "கிற": 4716,
      "கவி": 4717,
      "கல்ல": 4718,
      "கட்சி": 4719,
      "கணி": 4720,
      "ஞர்கள்": 4721,
      "டெ": 4722,
      "டும்": 4723,
      "டிர": 4724,
      "டப்பட்ட": 4725,
      "தைத்": 4726,
      "தானிய": 4727,
      "நல": 4728,
      "னான": 4729,
      "மட": 4730,
      "மௌ": 4731,
      "மல்": 4732,
      "மரு": 4733,
      "மாவ": 4734,
      "மட்டு": 4735,
      "ய்க": 4736,
      "ரில்": 4737,
      "லீ": 4738,
      "லானது": 4739,
      "ளர்ச்ச": 4740,
      "ாய": 4741,
      "ாண்": 4742,
      "ாரி": 4743,
      "ிப்": 4744,
      "ுத்த": 4745,
      "ுமொ": 4746,
      "ேக்க": 4747,
      "ைப்பட": 4748,
      "ொப்ப": 4749,
      "ோது": 4750,
      "ோமீ": 4751,
      "ோட்டிய": 4752,
      "ంక": 4753,
      "అణ": 4754,
      "అవ": 4755,
      "అంత": 4756,
      "అంట": 4757,
      "అన్ని": 4758,
      "అప్ప": 4759,
      "అమె": 4760,
      "అక్షరాస్యత": 4761,
      "ఆసియా": 4762,
      "ఇదే": 4763,
      "ఇండ": 4764,
      "ఇక్క": 4765,
      "ఇటీ": 4766,
      "ఈశ": 4767,
      "ఈస్": 4768,
      "ఎడ": 4769,
      "ఎల": 4770,
      "ఏప్ర": 4771,
      "ఐరో": 4772,
      "ఐక్య": 4773,
      "ఒలం": 4774,
      "కీ": 4775,
      "కలు": 4776,
      "కిక": 4777,
      "కాత": 4778,
      "కను": 4779,
      "కనుక": 4780,
      "కంటే": 4781,
      "కబడ్డ": 4782,
      "ఖో": 4783,
      "ఖని": 4784,
      "గత": 4785,
      "గమ": 4786,
      "గ్ర": 4787,
      "గర్": 4788,
      "గంగ": 4789,
      "గమన": 4790,
      "గ్రా": 4791,
      "గెలు": 4792,
      "చద": 4793,
      "చయ": 4794,
      "చీ": 4795,
      "చూ": 4796,
      "చవి": 4797,
      "చూడ": 4798,
      "చించిన": 4799,
      "చుకోవడ": 4800,
      "జల": 4801,
      "జో": 4802,
      "జ్": 4803,
      "జిక": 4804,
      "జ్యం": 4805,
      "జమ్మ": 4806,
      "టక": 4807,
      "ట్ర": 4808,
      "టలు": 4809,
      "టన్": 4810,
      "ట్‌": 4811,
      "టాన్": 4812,
      "టోర": 4813,
      "డైన": 4814,
      "ఢా": 4815,
      "ణులు": 4816,
      "తర్": 4817,
      "తను": 4818,
      "తంగా": 4819,
      "తత్వ": 4820,
      "తక్కువ": 4821,
      "థాలు": 4822,
      "థ్యం": 4823,
      "దర్": 4824,
      "దగా": 4825,
      "దరా": 4826,
      "దండ": 4827,
      "దులు": 4828,
      "ధీన": 4829,
      "నం": 4830,
      "నూ": 4831,
      "నిక": 4832,
      "పలు": 4833,
      "పిక": 4834,
      "పవి": 4835,
      "ప్ల": 4836,
      "పల్ల": 4837,
      "పడు": 4838,
      "పర్వ": 4839,
      "పతా": 4840,
      "పక్క": 4841,
      "పడిన": 4842,
      "ఫల": 4843,
      "బు": 4844,
      "బౌ": 4845,
      "బంగ": 4846,
      "భవ": 4847,
      "భక్తి": 4848,
      "భాతో": 4849,
      "మ్": 4850,
      "మాత": 4851,
      "మించ": 4852,
      "మిత": 4853,
      "మరో": 4854,
      "యాత్ర": 4855,
      "యమించ": 4856,
      "రకాలు": 4857,
      "రికా": 4858,
      "రచయ": 4859,
      "లౌ": 4860,
      "లకొ": 4861,
      "లమె": 4862,
      "లస్య": 4863,
      "ళా": 4864,
      "ళి": 4865,
      "వం": 4866,
      "విం": 4867,
      "వంత": 4868,
      "వరు": 4869,
      "వైన": 4870,
      "వార్": 4871,
      "వత్ర": 4872,
      "వనాలు": 4873,
      "వాయు": 4874,
      "శక": 4875,
      "శి": 4876,
      "శీ": 4877,
      "శై": 4878,
      "శో": 4879,
      "శకు": 4880,
      "షం": 4881,
      "షయాలు": 4882,
      "సన": 4883,
      "సీ": 4884,
      "సె": 4885,
      "సాల": 4886,
      "సిక్": 4887,
      "హో": 4888,
      "హ్ర": 4889,
      "ామ": 4890,
      "ాన్ని": 4891,
      "ాడే": 4892,
      "ిమాన": 4893,
      "ీం": 4894,
      "ీక్ష": 4895,
      "ీషు": 4896,
      "ుత్": 4897,
      "ూనది": 4898,
      "ౌర": 4899,
      "్మా": 4900,
      "‌సభ": 4901,
      "‌కాత": 4902,
      "்கை": 4903,
      "ியா": 4904,
      "ம்ச": 4905,
      "ம்ம": 4906,
      "ani": 4907,
      "ந்தர": 4908,
      "intro": 4909,
      "invol": 4910,
      "க்கான": 4911,
      "க்கப்படுகிறது": 4912,
      "ப்பில்": 4913,
      "ப்பாக": 4914,
      "ப்புக்": 4915,
      "era": 4916,
      "ones": 4917,
      "ட்டர்கள்": 4918,
      "renew": 4919,
      "reach": 4920,
      "reduced": 4921,
      "ali": 4922,
      "ality": 4923,
      "ారి": 4924,
      "dian": 4925,
      "dish": 4926,
      "ating": 4927,
      "ர்ப்": 4928,
      "లుగా": 4929,
      "ara": 4930,
      "ard": 4931,
      "aries": 4932,
      "arma": 4933,
      "இந்தோ": 4934,
      "ofile": 4935,
      "లోను": 4936,
      "లోమీ": 4937,
      "ash": 4938,
      "associ": 4939,
      "itect": 4940,
      "స్వీ": 4941,
      "స్కరణ": 4942,
      "స్లిం": 4943,
      "ices": 4944,
      "மற்றுமொ": 4945,
      "iss": 4946,
      "ாவிட": 4947,
      "1935": 4948,
      "முள்ள": 4949,
      "முடைய": 4950,
      "முத்திர": 4951,
      "முந்தைய": 4952,
      "దిన": 4953,
      "ప్రదేశ": 4954,
      "ప్రాయ": 4955,
      "ప్రసి": 4956,
      "ప్రత్య": 4957,
      "ప్రయో": 4958,
      "ప్రీం": 4959,
      "దేశీ": 4960,
      "దేశాలు": 4961,
      "ాలే": 4962,
      "கார": 4963,
      "காற்ற": 4964,
      "காந்தி": 4965,
      "பாண": 4966,
      "பாடு": 4967,
      "பாறை": 4968,
      "பாணி": 4969,
      "ிலுமே": 4970,
      "omy": 4971,
      "ర్తి": 4972,
      "ర్పు": 4973,
      "ర్జాతీయ": 4974,
      "ర్చు": 4975,
      "ర్థ్యం": 4976,
      "took": 4977,
      "touch": 4978,
      "భారతం": 4979,
      "భారత్‌": 4980,
      "oul": 4981,
      "க்குட்ப": 4982,
      "న్నీ": 4983,
      "న్నై": 4984,
      "र्तगा": 4985,
      "டித்து": 4986,
      "பெண்கள்": 4987,
      "பெண்களுக்கு": 4988,
      "గాన్ని": 4989,
      "வைகள": 4990,
      "வைக்கப்பட்ட": 4991,
      "வைத்தது": 4992,
      "स्लि": 4993,
      "प्रशासन": 4994,
      "प्रत्य": 4995,
      "प्रचल": 4996,
      "प्रौद्योग": 4997,
      "నిపు": 4998,
      "నిడి": 4999,
      "నియమించ": 5000,
      "नेमा": 5001,
      "విలు": 5002,
      "విమాన": 5003,
      "విశ్": 5004,
      "విషయాలు": 5005,
      "విదేశీ": 5006,
      "இந்தியாவுக்குள்": 5007,
      "வாழ": 5008,
      "క్టోర": 5009,
      "ాతం": 5010,
      "ాతి": 5011,
      "ాత్మా": 5012,
      "கொள்": 5013,
      "போல்": 5014,
      "liance": 5015,
      "திச": 5016,
      "திப்": 5017,
      "ப்படியாக": 5018,
      "ரச்": 5019,
      "ానీ": 5020,
      "ాను": 5021,
      "ాన్య": 5022,
      "உள்ளனர்": 5023,
      "உள்ளூர்": 5024,
      "adv": 5025,
      "adually": 5026,
      "தார்ப்": 5027,
      "தாரச்": 5028,
      "वियत": 5029,
      "ండ్": 5030,
      "ములు": 5031,
      "ముడి": 5032,
      "ముస్లిం": 5033,
      "Their": 5034,
      "change": 5035,
      "திகா": 5036,
      "माल": 5037,
      "माध्य": 5038,
      "माजिक": 5039,
      "ப்புப்": 5040,
      "ப்புச்": 5041,
      "ినీ": 5042,
      "நிலவர": 5043,
      "நிலையானது": 5044,
      "சமவெளிய": 5045,
      "புத்த": 5046,
      "புத்திர": 5047,
      "மாறாக": 5048,
      "తిరు": 5049,
      "స్తులు": 5050,
      "స్తారు": 5051,
      "साह": 5052,
      "सामाजिक": 5053,
      "ceut": 5054,
      "ுக்குத்": 5055,
      "न्ध": 5056,
      "परी": 5057,
      "परे": 5058,
      "पर्य": 5059,
      "below": 5060,
      "before": 5061,
      "sel": 5062,
      "ందింది": 5063,
      "संगी": 5064,
      "செழி": 5065,
      "astri": 5066,
      "மையானது": 5067,
      "மையுடைய": 5068,
      "conso": 5069,
      "conduc": 5070,
      "2018": 5071,
      "result": 5072,
      "సంస్కరణ": 5073,
      "क्षर": 5074,
      "வெள்ள": 5075,
      "again": 5076,
      "कोई": 5077,
      "மாகக்": 5078,
      "పుకో": 5079,
      "పుతూ": 5080,
      "స్థావర": 5081,
      "भाष": 5082,
      "une": 5083,
      "அமைந்தது": 5084,
      "2002": 5085,
      "when": 5086,
      "where": 5087,
      "ంటి": 5088,
      "பொருள்": 5089,
      "வுட": 5090,
      "க்கப்பட்டுள்ளன": 5091,
      "பரத": 5092,
      "భావిస్తారు": 5093,
      "భాగాన్ని": 5094,
      "within": 5095,
      "ime": 5096,
      "exts": 5097,
      "external": 5098,
      "அதிகமாக": 5099,
      "राजधान": 5100,
      "राजनै": 5101,
      "சாய": 5102,
      "சாராத": 5103,
      "वास": 5104,
      "देव": 5105,
      "देखा": 5106,
      "aren": 5107,
      "ல்லி": 5108,
      "ஆகியோர்": 5109,
      "சியா": 5110,
      "ably": 5111,
      "about": 5112,
      "ability": 5113,
      "వాదం": 5114,
      "సాహ": 5115,
      "సామా": 5116,
      "ained": 5117,
      "ாளர்களைக்": 5118,
      "uted": 5119,
      "పావ": 5120,
      "పాంత": 5121,
      "పాడు": 5122,
      "மிகு": 5123,
      "வீர": 5124,
      "வையின்": 5125,
      "வையில்": 5126,
      "etwork": 5127,
      "inct": 5128,
      "भील": 5129,
      "ayback": 5130,
      "elected": 5131,
      "elites": 5132,
      "நீள": 5133,
      "కూడి": 5134,
      "కూడుకొ": 5135,
      "జాతులు": 5136,
      "्यादा": 5137,
      "కోట్ల": 5138,
      "క్రి": 5139,
      "்களில்": 5140,
      "த்தைத்": 5141,
      "spor": 5142,
      "तरह": 5143,
      "కాహార": 5144,
      "కాపాడు": 5145,
      "చ్చే": 5146,
      "నేరే": 5147,
      "మొగలు": 5148,
      "1956": 5149,
      "ured": 5150,
      "ంచిన": 5151,
      "దుగా": 5152,
      "మాట్ల": 5153,
      "యాళం": 5154,
      "பொருளாதாரச்": 5155,
      "हिं": 5156,
      "हिस्": 5157,
      "aksh": 5158,
      "meat": 5159,
      "तीस": 5160,
      "तीसर": 5161,
      "నాథ": 5162,
      "बाहरी": 5163,
      "ided": 5164,
      "2024": 5165,
      "2024இல்": 5166,
      "படிப்படியாக": 5167,
      "తరాలు": 5168,
      "பொருளாதாரம்": 5169,
      "பொருளாதாரமாக": 5170,
      "रूस": 5171,
      "produc": 5172,
      "process": 5173,
      "proxim": 5174,
      "குறிப்பிட்ட": 5175,
      "approxim": 5176,
      "గుబా": 5177,
      "వచ్చని": 5178,
      "genous": 5179,
      "weap": 5180,
      "ending": 5181,
      "मुस्लि": 5182,
      "ples": 5183,
      "plate": 5184,
      "portion": 5185,
      "ported": 5186,
      "వేద": 5187,
      "వేల": 5188,
      "இலிருந்து": 5189,
      "வந்தது": 5190,
      "जनवरी": 5191,
      "కాలే": 5192,
      "డిస్": 5193,
      "ద్రా": 5194,
      "அமைப்பை": 5195,
      "அமைப்பின்": 5196,
      "இரண்டாம்": 5197,
      "ंत्रिक": 5198,
      "aff": 5199,
      "శాసన": 5200,
      "దేశాలను": 5201,
      "தலைவர்": 5202,
      "நூல்கள": 5203,
      "மீதான": 5204,
      "ously": 5205,
      "चीफ": 5206,
      "CEE": 5207,
      "ఎన్నుకో": 5208,
      "ఎన్నుకుంట": 5209,
      "కిలోమీ": 5210,
      "குடியிரு": 5211,
      "குடியேற்ற": 5212,
      "பெரியதாகும்": 5213,
      "பாரம்பரியங்கள்": 5214,
      "1975": 5215,
      "26న": 5216,
      "partition": 5217,
      "குறைந்த": 5218,
      "upper": 5219,
      "చెప్": 5220,
      "చెంద": 5221,
      "చెందు": 5222,
      "చెన్నై": 5223,
      "వ్యవస్థకు": 5224,
      "मानसू": 5225,
      "भाषाएँ": 5226,
      "కేతిక": 5227,
      "తులతో": 5228,
      "ங்களைச்": 5229,
      "అధికారం": 5230,
      "सरकारें": 5231,
      "जीत": 5232,
      "இவர்கள்": 5233,
      "காரணம்": 5234,
      "வடிவங்களில்": 5235,
      "త్యం": 5236,
      "పర్యాయ": 5237,
      "పరీక్ష": 5238,
      "పరిపాలన": 5239,
      "మీదగా": 5240,
      "వరీ": 5241,
      "సుప్రీం": 5242,
      "ప్రపంచములో": 5243,
      "ஆண்டுகளுக்கும்": 5244,
      "స్థానాలను": 5245,
      "భాషలను": 5246,
      "ప్రాంతీయ": 5247,
      "ప్రాంతాల్లో": 5248,
      "రాజ్యంగా": 5249,
      "மொழிகள்": 5250,
      "Hindust": 5251,
      "कृष": 5252,
      "जिसका": 5253,
      "decades": 5254,
      "quality": 5255,
      "दिल्": 5256,
      "டுகளை": 5257,
      "దాయంలో": 5258,
      "వారి": 5259,
      "వర్తి": 5260,
      "సభను": 5261,
      "சியாவுடன்": 5262,
      "தொழில்நுட்ப": 5263,
      "पुरा": 5264,
      "पुर्तगा": 5265,
      "Asian": 5266,
      "சீக்கிய": 5267,
      "திராவிட": 5268,
      "பண்பாட்டில்": 5269,
      "பேரரசானது": 5270,
      "सिंह": 5271,
      "सिनेमा": 5272,
      "இடையிலான": 5273,
      "ூர்வ": 5274,
      "జనాభాతో": 5275,
      "మిస్తు": 5276,
      "రెండవ": 5277,
      "రెండో": 5278,
      "లంక": 5279,
      "లాహో": 5280,
      "వెల్ల": 5281,
      "reasing": 5282,
      "ప్రజలు": 5283,
      "ప్రభుత్వాన్ని": 5284,
      "மாநிலங்கள்": 5285,
      "இராணுவத்": 5286,
      "पूर्वी": 5287,
      "ocrat": 5288,
      "முன்னே": 5289,
      "ective": 5290,
      "பிரிவுகள": 5291,
      "மேற்குப்": 5292,
      "foreign": 5293,
      "pharma": 5294,
      "rica": 5295,
      "vidian": 5296,
      "लगा": 5297,
      "கிரேக்க": 5298,
      "పూర్తి": 5299,
      "పోయింది": 5300,
      "మనదేశం": 5301,
      "వుతుంది": 5302,
      "முறையே": 5303,
      "ముఖ్యంగా": 5304,
      "స్త్రీలు": 5305,
      "సాంకేతిక": 5306,
      "मिलियन": 5307,
      "down": 5308,
      "wars": 5309,
      "wards": 5310,
      "பங்கு": 5311,
      "பங்கெடுத்த": 5312,
      "extant": 5313,
      "बनाई": 5314,
      "422": 5315,
      "tax": 5316,
      "உற்பத்தியில்": 5317,
      "అతిపెద్ద": 5318,
      "జరిగే": 5319,
      "మహి": 5320,
      "మహాత్మా": 5321,
      "క్రీడా": 5322,
      "క్రీడలలో": 5323,
      "traditionally": 5324,
      "అయినా": 5325,
      "வணிகம்": 5326,
      "Africa": 5327,
      "பதவிய": 5328,
      "மலைத்": 5329,
      "ுக்காக": 5330,
      "தொலைதூர": 5331,
      "நிலையாக": 5332,
      "அடிப்படையில்": 5333,
      "நிறுவனம்": 5334,
      "நுட்பத்": 5335,
      "Maur": 5336,
      "சோதன": 5337,
      "வகைகள": 5338,
      "గోదా": 5339,
      "గోళిక": 5340,
      "గినది": 5341,
      "జనతా": 5342,
      "జనవరి": 5343,
      "లేదు": 5344,
      "ప్రస్తుతము": 5345,
      "క్కను": 5346,
      "సాధించిన": 5347,
      "కాంగ్రెస్": 5348,
      "ాబ్ది": 5349,
      "ரீதியான": 5350,
      "बढ़कर": 5351,
      "स्थि": 5352,
      "சந்தை": 5353,
      "ல்களில்": 5354,
      "காங்கிரச": 5355,
      "amental": 5356,
      "வரலாற்று": 5357,
      "மூன்று": 5358,
      "வங்காளத்தின்": 5359,
      "numbers": 5360,
      "उपमहाद्वीप": 5361,
      "वेश": 5362,
      "संघीय": 5363,
      "संघर्ष": 5364,
      "Ancient": 5365,
      "Constit": 5366,
      "மரப": 5367,
      "ఉపయో": 5368,
      "భూభాగం": 5369,
      "భూటాన్": 5370,
      "మానం": 5371,
      "యుగ": 5372,
      "రంగంలో": 5373,
      "వలన": 5374,
      "వలస": 5375,
      "ergy": 5376,
      "ప్రతిపక్ష": 5377,
      "విస్తీర్": 5378,
      "support": 5379,
      "நகரப்": 5380,
      "நகர்ப்": 5381,
      "सैनिक": 5382,
      "bian": 5383,
      "பேர்": 5384,
      "express": 5385,
      "சேர்ந்தவையாக": 5386,
      "உறுப்பினர்கள": 5387,
      "வெளியிட": 5388,
      "अन्तर": 5389,
      "आधार": 5390,
      "शुरु": 5391,
      "समाप्त": 5392,
      "पश्चिमी": 5393,
      "All": 5394,
      "பரிமாற": 5395,
      "గణతంత్ర": 5396,
      "నెలకొ": 5397,
      "మాత్రమే": 5398,
      "సమాజ": 5399,
      "స్వతం": 5400,
      "సామర్థ్యం": 5401,
      "நாடாளுமன்றத்தின்": 5402,
      "கடற்கரைகள்": 5403,
      "பொருட்களாக": 5404,
      "உயிரினப்": 5405,
      "ఉత్తరాన": 5406,
      "బ్రిటీ": 5407,
      "influence": 5408,
      "ప్పటికినీ": 5409,
      "సింధూనది": 5410,
      "மனிதர்கள்": 5411,
      "సరిహద్దుగా": 5412,
      "సౌకర్యాలు": 5413,
      "సౌకర్యాలలో": 5414,
      "गुप्त": 5415,
      "history": 5416,
      "இப்போட்டிய": 5417,
      "உட்க": 5418,
      "ஐரோவா": 5419,
      "கங்கை": 5420,
      "பழக்க": 5421,
      "பழமையான": 5422,
      "constitutional": 5423,
      "development": 5424,
      "உருவாகியது": 5425,
      "இதற்குப்": 5426,
      "அதிகரித்துள்ளது": 5427,
      "தென்னிந்தியாவில்": 5428,
      "ஆட்சியாள": 5429,
      "కళలు": 5430,
      "చైనా": 5431,
      "చైనాను": 5432,
      "తూర్పు": 5433,
      "తమిళ": 5434,
      "రూపాంత": 5435,
      "సమరం": 5436,
      "సారస్వతం": 5437,
      "முதலில்": 5438,
      "பாக்கித்தான": 5439,
      "leader": 5440,
      "புதுப்ப": 5441,
      "பிரதமர்": 5442,
      "సంఖ్యా": 5443,
      "அதிகாரப்ப": 5444,
      "நீடித்திருந்தது": 5445,
      "రైల్వేశాఖ": 5446,
      "పాలనలో": 5447,
      "செய்தது": 5448,
      "ప్రపంచంలోని": 5449,
      "சீனா": 5450,
      "వెబ్": 5451,
      "ప్రజాదర": 5452,
      "பஞ்சாப்": 5453,
      "సముద్రతీ": 5454,
      "స్వాతంత్ర్యం": 5455,
      "నిర్వహించింది": 5456,
      "विस्तार": 5457,
      "tropical": 5458,
      "இமயமல": 5459,
      "தற்குக்": 5460,
      "பாலின": 5461,
      "பாலூட்ட": 5462,
      "தொடர்ச்சி": 5463,
      "தொடர்ச்சியான": 5464,
      "தெற்காசிய": 5465,
      "cooking": 5466,
      "mathematics": 5467,
      "ஒன்றியப்": 5468,
      "Plateau": 5469,
      "Sea": 5470,
      "greater": 5471,
      "single": 5472,
      "school": 5473,
      "vention": 5474,
      "पेक्ष": 5475,
      "அடையாள": 5476,
      "பங்களி": 5477,
      "చిరు": 5478,
      "నాయకత్వ": 5479,
      "పదవి": 5480,
      "మలయాళం": 5481,
      "సూచించిన": 5482,
      "హాకీ": 5483,
      "ిస్తారు": 5484,
      "లోక్‌సభ": 5485,
      "కులాలు": 5486,
      "కుంటూ": 5487,
      "కుంటారు": 5488,
      "నిర్మ": 5489,
      "ాయుత": 5490,
      "adesh": 5491,
      "oldest": 5492,
      "right": 5493,
      "rights": 5494,
      "ద్వీప": 5495,
      "தொடர்பு": 5496,
      "సంవత్సర": 5497,
      "exports": 5498,
      "निरपेक्ष": 5499,
      "contribut": 5500,
      "contribution": 5501,
      "வருமானமானது": 5502,
      "features": 5503,
      "మేనని": 5504,
      "రాజ్యాలుగా": 5505,
      "సభ్యు": 5506,
      "సభ్యులు": 5507,
      "commonly": 5508,
      "விளையாட்டுப்": 5509,
      "பல்வகைமை": 5510,
      "ఆధారపడిన": 5511,
      "సామ్రాజ్య": 5512,
      "సామ్రాజ్యం": 5513,
      "బ్రిటిష్": 5514,
      "బ్రిటిషు": 5515,
      "குடும்பங்கள்": 5516,
      "పశ్చిమ": 5517,
      "పశ్చిమాన": 5518,
      "agriculture": 5519,
      "agricultural": 5520,
      "தேர்ந்தெடுக்கப்படுக": 5521,
      "इंडिया": 5522,
      "लोगों": 5523,
      "crust": 5524,
      "turned": 5525,
      "ஆதிக்க": 5526,
      "ஆங்கிலம்": 5527,
      "இறையாண்": 5528,
      "தலைய": 5529,
      "மறைப்பு": 5530,
      "relations": 5531,
      "architect": 5532,
      "விவசாய": 5533,
      "அமைச்சர": 5534,
      "குறிக்கப்": 5535,
      "show": 5536,
      "வரலாற்றாளர்கள்": 5537,
      "இறக்குமதிய": 5538,
      "directly": 5539,
      "ஆப்பிரிக்காவில்": 5540,
      "घोषणा": 5541,
      "पंजा": 5542,
      "विकसित": 5543,
      "capit": 5544,
      "ஆக்கிர": 5545,
      "கையொப்ப": 5546,
      "தகவல்": 5547,
      "வயது": 5548,
      "வறுமை": 5549,
      "ఆహారం": 5550,
      "ఇంగ్లీషు": 5551,
      "ఉండటం": 5552,
      "కిందకు": 5553,
      "టైటి": 5554,
      "టర్లకు": 5555,
      "పార్లమె": 5556,
      "భరత": 5557,
      "భౌగోళిక": 5558,
      "మూల": 5559,
      "మౌర్య": 5560,
      "సహస్ర": 5561,
      "సైనిక": 5562,
      "సార్వత్ర": 5563,
      "హైదరా": 5564,
      "indigenous": 5565,
      "குசராத்தின்": 5566,
      "ప్రారంభించ": 5567,
      "பார்க்கப்படுகிறது": 5568,
      "ర్షణ": 5569,
      "ర్‌ల": 5570,
      "విద్యుత్": 5571,
      "நிலப்பரப்பில்": 5572,
      "సంకీర్ణ": 5573,
      "పురుషు": 5574,
      "స్థితి": 5575,
      "ாளராகவும்": 5576,
      "కూడుకుని": 5577,
      "కోల్‌కాత": 5578,
      "composed": 5579,
      "నేపాల్": 5580,
      "పాలించారు": 5581,
      "ఎన్నికల్లో": 5582,
      "రాజ్యాంగం": 5583,
      "violence": 5584,
      "commercial": 5585,
      "బడతారు": 5586,
      "మహాసముద్రం": 5587,
      "జనగణన": 5588,
      "ప్రతిపాదనకు": 5589,
      "మొదలైనవి": 5590,
      "ఏర్పడ్డాయి": 5591,
      "ஏற்றுமதியில்": 5592,
      "நெருக்கமான": 5593,
      "కార్యక్రమాలు": 5594,
      "ఆఫ్ఘనిస్తాన్": 5595,
      "தவிர்த்து": 5596,
      "జరుపుకుంటారు": 5597,
      "పీఠభూ": 5598,
      "బంగ్లాదేశ్‌": 5599,
      "శెలవుదినాలు": 5600,
      "హిమాలయ": 5601,
      "waist": 5602,
      "उसके": 5603,
      "कहते": 5604,
      "जैसे": 5605,
      "अमेरिका": 5606,
      "Brahm": 5607,
      "Bharat": 5608,
      "Profile": 5609,
      "global": 5610,
      "house": 5611,
      "secular": 5612,
      "தட்டானது": 5613,
      "மண்டல": 5614,
      "மகளிர்": 5615,
      "வதில்லை": 5616,
      "recorded": 5617,
      "enacted": 5618,
      "estimated": 5619,
      "important": 5620,
      "speak": 5621,
      "சேவையாற்ற": 5622,
      "continued": 5623,
      "கருதப்படுகிறது": 5624,
      "கருதுகின்றனர்": 5625,
      "legislat": 5626,
      "இணையத்தளம்": 5627,
      "different": 5628,
      "Kashmir": 5629,
      "established": 5630,
      "आन्दोलन": 5631,
      "जून": 5632,
      "तनत": 5633,
      "दृष्टि": 5634,
      "BBC": 5635,
      "CIA": 5636,
      "Dravidian": 5637,
      "Ghats": 5638,
      "However": 5639,
      "Languages": 5640,
      "Singh": 5641,
      "dramas": 5642,
      "fundamental": 5643,
      "pract": 5644,
      "अभिया": 5645,
      "छोटे": 5646,
      "नदियाँ": 5647,
      "सल्तनत": 5648,
      "அனு": 5649,
      "அயல்": 5650,
      "அலுவ": 5651,
      "அப்போது": 5652,
      "ஆரம்ப": 5653,
      "இன்னும்": 5654,
      "ஊடுரு": 5655,
      "கிலோமீ": 5656,
      "டிரில்லியன்": 5657,
      "மௌரிய": 5658,
      "மருத்துவ": 5659,
      "மட்டுமே": 5660,
      "అంతర్జాతీయ": 5661,
      "అమెరికా": 5662,
      "ఇండో": 5663,
      "ఈశాన్య": 5664,
      "ఈస్ట్": 5665,
      "ఎలక్టోర": 5666,
      "ఏప్రిల్": 5667,
      "ఐరోపా": 5668,
      "కనుమలు": 5669,
      "కబడ్డీ": 5670,
      "ఖనిజాలు": 5671,
      "గెలుచుకోవడ": 5672,
      "చూడండి": 5673,
      "జమ్మూ": 5674,
      "ట్రో": 5675,
      "ఢాకా": 5676,
      "తర్వాత": 5677,
      "పిక్‌": 5678,
      "పవిత్ర": 5679,
      "పక్కన": 5680,
      "బౌద్ధ": 5681,
      "బంగారు": 5682,
      "రచయిత": 5683,
      "లౌకిక": 5684,
      "மற்றுமொரு": 5685,
      "ప్రసిద్ధి": 5686,
      "భారత్‌లో": 5687,
      "प्रौद्योगिकी": 5688,
      "నిపుణులు": 5689,
      "నిడివి": 5690,
      "माध्यम": 5691,
      "நிலவரப்": 5692,
      "తిరుగుబా": 5693,
      "ceutical": 5694,
      "संगीत": 5695,
      "consolid": 5696,
      "conducted": 5697,
      "resulting": 5698,
      "స్థావరాలు": 5699,
      "राजधानी": 5700,
      "राजनैतिक": 5701,
      "సామాజిక": 5702,
      "కూడుకొని": 5703,
      "కాపాడుకుంటూ": 5704,
      "నేరేడు": 5705,
      "మాట్లాడే": 5706,
      "approximately": 5707,
      "मुस्लिम": 5708,
      "ఎన్నుకోబడతారు": 5709,
      "కిలోమీటర్లకు": 5710,
      "చెప్పుకో": 5711,
      "చెందాయి": 5712,
      "చెందుతున్న": 5713,
      "मानसून": 5714,
      "పర్యాయాలు": 5715,
      "दिल्ली": 5716,
      "ocratic": 5717,
      "pharmaceutical": 5718,
      "పూర్తిగా": 5719,
      "ఉపయోగి": 5720,
      "இப்போட்டியை": 5721,
      "ప్రజాదరణ": 5722,
      "సూచించినట్లు": 5723,
      "సహస్రాబ్ది": 5724,
      "సార్వత్రిక": 5725,
      "కోల్‌కాతా": 5726,
      "கிலோமீட்டர்கள்": 5727,
      "ఎలక్టోరల్": 5728,
      "గెలుచుకోవడం": 5729,
      "తిరుగుబాటు": 5730,
      "1000": 5731,
      "121": 5732,
      "45": 5733,
      "600": 5734,
      "75": 5735,
      "78": 5736,
      "ot": 5737,
      "1930": 5738,
      "chived": 5739,
      "2007": 5740,
      "2021": 5741,
      "1984": 5742,
      "1974": 5743,
      "Archived": 5744,
      "Republic": 5745,
      "33": 5746,
      "ns": 5747,
      "monsoon": 5748,
      "ंट": 5749,
      "अग": 5750,
      "अने": 5751,
      "अति": 5752,
      "अल्": 5753,
      "आज": 5754,
      "आप": 5755,
      "आय": 5756,
      "आस": 5757,
      "इसे": 5758,
      "उसे": 5759,
      "उन्हें": 5760,
      "उष्ण": 5761,
      "एव": 5762,
      "कप": 5763,
      "कश्": 5764,
      "क्यों": 5765,
      "चो": 5766,
      "चित": 5767,
      "चली": 5768,
      "जट": 5769,
      "जों": 5770,
      "जमा": 5771,
      "टक": 5772,
      "टल": 5773,
      "टा": 5774,
      "ढा": 5775,
      "तीय": 5776,
      "तनाव": 5777,
      "दु": 5778,
      "दों": 5779,
      "पत्": 5780,
      "फा": 5781,
      "फैली": 5782,
      "बि": 5783,
      "बजट": 5784,
      "भु": 5785,
      "भ्यता": 5786,
      "मार्": 5787,
      "मस्वरूप": 5788,
      "यि": 5789,
      "यहाँ": 5790,
      "रख": 5791,
      "रल": 5792,
      "लै": 5793,
      "लौ": 5794,
      "लड़ा": 5795,
      "शहर": 5796,
      "शस्त्र": 5797,
      "शहरी": 5798,
      "शिक्": 5799,
      "सन्": 5800,
      "सहा": 5801,
      "सक्र": 5802,
      "सभ्यता": 5803,
      "हॉ": 5804,
      "ामस्वरूप": 5805,
      "ेक": 5806,
      "ेक्षा": 5807,
      "ोत्": 5808,
      "१०": 5809,
      "२२": 5810,
      "४०": 5811,
      "४७": 5812,
      "कालीन": 5813,
      "प्रका": 5814,
      "प्रिय": 5815,
      "प्रदान": 5816,
      "प्रणा": 5817,
      "प्रभु": 5818,
      "नेह": 5819,
      "राजा": 5820,
      "नागा": 5821,
      "नागर": 5822,
      "क्ट": 5823,
      "विरो": 5824,
      "विशेष": 5825,
      "माता": 5826,
      "ियां": 5827,
      "सागर": 5828,
      "न्त्र": 5829,
      "परिण": 5830,
      "संग": 5831,
      "करती": 5832,
      "करते": 5833,
      "क्षण": 5834,
      "त्रि": 5835,
      "भागी": 5836,
      "राजवंश": 5837,
      "वास्त": 5838,
      "हाल": 5839,
      "त्न": 5840,
      "त्म": 5841,
      "पात": 5842,
      "पान": 5843,
      "पाया": 5844,
      "पाँच": 5845,
      "किए": 5846,
      "किसी": 5847,
      "निम्": 5848,
      "निवेश": 5849,
      "समझ": 5850,
      "समृद्ध": 5851,
      "शाली": 5852,
      "लीवि": 5853,
      "इसमें": 5854,
      "इसका": 5855,
      "तीन": 5856,
      "होना": 5857,
      "राज्यसभा": 5858,
      "जिन्हें": 5859,
      "पूरा": 5860,
      "पूरे": 5861,
      "द्रो": 5862,
      "लेकर": 5863,
      "ंधु": 5864,
      "भाषाएं": 5865,
      "जीवन": 5866,
      "दिरा": 5867,
      "पुरु": 5868,
      "सिंधु": 5869,
      "बंधीय": 5870,
      "मीर": 5871,
      "सदन": 5872,
      "सामरिक": 5873,
      "उत्तरी": 5874,
      "तुलना": 5875,
      "मंत्रिम": 5876,
      "०००": 5877,
      "स्कृतिक": 5878,
      "बढ़ती": 5879,
      "ष्क": 5880,
      "उपयोग": 5881,
      "टेलीवि": 5882,
      "च्छ": 5883,
      "शुष्क": 5884,
      "सूची": 5885,
      "गुजरा": 5886,
      "मोहन": 5887,
      "लोकता": 5888,
      "लोकप्रिय": 5889,
      "संबंधों": 5890,
      "हिन्दु": 5891,
      "मैदानी": 5892,
      "उनके": 5893,
      "उनकी": 5894,
      "अवशेष": 5895,
      "कार्यकाल": 5896,
      "कार्यपालिका": 5897,
      "२००४": 5898,
      "ण्डल": 5899,
      "मौर्य": 5900,
      "जिनमें": 5901,
      "सदस्य": 5902,
      "सदस्यों": 5903,
      "लंका": 5904,
      "लंबे": 5905,
      "परंपरागत": 5906,
      "आगमन": 5907,
      "ऊँची": 5908,
      "डालर": 5909,
      "सोवियत": 5910,
      "विजय": 5911,
      "इंदिरा": 5912,
      "इस्ला": 5913,
      "कटिबंधीय": 5914,
      "श्रीलंका": 5915,
      "सांस्कृतिक": 5916,
      "१९५०": 5917,
      "अमरीकी": 5918,
      "नौसेना": 5919,
      "पहुँच": 5920,
      "फ्रांस": 5921,
      "बौद्ध": 5922,
      "्ञान": 5923,
      "प्रत्येक": 5924,
      "परीक्षण": 5925,
      "पर्यटन": 5926,
      "भाषी": 5927,
      "कृषि": 5928,
      "स्थिति": 5929,
      "शुरुआत": 5930,
      "पंजाब": 5931,
      "अनेक": 5932,
      "कश्मीर": 5933,
      "शिक्षा": 5934,
      "सहायक": 5935,
      "सक्रिय": 5936,
      "हॉकी": 5937,
      "प्रणाली": 5938,
      "नागरिक": 5939,
      "परिणामस्वरूप": 5940,
      "पुरुष": 5941,
      "मंत्रिमण्डल": 5942,
      "(\"": 5943,
      "07": 5944,
      "120": 5945,
      "142": 5946,
      "32": 5947,
      "48": 5948,
      "52": 5949,
      "53": 5950,
      "59": 5951,
      "7000": 5952,
      "9ஆம்": 5953,
      "Ak": 5954,
      "Ash": 5955,
      "Bang": 5956,
      "Bay": 5957,
      "DA": 5958,
      "Dal": 5959,
      "Dance": 5960,
      "Ex": 5961,
      "Ear": 5962,
      "Econ": 5963,
      "For": 5964,
      "Fron": 5965,
      "Geograph": 5966,
      "HO": 5967,
      "Kal": 5968,
      "Lank": 5969,
      "Mal": 5970,
      "Mar": 5971,
      "Mid": 5972,
      "Myan": 5973,
      "Non": 5974,
      "Nic": 5975,
      "NDA": 5976,
      "Pol": 5977,
      "Pall": 5978,
      "So": 5979,
      "She": 5980,
      "Sri": 5981,
      "To": 5982,
      "Tem": 5983,
      "Treat": 5984,
      "UPA": 5985,
      "Va": 5986,
      "Vi": 5987,
      "Wi": 5988,
      "Wayback": 5989,
      "WHO": 5990,
      "aic": 5991,
      "aut": 5992,
      "bon": 5993,
      "bes": 5994,
      "bly": 5995,
      "bri": 5996,
      "cu": 5997,
      "cle": 5998,
      "cul": 5999,
      "cro": 6000,
      "cut": 6001,
      "crit": 6002,
      "came": 6003,
      "cav": 6004,
      "count": 6005,
      "clim": 6006,
      "civil": 6007,
      "could": 6008,
      "dar": 6009,
      "dro": 6010,
      "dha": 6011,
      "dones": 6012,
      "ez": 6013,
      "ely": 6014,
      "eff": 6015,
      "eign": 6016,
      "fem": 6017,
      "fall": 6018,
      "gn": 6019,
      "gas": 6020,
      "gation": 6021,
      "get": 6022,
      "hu": 6023,
      "han": 6024,
      "hig": 6025,
      "ii": 6026,
      "ily": 6027,
      "ither": 6028,
      "ject": 6029,
      "ked": 6030,
      "kil": 6031,
      "ket": 6032,
      "kame": 6033,
      "law": 6034,
      "ladesh": 6035,
      "mig": 6036,
      "marg": 6037,
      "much": 6038,
      "mamm": 6039,
      "nd": 6040,
      "nam": 6041,
      "nation": 6042,
      "near": 6043,
      "name": 6044,
      "pat": 6045,
      "ption": 6046,
      "past": 6047,
      "pts": 6048,
      "pet": 6049,
      "ran": 6050,
      "ring": 6051,
      "round": 6052,
      "range": 6053,
      "sil": 6054,
      "smo": 6055,
      "sim": 6056,
      "sover": 6057,
      "slow": 6058,
      "sav": 6059,
      "sect": 6060,
      "somet": 6061,
      "sites": 6062,
      "tre": 6063,
      "test": 6064,
      "texts": 6065,
      "ue": 6066,
      "uent": 6067,
      "val": 6068,
      "vic": 6069,
      "vis": 6070,
      "varn": 6071,
      "would": 6072,
      "ze": 6073,
      "அது": 6074,
      "அல்": 6075,
      "அங்க": 6076,
      "அகா": 6077,
      "அரி": 6078,
      "அச்ச": 6079,
      "அசா": 6080,
      "அதே": 6081,
      "அணி": 6082,
      "அதற்கு": 6083,
      "அண்டை": 6084,
      "ஆடை": 6085,
      "ஆதார": 6086,
      "ஆய்": 6087,
      "ஆற்று": 6088,
      "இம்": 6089,
      "இடை": 6090,
      "இண்டிய": 6091,
      "உள": 6092,
      "உடை": 6093,
      "ஊட்ட": 6094,
      "எல்ல": 6095,
      "ஐக்": 6096,
      "ஒவ்": 6097,
      "கச": 6098,
      "கே": 6099,
      "கப்ப": 6100,
      "கேர": 6101,
      "கடை": 6102,
      "கன்ன": 6103,
      "கமீ": 6104,
      "ங்": 6105,
      "சய": 6106,
      "சர": 6107,
      "சம்": 6108,
      "சல்": 6109,
      "சகா": 6110,
      "சத்": 6111,
      "சவா": 6112,
      "சப்பா": 6113,
      "சற்று": 6114,
      "ஜி": 6115,
      "ஜவு": 6116,
      "டம்": 6117,
      "டிக": 6118,
      "டபூ": 6119,
      "ணய": 6120,
      "ணம்": 6121,
      "ணிகள்": 6122,
      "தங்க": 6123,
      "தாவ": 6124,
      "தானது": 6125,
      "தட்ச": 6126,
      "தடை": 6127,
      "தைப்": 6128,
      "நிக்க": 6129,
      "னே": 6130,
      "பட": 6131,
      "பன": 6132,
      "பில": 6133,
      "புள்ள": 6134,
      "புகள": 6135,
      "பதிய": 6136,
      "படுத்த": 6137,
      "பல்ல": 6138,
      "மக": 6139,
      "மங்க": 6140,
      "மித்த": 6141,
      "மணி": 6142,
      "மும்ப": 6143,
      "யில்": 6144,
      "ரங்க": 6145,
      "ரையும்": 6146,
      "லக": 6147,
      "லாவ": 6148,
      "ளை": 6149,
      "வற": 6150,
      "வம்": 6151,
      "வன்": 6152,
      "விக": 6153,
      "வுள்ளது": 6154,
      "வகி": 6155,
      "விக்": 6156,
      "வொரு": 6157,
      "ஹி": 6158,
      "ஹவு": 6159,
      "ாட": 6160,
      "ாதார": 6161,
      "ீன்": 6162,
      "ீடு": 6163,
      "ுந்து": 6164,
      "ுவின": 6165,
      "ைக்கால": 6166,
      "ொள்க": 6167,
      "ோள": 6168,
      "ோபார்": 6169,
      "்க்க": 6170,
      "துற": 6171,
      "துடு": 6172,
      "துல்ல": 6173,
      "thor": 6174,
      "threat": 6175,
      "those": 6176,
      "ன்ம": 6177,
      "ana": 6178,
      "anch": 6179,
      "anag": 6180,
      "anies": 6181,
      "anted": 6182,
      "anism": 6183,
      "anced": 6184,
      "another": 6185,
      "ல்வாய": 6186,
      "ந்தன": 6187,
      "ந்த்": 6188,
      "init": 6189,
      "ining": 6190,
      "inated": 6191,
      "institution": 6192,
      "க்கள": 6193,
      "க்கடி": 6194,
      "க்கலை": 6195,
      "க்கவோ": 6196,
      "ப்பான": 6197,
      "ப்பந்து": 6198,
      "then": 6199,
      "these": 6200,
      "த்துள்ளது": 6201,
      "த்தனர்": 6202,
      "ergency": 6203,
      "ond": 6204,
      "onial": 6205,
      "ருக்கு": 6206,
      "rest": 6207,
      "recent": 6208,
      "reco": 6209,
      "report": 6210,
      "refer": 6211,
      "reven": 6212,
      "ையிலிருந்து": 6213,
      "ened": 6214,
      "ensive": 6215,
      "energy": 6216,
      "stand": 6217,
      "stri": 6218,
      "dia": 6219,
      "dit": 6220,
      "dient": 6221,
      "dise": 6222,
      "diment": 6223,
      "discri": 6224,
      "ature": 6225,
      "arts": 6226,
      "arnat": 6227,
      "edul": 6228,
      "ங்கா": 6229,
      "ங்காக": 6230,
      "anding": 6231,
      "Inter": 6232,
      "Indones": 6233,
      "oro": 6234,
      "oral": 6235,
      "orally": 6236,
      "ுகு": 6237,
      "ண்டி": 6238,
      "ிகர": 6239,
      "ிகா": 6240,
      "ிகுட": 6241,
      "Indira": 6242,
      "isol": 6243,
      "ings": 6244,
      "ிரா": 6245,
      "ிரி": 6246,
      "ாவ்": 6247,
      "19th": 6248,
      "முடிய": 6249,
      "முனை": 6250,
      "முழு": 6251,
      "முடிக": 6252,
      "20th": 6253,
      "enter": 6254,
      "பாட்ட": 6255,
      "ிலுக்கு": 6256,
      "oming": 6257,
      "town": 6258,
      "today": 6259,
      "total": 6260,
      "்ச்ச": 6261,
      "ிற்கு": 6262,
      "டிக்கப்பட்ட": 6263,
      "பெண்கள": 6264,
      "ங்களான": 6265,
      "ங்களுக்கும்": 6266,
      "ங்களையுடைய": 6267,
      "தொன்ம": 6268,
      "வைக்": 6269,
      "ுள்ளனர்": 6270,
      "ுள்ளார்": 6271,
      "urid": 6272,
      "urred": 6273,
      "பொழு": 6274,
      "பொறிய": 6275,
      "leve": 6276,
      "இந்தியாவானது": 6277,
      "வாச": 6278,
      "வாத": 6279,
      "வாழ்க": 6280,
      "கொடுத்த": 6281,
      "போயின": 6282,
      "விடு": 6283,
      "விமான": 6284,
      "விசய": 6285,
      "list": 6286,
      "lied": 6287,
      "lies": 6288,
      "lief": 6289,
      "like": 6290,
      "ப்படை": 6291,
      "ப்படாத": 6292,
      "verty": 6293,
      "ams": 6294,
      "ample": 6295,
      "ற்கடிக்கப்பட்ட": 6296,
      "உள்ளார்": 6297,
      "ada": 6298,
      "addition": 6299,
      "added": 6300,
      "adher": 6301,
      "ilway": 6302,
      "தாய": 6303,
      "தான்": 6304,
      "தாய்": 6305,
      "தாண்டிய": 6306,
      "தாராள": 6307,
      "நாள்": 6308,
      "நாணய": 6309,
      "த்துறை": 6310,
      "த்துதல்": 6311,
      "olved": 6312,
      "rivers": 6313,
      "ched": 6314,
      "chine": 6315,
      "chos": 6316,
      "churid": 6317,
      "திகள்": 6318,
      "திகழ்": 6319,
      "ப்புடைய": 6320,
      "embly": 6321,
      "role": 6322,
      "நிலையின்": 6323,
      "நிலைகள்": 6324,
      "rap": 6325,
      "rather": 6326,
      "racy": 6327,
      "railway": 6328,
      "சமவெளி": 6329,
      "புட": 6330,
      "புரி": 6331,
      "தியான": 6332,
      "மாறி": 6333,
      "cean": 6334,
      "வேண்டும்": 6335,
      "வேதிப்": 6336,
      "veget": 6337,
      "சுய": 6338,
      "சுவைய": 6339,
      "being": 6340,
      "belong": 6341,
      "bell": 6342,
      "belief": 6343,
      "separ": 6344,
      "seals": 6345,
      "செது": 6346,
      "பிரச்ச": 6347,
      "பிரதேச": 6348,
      "ராட்ட": 6349,
      "மையும்": 6350,
      "மையைக்": 6351,
      "conce": 6352,
      "estic": 6353,
      "loss": 6354,
      "loose": 6355,
      "களை": 6356,
      "reser": 6357,
      "ிருந்தன": 6358,
      "ிருந்தனர்": 6359,
      "காலம்": 6360,
      "காலத்த": 6361,
      "றுத்த": 6362,
      "றுவதற்கு": 6363,
      "இருந்தனர்": 6364,
      "ச்சி": 6365,
      "மாகத்": 6366,
      "மாகவும்": 6367,
      "லால்": 6368,
      "லாந்து": 6369,
      "del": 6370,
      "devo": 6371,
      "uni": 6372,
      "untouch": 6373,
      "அமைதி": 6374,
      "தன்மை": 6375,
      "2007இல்": 6376,
      "irt": 6377,
      "வரின்": 6378,
      "வரதட்ச": 6379,
      "வுப்": 6380,
      "due": 6381,
      "duct": 6382,
      "moist": 6383,
      "பரண": 6384,
      "imes": 6385,
      "exchange": 6386,
      "example": 6387,
      "சார்": 6388,
      "சாஸ்த": 6389,
      "உருவ": 6390,
      "area": 6391,
      "romise": 6392,
      "ர்களும்": 6393,
      "ஆகியவையாகும்": 6394,
      "anged": 6395,
      "வியத்": 6396,
      "poverty": 6397,
      "கிடை": 6398,
      "சியப்": 6399,
      "abad": 6400,
      "ables": 6401,
      "aced": 6402,
      "action": 6403,
      "acter": 6404,
      "across": 6405,
      "சிப்": 6406,
      "சிக்க": 6407,
      "சித்த": 6408,
      "சிங்": 6409,
      "six": 6410,
      "தெல": 6411,
      "தெளி": 6412,
      "கோடிய": 6413,
      "கோடியாக": 6414,
      "உலகப்": 6415,
      "உலகிலேயே": 6416,
      "ush": 6417,
      "uscri": 6418,
      "வையானது": 6419,
      "நாடாகும்": 6420,
      "மொக": 6421,
      "ிடும்": 6422,
      "income": 6423,
      "ிகளைக்": 6424,
      "ுடனான": 6425,
      "ிக்கும்": 6426,
      "ிக்குக்": 6427,
      "pers": 6428,
      "கூற": 6429,
      "இதன": 6430,
      "இதற்க": 6431,
      "போதும்": 6432,
      "தாரோ": 6433,
      "1995": 6434,
      "இருக்கு": 6435,
      "நடந்த": 6436,
      "1957": 6437,
      "contain": 6438,
      "contains": 6439,
      "ulture": 6440,
      "1964": 6441,
      "sha": 6442,
      "shor": 6443,
      "share": 6444,
      "idly": 6445,
      "சமயத்தைச்": 6446,
      "உயர்ந்த": 6447,
      "உயிர்": 6448,
      "அதிகரிப்ப": 6449,
      "அதிகரிக்கும்": 6450,
      "பொருளாதாரக்": 6451,
      "protec": 6452,
      "gence": 6453,
      "wealth": 6454,
      "formal": 6455,
      "ivity": 6456,
      "play": 6457,
      "plains": 6458,
      "ports": 6459,
      "having": 6460,
      "இலங்க": 6461,
      "ப்பாட்ட": 6462,
      "அமைப்பில்": 6463,
      "அமைப்புகள்": 6464,
      "இரண்டிலுமே": 6465,
      "1981": 6466,
      "1985": 6467,
      "இடத்தில்": 6468,
      "இராச": 6469,
      "assert": 6470,
      "பெற்றன": 6471,
      "மூல": 6472,
      "lows": 6473,
      "உருவாக்கும்": 6474,
      "உருவாக்கப்பட்டது": 6475,
      "உருவாயின": 6476,
      "ஞ்சதாரோ": 6477,
      "வடகிழக்கு": 6478,
      "anta": 6479,
      "1972": 6480,
      "becoming": 6481,
      "partic": 6482,
      "குறைந்தது": 6483,
      "தாகக்": 6484,
      "தாகவும்": 6485,
      "வருவாய": 6486,
      "வருக்குப்": 6487,
      "ources": 6488,
      "செயல": 6489,
      "செயலாட்சி": 6490,
      "பகுதியை": 6491,
      "பகுதியின்": 6492,
      "நிறுவின": 6493,
      "எண்ணப்படுகிறது": 6494,
      "சேர்க்க": 6495,
      "ைகளை": 6496,
      "தொழில": 6497,
      "1500": 6498,
      "அடிக்கடி": 6499,
      "inequality": 6500,
      "latter": 6501,
      "தோற்ற": 6502,
      "தோற்கடிக்கப்பட்ட": 6503,
      "வனவு": 6504,
      "விரிகுட": 6505,
      "வடிவம்": 6506,
      "வடிவமானது": 6507,
      "சமூகப்": 6508,
      "சமூகக்": 6509,
      "கூட்டமைப்பு": 6510,
      "Thar": 6511,
      "governments": 6512,
      "இயற்க": 6513,
      "இயக்கம்": 6514,
      "கட்டாய": 6515,
      "ministers": 6516,
      "நிறுவப்பட்ட": 6517,
      "1950s": 6518,
      "decade": 6519,
      "primary": 6520,
      "ிருக்கும்": 6521,
      "தொடங்கி": 6522,
      "தொடங்கின": 6523,
      "populous": 6524,
      "குறிப்பிடப்பட்டுள்ளது": 6525,
      "1947இல்": 6526,
      "oka": 6527,
      "உணவுகள": 6528,
      "உணவின்": 6529,
      "உணவுகள்": 6530,
      "கலையின்": 6531,
      "கலையானது": 6532,
      "கலக்கின்றன": 6533,
      "சைவ": 6534,
      "திரைத்": 6535,
      "திரைப்பட": 6536,
      "நேரங்களில்": 6537,
      "நேரடியாக": 6538,
      "பகுதிகளை": 6539,
      "பேரரசின்": 6540,
      "சட்டங்கள்": 6541,
      "ections": 6542,
      "இராணுவச்": 6543,
      "த்திற்குள்": 6544,
      "160": 6545,
      "castes": 6546,
      "ocracy": 6547,
      "முன்னரே": 6548,
      "பிரிக்கப்பட்ட": 6549,
      "பிரிவானது": 6550,
      "மேற்குத்": 6551,
      "அரசாங்கத்தின்": 6552,
      "அரசாங்கத்தை": 6553,
      "வீதமானது": 6554,
      "வீதங்களானவை": 6555,
      "உயிரித்": 6556,
      "predomin": 6557,
      "parts": 6558,
      "ricket": 6559,
      "தொகையில்": 6560,
      "தொகையுடைய": 6561,
      "மாற்றியது": 6562,
      "என்பதை": 6563,
      "நிதி": 6564,
      "நிதிய": 6565,
      "நிர்வ": 6566,
      "பங்கை": 6567,
      "மெது": 6568,
      "மென்": 6569,
      "ான்மர்": 6570,
      "பெயர்": 6571,
      "வெளிக்": 6572,
      "extensive": 6573,
      "மக்களை": 6574,
      "மக்களில்": 6575,
      "1991ஆம்": 6576,
      "அறிவி": 6577,
      "அறிமுக": 6578,
      "கண்டது": 6579,
      "தீவுகள்": 6580,
      "செய்யும்": 6581,
      "செய்யப்பட்டன": 6582,
      "நடத்தப்படுகின்றன": 6583,
      "நடத்தவுள்ளது": 6584,
      "classes": 6585,
      "பாதுகாக்கப்பட்ட": 6586,
      "cause": 6587,
      "அளவில்": 6588,
      "சிறப்ப": 6589,
      "பதவி": 6590,
      "பதிலுக்கு": 6591,
      "ாமல்": 6592,
      "ப்படுவதில்லை": 6593,
      "காணப்படும்": 6594,
      "காணப்படுகின்றன": 6595,
      "தொலைத்": 6596,
      "வாழ்ந்து": 6597,
      "வாழ்விட": 6598,
      "நாடுகளுடன்": 6599,
      "நிறுவனங்கள்": 6600,
      "நிறுவனத்தின்": 6601,
      "நிறுவனமானது": 6602,
      "Machine": 6603,
      "cultural": 6604,
      "cultures": 6605,
      "maint": 6606,
      "சோழ": 6607,
      "சோவியத்": 6608,
      "பக்தி": 6609,
      "itions": 6610,
      "urbanisation": 6611,
      "இரண்டுமே": 6612,
      "அனைத்துப்": 6613,
      "ரீதியில்": 6614,
      "ரீதியிலான": 6615,
      "13th": 6616,
      "Buddha": 6617,
      "gradually": 6618,
      "trade": 6619,
      "இணைக்கப்பட்ட": 6620,
      "இணைப்புகள்": 6621,
      "மியான்மர்": 6622,
      "வரலாறு": 6623,
      "folk": 6624,
      "less": 6625,
      "மதியள": 6626,
      "supported": 6627,
      "northwest": 6628,
      "நகரமயமாக்க": 6629,
      "வருகின்றன": 6630,
      "Euras": 6631,
      "rising": 6632,
      "பேசுக": 6633,
      "பண்டைய": 6634,
      "பண்டைக்கால": 6635,
      "setting": 6636,
      "செலு": 6637,
      "வெற்றிய": 6638,
      "வெற்றிகர": 6639,
      "expans": 6640,
      "companies": 6641,
      "compromise": 6642,
      "இலக்கியமானது": 6643,
      "எண்ணிக்கையில்": 6644,
      "உறுப்பினர்": 6645,
      "2022இல்": 6646,
      "...": 6647,
      "New": 6648,
      "others": 6649,
      "ஆசியா": 6650,
      "ஏற்பட்டது": 6651,
      "சொற்ப": 6652,
      "பரிமாற்ற": 6653,
      "வகைப்": 6654,
      "வகையில்": 6655,
      "வகுப்பின": 6656,
      "கடற்கரைகளில்": 6657,
      "பொருட்களின்": 6658,
      "உயிரினங்கள்": 6659,
      "உள்ளடக்கியதாக": 6660,
      "1951ஆம்": 6661,
      "Modern": 6662,
      "Mohen": 6663,
      "basin": 6664,
      "eval": 6665,
      "ngth": 6666,
      "president": 6667,
      "உடன": 6668,
      "எதிர்பார்க்கப்படுகிறது": 6669,
      "விலை": 6670,
      "விலக்க": 6671,
      "விலங்கு": 6672,
      "முடிந்த": 6673,
      "காட்டுகின்றன": 6674,
      "marked": 6675,
      "கட்டுப்பாட்டில்": 6676,
      "கட்டுப்பாட்டை": 6677,
      "முசுலிம": 6678,
      "oppos": 6679,
      "ஆட்சியின்": 6680,
      "இனங்களாக": 6681,
      "armies": 6682,
      "office": 6683,
      "வாய்ப்பு": 6684,
      "நாயகக்": 6685,
      "பிராந்தியக்": 6686,
      "appear": 6687,
      "1857": 6688,
      "1858": 6689,
      "ographics": 6690,
      "forests": 6691,
      "கணக்கெடுப்பில்": 6692,
      "தசாப்தங்களின்": 6693,
      "signed": 6694,
      "Islands": 6695,
      "coll": 6696,
      "colonial": 6697,
      "gave": 6698,
      "merch": 6699,
      "natal": 6700,
      "தற்காக": 6701,
      "நடைமுறை": 6702,
      "நடைபெற்றது": 6703,
      "disputes": 6704,
      "தாங்கப்பட்ட": 6705,
      "2009ஆம்": 6706,
      "தெற்காசியாவ": 6707,
      "society": 6708,
      "generally": 6709,
      "mathematical": 6710,
      "விளைவாக": 6711,
      "மதிப்பிட": 6712,
      "விரிவடைய": 6713,
      "விரிவடைந்த": 6714,
      "Himalayan": 6715,
      "Janata": 6716,
      "drain": 6717,
      "obar": 6718,
      "schedul": 6719,
      "tribal": 6720,
      "அழிந்து": 6721,
      "எதிரான": 6722,
      "எதிர்த்த": 6723,
      "சதுப்பு": 6724,
      "ometres": 6725,
      "சுல்தானகம்": 6726,
      "தொடர்ப": 6727,
      "சைனம்": 6728,
      "script": 6729,
      "பெயரளவு": 6730,
      "உற்பத்திப்": 6731,
      "transmit": 6732,
      "influences": 6733,
      "Sikhism": 6734,
      "தேர்ந்தெடுக்கப்பட்ட": 6735,
      "Demographics": 6736,
      "breath": 6737,
      "crucial": 6738,
      "manuscri": 6739,
      "wana": 6740,
      "அழைக்கப்படும்": 6741,
      "ஆதிக்கம்": 6742,
      "ஆட்சிக்கு": 6743,
      "உண்மையில்": 6744,
      "கடுமைய": 6745,
      "கடுமையான": 6746,
      "ஜனதா": 6747,
      "ஜனநாயகக்": 6748,
      "மோக": 6749,
      "ஸ்டர்": 6750,
      "animals": 6751,
      "related": 6752,
      "remaining": 6753,
      "பாதிக்கப்பட்டுள்ளது": 6754,
      "விவகார": 6755,
      "mediately": 6756,
      "பொதுவானவையாக": 6757,
      "provided": 6758,
      "இராச்சியங்கள்": 6759,
      "marriages": 6760,
      "கூட்டணியானது": 6761,
      "உணவுப்": 6762,
      "அறிக்கையின்": 6763,
      "அறிக்கையானது": 6764,
      "இறக்குமதி": 6765,
      "originally": 6766,
      "திருமணங்கள்": 6767,
      "Arabian": 6768,
      "Bio": 6769,
      "அன்றிலிருந்து": 6770,
      "அணியப்படும்": 6771,
      "இன்றிய": 6772,
      "சக்தி": 6773,
      "தயாரி": 6774,
      "தற்கால": 6775,
      "தற்காப்பு": 6776,
      "பீடபூ": 6777,
      "status": 6778,
      "புரவல": 6779,
      "2017ஆம்": 6780,
      "summer": 6781,
      "endemic": 6782,
      "அமைப்புகளானவை": 6783,
      "தலைவராக": 6784,
      "உற்பத்தியானது": 6785,
      "சனநாயகக்": 6786,
      "Islamic": 6787,
      "அமெரிக்காவுக்கு": 6788,
      "வேலைப்பாடுகள": 6789,
      "ஏற்படுத்தியது": 6790,
      "பூர்வீக": 6791,
      "பூர்வீகமாக": 6792,
      "தென்கிழக்கு": 6793,
      "தென்கிழக்கா": 6794,
      "North": 6795,
      "average": 6796,
      "broad": 6797,
      "guard": 6798,
      "makes": 6799,
      "village": 6800,
      "ஆக்கியுள்ளது": 6801,
      "நுழை": 6802,
      "நுகர்வ": 6803,
      "independence": 6804,
      "strong": 6805,
      "strength": 6806,
      "struct": 6807,
      "organisation": 6808,
      "காடுகளின்": 6809,
      "liberal": 6810,
      "administration": 6811,
      "தாக்குதல்": 6812,
      "character": 6813,
      "பிரதிபல": 6814,
      "தொடுகற": 6815,
      "consists": 6816,
      "respon": 6817,
      "residents": 6818,
      "வெட்டப்பட்ட": 6819,
      "த்திற்கான": 6820,
      "முக்கியத்துவம்": 6821,
      "உறுதிப்படுத்த": 6822,
      "policies": 6823,
      "increasingly": 6824,
      "செலவீனமானது": 6825,
      "தமிழில்": 6826,
      "திறனில்": 6827,
      "currency": 6828,
      "employed": 6829,
      "தக்காணப்": 6830,
      "சீர்திருத்தம்": 6831,
      "Desert": 6832,
      "Aryan": 6833,
      "Assembly": 6834,
      "Civilisation": 6835,
      "Deccan": 6836,
      "Gupta": 6837,
      "Greek": 6838,
      "Gujar": 6839,
      "goods": 6840,
      "habit": 6841,
      "multi": 6842,
      "safe": 6843,
      "written": 6844,
      "wildlife": 6845,
      "அரப": 6846,
      "இக்கொள்க": 6847,
      "கிறித்த": 6848,
      "நலவாய": 6849,
      "மடங்காக": 6850,
      "introduced": 6851,
      "reached": 6852,
      "dishes": 6853,
      "இந்தோனே": 6854,
      "காற்றுகளை": 6855,
      "oulder": 6856,
      "க்குட்பட்ட": 6857,
      "வாழும்": 6858,
      "கொள்வனவு": 6859,
      "திசையில்": 6860,
      "self": 6861,
      "weapons": 6862,
      "சீக்கியம்": 6863,
      "முன்னேறிய": 6864,
      "பங்கெடுத்துள்ளது": 6865,
      "Maurya": 6866,
      "Constituent": 6867,
      "அதிகாரப்பூர்வ": 6868,
      "schools": 6869,
      "contributions": 6870,
      "தேர்ந்தெடுக்கப்படுகின்றனர்": 6871,
      "architecture": 6872,
      "விவசாயிகள்": 6873,
      "capita": 6874,
      "ஆக்கிரமித்த": 6875,
      "practices": 6876,
      "அனுமதியள": 6877,
      "அலுவல்": 6878,
      "ஆரம்பித்தது": 6879,
      "Ashoka": 6880,
      "Bangladesh": 6881,
      "Early": 6882,
      "Front": 6883,
      "Middle": 6884,
      "Myanmar": 6885,
      "Nicobar": 6886,
      "Pallav": 6887,
      "Treaty": 6888,
      "daro": 6889,
      "eignty": 6890,
      "kilometres": 6891,
      "kameez": 6892,
      "laws": 6893,
      "margins": 6894,
      "mammals": 6895,
      "sovereignty": 6896,
      "sector": 6897,
      "sometimes": 6898,
      "vict": 6899,
      "அல்லாத": 6900,
      "ஊட்டச்ச": 6901,
      "ஒவ்வொரு": 6902,
      "கப்பல்கள்": 6903,
      "கடைசி": 6904,
      "சல்வா": 6905,
      "சகாப்த": 6906,
      "ஜவுளி": 6907,
      "நிக்கோபார்": 6908,
      "மும்பை": 6909,
      "விகித": 6910,
      "ஹிந்து": 6911,
      "துடுப்பாட்ட": 6912,
      "துல்லிய": 6913,
      "recogn": 6914,
      "revenues": 6915,
      "discrimin": 6916,
      "International": 6917,
      "Indonesia": 6918,
      "பொழுது": 6919,
      "பொறியியல்": 6920,
      "வாழ்க்கை": 6921,
      "தாய்லாந்து": 6922,
      "chosen": 6923,
      "churidars": 6924,
      "சுவையுடைய": 6925,
      "bellion": 6926,
      "பிரச்சின": 6927,
      "devotion": 6928,
      "வரதட்சணை": 6929,
      "கோடியிலிருந்து": 6930,
      "protected": 6931,
      "வருவாய்களை": 6932,
      "நிர்வகி": 6933,
      "பேசுகின்றனர்": 6934,
      "Mohenjo": 6935,
      "scheduled": 6936,
      "transmitted": 6937,
      "ஆக்கிரமித்துள்ளது": 6938,
      "140": 6939,
      "PI": 6940,
      "SI": 6941,
      "mand": 6942,
      "2019": 6943,
      "imper": 6944,
      "1966": 6945,
      "1948": 6946,
      "imperial": 6947,
      "ंतर": 6948,
      "ंजन": 6949,
      "अर्": 6950,
      "अनि": 6951,
      "असम": 6952,
      "अहिं": 6953,
      "अक्ट": 6954,
      "अच्छ": 6955,
      "आई": 6956,
      "आर": 6957,
      "आते": 6958,
      "आकर्म": 6959,
      "ईद": 6960,
      "ईस्ट": 6961,
      "उठ": 6962,
      "उभरा": 6963,
      "ऊपर": 6964,
      "ऑफ": 6965,
      "ऑपरे": 6966,
      "कल": 6967,
      "कमा": 6968,
      "कंप": 6969,
      "खन": 6970,
      "खर": 6971,
      "खे": 6972,
      "खंड": 6973,
      "गै": 6974,
      "ग्": 6975,
      "गों": 6976,
      "गढ़": 6977,
      "ग्री": 6978,
      "चर": 6979,
      "चौ": 6980,
      "छह": 6981,
      "जु": 6982,
      "जन्": 6983,
      "जैन": 6984,
      "झे": 6985,
      "झार": 6986,
      "टना": 6987,
      "ठक": 6988,
      "ठार": 6989,
      "डि": 6990,
      "डु": 6991,
      "डे": 6992,
      "डिया": 6993,
      "तब": 6994,
      "तार": 6995,
      "तरा": 6996,
      "थल": 6997,
      "दिक": 6998,
      "दियों": 6999,
      "नम": 7000,
      "नर": 7001,
      "नो": 7002,
      "नार": 7003,
      "नियों": 7004,
      "नृत्य": 7005,
      "नदियों": 7006,
      "पद": 7007,
      "पो": 7008,
      "पक्ष": 7009,
      "पड़ा": 7010,
      "पठार": 7011,
      "फु": 7012,
      "बद": 7013,
      "बल": 7014,
      "बहा": 7015,
      "बियों": 7016,
      "बडी": 7017,
      "बन्ध": 7018,
      "भो": 7019,
      "भरी": 7020,
      "मं": 7021,
      "मल": 7022,
      "मह": 7023,
      "मार": 7024,
      "मना": 7025,
      "मही": 7026,
      "मले": 7027,
      "यन": 7028,
      "यर": 7029,
      "यें": 7030,
      "यद्य": 7031,
      "यपालिका": 7032,
      "रों": 7033,
      "रिया": 7034,
      "रखा": 7035,
      "रत्न": 7036,
      "लू": 7037,
      "लिक": 7038,
      "वृद्ध": 7039,
      "श्र": 7040,
      "शिया": 7041,
      "शिय": 7042,
      "श्रे": 7043,
      "शक्त": 7044,
      "शैली": 7045,
      "सौ": 7046,
      "सर्": 7047,
      "सों": 7048,
      "सभी": 7049,
      "सदी": 7050,
      "समान": 7051,
      "सशस्त्र": 7052,
      "हती": 7053,
      "हार्": 7054,
      "हत्या": 7055,
      "ाफ": 7056,
      "ूत": 7057,
      "ूह": 7058,
      "ूबर": 7059,
      "्ष": 7060,
      "१७": 7061,
      "२५": 7062,
      "२६": 7063,
      "५२": 7064,
      "्रो": 7065,
      "काज": 7066,
      "ोंने": 7067,
      "स्ति": 7068,
      "प्रसार": 7069,
      "प्रदेशों": 7070,
      "प्रगति": 7071,
      "नेट": 7072,
      "वित": 7073,
      "विध": 7074,
      "विशा": 7075,
      "विमान": 7076,
      "विद्रो": 7077,
      "थान": 7078,
      "सामान": 7079,
      "साक्षर": 7080,
      "परि": 7081,
      "करे": 7082,
      "करो": 7083,
      "करवा": 7084,
      "त्री": 7085,
      "जाने": 7086,
      "राजभाषा": 7087,
      "राजस्थान": 7088,
      "वाम": 7089,
      "ड़ियाँ": 7090,
      "कारी": 7091,
      "ियो": 7092,
      "पाई": 7093,
      "पाल": 7094,
      "ित्य": 7095,
      "लाल": 7096,
      "भारतीयों": 7097,
      "निवास": 7098,
      "समूह": 7099,
      "्यात": 7100,
      "शामिल": 7101,
      "शास्त्र": 7102,
      "तरिक": 7103,
      "वर्षा": 7104,
      "दीव": 7105,
      "होने": 7106,
      "मिश्र": 7107,
      "जिन्ह": 7108,
      "मुद्र": 7109,
      "नीति": 7110,
      "सरे": 7111,
      "लिख": 7112,
      "लिस": 7113,
      "१९४७": 7114,
      "प्ति": 7115,
      "मानव": 7116,
      "सरकारों": 7117,
      "क्षेत्रों": 7118,
      "जिसकी": 7119,
      "जिसने": 7120,
      "बहुमूल": 7121,
      "पुन": 7122,
      "पुड़ा": 7123,
      "पुलिस": 7124,
      "अपेक्षा": 7125,
      "सीमा": 7126,
      "सारी": 7127,
      "धर्मों": 7128,
      "मील": 7129,
      "मीणा": 7130,
      "ंडर": 7131,
      "बनाया": 7132,
      "चुकी": 7133,
      "निर्भर": 7134,
      "ज़्यादा": 7135,
      "सेनाओं": 7136,
      "बढ़ा": 7137,
      "बढ़ने": 7138,
      "महासागर": 7139,
      "रुप": 7140,
      "केंद्रीय": 7141,
      "स्थल": 7142,
      "एशन": 7143,
      "क्रय": 7144,
      "क्रि": 7145,
      "चाई": 7146,
      "पहली": 7147,
      "मनमोहन": 7148,
      "मध्यम": 7149,
      "सूचना": 7150,
      "प्राचीनतम": 7151,
      "गुट": 7152,
      "न्यायपालिका": 7153,
      "मोर्": 7154,
      "मोदी": 7155,
      "साम्राज्यों": 7156,
      "लोकसभा": 7157,
      "सम्पूर्ण": 7158,
      "पार्टियों": 7159,
      "उनका": 7160,
      "स्टाफ": 7161,
      "स्थानीय": 7162,
      "अवधि": 7163,
      "बनने": 7164,
      "स्थापित": 7165,
      "सकता": 7166,
      "सकते": 7167,
      "संसदीय": 7168,
      "१९९१": 7169,
      "विकासशील": 7170,
      "इंडो": 7171,
      "दर्शन": 7172,
      "राजनीति": 7173,
      "अन्तर्": 7174,
      "अन्ततः": 7175,
      "घोषित": 7176,
      "नियु": 7177,
      "नियंत्र": 7178,
      "पंथी": 7179,
      "२०१४": 7180,
      "केन्द्रशासित": 7181,
      "कामकाज": 7182,
      "सेवाओं": 7183,
      "प्रारम्भिक": 7184,
      "आंदोलन": 7185,
      "आंतरिक": 7186,
      "आगे": 7187,
      "ऊँचाई": 7188,
      "पहाड़ी": 7189,
      "बैठक": 7190,
      "वैदिक": 7191,
      "सतपुड़ा": 7192,
      "विज्ञान": 7193,
      "वर्णन": 7194,
      "१९८४": 7195,
      "प्रभावशाली": 7196,
      "घाटी": 7197,
      "चलाया": 7198,
      "छोड़कर": 7199,
      "बंगाल": 7200,
      "प्रचलित": 7201,
      "मालदीव": 7202,
      "साहित्य": 7203,
      "हिस्सा": 7204,
      "तीसरी": 7205,
      "पुर्तगाली": 7206,
      "लगातार": 7207,
      "अभियान": 7208,
      "अगस्त": 7209,
      "आसपास": 7210,
      "पत्ति": 7211,
      "प्रकाश": 7212,
      "नेहरू": 7213,
      "विरोध": 7214,
      "भागीदारी": 7215,
      "वास्तविक": 7216,
      "समझौ": 7217,
      "गुजरात": 7218,
      "लोकतांत्रिक": 7219,
      "इस्लाम": 7220,
      "पुरुषों": 7221,
      "अक्टूबर": 7222,
      "आकर्मण": 7223,
      "ऑपरेशन": 7224,
      "कमांडर": 7225,
      "गैर": 7226,
      "गोंड": 7227,
      "फुट": 7228,
      "यद्यपि": 7229,
      "वृद्धि": 7230,
      "सौहार्": 7231,
      "विशाल": 7232,
      "विद्रोह": 7233,
      "साक्षरता": 7234,
      "बहुमूल्य": 7235,
      "सौहार्द": 7236,
      "\")": 7237,
      "%).": 7238,
      "([": 7239,
      "))": 7240,
      "):": 7241,
      ",\"": 7242,
      "05": 7243,
      "094": 7244,
      "1st": 7245,
      "230": 7246,
      "34": 7247,
      "3ஆம்": 7248,
      "380": 7249,
      "421": 7250,
      "54": 7251,
      "57": 7252,
      "546": 7253,
      "562": 7254,
      "6th": 7255,
      "6ஆம்": 7256,
      "601": 7257,
      "663": 7258,
      "71": 7259,
      "73": 7260,
      "79": 7261,
      "7th": 7262,
      "700": 7263,
      "740": 7264,
      "731": 7265,
      "85": 7266,
      "86": 7267,
      "87": 7268,
      "800": 7269,
      "97": 7270,
      "940": 7271,
      "Aj": 7272,
      "Ach": 7273,
      "Agency": 7274,
      "BS": 7275,
      "Ba": 7276,
      "Bal": 7277,
      "Bet": 7278,
      "Cl": 7279,
      "Cup": 7280,
      "Cav": 7281,
      "Clim": 7282,
      "Carnat": 7283,
      "Culture": 7284,
      "Cricket": 7285,
      "Dis": 7286,
      "Dom": 7287,
      "Dire": 7288,
      "Eth": 7289,
      "Ety": 7290,
      "Fol": 7291,
      "Fut": 7292,
      "Go": 7293,
      "Gr": 7294,
      "Gen": 7295,
      "Gang": 7296,
      "Gond": 7297,
      "HZ": 7298,
      "He": 7299,
      "Hist": 7300,
      "II": 7301,
      "Im": 7302,
      "Jaw": 7303,
      "Jhar": 7304,
      "Jamm": 7305,
      "June": 7306,
      "Ke": 7307,
      "Ko": 7308,
      "Keral": 7309,
      "Kaver": 7310,
      "Li": 7311,
      "Laksh": 7312,
      "Man": 7313,
      "Min": 7314,
      "Mum": 7315,
      "Ni": 7316,
      "No": 7317,
      "Nat": 7318,
      "Network": 7319,
      "Oc": 7320,
      "Of": 7321,
      "Or": 7322,
      "Over": 7323,
      "Old": 7324,
      "Ocean": 7325,
      "PP": 7326,
      "Pl": 7327,
      "Pu": 7328,
      "Par": 7329,
      "Part": 7330,
      "President": 7331,
      "Sin": 7332,
      "Sim": 7333,
      "Sab": 7334,
      "Sant": 7335,
      "Some": 7336,
      "Sultanate": 7337,
      "Sarn": 7338,
      "Ti": 7339,
      "Ty": 7340,
      "Ter": 7341,
      "Tha": 7342,
      "Ur": 7343,
      "Vis": 7344,
      "Vaj": 7345,
      "Vedic": 7346,
      "We": 7347,
      "Yaksh": 7348,
      "Zoro": 7349,
      "aem": 7350,
      "aim": 7351,
      "aism": 7352,
      "ahar": 7353,
      "ba": 7354,
      "bʱ": 7355,
      "bul": 7356,
      "bra": 7357,
      "bour": 7358,
      "buc": 7359,
      "brough": 7360,
      "bai": 7361,
      "bron": 7362,
      "bably": 7363,
      "cin": 7364,
      "cat": 7365,
      "cit": 7366,
      "cing": 7367,
      "cil": 7368,
      "ction": 7369,
      "care": 7370,
      "cover": 7371,
      "city": 7372,
      "cak": 7373,
      "civ": 7374,
      "cere": 7375,
      "cris": 7376,
      "cust": 7377,
      "ctions": 7378,
      "creasing": 7379,
      "da": 7380,
      "dy": 7381,
      "dre": 7382,
      "dent": 7383,
      "dest": 7384,
      "dry": 7385,
      "dates": 7386,
      "data": 7387,
      "ee": 7388,
      "ew": 7389,
      "eigh": 7390,
      "eight": 7391,
      "eously": 7392,
      "either": 7393,
      "fr": 7394,
      "fil": 7395,
      "ful": 7396,
      "fest": 7397,
      "flo": 7398,
      "fare": 7399,
      "fac": 7400,
      "foun": 7401,
      "fish": 7402,
      "flow": 7403,
      "fav": 7404,
      "farm": 7405,
      "flower": 7406,
      "fash": 7407,
      "gl": 7408,
      "gin": 7409,
      "gon": 7410,
      "gro": 7411,
      "gig": 7412,
      "give": 7413,
      "govern": 7414,
      "gods": 7415,
      "gained": 7416,
      "hā": 7417,
      "hal": 7418,
      "hor": 7419,
      "ham": 7420,
      "hol": 7421,
      "hun": 7422,
      "hous": 7423,
      "idu": 7424,
      "iff": 7425,
      "ified": 7426,
      "jur": 7427,
      "jay": 7428,
      "jack": 7429,
      "kk": 7430,
      "kn": 7431,
      "kur": 7432,
      "kill": 7433,
      "kime": 7434,
      "lal": 7435,
      "las": 7436,
      "lic": 7437,
      "leng": 7438,
      "lared": 7439,
      "lines": 7440,
      "ms": 7441,
      "mat": 7442,
      "may": 7443,
      "mass": 7444,
      "molog": 7445,
      "males": 7446,
      "mns": 7447,
      "nin": 7448,
      "nar": 7449,
      "nic": 7450,
      "next": 7451,
      "network": 7452,
      "oth": 7453,
      "oor": 7454,
      "oli": 7455,
      "och": 7456,
      "ove": 7457,
      "pa": 7458,
      "pi": 7459,
      "pp": 7460,
      "pil": 7461,
      "pically": 7462,
      "pants": 7463,
      "ptions": 7464,
      "paren": 7465,
      "push": 7466,
      "rical": 7467,
      "ranges": 7468,
      "she": 7469,
      "sol": 7470,
      "saw": 7471,
      "tand": 7472,
      "tun": 7473,
      "ties": 7474,
      "tection": 7475,
      "treat": 7476,
      "text": 7477,
      "tled": 7478,
      "table": 7479,
      "usu": 7480,
      "ude": 7481,
      "ufact": 7482,
      "va": 7483,
      "vas": 7484,
      "ves": 7485,
      "vary": 7486,
      "valley": 7487,
      "wing": 7488,
      "wet": 7489,
      "wel": 7490,
      "xed": 7491,
      "zed": 7492,
      "zes": 7493,
      "ət": 7494,
      "ɦɪ": 7495,
      "ɾət": 7496,
      "ʊˈ": 7497,
      "ˈbʱ": 7498,
      "ία": 7499,
      "ός": 7500,
      "அஜ": 7501,
      "அட்ட": 7502,
      "அக்": 7503,
      "அலை": 7504,
      "அட்ச": 7505,
      "அடுத்த": 7506,
      "அகி": 7507,
      "அப்பா": 7508,
      "அதில்": 7509,
      "அவ்": 7510,
      "அதிரு": 7511,
      "அவருக்குப்": 7512,
      "ஆர": 7513,
      "ஆக்": 7514,
      "ஆந்திர": 7515,
      "ஆவது": 7516,
      "ஆபரண": 7517,
      "இண்ட": 7518,
      "இடு": 7519,
      "இப்பு": 7520,
      "இச்ச": 7521,
      "இவற்ற": 7522,
      "இளவ": 7523,
      "இக்கி": 7524,
      "இளம்": 7525,
      "இவற்றில்": 7526,
      "இதிகா": 7527,
      "ஈர்": 7528,
      "ஈடு": 7529,
      "உத": 7530,
      "உப": 7531,
      "உந்த": 7532,
      "உத்தி": 7533,
      "ஊற": 7534,
      "ஊழ": 7535,
      "ஊர்": 7536,
      "எட்டு": 7537,
      "எந்திர": 7538,
      "ஏழ்": 7539,
      "ஏழு": 7540,
      "ஒழ": 7541,
      "ஒடு": 7542,
      "ஒலி": 7543,
      "ஒளி": 7544,
      "ஒழு": 7545,
      "ஒரே": 7546,
      "ஓட": 7547,
      "ஓர": 7548,
      "கௌ": 7549,
      "கும்": 7550,
      "கான": 7551,
      "குக": 7552,
      "கச்ச": 7553,
      "கமும்": 7554,
      "கிகா": 7555,
      "சட": 7556,
      "சரி": 7557,
      "சேர": 7558,
      "சர்வ": 7559,
      "சங்கில": 7560,
      "ஜ்": 7561,
      "ஜவக": 7562,
      "ஞான": 7563,
      "டா": 7564,
      "டைக்": 7565,
      "டேற்ற": 7566,
      "ண்க": 7567,
      "ணிக்": 7568,
      "ணாம": 7569,
      "ணக்கான": 7570,
      "தக்க": 7571,
      "தரு": 7572,
      "தைய": 7573,
      "தள்ள": 7574,
      "தச்ச": 7575,
      "தமான": 7576,
      "திலிருந்து": 7577,
      "தாவது": 7578,
      "தட்டின்": 7579,
      "தமிய": 7580,
      "தல்கள": 7581,
      "தட்ப": 7582,
      "நிக": 7583,
      "நின": 7584,
      "நிட": 7585,
      "நராக": 7586,
      "நம்ப": 7587,
      "னிய": 7588,
      "னின்": 7589,
      "பை": 7590,
      "பது": 7591,
      "பன்": 7592,
      "பக்க": 7593,
      "பில்": 7594,
      "பசு": 7595,
      "படைய": 7596,
      "பந்து": 7597,
      "படிய": 7598,
      "பணி": 7599,
      "பவர்கள": 7600,
      "மம்": 7601,
      "மரா": 7602,
      "மறு": 7603,
      "மசா": 7604,
      "மன்ன": 7605,
      "மிருந்து": 7606,
      "மடைந்த": 7607,
      "மட்டை": 7608,
      "மடித்து": 7609,
      "மதச்ச": 7610,
      "யி": 7611,
      "யோ": 7612,
      "யில": 7613,
      "ரொ": 7614,
      "ரத்த": 7615,
      "ரான": 7616,
      "ரக்": 7617,
      "ரங்களில்": 7618,
      "ரியாக": 7619,
      "றும்": 7620,
      "றைக்": 7621,
      "ல்க": 7622,
      "லவில்லை": 7623,
      "லத்தீ": 7624,
      "ளு": 7625,
      "ளிர": 7626,
      "ளானது": 7627,
      "ழையா": 7628,
      "ழ்ச்ச": 7629,
      "வண்ட": 7630,
      "வனை": 7631,
      "வுக்குப்": 7632,
      "வரால்": 7633,
      "வல்லி": 7634,
      "ஷா": 7635,
      "ஷ்": 7636,
      "ாட்சிய": 7637,
      "ாமையை": 7638,
      "ிற்": 7639,
      "ித்து": 7640,
      "ீத": 7641,
      "ீகா": 7642,
      "ுங்கு": 7643,
      "ூர": 7644,
      "ூசி": 7645,
      "ூரின்": 7646,
      "ெழு": 7647,
      "ெஞ்சதாரோ": 7648,
      "ேசியா": 7649,
      "ோரா": 7650,
      "ோடிய": 7651,
      "ோலிய": 7652,
      "ோஸ்": 7653,
      "ோரின்": 7654,
      "ோரை": 7655,
      "்மின்": 7656,
      "ంజ": 7657,
      "ంతి": 7658,
      "ంకా": 7659,
      "ంకాగా": 7660,
      "ంథాలు": 7661,
      "అర": 7662,
      "అల": 7663,
      "అస్": 7664,
      "అది": 7665,
      "అన్న": 7666,
      "అల్": 7667,
      "అంది": 7668,
      "అరు": 7669,
      "అక్ష": 7670,
      "అవర": 7671,
      "అద్ద": 7672,
      "అలం": 7673,
      "అధి": 7674,
      "అంద": 7675,
      "అఖండ": 7676,
      "అమల": 7677,
      "అరే": 7678,
      "అంటే": 7679,
      "అంక": 7680,
      "అధీన": 7681,
      "అశో": 7682,
      "ఆగ": 7683,
      "ఆలో": 7684,
      "ఆవి": 7685,
      "ఆతి": 7686,
      "ఆక్ర": 7687,
      "ఆయా": 7688,
      "ఆనా": 7689,
      "ఆడు": 7690,
      "ఆధ్య": 7691,
      "ఆదాయ": 7692,
      "ఆగ్": 7693,
      "ఆవల": 7694,
      "ఆంగ్ల": 7695,
      "ఆణి": 7696,
      "ఆచార": 7697,
      "ఆర్య": 7698,
      "ఆక్షరాస్యత": 7699,
      "ఆటలు": 7700,
      "ఆనం": 7701,
      "ఆలస్య": 7702,
      "ఆదేశాలు": 7703,
      "ఇయ": 7704,
      "ఇన్": 7705,
      "ఇను": 7706,
      "ఇము": 7707,
      "ఇతి": 7708,
      "ఇస్త": 7709,
      "ఇంది": 7710,
      "ఇతరు": 7711,
      "ఇందు": 7712,
      "ఇప్పటికీ": 7713,
      "ఇతను": 7714,
      "ఇంటి": 7715,
      "ఇచ్చే": 7716,
      "ఇంకా": 7717,
      "ఉర్": 7718,
      "ఉద్": 7719,
      "ఉపా": 7720,
      "ఉండి": 7721,
      "ఉదా": 7722,
      "ఉండు": 7723,
      "ఉష్ణ": 7724,
      "ఉనిక": 7725,
      "ఋతు": 7726,
      "ఎమ": 7727,
      "ఎదు": 7728,
      "ఎగు": 7729,
      "ఎల్ల": 7730,
      "ఎంతో": 7731,
      "ఎగువ": 7732,
      "ఏక": 7733,
      "ఏడ": 7734,
      "ఏడు": 7735,
      "ఏటా": 7736,
      "ఏకత్వ": 7737,
      "ఏళ్ళ": 7738,
      "ఐదు": 7739,
      "ఒక్": 7740,
      "ఒరి": 7741,
      "ఒలిం": 7742,
      "ఒడిస్": 7743,
      "ఓడ": 7744,
      "ఓటర్": 7745,
      "ఔట్‌": 7746,
      "కిం": 7747,
      "కర్": 7748,
      "కని": 7749,
      "కాయ": 7750,
      "కరా": 7751,
      "కము": 7752,
      "కంట": 7753,
      "కార్": 7754,
      "కిత": 7755,
      "కష్ట": 7756,
      "కట్ట": 7757,
      "కమైన": 7758,
      "కమీ": 7759,
      "క్యం": 7760,
      "కమల": 7761,
      "కమేన": 7762,
      "కెట్": 7763,
      "కర్‌": 7764,
      "కత్తా": 7765,
      "కానీ": 7766,
      "కవరీ": 7767,
      "ఖిక": 7768,
      "ఖగో": 7769,
      "ఖర్చు": 7770,
      "ఖాతం": 7771,
      "గృ": 7772,
      "గె": 7773,
      "గతి": 7774,
      "గల్": 7775,
      "గించ": 7776,
      "గులు": 7777,
      "గింది": 7778,
      "గలి": 7779,
      "గిన్న": 7780,
      "గనులు": 7781,
      "గౌర": 7782,
      "ఘన": 7783,
      "ఘు": 7784,
      "ఘిక": 7785,
      "ఘట్ట": 7786,
      "ఘోర": 7787,
      "ఘర్షణ": 7788,
      "చా": 7789,
      "చో": 7790,
      "చ్": 7791,
      "చర్": 7792,
      "చము": 7793,
      "చిన": 7794,
      "చులు": 7795,
      "చింది": 7796,
      "చిత": 7797,
      "చక్ర": 7798,
      "చట్ట": 7799,
      "ఛాయుత": 7800,
      "జా": 7801,
      "జె": 7802,
      "జై": 7803,
      "జౌ": 7804,
      "జ్ర": 7805,
      "జాన": 7806,
      "జిన": 7807,
      "జంత": 7808,
      "జైన": 7809,
      "జపా": 7810,
      "జిత": 7811,
      "జ్‌": 7812,
      "జెండ": 7813,
      "జనాలు": 7814,
      "జిల్ల": 7815,
      "జవహ": 7816,
      "జెట్": 7817,
      "ఞాన": 7818,
      "టన": 7819,
      "టో": 7820,
      "టస్": 7821,
      "టండ": 7822,
      "టిన": 7823,
      "టాయి": 7824,
      "టంలో": 7825,
      "టచే": 7826,
      "ట్యం": 7827,
      "ట్రా": 7828,
      "టంతో": 7829,
      "టమూ": 7830,
      "ఠీ": 7831,
      "డ్ర": 7832,
      "డ్య": 7833,
      "డాల": 7834,
      "డాలు": 7835,
      "డింది": 7836,
      "డ్చ": 7837,
      "డ్ల": 7838,
      "డ్‌": 7839,
      "డానికి": 7840,
      "డించింది": 7841,
      "డబు": 7842,
      "డమ్": 7843,
      "ఢవి": 7844,
      "ణే": 7845,
      "ణిక": 7846,
      "ణాలు": 7847,
      "ణించ": 7848,
      "ణంతో": 7849,
      "ణదారులు": 7850,
      "ణుల": 7851,
      "తార": 7852,
      "తాయ": 7853,
      "తాన": 7854,
      "తరా": 7855,
      "తాయి": 7856,
      "తదు": 7857,
      "తక్కు": 7858,
      "తలం": 7859,
      "తగ్": 7860,
      "తమై": 7861,
      "తమ్య": 7862,
      "తాలతో": 7863,
      "తదేశపు": 7864,
      "థన": 7865,
      "థమ": 7866,
      "థి": 7867,
      "థాత": 7868,
      "థాన": 7869,
      "థార్": 7870,
      "దశ": 7871,
      "దస": 7872,
      "దూ": 7873,
      "దృ": 7874,
      "దాన": 7875,
      "దీయ": 7876,
      "దైన": 7877,
      "దారు": 7878,
      "దాబ": 7879,
      "దీన": 7880,
      "దగ్": 7881,
      "దీర్": 7882,
      "దగినది": 7883,
      "దక్కను": 7884,
      "ధం": 7885,
      "ధర": 7886,
      "ధు": 7887,
      "ధాల": 7888,
      "ధిన": 7889,
      "ధరి": 7890,
      "ధనా": 7891,
      "ధిల్ల": 7892,
      "నృ": 7893,
      "నై": 7894,
      "నో": 7895,
      "నలు": 7896,
      "న్య": 7897,
      "నాల": 7898,
      "నర్": 7899,
      "నవి": 7900,
      "నంలో": 7901,
      "నసా": 7902,
      "నికి": 7903,
      "నడు": 7904,
      "ననీ": 7905,
      "నాలతో": 7906,
      "నవచ్చు": 7907,
      "నబడిన": 7908,
      "నదులు": 7909,
      "నప్పటికినీ": 7910,
      "పక": 7911,
      "పబ": 7912,
      "పి": 7913,
      "పస్": 7914,
      "పది": 7915,
      "పిన": 7916,
      "పింది": 7917,
      "పంలో": 7918,
      "పూడ": 7919,
      "పిత": 7920,
      "పరాజ": 7921,
      "పచ్చ": 7922,
      "పలి": 7923,
      "పట్": 7924,
      "పించింది": 7925,
      "పకళ": 7926,
      "పటం": 7927,
      "పించే": 7928,
      "పిక్": 7929,
      "పస్ర": 7930,
      "పర్ష": 7931,
      "పబడింది": 7932,
      "పవనాలు": 7933,
      "పౌర": 7934,
      "పండ్": 7935,
      "పత్యం": 7936,
      "పటంలో": 7937,
      "ఫు": 7938,
      "ఫ్ర": 7939,
      "ఫర్": 7940,
      "ఫరా": 7941,
      "ఫ్ట": 7942,
      "ఫలం": 7943,
      "ఫిక్": 7944,
      "బల": 7945,
      "బై": 7946,
      "బొ": 7947,
      "బాల": 7948,
      "బండ": 7949,
      "బంగా": 7950,
      "బడ్": 7951,
      "బిన్న": 7952,
      "బాబ్": 7953,
      "బ్యా": 7954,
      "బద్ధం": 7955,
      "భ్య": 7956,
      "భిం": 7957,
      "భంగ": 7958,
      "భదాయ": 7959,
      "భజిత": 7960,
      "మయ": 7961,
      "మో": 7962,
      "మార": 7963,
      "మస్": 7964,
      "మిం": 7965,
      "మాల": 7966,
      "మాయ": 7967,
      "మరా": 7968,
      "మిన": 7969,
      "మంత": 7970,
      "మంలో": 7971,
      "మలి": 7972,
      "మతం": 7973,
      "మికి": 7974,
      "మ్‌": 7975,
      "మాల్": 7976,
      "మిత్ర": 7977,
      "మణి": 7978,
      "మంచి": 7979,
      "మసాల": 7980,
      "మద్రా": 7981,
      "మంజ": 7982,
      "యి": 7983,
      "యూ": 7984,
      "యస్": 7985,
      "యము": 7986,
      "యిన": 7987,
      "యులు": 7988,
      "యంలో": 7989,
      "యంతో": 7990,
      "యనులు": 7991,
      "యథాత": 7992,
      "రొ": 7993,
      "ర‌": 7994,
      "రలో": 7995,
      "రాలు": 7996,
      "రకు": 7997,
      "రాయ": 7998,
      "రము": 7999,
      "రద్": 8000,
      "రత్": 8001,
      "రంగా": 8002,
      "రక్ష": 8003,
      "రమైన": 8004,
      "రవే": 8005,
      "రమే": 8006,
      "రవీ": 8007,
      "రించిన": 8008,
      "రక్షరాస్యత": 8009,
      "రారి": 8010,
      "రాతి": 8011,
      "రతాయ": 8012,
      "రబద్ధం": 8013,
      "లిక": 8014,
      "లిన": 8015,
      "లైన": 8016,
      "లకాల": 8017,
      "లబె": 8018,
      "లపై": 8019,
      "లహా": 8020,
      "లమానం": 8021,
      "లఘు": 8022,
      "లబై": 8023,
      "లభ్య": 8024,
      "ళల": 8025,
      "ళు": 8026,
      "ళులు": 8027,
      "ళూరు": 8028,
      "ళవిం": 8029,
      "వత": 8030,
      "వూ": 8031,
      "వ‌": 8032,
      "వలి": 8033,
      "వస్తు": 8034,
      "వద్ద": 8035,
      "వమి": 8036,
      "వలను": 8037,
      "వస్థానంలో": 8038,
      "వనాథ": 8039,
      "వజ్ర": 8040,
      "వన్య": 8041,
      "శే": 8042,
      "శాల": 8043,
      "శక్": 8044,
      "శంలో": 8045,
      "శించే": 8046,
      "శిల్": 8047,
      "శక్తి": 8048,
      "శాతం": 8049,
      "శరద్": 8050,
      "షే": 8051,
      "షన్": 8052,
      "షాలు": 8053,
      "షులు": 8054,
      "షకాహార": 8055,
      "సొ": 8056,
      "సాలు": 8057,
      "సగా": 8058,
      "సాయ": 8059,
      "సిన": 8060,
      "సల్": 8061,
      "సభా": 8062,
      "సవా": 8063,
      "సత్య": 8064,
      "సమి": 8065,
      "సరం": 8066,
      "సీలు": 8067,
      "సత్తా": 8068,
      "సాయుత": 8069,
      "సలహా": 8070,
      "హె": 8071,
      "హొ": 8072,
      "హ్": 8073,
      "హిం": 8074,
      "హర్": 8075,
      "హాలు": 8076,
      "హాయ": 8077,
      "హస్త": 8078,
      "హపు": 8079,
      "హక్కు": 8080,
      "హ్మ": 8081,
      "హ్వ": 8082,
      "ాలో": 8083,
      "ాము": 8084,
      "ాదు": 8085,
      "ాంబ": 8086,
      "ాశ్ర": 8087,
      "ాలోయ": 8088,
      "ానిస్తాన్": 8089,
      "ాదాయంలో": 8090,
      "ాంతి": 8091,
      "ాడ్‌": 8092,
      "ాధిన": 8093,
      "ాపక": 8094,
      "ిని": 8095,
      "ిచె": 8096,
      "ిశ్ర": 8097,
      "ిలే": 8098,
      "ిరంగ": 8099,
      "ిద్ధి": 8100,
      "ిళ్ళ": 8101,
      "ిటన్": 8102,
      "ియనులు": 8103,
      "ీకృ": 8104,
      "ీకరణ": 8105,
      "ీకులు": 8106,
      "ుని": 8107,
      "ును": 8108,
      "ుల్": 8109,
      "ువు": 8110,
      "ుర్య": 8111,
      "ుపూర్వ": 8112,
      "ుడైన": 8113,
      "ునిక": 8114,
      "ుళూరు": 8115,
      "ూలా": 8116,
      "ూపం": 8117,
      "ృతంగా": 8118,
      "ెస్": 8119,
      "ెర్": 8120,
      "ెన్న": 8121,
      "ెనే": 8122,
      "ెడ్": 8123,
      "ెల్లో": 8124,
      "ెక్కను": 8125,
      "ేత": 8126,
      "ేష్": 8127,
      "ేకమైన": 8128,
      "ేననీ": 8129,
      "ేయులు": 8130,
      "ైక": 8131,
      "ైస్త": 8132,
      "ైపో": 8133,
      "ైవరు": 8134,
      "ోత్": 8135,
      "ోంది": 8136,
      "ోక్ష": 8137,
      "ోద్య": 8138,
      "ోత్రి": 8139,
      "ోధాల": 8140,
      "్లో": 8141,
      "్తదేశపు": 8142,
      "‌కు": 8143,
      "‌టిక": 8144,
      "‌తంలో": 8145,
      "‌ఫర్": 8146,
      "‌వ‌": 8147,
      "்திய": 8148,
      "ியற்": 8149,
      "ியலா": 8150,
      "ியுள்ளன": 8151,
      "ம்சம": 8152,
      "துமை": 8153,
      "துப்பா": 8154,
      "thm": 8155,
      "thic": 8156,
      "ன்மை": 8157,
      "anat": 8158,
      "aning": 8159,
      "ல்வெள": 8160,
      "ந்தோ": 8161,
      "ந்தனர்": 8162,
      "ந்தனை": 8163,
      "்டோ": 8164,
      "inal": 8165,
      "inform": 8166,
      "inno": 8167,
      "க்கப்": 8168,
      "க்காக": 8169,
      "க்கிறது": 8170,
      "க்கங்களை": 8171,
      "க்கணக்கான": 8172,
      "ப்பக": 8173,
      "ப்பெ": 8174,
      "ப்பர்": 8175,
      "ப்பால்": 8176,
      "ப்பதில்": 8177,
      "thes": 8178,
      "த்தும்": 8179,
      "த்தான": 8180,
      "த்தாக": 8181,
      "த்துக்": 8182,
      "erc": 8183,
      "erly": 8184,
      "erial": 8185,
      "onic": 8186,
      "only": 8187,
      "onset": 8188,
      "ருவ": 8189,
      "ருக்குப்": 8190,
      "ட்டா": 8191,
      "ட்டி": 8192,
      "ட்டது": 8193,
      "ட்டமைப்பு": 8194,
      "ட்டிற்கு": 8195,
      "్రిచె": 8196,
      "rece": 8197,
      "reme": 8198,
      "reform": 8199,
      "repe": 8200,
      "relat": 8201,
      "rept": 8202,
      "reement": 8203,
      "refl": 8204,
      "reforms": 8205,
      "represent": 8206,
      "returned": 8207,
      "rebellion": 8208,
      "ையே": 8209,
      "ையால்": 8210,
      "ையாள": 8211,
      "ையைப்": 8212,
      "ையாகும்": 8213,
      "ையையும்": 8214,
      "ையைச்": 8215,
      "ையாளர்": 8216,
      "enn": 8217,
      "ening": 8218,
      "enab": 8219,
      "ences": 8220,
      "enhouse": 8221,
      "ala": 8222,
      "aled": 8223,
      "alty": 8224,
      "alliance": 8225,
      "alwars": 8226,
      "ారణంగా": 8227,
      "ారమ్‌": 8228,
      "sts": 8229,
      "stant": 8230,
      "stress": 8231,
      "stud": 8232,
      "stian": 8233,
      "staː": 8234,
      "stiff": 8235,
      "did": 8236,
      "died": 8237,
      "dified": 8238,
      "ாகு": 8239,
      "atist": 8240,
      "atts": 8241,
      "attra": 8242,
      "atory": 8243,
      "atives": 8244,
      "ர்வை": 8245,
      "ர்லால்": 8246,
      "లుపలి": 8247,
      "arc": 8248,
      "aras": 8249,
      "aris": 8250,
      "arter": 8251,
      "ardis": 8252,
      "ங்குவ": 8253,
      "ங்கைப்": 8254,
      "ங்குகள்": 8255,
      "ங்கிணை": 8256,
      "இந்தி": 8257,
      "இந்தப்": 8258,
      "இந்திரா": 8259,
      "ands": 8260,
      "andy": 8261,
      "Increasing": 8262,
      "ord": 8263,
      "oration": 8264,
      "orce": 8265,
      "orial": 8266,
      "ண்டின்": 8267,
      "ண்டுவ": 8268,
      "ண்டாமையை": 8269,
      "இந்தியர்களால்": 8270,
      "ிகை": 8271,
      "ிகின்றனர்": 8272,
      "లోన్": 8273,
      "లోని": 8274,
      "లోకాల": 8275,
      "లోపం": 8276,
      "ase": 8277,
      "asi": 8278,
      "asures": 8279,
      "asions": 8280,
      "asured": 8281,
      "ital": 8282,
      "itary": 8283,
      "itics": 8284,
      "itte": 8285,
      "itude": 8286,
      "స్లో": 8287,
      "స్వే": 8288,
      "స్వర": 8289,
      "స్లే": 8290,
      "స్టా": 8291,
      "స్టే": 8292,
      "స్వర్ణ": 8293,
      "స్టలు": 8294,
      "icians": 8295,
      "్యులు": 8296,
      "్యంలో": 8297,
      "ision": 8298,
      "ises": 8299,
      "ising": 8300,
      "isans": 8301,
      "isine": 8302,
      "isions": 8303,
      "isdic": 8304,
      "குவிய": 8305,
      "குர்த்த": 8306,
      "குச்சி": 8307,
      "ிரில்": 8308,
      "ிர்கள்": 8309,
      "ிராவின்": 8310,
      "న్మార్": 8311,
      "న్సీ": 8312,
      "న్లుగా": 8313,
      "ாவைப்": 8314,
      "ாவைச்": 8315,
      "1921": 8316,
      "1928": 8317,
      "1901": 8318,
      "1911": 8319,
      "முற்": 8320,
      "முலா": 8321,
      "முறிய": 8322,
      "முந்தி": 8323,
      "దిర్": 8324,
      "దిరి": 8325,
      "దికి": 8326,
      "దిగ్": 8327,
      "దిభాగం": 8328,
      "దిగువ": 8329,
      "దేమాత": 8330,
      "ప్రార్": 8331,
      "ప్రమా": 8332,
      "ప్రయా": 8333,
      "ప్రఖ్య": 8334,
      "ప్రణా": 8335,
      "ప్రదేశాల": 8336,
      "ప్రగతి": 8337,
      "ప్రథమ": 8338,
      "ింపు": 8339,
      "ింసాయుత": 8340,
      "204": 8341,
      "2030": 8342,
      "దేశిక": 8343,
      "దేశము": 8344,
      "దేశరాజకీయ": 8345,
      "దేశాన్ని": 8346,
      "దేశమంత": 8347,
      "దేశాధిన": 8348,
      "ently": 8349,
      "ential": 8350,
      "entually": 8351,
      "ాలని": 8352,
      "ాలన్నీ": 8353,
      "ాలెక్కను": 8354,
      "கார்": 8355,
      "காடு": 8356,
      "காசு": 8357,
      "காட்ச": 8358,
      "காளி": 8359,
      "காற்று": 8360,
      "காட்டின்": 8361,
      "காய்க": 8362,
      "காப்பக": 8363,
      "பாத": 8364,
      "பாட்டின்": 8365,
      "பாண்டிய": 8366,
      "பாயும்": 8367,
      "பாராள": 8368,
      "பாசிப்": 8369,
      "ికం": 8370,
      "ికలు": 8371,
      "ికులు": 8372,
      "ికూడ": 8373,
      "ிலுள்ள": 8374,
      "ிலிருந்த": 8375,
      "oms": 8376,
      "omic": 8377,
      "ర్లు": 8378,
      "ర్టి": 8379,
      "ర్కొ": 8380,
      "ర్తా": 8381,
      "ర్సిం": 8382,
      "ర్జాలు": 8383,
      "ర్భవ": 8384,
      "ర్జె": 8385,
      "భార్తదేశపు": 8386,
      "భార‌తంలో": 8387,
      "top": 8388,
      "tober": 8389,
      "భారతంలో": 8390,
      "oury": 8391,
      "న్నత": 8392,
      "న్నా": 8393,
      "ాలున్నాయి": 8394,
      "ப்பட்டு": 8395,
      "ப்பட்டுள்ள": 8396,
      "டிக்க": 8397,
      "த்பூ": 8398,
      "ருந்து": 8399,
      "பெங்கள": 8400,
      "பெண்": 8401,
      "ன்றும்": 8402,
      "ங்களவை": 8403,
      "ங்களால்": 8404,
      "ங்களைத்": 8405,
      "ங்களுடன்": 8406,
      "ங்களுக்குப்": 8407,
      "ங்களுக்கான": 8408,
      "lying": 8409,
      "గాంచిన": 8410,
      "గాయి": 8411,
      "தொட்ட": 8412,
      "வைக்கும்": 8413,
      "வைக்கவோ": 8414,
      "மைப்": 8415,
      "மைகள்": 8416,
      "uri": 8417,
      "కుండ": 8418,
      "కునే": 8419,
      "కుడు": 8420,
      "కుడి": 8421,
      "కుమార్": 8422,
      "కులం": 8423,
      "కులను": 8424,
      "కుమారు": 8425,
      "కుడ్య": 8426,
      "కుదిర్": 8427,
      "కుర్తా": 8428,
      "నివి": 8429,
      "నివా": 8430,
      "నిచ్చ": 8431,
      "నియా": 8432,
      "నివార": 8433,
      "నియో": 8434,
      "నిధి": 8435,
      "నివల్ల": 8436,
      "నిలిచ": 8437,
      "నిరక్షరాస్యత": 8438,
      "నిలబె": 8439,
      "నిషే": 8440,
      "విడ": 8441,
      "విడి": 8442,
      "విధాన": 8443,
      "విస్తు": 8444,
      "వివర": 8445,
      "విశాఖ": 8446,
      "విజన్": 8447,
      "వినాయ": 8448,
      "వితంలో": 8449,
      "విజ్": 8450,
      "విఫల": 8451,
      "విశి": 8452,
      "వివాదం": 8453,
      "విభజిత": 8454,
      "విశే": 8455,
      "విసభా": 8456,
      "இந்தியாவைக்": 8457,
      "இந்தியாவைச்": 8458,
      "இந்தியாவிலேயே": 8459,
      "ాయతి": 8460,
      "ాయకార": 8461,
      "ాయీలు": 8462,
      "வாறு": 8463,
      "வாட்டில்": 8464,
      "வாஸ்த": 8465,
      "క్త": 8466,
      "క్నాల": 8467,
      "క్‌టిక": 8468,
      "ాత్మ": 8469,
      "கொத்த": 8470,
      "கொடு": 8471,
      "கொல்க": 8472,
      "hest": 8473,
      "போக்க": 8474,
      "போதன": 8475,
      "போர்த்த": 8476,
      "போரில்": 8477,
      "போருக்குப்": 8478,
      "விண்": 8479,
      "விப்பு": 8480,
      "விசு": 8481,
      "விவர": 8482,
      "விக்கப்பட்ட": 8483,
      "வினை": 8484,
      "ுகளானவை": 8485,
      "lig": 8486,
      "live": 8487,
      "ligion": 8488,
      "lived": 8489,
      "living": 8490,
      "lifer": 8491,
      "veral": 8492,
      "ரசர்கள்": 8493,
      "amy": 8494,
      "amed": 8495,
      "amend": 8496,
      "ానెట్": 8497,
      "உள்ளதைப்": 8498,
      "ado": 8499,
      "adem": 8500,
      "adwe": 8501,
      "adop": 8502,
      "advent": 8503,
      "ils": 8504,
      "ilar": 8505,
      "iland": 8506,
      "iles": 8507,
      "iling": 8508,
      "ilding": 8509,
      "రామన": 8510,
      "రాటం": 8511,
      "రాణించ": 8512,
      "రామాయ": 8513,
      "రాసిన": 8514,
      "నున్న": 8515,
      "தார்கள்": 8516,
      "தாக்கி": 8517,
      "தாஜ்": 8518,
      "நாடு": 8519,
      "நாத்": 8520,
      "நாட்டில்": 8521,
      "நாட்டிய": 8522,
      "த்துட": 8523,
      "த்துப்": 8524,
      "olution": 8525,
      "rial": 8526,
      "ries": 8527,
      "riya": 8528,
      "riors": 8529,
      "ristian": 8530,
      "ரிக்கா": 8531,
      "ரிதார்கள்": 8532,
      "ండర్": 8533,
      "ండమస్": 8534,
      "ండ్యులు": 8535,
      "ముద్ర": 8536,
      "ములకు": 8537,
      "ముందు": 8538,
      "ముత్యం": 8539,
      "கொண்டது": 8540,
      "கொண்டுள்ள": 8541,
      "கொண்டிருக்க": 8542,
      "They": 8543,
      "chap": 8544,
      "chains": 8545,
      "child": 8546,
      "changed": 8547,
      "திகழ்க": 8548,
      "ப்புடி": 8549,
      "ப்புரி": 8550,
      "emper": 8551,
      "emiss": 8552,
      "ద్వై": 8553,
      "ద్దిభాగం": 8554,
      "ద్విసభా": 8555,
      "ஒருங்கிணை": 8556,
      "நிலம்": 8557,
      "நிலக்க": 8558,
      "நிலக்": 8559,
      "நிலங்கள்": 8560,
      "நிலைப்": 8561,
      "நிலத்தை": 8562,
      "சமமான": 8563,
      "சமநிலையின்": 8564,
      "త్త": 8565,
      "త్తల": 8566,
      "புதி": 8567,
      "புரோ": 8568,
      "புல்வாய": 8569,
      "தியின்": 8570,
      "மாயின": 8571,
      "மாறுவதற்கு": 8572,
      "மாரத்த": 8573,
      "மாலத்தீ": 8574,
      "తిరి": 8575,
      "ల్స్": 8576,
      "ల్తాన": 8577,
      "స్తూ": 8578,
      "స్తాయి": 8579,
      "స్తానీ": 8580,
      "ించుకు": 8581,
      "ించవచ్చు": 8582,
      "ించబడింది": 8583,
      "ించుకోవడ": 8584,
      "ceed": 8585,
      "வேள": 8586,
      "வேர்": 8587,
      "வேண்ட": 8588,
      "வேற்று": 8589,
      "வேதம்": 8590,
      "வேங்கைப்": 8591,
      "சுடும்": 8592,
      "சுந்தர": 8593,
      "சுரிதார்கள்": 8594,
      "best": 8595,
      "begin": 8596,
      "sex": 8597,
      "seats": 8598,
      "sediment": 8599,
      "force": 8600,
      "forti": 8601,
      "fortable": 8602,
      "isting": 8603,
      "isters": 8604,
      "செஸ்": 8605,
      "பிரீ": 8606,
      "பிரபு": 8607,
      "பிரிக்க": 8608,
      "பிரான்": 8609,
      "பிரபஞ்ச": 8610,
      "பிரியா": 8611,
      "பிரம்ம": 8612,
      "ராடை": 8613,
      "ஆண்டுக்கு": 8614,
      "ஆண்டிலிருந்து": 8615,
      "ంతల": 8616,
      "ంతై": 8617,
      "மையப்": 8618,
      "மையாத": 8619,
      "consum": 8620,
      "களி": 8621,
      "களாக": 8622,
      "களுக்கு": 8623,
      "రిట్ల": 8624,
      "రిట్లు": 8625,
      "2014இல்": 8626,
      "2018இல்": 8627,
      "resolved": 8628,
      "resources": 8629,
      "సంస్థ": 8630,
      "సంక్ర": 8631,
      "సంధి": 8632,
      "సంగమ": 8633,
      "సందర్": 8634,
      "வெது": 8635,
      "வெஸ்ட": 8636,
      "வெண்க": 8637,
      "agana": 8638,
      "agreement": 8639,
      "suc": 8640,
      "super": 8641,
      "supre": 8642,
      "மேலாட்சி": 8643,
      "காலமே": 8644,
      "காலமாக": 8645,
      "காலத்தை": 8646,
      "காலநிலை": 8647,
      "காலமிட": 8648,
      "காலத்திற்க": 8649,
      "రుగా": 8650,
      "రుష్": 8651,
      "రుచులు": 8652,
      "இருந்தே": 8653,
      "இருந்தும்": 8654,
      "இருந்தாலும்": 8655,
      "ச்சு": 8656,
      "மாகப்": 8657,
      "மாகியுள்ளது": 8658,
      "லாப்": 8659,
      "ினார்": 8660,
      "ினியா": 8661,
      "పురి": 8662,
      "పులి": 8663,
      "పుతో": 8664,
      "పుత్ర": 8665,
      "పులా": 8666,
      "పుష్": 8667,
      "పునర్": 8668,
      "dev": 8669,
      "defe": 8670,
      "deleg": 8671,
      "devast": 8672,
      "స్థ‌": 8673,
      "స్థాయి": 8674,
      "స్థాపక": 8675,
      "స్థూలా": 8676,
      "ung": 8677,
      "united": 8678,
      "uncommon": 8679,
      "unitary": 8680,
      "unresolved": 8681,
      "அமைக்க": 8682,
      "அமைக்கப்பட்ட": 8683,
      "அரசவை": 8684,
      "அரசுகள்": 8685,
      "அரசுகளை": 8686,
      "2005": 8687,
      "2008இல்": 8688,
      "iron": 8689,
      "what": 8690,
      "ంటో": 8691,
      "ంటుంది": 8692,
      "ంటరీ": 8693,
      "வரப்பட்ட": 8694,
      "வரத்து": 8695,
      "வரம்பு": 8696,
      "ற்பண்": 8697,
      "ற்படை": 8698,
      "பொருத்த": 8699,
      "பொருளானது": 8700,
      "வுள": 8701,
      "வுச்": 8702,
      "க்கப்பட்டிருந்த": 8703,
      "duce": 8704,
      "model": 8705,
      "భాజపా": 8706,
      "భావిస్తు": 8707,
      "ైనెర్": 8708,
      "impro": 8709,
      "imple": 8710,
      "immediately": 8711,
      "excav": 8712,
      "exerc": 8713,
      "existing": 8714,
      "அதிகமான": 8715,
      "tspo": 8716,
      "tside": 8717,
      "சாமா": 8718,
      "சாதன": 8719,
      "சார்க்க": 8720,
      "சாளு": 8721,
      "ంగల": 8722,
      "உலர்": 8723,
      "இல்லை": 8724,
      "இல்லாத": 8725,
      "வாகப்": 8726,
      "வாகக்": 8727,
      "வாகையாளர்": 8728,
      "ேரரச": 8729,
      "ர்களைப்": 8730,
      "ர்களுக்க": 8731,
      "angra": 8732,
      "mental": 8733,
      "mented": 8734,
      "வியா": 8735,
      "derived": 8736,
      "pop": 8737,
      "pot": 8738,
      "கிளர்ச்ச": 8739,
      "above": 8740,
      "according": 8741,
      "access": 8742,
      "சிந்தனை": 8743,
      "వాద": 8744,
      "వాటి": 8745,
      "వాదన": 8746,
      "వాటిలో": 8747,
      "వామిత్ర": 8748,
      "సామీ": 8749,
      "సాకర్‌": 8750,
      "సాఫ్ట": 8751,
      "సానియా": 8752,
      "క్షం": 8753,
      "క్షిక": 8754,
      "క్షంగా": 8755,
      "sia": 8756,
      "side": 8757,
      "ute": 8758,
      "utra": 8759,
      "டைப்பந்து": 8760,
      "ఉన్నట్లు": 8761,
      "ఉన్నతంగా": 8762,
      "పాద": 8763,
      "పాండి": 8764,
      "పాండ్యులు": 8765,
      "పాక్షిక": 8766,
      "overran": 8767,
      "தெரி": 8768,
      "ப்படுகிறார்": 8769,
      "கோசி": 8770,
      "கோடை": 8771,
      "கோயில்": 8772,
      "கோதுமை": 8773,
      "கோண்டுவ": 8774,
      "ార్థాలు": 8775,
      "ార్క్‌టిక": 8776,
      "உலகில்": 8777,
      "உலகக்கோ": 8778,
      "using": 8779,
      "வீழ்ச்ச": 8780,
      "வையையும்": 8781,
      "ితం": 8782,
      "ితే": 8783,
      "ితంగా": 8784,
      "ిత్యం": 8785,
      "artic": 8786,
      "artists": 8787,
      "artistic": 8788,
      "artisans": 8789,
      "நாடும்": 8790,
      "நாடான": 8791,
      "நாடுகள்": 8792,
      "etah": 8793,
      "ிடங்களில்": 8794,
      "ிடப்பட்டது": 8795,
      "ிடமிருந்து": 8796,
      "inces": 8797,
      "ிகளாக": 8798,
      "ிகளால்": 8799,
      "ிகளைப்": 8800,
      "ிகளுடன்": 8801,
      "sole": 8802,
      "டியா": 8803,
      "பலர்": 8804,
      "பலவீன": 8805,
      "ழ்வாய்": 8806,
      "ష్టి": 8807,
      "ష్టు": 8808,
      "ష్టమైన": 8809,
      "ష్ట్యా": 8810,
      "ிக்கிறது": 8811,
      "ிக்கத்தக்க": 8812,
      "percent": 8813,
      "elect": 8814,
      "கூடைப்பந்து": 8815,
      "நீக்கப்பட்டது": 8816,
      "நீடித்து": 8817,
      "ప్రాముఖ్య": 8818,
      "ప్రాసె": 8819,
      "ప్రాజా": 8820,
      "ప్రాణుల": 8821,
      "ప్రాబల": 8822,
      "ప్రాదేశిక": 8823,
      "రాజధాన": 8824,
      "కోసం": 8825,
      "కోటి": 8826,
      "కోడు": 8827,
      "కోవార": 8828,
      "కోవడ": 8829,
      "క్రైస్త": 8830,
      "1998இல்": 8831,
      "comfortable": 8832,
      "spic": 8833,
      "sphere": 8834,
      "spending": 8835,
      "இருபது": 8836,
      "కావడ": 8837,
      "కాకుండ": 8838,
      "ట్టు": 8839,
      "ట్టూ": 8840,
      "ట్టారు": 8841,
      "ట్టుకు": 8842,
      "ట్టెల": 8843,
      "నేయ": 8844,
      "నేసియా": 8845,
      "నేరుగా": 8846,
      "வளர்ந்த": 8847,
      "க்காமல்": 8848,
      "therers": 8849,
      "contra": 8850,
      "centre": 8851,
      "ంచే": 8852,
      "దువు": 8853,
      "దుస్తులు": 8854,
      "పేస్": 8855,
      "పేదర": 8856,
      "మామి": 8857,
      "మాదిరి": 8858,
      "మాండమస్": 8859,
      "యావత్": 8860,
      "యాండర్": 8861,
      "భారతీయులు": 8862,
      "భారతీయుల": 8863,
      "భారతీయుడైన": 8864,
      "medic": 8865,
      "mega": 8866,
      "meaning": 8867,
      "ண்ணின்": 8868,
      "cost": 8869,
      "cosine": 8870,
      "shy": 8871,
      "shared": 8872,
      "ship": 8873,
      "shoulder": 8874,
      "నాటి": 8875,
      "నాడు": 8876,
      "నామాలు": 8877,
      "నాట్యం": 8878,
      "లిసింది": 8879,
      "లిథిక": 8880,
      "లియం": 8881,
      "లివిజన్": 8882,
      "లియాండర్": 8883,
      "వ్యయంతో": 8884,
      "వ్య‌వ‌": 8885,
      "సిద్ధ": 8886,
      "సిగ్": 8887,
      "సిద్ధం": 8888,
      "్లను": 8889,
      "త్వం": 8890,
      "త్వాలు": 8891,
      "త్వంలో": 8892,
      "త్వరలో": 8893,
      "idence": 8894,
      "சமயமாக": 8895,
      "சமயத்தின்": 8896,
      "சமயமானது": 8897,
      "சமயத்தையும்": 8898,
      "சமயங்களும்": 8899,
      "lution": 8900,
      "தேவை": 8901,
      "తరించింది": 8902,
      "తరతరాలు": 8903,
      "பொதுவுட": 8904,
      "జాతీయవాదం": 8905,
      "జాతీయాదాయంలో": 8906,
      "பொருளாதாரத்": 8907,
      "பொருளாதாரங்களில்": 8908,
      "రాష్ట్రపు": 8909,
      "రాష్ట్రానికి": 8910,
      "రాష్ట్రపత": 8911,
      "iger": 8912,
      "proj": 8913,
      "produced": 8914,
      "probably": 8915,
      "produce": 8916,
      "aps": 8917,
      "appoin": 8918,
      "aputra": 8919,
      "గుతో": 8920,
      "గుప్": 8921,
      "గుత్తా": 8922,
      "గుతాయి": 8923,
      "గునవి": 8924,
      "తోష్ణ": 8925,
      "వచ్చి": 8926,
      "ద్ధాలు": 8927,
      "ద్ధలతో": 8928,
      "ల్లీ": 8929,
      "ల్లింది": 8930,
      "ల్లాయి": 8931,
      "ల్లయిన": 8932,
      "gender": 8933,
      "webs": 8934,
      "தனது": 8935,
      "தனிக்": 8936,
      "ends": 8937,
      "ended": 8938,
      "atedly": 8939,
      "formally": 8940,
      "iva": 8941,
      "ival": 8942,
      "iving": 8943,
      "larger": 8944,
      "plant": 8945,
      "planted": 8946,
      "placed": 8947,
      "కొక్క": 8948,
      "కొంక": 8949,
      "కొనసా": 8950,
      "కొలమానం": 8951,
      "కొద్దిభాగం": 8952,
      "కొత్త": 8953,
      "డుంబ": 8954,
      "పాలయింది": 8955,
      "పాలకులు": 8956,
      "పాలిటన్": 8957,
      "పాలకులను": 8958,
      "మైనదే": 8959,
      "మైనవి": 8960,
      "వేర్": 8961,
      "వేత్తల": 8962,
      "భారతదేశము": 8963,
      "భారతదేశమే": 8964,
      "hau": 8965,
      "வந்துள்ளது": 8966,
      "வந்தனர்": 8967,
      "ப்பாற்ற": 8968,
      "ப்பாடுகளை": 8969,
      "ఒకటో": 8970,
      "కాలపరి": 8971,
      "కాలాల్లో": 8972,
      "డిగించ": 8973,
      "ణాన్ని": 8974,
      "ణాటక": 8975,
      "ణాదికి": 8976,
      "మార్కెట్": 8977,
      "அமைப்பைப்": 8978,
      "இரண்டும்": 8979,
      "1985இல்": 8980,
      "mini": 8981,
      "minor": 8982,
      "இடது": 8983,
      "இடங்கள்": 8984,
      "இடங்களில்": 8985,
      "இடத்தைப்": 8986,
      "assical": 8987,
      "assass": 8988,
      "ished": 8989,
      "பெற்றார்": 8990,
      "பெற்றுள்ளன": 8991,
      "18th": 8992,
      "1820": 8993,
      "18ஆம்": 8994,
      "1891": 8995,
      "1848": 8996,
      "affir": 8997,
      "மூழ்க": 8998,
      "மூடப்பட்ட": 8999,
      "ாண்டு": 9000,
      "ாண்ட்": 9001,
      "చేత": 9002,
      "చేర": 9003,
      "చేసు": 9004,
      "చేసే": 9005,
      "శాశ్": 9006,
      "శాకాహార": 9007,
      "్‌వేర్": 9008,
      "முறைப்": 9009,
      "முறைகள்": 9010,
      "முறைமையை": 9011,
      "దేశాలకు": 9012,
      "దేశాలతో": 9013,
      "దేశాలకూ": 9014,
      "దేశాల్లో": 9015,
      "ought": 9016,
      "lowed": 9017,
      "உருவாக்கி": 9018,
      "உருவாக்கம்": 9019,
      "వ్యవహార": 9020,
      "వ్యవసాయ": 9021,
      "peace": 9022,
      "கைவின": 9023,
      "கைவினை": 9024,
      "amework": 9025,
      "ogamy": 9026,
      "ஞ்சி": 9027,
      "வடமேற்க": 9028,
      "வடக்கே": 9029,
      "வடமேற்குப்": 9030,
      "ఎన్నుకొ": 9031,
      "కిమీ": 9032,
      "టువంటి": 9033,
      "పారిశ్ర": 9034,
      "పంచె": 9035,
      "పంచుకుంట": 9036,
      "పంచాయతి": 9037,
      "ాబుని": 9038,
      "ాన్స్": 9039,
      "న్నిస్లో": 9040,
      "பாரம்பரியங்களின்": 9041,
      "263": 9042,
      "264": 9043,
      "bercul": 9044,
      "marry": 9045,
      "marshy": 9046,
      "parties": 9047,
      "partially": 9048,
      "குறைவாக": 9049,
      "குறைத்தது": 9050,
      "குறைபாடு": 9051,
      "விளக்கப்படுகிறது": 9052,
      "economies": 9053,
      "Chand": 9054,
      "Chol": 9055,
      "Chess": 9056,
      "Champ": 9057,
      "Christian": 9058,
      "Chhau": 9059,
      "தாகவே": 9060,
      "చెంది": 9061,
      "చెందింది": 9062,
      "డ్స్": 9063,
      "డ్మిం": 9064,
      "పెట్రో": 9065,
      "పెట్టారు": 9066,
      "செயற்க": 9067,
      "பகுதியானது": 9068,
      "பகுதியளவு": 9069,
      "మార్గం": 9070,
      "మార్గము": 9071,
      "మార్గంలో": 9072,
      "మార్గాలలో": 9073,
      "మార్గాలను": 9074,
      "మార్గాలే": 9075,
      "వ్యవస్థల": 9076,
      "వ్యవస్థగా": 9077,
      "వ్యవస్థీకరణ": 9078,
      "ctory": 9079,
      "1949": 9080,
      "ார்பற்ற": 9081,
      "food": 9082,
      "foetic": 9083,
      "சேவைகள": 9084,
      "மிட்டது": 9085,
      "ைகளால்": 9086,
      "ைகளானவை": 9087,
      "ంబే": 9088,
      "కృష్": 9089,
      "కృష్ణ": 9090,
      "కృష్టమైన": 9091,
      "తుడు": 9092,
      "తులకాల": 9093,
      "తురుష్": 9094,
      "దాటే": 9095,
      "దాటిన": 9096,
      "stitutes": 9097,
      "స్తుంది": 9098,
      "స్తున్నారు": 9099,
      "అధికారక": 9100,
      "అధికారి": 9101,
      "అధికారాలు": 9102,
      "అధికారంలో": 9103,
      "అధికారాన్ని": 9104,
      "15న": 9105,
      "1525": 9106,
      "bott": 9107,
      "எனும்": 9108,
      "ஒன்று": 9109,
      "ஒன்றாக": 9110,
      "ஒன்றாகும்": 9111,
      "ஒன்றாகக்": 9112,
      "ஒன்றாகவும்": 9113,
      "கடந்த": 9114,
      "கடலில்": 9115,
      "கடற்படை": 9116,
      "கடவுள": 9117,
      "்புக்": 9118,
      "காரணிகளைக்": 9119,
      "காரணமாயின": 9120,
      "substant": 9121,
      "நூற்றாண்டு": 9122,
      "நூற்றாண்டுகள": 9123,
      "நூற்றாண்டுகளின்": 9124,
      "நூற்றாண்டுகளில்": 9125,
      "neigh": 9126,
      "தோச": 9127,
      "பயன்": 9128,
      "பயிற்": 9129,
      "வனவும்": 9130,
      "வனவற்றில்": 9131,
      "விரும்ப": 9132,
      "வடிவமாக": 9133,
      "வடிவத்தில்": 9134,
      "కరించింది": 9135,
      "కరమేనని": 9136,
      "కరంతై": 9137,
      "ట్కా": 9138,
      "దక్షణాసియా": 9139,
      "పరమైన": 9140,
      "పర్యా": 9141,
      "పరచింది": 9142,
      "పరమో": 9143,
      "పరోక్ష": 9144,
      "పరిధి": 9145,
      "పరిపాలించ": 9146,
      "పరిశో": 9147,
      "పరిస్థితి": 9148,
      "పరిఢవి": 9149,
      "మతాల": 9150,
      "మతాలతో": 9151,
      "మతాలకు": 9152,
      "మతములు": 9153,
      "మతస్తులు": 9154,
      "మతములకు": 9155,
      "మీదుగా": 9156,
      "మీర్జాలు": 9157,
      "మేరో": 9158,
      "మేరకు": 9159,
      "మేళవిం": 9160,
      "మేషన్": 9161,
      "మధ్యల": 9162,
      "మధ్యకాలంలో": 9163,
      "మధ్యవర్తి": 9164,
      "వరకూ": 9165,
      "సును": 9166,
      "సుమారు": 9167,
      "సుదీర్": 9168,
      "సుల్తాన": 9169,
      "ప్రపంచదేశాలలో": 9170,
      "ప్రధానమంత్ర": 9171,
      "ద్దులు": 9172,
      "சமூகம்": 9173,
      "ஆண்டுகளாகவும்": 9174,
      "స్థానే": 9175,
      "స్థానిక": 9176,
      "స్థానాలు": 9177,
      "స్థానమైన": 9178,
      "భాషలలో": 9179,
      "భాషలతో": 9180,
      "கோடிப்": 9181,
      "கோடிக்கும்": 9182,
      "கூட்டணிகள்": 9183,
      "ప్రాంతాల": 9184,
      "ప్రాంతాలతో": 9185,
      "ప్రాంతాలకు": 9186,
      "రాజ్యాలను": 9187,
      "రాజ్యసమి": 9188,
      "పేరుతో": 9189,
      "పేరుమీదుగా": 9190,
      "172": 9191,
      "17th": 9192,
      "இயலவில்லை": 9193,
      "இயற்பண்": 9194,
      "கட்டமை": 9195,
      "கட்டத்தின்": 9196,
      "மொழியாக": 9197,
      "மொழியின்": 9198,
      "included": 9199,
      "includes": 9200,
      "Hindus": 9201,
      "நிறுவப்பட்டன": 9202,
      "நிறுவப்படுவதற்கு": 9203,
      "10th": 9204,
      "10ஆம்": 9205,
      "1010": 9206,
      "1950ஆம்": 9207,
      "declin": 9208,
      "decreasing": 9209,
      "decidu": 9210,
      "declared": 9211,
      "டுகளுக்கு": 9212,
      "వారిగా": 9213,
      "వర్గీ": 9214,
      "వర్షం": 9215,
      "వర్ధిల్ల": 9216,
      "వర్షాలు": 9217,
      "வேறுபாடுகள": 9218,
      "தொடங்கிய": 9219,
      "தொடங்குகிறது": 9220,
      "சியாவுடனான": 9221,
      "குறிப்பிடப்படுகிறது": 9222,
      "పార్టీల": 9223,
      "పార్టీలు": 9224,
      "పార్టీగా": 9225,
      "పార్టీకి": 9226,
      "పార్టీలతో": 9227,
      "దక్షిణాదికి": 9228,
      "Asians": 9229,
      "உணர": 9230,
      "கலையும்": 9231,
      "நடுக்கால": 9232,
      "நேரடி": 9233,
      "ந்திராத": 9234,
      "erals": 9235,
      "பகுதிகளானவை": 9236,
      "பண்பாட்டை": 9237,
      "பண்பாட்டிற்கு": 9238,
      "பேரரசர்": 9239,
      "பேரரசால்": 9240,
      "308": 9241,
      "claim": 9242,
      "అయింది": 9243,
      "అయితే": 9244,
      "మిగి": 9245,
      "రోడ్ల": 9246,
      "రెండుకో": 9247,
      "లాంటి": 9248,
      "లాగృ": 9249,
      "లాభదాయ": 9250,
      "వెలుపలి": 9251,
      "relief": 9252,
      "ప్రజలకు": 9253,
      "மாநிலக்": 9254,
      "மாநிலங்களுக்கு": 9255,
      "மாநிலங்களவை": 9256,
      "தொடக்கம்": 9257,
      "தொடக்கப்": 9258,
      "இராணுவங்கள்": 9259,
      "இராணுவமானது": 9260,
      "హిందూస్తాన్": 9261,
      "హిందూస్తానీ": 9262,
      "1652": 9263,
      "casts": 9264,
      "ganiz": 9265,
      "scen": 9266,
      "scale": 9267,
      "வழிய": 9268,
      "ப்படுத்தி": 9269,
      "முன்னணிக்": 9270,
      "பிரிவு": 9271,
      "பிரிக்கப்பட்டது": 9272,
      "அரசாங்கமானது": 9273,
      "அரசாங்கத்தால்": 9274,
      "வீதமாக": 9275,
      "வீதத்தை": 9276,
      "வீதங்களின்": 9277,
      "உயிர்க்க": 9278,
      "systems": 9279,
      "ficial": 9280,
      "niqu": 9281,
      "pread": 9282,
      "prevent": 9283,
      "series": 9284,
      "serving": 9285,
      "vide": 9286,
      "viet": 9287,
      "view": 9288,
      "அணுக்க": 9289,
      "அணிகின்றனர்": 9290,
      "அனைவரும்": 9291,
      "அனைத்தும்": 9292,
      "கிராண்ட்": 9293,
      "மதிப்புடைய": 9294,
      "வங்கியின்": 9295,
      "ంద్రనాథ": 9296,
      "ఇతరదేశాలను": 9297,
      "ఇతరదేశాలకు": 9298,
      "గిపోయింది": 9299,
      "గిల్లీ": 9300,
      "తామర": 9301,
      "తాజ్‌": 9302,
      "పూణే": 9303,
      "పోలో": 9304,
      "పోటీ": 9305,
      "పోతూ": 9306,
      "పోర్చు": 9307,
      "పోషకాహార": 9308,
      "పోస్టలు": 9309,
      "పోరాటం": 9310,
      "మనమే": 9311,
      "మనదేశంలో": 9312,
      "మనోర": 9313,
      "వుని": 9314,
      "వున్నా": 9315,
      "వుంటుంది": 9316,
      "శ్రద్ధలతో": 9317,
      "ీనములో": 9318,
      "ీనోద్య": 9319,
      "முறையை": 9320,
      "முறையின்": 9321,
      "முறையில்": 9322,
      "முறையாக": 9323,
      "முறையானது": 9324,
      "முறையைத்": 9325,
      "தொகையின்": 9326,
      "தொகையானது": 9327,
      "போன்றவற்றின்": 9328,
      "மாற்றம்": 9329,
      "மாற்றத்தை": 9330,
      "ించినవే": 9331,
      "ించినందు": 9332,
      "సాంఘిక": 9333,
      "தனித்": 9334,
      "தனிச்": 9335,
      "పెద్దగా": 9336,
      "పెద్దపులి": 9337,
      "Emergency": 9338,
      "pollution": 9339,
      "wood": 9340,
      "warriors": 9341,
      "உடையானது": 9342,
      "உடையவர்களாக": 9343,
      "என்பதாகும்": 9344,
      "என்பதைத்": 9345,
      "பங்கானது": 9346,
      "பங்கையும்": 9347,
      "மெய்ய": 9348,
      "வர்களால்": 9349,
      "ிட்டுள்ளது": 9350,
      "ியானார்": 9351,
      "extinct": 9352,
      "extreme": 9353,
      "extends": 9354,
      "ஆகியவற்றில்": 9355,
      "ஆகியவற்றுக்கு": 9356,
      "ஆகியவற்றுடன்": 9357,
      "மக்களவையின்": 9358,
      "1991లో": 9359,
      "committe": 9360,
      "black": 9361,
      "423": 9362,
      "428": 9363,
      "numerals": 9364,
      "tail": 9365,
      "அறிவியல்": 9366,
      "கண்டம்": 9367,
      "கண்டத்தின்": 9368,
      "கண்டத்தில்": 9369,
      "கண்டத்திற்கு": 9370,
      "தீண்டாமையை": 9371,
      "ிதளவு": 9372,
      "అతివేగంగా": 9373,
      "అతిముఖ్యమైన": 9374,
      "అతిశీ": 9375,
      "ఉత్సాహ": 9376,
      "ఉత్తరా": 9377,
      "ఉత్కృష్టమైన": 9378,
      "ఉంటూ": 9379,
      "గరలో": 9380,
      "గీతం": 9381,
      "జరిగింది": 9382,
      "జరిగాయి": 9383,
      "పట్టాలు": 9384,
      "పట్టును": 9385,
      "పట్టాలెక్కను": 9386,
      "బాగా": 9387,
      "బాదు": 9388,
      "బాంబే": 9389,
      "బెల్": 9390,
      "బెట్కా": 9391,
      "బ్రహ్మ": 9392,
      "బ్రాడ్‌": 9393,
      "బ్రెడ్": 9394,
      "మహల్": 9395,
      "మహేష్": 9396,
      "వంటలు": 9397,
      "వంటలకు": 9398,
      "వంటకాలు": 9399,
      "ుకుంది": 9400,
      "విధి": 9401,
      "విధంగా": 9402,
      "విధించిన": 9403,
      "భాగే": 9404,
      "భాగస్వా": 9405,
      "భాగమేనని": 9406,
      "நடத்தப்பட்ட": 9407,
      "நடத்தின": 9408,
      "நடத்தப்படும்": 9409,
      "நடத்தப்பட்டது": 9410,
      "కేంద్రాల్లో": 9411,
      "కేంద్రీకృ": 9412,
      "ప్పించుకోవడ": 9413,
      "క్రీడల": 9414,
      "అయినప్పటికీ": 9415,
      "అయినప్పటికినీ": 9416,
      "జనాభాలో": 9417,
      "ప్రభుత్వంలో": 9418,
      "ప్రభుత్వాలన్నీ": 9419,
      "ప్రభుత్వంచే": 9420,
      "வணிகர்கள்": 9421,
      "வணிகத்தில்": 9422,
      "பயன்படுத்தப்படும்": 9423,
      "பயன்படுத்தப்பட்டது": 9424,
      "பயன்படுத்தப்பட்டுள்ளது": 9425,
      "அளவானது": 9426,
      "அளவிலான": 9427,
      "சிறு": 9428,
      "சிறப்பு": 9429,
      "சிறிதளவு": 9430,
      "பதவிக்": 9431,
      "பதக்கங்களை": 9432,
      "மலைச்": 9433,
      "ப்படுத்துதல்": 9434,
      "வாழ்வை": 9435,
      "வாழ்வானது": 9436,
      "வாழ்வின்": 9437,
      "limited": 9438,
      "நாடுகளும்": 9439,
      "நாடுகளில்": 9440,
      "நாடுகளுக்கு": 9441,
      "அடிப்படை": 9442,
      "ஆயுதப்": 9443,
      "ஆயுதச்": 9444,
      "ஆயுதங்களை": 9445,
      "Major": 9446,
      "domestic": 9447,
      "mainly": 9448,
      "அக்டோ": 9449,
      "அகன்றும்": 9450,
      "அகழ்வாய்": 9451,
      "அவைகள": 9452,
      "ஆற்றின்": 9453,
      "ஆற்றலை": 9454,
      "இக்காலம்": 9455,
      "இக்காலமானது": 9456,
      "கட்சிகள": 9457,
      "கட்சிகள்": 9458,
      "சோறு": 9459,
      "ఎక్కువైపో": 9460,
      "ఏర్పాటు": 9461,
      "ఏర్పరచింది": 9462,
      "కలిగిన": 9463,
      "గోర్": 9464,
      "గోధు": 9465,
      "గోడుంబ": 9466,
      "గ్గులు": 9467,
      "గ్డమ్": 9468,
      "జనకరమేనని": 9469,
      "టికంటే": 9470,
      "బహిరంగ": 9471,
      "బహాయీలు": 9472,
      "మంత్రుల": 9473,
      "లేనివి": 9474,
      "సింహపు": 9475,
      "సరిస్తూ": 9476,
      "ప్రస్తుత": 9477,
      "క్కలు": 9478,
      "ological": 9479,
      "ologically": 9480,
      "வேகம்": 9481,
      "மேற்குக்": 9482,
      "2001ஆம்": 9483,
      "2001இல்": 9484,
      "பரவல்": 9485,
      "సాధించింది": 9486,
      "సాధించి": 9487,
      "సాధారణంగా": 9488,
      "రాజకీయాలు": 9489,
      "కాంగ్రెసే": 9490,
      "largely": 9491,
      "notable": 9492,
      "notably": 9493,
      "குடியரசான": 9494,
      "குடியரசாக": 9495,
      "మొదటిది": 9496,
      "మొదటిసార": 9497,
      "దక్షిణదిగ్": 9498,
      "பிரித்தானியப்": 9499,
      "பிரித்தானியக்": 9500,
      "பிரித்தானியரால்": 9501,
      "puts": 9502,
      "1300": 9503,
      "13ஆம்": 9504,
      "trad": 9505,
      "இணைத்து": 9506,
      "ஒப்பிடும்": 9507,
      "கருநாடக": 9508,
      "சந்தையானது": 9509,
      "சந்தையாக": 9510,
      "சந்தாதார": 9511,
      "மியில்": 9512,
      "ல்களை": 9513,
      "வுகளும்": 9514,
      "வுகளில்": 9515,
      "பொதுவாகக்": 9516,
      "மூன்றாம்": 9517,
      "இவ்வகைப்": 9518,
      "வங்காளப்": 9519,
      "followed": 9520,
      "kho": 9521,
      "khand": 9522,
      "southwest": 9523,
      "சனவரி": 9524,
      "தரப்பட்ட": 9525,
      "மரபு": 9526,
      "ரியா": 9527,
      "ఉపయు": 9528,
      "ఉపరాష్ట్రపత": 9529,
      "క్యులు": 9530,
      "క్యారమ్‌": 9531,
      "పంజాబ": 9532,
      "పంపిన": 9533,
      "భూపతి": 9534,
      "మైంది": 9535,
      "మైతే": 9536,
      "మైత్రి": 9537,
      "మైథి": 9538,
      "మైదాన": 9539,
      "మానవుని": 9540,
      "యుద్ధం": 9541,
      "యునై": 9542,
      "యుద్ధాలు": 9543,
      "యోచన": 9544,
      "యోరారి": 9545,
      "రంగం": 9546,
      "రంగాల": 9547,
      "రంగము": 9548,
      "రంగాల్లో": 9549,
      "వలెనే": 9550,
      "శ్లోకాల": 9551,
      "ుకోవచ్చని": 9552,
      "్మదీయ": 9553,
      "ప్రతినిధి": 9554,
      "ాలలోను": 9555,
      "ాలనుండి": 9556,
      "విస్తరించిన": 9557,
      "విస్తృతంగా": 9558,
      "வாயு": 9559,
      "வாய்கள்": 9560,
      "வாக்கை": 9561,
      "సంస్కృతం": 9562,
      "సంస్కృతీ": 9563,
      "సంస్కృతులతో": 9564,
      "సంగీత": 9565,
      "సంగీతము": 9566,
      "సంగీతంలో": 9567,
      "supplanted": 9568,
      "ప్రాచ్య": 9569,
      "ప్రాచుర్య": 9570,
      "క్రమంగా": 9571,
      "1965ஆம்": 9572,
      "நகரங்களில்": 9573,
      "மொழிகளின்": 9574,
      "மொழிகளில்": 9575,
      "மொழிகளைப்": 9576,
      "மொழிகளையும்": 9577,
      "மொழிகளானவை": 9578,
      "సరిహద్దులు": 9579,
      "தேர்தல்கள்": 9580,
      "தேர்தல்களில்": 9581,
      "అత్యధికంగా": 9582,
      "ఇండియాలో": 9583,
      "1250": 9584,
      "361": 9585,
      "rati": 9586,
      "rative": 9587,
      "இறகு": 9588,
      "பேச": 9589,
      "துறையில்": 9590,
      "துறையாக": 9591,
      "த்திரங்கள்": 9592,
      "legal": 9593,
      "leges": 9594,
      "ilitated": 9595,
      "velopment": 9596,
      "settle": 9597,
      "வெற்றி": 9598,
      "வெற்றிகளைப்": 9599,
      "expanding": 9600,
      "company": 9601,
      "comprising": 9602,
      "speci": 9603,
      "இலக்கியத்திற்கான": 9604,
      "எண்ணிக்கையானது": 9605,
      "கட்டடக்கலை": 9606,
      "வெளியீ": 9607,
      "2022ஆம்": 9608,
      "efly": 9609,
      "....": 9610,
      "359": 9611,
      "Alliance": 9612,
      "Nep": 9613,
      "course": 9614,
      "humans": 9615,
      "nonviol": 9616,
      "nationalist": 9617,
      "அறியப்படுகிறது": 9618,
[...]
