{
  "version": "1.0",
  "truncation": null,
  "padding": null,
  "added_tokens": [
    {
      "id": 0,
      "content": "[UNK]",
      "single_word": false,
      "lstrip": false,
      "rstrip": false,
      "normalized": false,
      "special": true
    }
  ],
  "normalizer": {
    "type": "NFKC"
  },
  "pre_tokenizer": {
    "type": "Metaspace",
    "replacement": "▁",
    "prepend_scheme": "never",
    "split": true
  },
  "post_processor": null,
  "decoder": {
    "type": "Metaspace",
    "replacement": "▁",
    "prepend_scheme": "never",
    "split": true
  },
  "model": {
    "type": "BPE",
    "dropout": null,
    "unk_token": "[UNK]",
    "continuing_subword_prefix": null,
    "end_of_word_suffix": null,
    "fuse_unk": false,
    "byte_fallback": false,
    "ignore_merges": false,
    "vocab": {
      "[UNK]": 0,
      "\n": 1,
      "!": 2,
      "\"": 3,
      "#": 4,
      "$": 5,
      "%": 6,
      "&": 7,
      "'": 8,
      "(": 9,
      ")": 10,
      "*": 11,
      "+": 12,
      ",": 13,
      "-": 14,
      ".": 15,
      "/": 16,
      "0": 17,
      "1": 18,
      "2": 19,
      "3": 20,
      "4": 21,
      "5": 22,
      "6": 23,
      "7": 24,
      "8": 25,
      "9": 26,
      ":": 27,
      ";": 28,
      "<": 29,
      "=": 30,
      ">": 31,
      "?": 32,
      "A": 33,
      "B": 34,
      "C": 35,
      "D": 36,
      "E": 37,
      "F": 38,
      "G": 39,
      "H": 40,
      "I": 41,
      "J": 42,
      "K": 43,
      "L": 44,
      "M": 45,
      "N": 46,
      "O": 47,
      "P": 48,
      "Q": 49,
      "R": 50,
      "S": 51,
      "T": 52,
      "U": 53,
      "V": 54,
      "W": 55,
      "X": 56,
      "Y": 57,
      "Z": 58,
      "[": 59,
      "\\": 60,
      "]": 61,
      "^": 62,
      "_": 63,
      "`": 64,
      "a": 65,
      "b": 66,
      "c": 67,
      "d": 68,
      "e": 69,
      "f": 70,
      "g": 71,
      "h": 72,
      "i": 73,
      "j": 74,
      "k": 75,
      "l": 76,
      "m": 77,
      "n": 78,
      "o": 79,
      "p": 80,
      "q": 81,
      "r": 82,
      "s": 83,
      "t": 84,
      "u": 85,
      "v": 86,
      "w": 87,
      "x": 88,
      "y": 89,
      "z": 90,
      "{": 91,
      "|": 92,
      "}": 93,
      "~": 94,
      "°": 95,
      "·": 96,
      "Ö": 97,
      "à": 98,
      "á": 99,
      "â": 100,
      "æ": 101,
      "ç": 102,
      "è": 103,
      "é": 104,
      "í": 105,
      "î": 106,
      "ñ": 107,
      "ö": 108,
      "ü": 109,
      "ā": 110,
      "ī": 111,
      "İ": 112,
      "Ś": 113,
      "ś": 114,
      "ū": 115,
      "ș": 116,
      "ə": 117,
      "ɦ": 118,
      "ɪ": 119,
      "ɾ": 120,
      "ʊ": 121,
      "ʻ": 122,
      "ʼ": 123,
      "ˈ": 124,
      "ː": 125,
      "ί": 126,
      "α": 127,
      "δ": 128,
      "θ": 129,
      "ν": 130,
      "ο": 131,
      "π": 132,
      "ς": 133,
      "ό": 134,
      "ँ": 135,
      "ं": 136,
      "ः": 137,
      "अ": 138,
      "आ": 139,
      "इ": 140,
      "ई": 141,
      "उ": 142,
      "ऊ": 143,
      "ऋ": 144,
      "ऍ": 145,
      "ए": 146,
      "ऐ": 147,
      "ऑ": 148,
      "ओ": 149,
      "औ": 150,
      "क": 151,
      "ख": 152,
      "ग": 153,
      "घ": 154,
      "ङ": 155,
      "च": 156,
      "छ": 157,
      "ज": 158,
      "झ": 159,
      "ञ": 160,
      "ट": 161,
      "ठ": 162,
      "ड": 163,
      "ढ": 164,
      "ण": 165,
      "त": 166,
      "थ": 167,
      "द": 168,
      "ध": 169,
      "न": 170,
      "प": 171,
      "फ": 172,
      "ब": 173,
      "भ": 174,
      "म": 175,
      "य": 176,
      "र": 177,
      "ल": 178,
      "ळ": 179,
      "व": 180,
      "श": 181,
      "ष": 182,
      "स": 183,
      "ह": 184,
      "़": 185,
      "ा": 186,
      "ि": 187,
      "ी": 188,
      "ु": 189,
      "ू": 190,
      "ृ": 191,
      "े": 192,
      "ै": 193,
      "ॉ": 194,
      "ॊ": 195,
      "ो": 196,
      "ौ": 197,
      "्": 198,
      "।": 199,
      "०": 200,
      "१": 201,
      "२": 202,
      "३": 203,
      "४": 204,
      "५": 205,
      "६": 206,
      "७": 207,
      "८": 208,
      "९": 209,
      "॰": 210,
      "ஃ": 211,
      "அ": 212,
      "ஆ": 213,
      "இ": 214,
      "ஈ": 215,
      "உ": 216,
      "ஊ": 217,
      "எ": 218,
      "ஏ": 219,
      "ஐ": 220,
      "ஒ": 221,
      "ஓ": 222,
      "க": 223,
      "ங": 224,
      "ச": 225,
      "ஜ": 226,
      "ஞ": 227,
      "ட": 228,
      "ண": 229,
      "த": 230,
      "ந": 231,
      "ன": 232,
      "ப": 233,
      "ம": 234,
      "ய": 235,
      "ர": 236,
      "ற": 237,
      "ல": 238,
      "ள": 239,
      "ழ": 240,
      "வ": 241,
      "ஷ": 242,
      "ஸ": 243,
      "ஹ": 244,
      "ா": 245,
      "ி": 246,
      "ீ": 247,
      "ு": 248,
      "ூ": 249,
      "ெ": 250,
      "ே": 251,
      "ை": 252,
      "ொ": 253,
      "ோ": 254,
      "ௌ": 255,
      "்": 256,
      "ం": 257,
      "ః": 258,
      "అ": 259,
      "ఆ": 260,
      "ఇ": 261,
      "ఈ": 262,
      "ఉ": 263,
      "ఋ": 264,
      "ఎ": 265,
      "ఏ": 266,
      "ఐ": 267,
      "ఒ": 268,
      "ఓ": 269,
      "ఔ": 270,
      "క": 271,
      "ఖ": 272,
      "గ": 273,
      "ఘ": 274,
      "చ": 275,
      "ఛ": 276,
      "జ": 277,
      "ఞ": 278,
      "ట": 279,
      "ఠ": 280,
      "డ": 281,
      "ఢ": 282,
      "ణ": 283,
      "త": 284,
      "థ": 285,
      "ద": 286,
      "ధ": 287,
      "న": 288,
      "ప": 289,
      "ఫ": 290,
      "బ": 291,
      "భ": 292,
      "మ": 293,
      "య": 294,
      "ర": 295,
      "ల": 296,
      "ళ": 297,
      "వ": 298,
      "శ": 299,
      "ష": 300,
      "స": 301,
      "హ": 302,
      "ా": 303,
      "ి": 304,
      "ీ": 305,
      "ు": 306,
      "ూ": 307,
      "ృ": 308,
      "ె": 309,
      "ే": 310,
      "ై": 311,
      "ొ": 312,
      "ో": 313,
      "ౌ": 314,
      "్": 315,
      "ṅ": 316,
      "ṇ": 317,
      "Ṛ": 318,
      "ṣ": 319,
      "ṭ": 320,
      "Ἰ": 321,
      "‌": 322,
      "‍": 323,
      "‎": 324,
      "–": 325,
      "—": 326,
      "‘": 327,
      "’": 328,
      "“": 329,
      "”": 330,
      "†": 331,
      "•": 332,
      "′": 333,
      "‹": 334,
      "›": 335,
      "⁡": 336,
      "₹": 337,
      "↑": 338,
      "−": 339,
      "▁": 340,
      "﻿": 341,
      "wi": 342,
      "ki": 343,
      "wiki": 344,
      "ia": 345,
      "dia": 346,
      "or": 347,
      "tt": 348,
      ":/": 349,
      "htt": 350,
      "http": 351,
      "://": 352,
      "](": 353,
      "https": 354,
      "https://": 355,
      "pe": 356,
      "](https://": 357,
      "g/": 358,
      ".or": 359,
      ".org/": 360,
      "pedia": 361,
      ".wiki": 362,
      ".org/wiki": 363,
      ".org/wiki/": 364,
      ".wikipedia": 365,
      ".wikipedia.org/wiki/": 366,
      "▁[": 367,
      "te": 368,
      "▁\"": 369,
      "in": 370,
      "\")": 371,
      "en": 372,
      "an": 373,
      "on": 374,
      "20": 375,
      "்த": 376,
      "ta": 377,
      "th": 378,
      "ti": 379,
      "re": 380,
      "ிய": 381,
      "In": 382,
      "er": 383,
      "ar": 384,
      "India": 385,
      "hi": 386,
      "al": 387,
      "ந்த": 388,
      "](https://en": 389,
      "](https://en.wikipedia.org/wiki/": 390,
      "es": 391,
      "்க": 392,
      "](https://ta": 393,
      "](https://ta.wikipedia.org/wiki/": 394,
      "ci": 395,
      "ப்": 396,
      "of": 397,
      "இந்த": 398,
      "ம்": 399,
      "te_": 400,
      "இந்திய": 401,
      "▁|": 402,
      "#ci": 403,
      "#cite_": 404,
      "ार": 405,
      "om": 406,
      "is": 407,
      "ed": 408,
      "the": 409,
      "tion": 410,
      "](https://hi": 411,
      "](https://hi.wikipedia.org/wiki/": 412,
      "ன்": 413,
      "▁क": 414,
      "OT": 415,
      "்ட": 416,
      "▁ப": 417,
      "201": 418,
      "and": 419,
      "ou": 420,
      "▁(": 421,
      "्र": 422,
      "oo": 423,
      "இந்தியா": 424,
      "ல்": 425,
      "ப்ப": 426,
      "▁the": 427,
      "▁of": 428,
      "19": 429,
      "▁-": 430,
      "it": 431,
      "as": 432,
      "200": 433,
      "-0": 434,
      "भार": 435,
      "भारत": 436,
      "no": 437,
      "le": 438,
      "க்க": 439,
      "ர்": 440,
      "து": 441,
      "ic": 442,
      "ட்ட": 443,
      "▁स": 444,
      "](https://ta.wikipedia.org/wiki/இந்தியா": 445,
      "▁ம": 446,
      "id": 447,
      "ook": 448,
      "▁India": 449,
      "ra": 450,
      "த்த": 451,
      "▁க": 452,
      "▁in": 453,
      "ref": 454,
      "-1": 455,
      "ள்": 456,
      "](https://en.wikipedia.org/wiki/India": 457,
      "note": 458,
      "#cite_ref": 459,
      "#cite_note": 460,
      "[[": 461,
      "ing": 462,
      "ri": 463,
      "#cite_ref-": 464,
      "#cite_note-": 465,
      "78": 466,
      "et": 467,
      "▁and": 468,
      "▁த": 469,
      "▁s": 470,
      "ent": 471,
      "FO": 472,
      "ரு": 473,
      "NOT": 474,
      "OTNOT": 475,
      "FOOTNOT": 476,
      "FOOTNOTE": 477,
      "\\_": 478,
      "▁A": 479,
      "▁म": 480,
      "▁C": 481,
      "▁p": 482,
      "com": 483,
      "्य": 484,
      "am": 485,
      "us": 486,
      "ac": 487,
      "్ర": 488,
      "),": 489,
      "ation": 490,
      "▁S": 491,
      "ில்": 492,
      ").": 493,
      "978": 494,
      "▁*": 495,
      "ag": 496,
      "](https://te": 497,
      "](https://te.wikipedia.org/wiki/": 498,
      "ve": 499,
      "ும்": 500,
      "▁வ": 501,
      "ின்": 502,
      "ate": 503,
      "रा": 504,
      "▁प": 505,
      "▁f": 506,
      "lo": 507,
      "▁1": 508,
      "ww": 509,
      "we": 510,
      "ad": 511,
      "▁[↑": 512,
      "▁இ": 513,
      "ch": 514,
      "li": 515,
      "to": 516,
      "▁P": 517,
      "▁அ": 518,
      "our": 519,
      "சி": 520,
      "▁201": 521,
      "\"),": 522,
      "ங்க": 523,
      "ార": 524,
      "ul": 525,
      ".\n": 526,
      "ற்": 527,
      "he": 528,
      "▁b": 529,
      "ang": 530,
      "um": 531,
      "ें": 532,
      "ப்பு": 533,
      "▁c": 534,
      "ान": 535,
      "த்": 536,
      "-0)": 537,
      "ைய": 538,
      "ro": 539,
      "book": 540,
      "21": 541,
      "र्": 542,
      "ான": 543,
      "▁के": 544,
      "க்": 545,
      "](https://hi.wikipedia.org/wiki/भारत": 546,
      "ver": 547,
      "at": 548,
      "es/": 549,
      "▁ந": 550,
      "IS": 551,
      "00": 552,
      "books": 553,
      "▁ह": 554,
      "ce": 555,
      "▁m": 556,
      "lin": 557,
      "BN": 558,
      "▁R": 559,
      "्त": 560,
      "ur": 561,
      "red": 562,
      "▁M": 563,
      "ISBN": 564,
      "un": 565,
      "il": 566,
      "ist": 567,
      ".[[": 568,
      "ற்ற": 569,
      ".com": 570,
      "of_": 571,
      "_of_": 572,
      "ிர": 573,
      "ory": 574,
      "▁ச": 575,
      "ாக": 576,
      ".com/": 577,
      "ourc": 578,
      "web": 579,
      "IT": 580,
      "ter": 581,
      "chi": 582,
      "ாட்ட": 583,
      "ons": 584,
      "23": 585,
      "res": 586,
      "25": 587,
      "pg": 588,
      "ER": 589,
      "tic": 590,
      "EF": 591,
      "▁உ": 592,
      "▁T": 593,
      "▁a": 594,
      "ITER": 595,
      "Book": 596,
      "ITEREF": 597,
      "10": 598,
      "199": 599,
      "ial": 600,
      "ources/": 601,
      "ol": 602,
      "ాల": 603,
      ".g": 604,
      "या": 605,
      "▁ஆ": 606,
      "िक": 607,
      ":Book": 608,
      "Sources/": 609,
      ":BookSources/": 610,
      "st": 611,
      "▁d": 612,
      "டு": 613,
      ":BookSources/978": 614,
      "=1": 615,
      "தி": 616,
      "ண்": 617,
      "#C": 618,
      "fi": 619,
      "#cite_ref-FOOTNOTE": 620,
      "#cite_note-FOOTNOTE": 621,
      "▁में": 622,
      "#CITEREF": 623,
      "link": 624,
      "26": 625,
      ".j": 626,
      "india": 627,
      "enti": 628,
      "action": 629,
      "edit": 630,
      "ीय": 631,
      "్య": 632,
      "ண்ட": 633,
      "action=": 634,
      "?action=": 635,
      "▁अ": 636,
      "லை": 637,
      "▁to": 638,
      "&red": 639,
      "ved": 640,
      "link=1": 641,
      "edit&red": 642,
      "?action=edit&red": 643,
      "?action=edit&redlink=1": 644,
      "]](https://ta.wikipedia.org/wiki/இந்தியா": 645,
      "▁B": 646,
      "**": 647,
      "ig": 648,
      "-0-": 649,
      "cal": 650,
      "▁D": 651,
      "24": 652,
      "▁w": 653,
      "28": 654,
      "identi": 655,
      "భార": 656,
      "భారత": 657,
      "fier": 658,
      "identifier": 659,
      "ment": 660,
      "దే": 661,
      "ir": 662,
      "ni": 663,
      "ों": 664,
      "age": 665,
      "ாட்டு": 666,
      ")\n": 667,
      "దేశ": 668,
      "స్": 669,
      "-3": 670,
      "சு": 671,
      "ay": 672,
      "ber": 673,
      "]](https://en.wikipedia.org/wiki/India": 674,
      "em": 675,
      "-4": 676,
      "▁200": 677,
      "▁|\n": 678,
      "ind": 679,
      "\")\n": 680,
      "वि": 681,
      "identifier)": 682,
      "▁ప": 683,
      "ना": 684,
      "ொட": 685,
      "ள்ள": 686,
      "www": 687,
      "ity": 688,
      "_(": 689,
      "▁ज": 690,
      "ன்ன": 691,
      "con": 692,
      "्ष": 693,
      "▁**": 694,
      "ச்": 695,
      "ry": 696,
      "ld": 697,
      "సా": 698,
      "ly": 699,
      "calf": 700,
      "ाल": 701,
      "www.": 702,
      "_क": 703,
      "-8": 704,
      "etcalf": 705,
      "▁है": 706,
      "11": 707,
      "_த": 708,
      "up": 709,
      "ర్": 710,
      "▁E": 711,
      "me": 712,
      "கள": 713,
      "50": 714,
      "ha": 715,
      "▁द": 716,
      "archi": 717,
      "rom": 718,
      "ew": 719,
      "cial": 720,
      "▁H": 721,
      "त्र": 722,
      "22": 723,
      "న్": 724,
      "▁G": 725,
      "▁l": 726,
      "ion": 727,
      "राज": 728,
      "▁எ": 729,
      "கு": 730,
      "ेश": 731,
      "▁N": 732,
      "sia": 733,
      "न्": 734,
      "▁e": 735,
      "tu": 736,
      "िया": 737,
      "▁J": 738,
      "▁re": 739,
      "டி": 740,
      "ொடர்": 741,
      "▁[↑](https://ta.wikipedia.org/wiki/இந்தியா": 742,
      "in_": 743,
      "angu": 744,
      "30": 745,
      "சிய": 746,
      "Uni": 747,
      "](https://ta.wikipedia.org/wiki/ப": 748,
      "▁20": 749,
      "▁on": 750,
      "29": 751,
      "और": 752,
      "sh": 753,
      "gle": 754,
      "▁\"S": 755,
      "Metcalf": 756,
      "ress": 757,
      "▁ब": 758,
      "மை": 759,
      "▁[\"": 760,
      "ंग": 761,
      "oogle": 762,
      "id=": 763,
      "▁भारत": 764,
      "▁की": 765,
      "ub": 766,
      "for": 767,
      "கள்": 768,
      "archive": 769,
      "de": 770,
      "▁19": 771,
      "op": 772,
      "oun": 773,
      "books.g": 774,
      "books.google": 775,
      "?id=": 776,
      ".com/books": 777,
      "books.google.com/books": 778,
      "▁प्र": 779,
      "ला": 780,
      "▁त": 781,
      "books.google.com/books?id=": 782,
      "भा": 783,
      "्व": 784,
      "gory": 785,
      "_S": 786,
      "சிற": 787,
      "18": 788,
      "ன்னாட்டு": 789,
      "▁India\")": 790,
      "ategory": 791,
      ".jpg": 792,
      "ge": 793,
      "▁न": 794,
      "\"](https://": 795,
      "▁से": 796,
      "ts": 797,
      "_in_": 798,
      "The": 799,
      "ில": 800,
      "pecial": 801,
      "ategory:": 802,
      "im": 803,
      "_ப": 804,
      "▁[↑](https://en.wikipedia.org/wiki/India": 805,
      "16": 806,
      "27": 807,
      "40": 808,
      "▁और": 809,
      "archive.org/": 810,
      "vers": 811,
      "లు": 812,
      "el": 813,
      "▁[ISBN": 814,
      "க்கு": 815,
      "15": 816,
      "AA": 817,
      "ish": 818,
      "ற்றும்": 819,
      "▁[978": 820,
      "சிறப்பு": 821,
      "று": 822,
      "▁का": 823,
      "ational": 824,
      "outh": 825,
      "రా": 826,
      "து.": 827,
      "▁from": 828,
      "▁F": 829,
      "-9": 830,
      "▁or": 831,
      "orld": 832,
      "ன்னாட்டுத்": 833,
      "·**": 834,
      "▁**·**": 835,
      "_स": 836,
      "▁[*": 837,
      "▁•": 838,
      "17": 839,
      ":BookSources/978-0-": 840,
      "ma": 841,
      "▁th": 842,
      "्रे": 843,
      "_P": 844,
      "ता": 845,
      "with": 846,
      "web.": 847,
      "▁மற்றும்": 848,
      "्ट": 849,
      "_A": 850,
      "▁இந்தியா": 851,
      "web/": 852,
      "archive.org/web/": 853,
      "web.archive.org/web/": 854,
      "ார": 855,
      "▁\"ப": 856,
      "வு": 857,
      "13": 858,
      "భారతదేశ": 859,
      "▁ஒ": 860,
      "▁.": 861,
      "rie": 862,
      "*](https://": 863,
      "s/": 864,
      "14": 865,
      "ep": 866,
      "comm": 867,
      ".శ": 868,
      ".శ.": 869,
      "▁n": 870,
      "లో": 871,
      "ec": 872,
      "har": 873,
      "\").": 874,
      "]](https://ta.wikipedia.org/wiki/இந்தியா#cite_note-FOOTNOTE": 875,
      "సా.శ.": 876,
      "ட்": 877,
      "ற்க": 878,
      "▁[S": 879,
      ".in": 880,
      "rit": 881,
      "▁g": 882,
      "tem": 883,
      "pl": 884,
      "▁O": 885,
      "ரா": 886,
      "anguage": 887,
      "▁\"भारत": 888,
      "▁క": 889,
      "umb": 890,
      "▁h": 891,
      "ak": 892,
      "rieved": 893,
      "](https://ta.wikipedia.org/wiki/இந்தியா#CITEREF": 894,
      "स्त": 895,
      "▁व": 896,
      "ted": 897,
      "राज्य": 898,
      "70": 899,
      "-5": 900,
      "n_": 901,
      "versity": 902,
      "di": 903,
      "▁மு": 904,
      "क्ष": 905,
      "▁for": 906,
      "▁L": 907,
      "Har": 908,
      "ित": 909,
      "ov": 910,
      "ast": 911,
      "త్ర": 912,
      "न्द": 913,
      "--": 914,
      "px": 915,
      "os": 916,
      "ాలు": 917,
      "ரி": 918,
      "ab": 919,
      "▁./": 920,
      "-2": 921,
      "రి": 922,
      "PA": 923,
      "▁W": 924,
      "ால": 925,
      "est": 926,
      "క్": 927,
      "▁In": 928,
      "http://": 929,
      "வின்": 930,
      "ப்பட்ட": 931,
      "media": 932,
      "av": 933,
      "ust": 934,
      "]](https://en.wikipedia.org/wiki/India#cite_note-": 935,
      "▁आ": 936,
      "வில்": 937,
      "ంద": 938,
      "ata": 939,
      "த்து": 940,
      "▁p.": 941,
      "inal": 942,
      "&pg": 943,
      "conom": 944,
      "&pg=": 945,
      "ary": 946,
      "षा": 947,
      "▁---": 948,
      "पु": 949,
      "ந்து": 950,
      "over": 951,
      "per": 952,
      "load": 953,
      "gh": 954,
      ")[[": 955,
      "ति": 956,
      "ని": 957,
      "▁వ": 958,
      "_C": 959,
      "_of_India": 960,
      "35": 961,
      "ास": 962,
      "upload": 963,
      ".wikimedia": 964,
      "](https://en.wikipedia.org/wiki/India#CITEREF": 965,
      "ானது": 966,
      "commons": 967,
      "▁by": 968,
      "uc": 969,
      "ther": 970,
      "▁K": 971,
      "]](https://ta.wikipedia.org/wiki/இந்தியா#cite_note-": 972,
      "ens": 973,
      "வா": 974,
      "▁is": 975,
      "pedia/": 976,
      ".org/wikipedia/": 977,
      "upload.wikimedia": 978,
      "upload.wikimedia.org/wikipedia/": 979,
      "▁(identifier)": 980,
      "_(identifier)": 981,
      "▁(identifier)\")": 982,
      "bo": 983,
      "![": 984,
      "](https://upload.wikimedia.org/wikipedia/": 985,
      "art": 986,
      "thumb": 987,
      "commons/": 988,
      "36": 989,
      "\")*": 990,
      "tal": 991,
      "▁Indian": 992,
      "](https://upload.wikimedia.org/wikipedia/commons/": 993,
      "▁*[": 994,
      "_and": 995,
      "ud": 996,
      "2011": 997,
      "thumb/": 998,
      "&pg=PA": 999,
      "%2": 1000,
      "'s": 1001,
      "University": 1002,
      "ng": 1003,
      "ிற": 1004,
      "err": 1005,
      "2006": 1006,
      "38": 1007,
      "tein": 1008,
      "स्": 1009,
      "ண்டு": 1010,
      "do": 1011,
      "log": 1012,
      "ల్": 1013,
      "▁[A": 1014,
      ".gov": 1015,
      "](https://upload.wikimedia.org/wikipedia/commons/thumb/": 1016,
      "வை": 1017,
      "px-": 1018,
      "భారతదేశం": 1019,
      "ap": 1020,
      "*](https://books.google.com/books?id=": 1021,
      "47": 1022,
      "ors": 1023,
      "▁orig": 1024,
      "web.archive.org/web/201": 1025,
      "ear": 1026,
      "▁கு": 1027,
      "]](https://en.wikipedia.org/wiki/India#cite_note-FOOTNOTE": 1028,
      "भाषा": 1029,
      ".p": 1030,
      "-7": 1031,
      "ంగ": 1032,
      "48": 1033,
      "ங்கள": 1034,
      "2.": 1035,
      "▁&": 1036,
      "▁ப.": 1037,
      "▁தொடர்": 1038,
      "ow": 1039,
      "मा": 1040,
      "▁స": 1041,
      "▁को": 1042,
      "था": 1043,
      "##": 1044,
      "]](https://hi.wikipedia.org/wiki/भारत": 1045,
      "▁2011": 1046,
      "ஸ்": 1047,
      "▁The": 1048,
      "▁original": 1049,
      "णी": 1050,
      ".in/": 1051,
      "List": 1052,
      "und": 1053,
      "ount": 1054,
      "री": 1055,
      "ence": 1056,
      "ff": 1057,
      "டை": 1058,
      "▁t": 1059,
      "▁మ": 1060,
      "ages": 1061,
      "ll": 1062,
      "கா": 1063,
      "ம்ப": 1064,
      "ची": 1065,
      "देश": 1066,
      "-6": 1067,
      "▁ग": 1068,
      "▁பெ": 1069,
      "/https://": 1070,
      "▁Asia": 1071,
      "▁\"C": 1072,
      "ாடு": 1073,
      "2018": 1074,
      "les": 1075,
      "nd": 1076,
      "றை": 1077,
      "▁எண்": 1078,
      "_in_India": 1079,
      "ड़": 1080,
      "ன்ற": 1081,
      "_D": 1082,
      "▁[↑](https://ta.wikipedia.org/wiki/இந்தியா#cite_ref-FOOTNOTE": 1083,
      "39": 1084,
      "్రా": 1085,
      "▁पर": 1086,
      "ong": 1087,
      "▁be": 1088,
      "▁उ": 1089,
      "br": 1090,
      "▁[C": 1091,
      "46": 1092,
      "ys": 1093,
      "tes": 1094,
      "▁ए": 1095,
      "49": 1096,
      "ष्ट": 1097,
      "ाद": 1098,
      "லா": 1099,
      "▁है।": 1100,
      "artic": 1101,
      "▁பொ": 1102,
      "ிரு": 1103,
      "▁([": 1104,
      "கம்": 1105,
      "வி": 1106,
      "p.": 1107,
      "ీయ": 1108,
      "▁Ret": 1109,
      "aj": 1110,
      "▁श": 1111,
      "_के": 1112,
      "](https://en.wikipedia.org/wiki/S": 1113,
      "து.[[": 1114,
      "od": 1115,
      "▁Retrieved": 1116,
      "ut": 1117,
      "all": 1118,
      ".jp": 1119,
      "▁[↑](https://ta.wikipedia.org/wiki/இந்தியா#cite_ref-": 1120,
      "_T": 1121,
      "por": 1122,
      "▁ஒரு": 1123,
      "ండ": 1124,
      "1.": 1125,
      "ிரி": 1126,
      "ubl": 1127,
      "45": 1128,
      "ass": 1129,
      "ணி": 1130,
      "▁[म": 1131,
      "्रेणी": 1132,
      "▁உள்ள": 1133,
      ".jpg)": 1134,
      "_म": 1135,
      "ct": 1136,
      "▁[M": 1137,
      "opul": 1138,
      "श्रेणी": 1139,
      "ष्ट्र": 1140,
      "ேர": 1141,
      "_India": 1142,
      "▁[↑](https://en.wikipedia.org/wiki/India#cite_ref-": 1143,
      ".jpg/": 1144,
      "எண்": 1145,
      "का": 1146,
      "▁सं": 1147,
      "विश": 1148,
      "श्रेणी:": 1149,
      "▁\"ISBN": 1150,
      "ISBN_(identifier)": 1151,
      "ain": 1152,
      "ke": 1153,
      "லி": 1154,
      "▁தர": 1155,
      "cy": 1156,
      "ingh": 1157,
      "BA": 1158,
      "a_": 1159,
      "2010": 1160,
      "rg": 1161,
      "2009": 1162,
      "ले": 1163,
      "ans": 1164,
      "tern": 1165,
      "%2C": 1166,
      "37": 1167,
      "sher": 1168,
      "▁pp.": 1169,
      "ாள": 1170,
      "ने": 1171,
      "జ్య": 1172,
      "ance": 1173,
      "▁Press": 1174,
      "QBA": 1175,
      "QBAJ": 1176,
      "▁చ": 1177,
      "▁[978-0-": 1178,
      "60": 1179,
      "%20": 1180,
      "ेत्र": 1181,
      "ப்பட": 1182,
      "Special": 1183,
      "▁I": 1184,
      "ம்\")": 1185,
      "-10": 1186,
      "▁\"M": 1187,
      "प्र": 1188,
      "म्": 1189,
      "ொழ": 1190,
      "1998": 1191,
      "ht": 1192,
      "िल": 1193,
      "ரசு": 1194,
      "lig": 1195,
      "_M": 1196,
      "▁Category:": 1197,
      "▁கொ": 1198,
      "rchi": 1199,
      "తా": 1200,
      "▁வி": 1201,
      "ore": 1202,
      "pi": 1203,
      "s,": 1204,
      "ము": 1205,
      "Stein": 1206,
      "லக": 1207,
      "](https://en.wikipedia.org/wiki/C": 1208,
      "_தொடர்": 1209,
      "AAQBAJ": 1210,
      "నా": 1211,
      "ensus": 1212,
      "▁\"இந்திய": 1213,
      "తి": 1214,
      "్ట": 1215,
      "_के_": 1216,
      "](https://ta.wikipedia.org/wiki/இந்திய": 1217,
      "ப்_ப": 1218,
      "Harv": 1219,
      "ான்": 1220,
      "▁इ": 1221,
      "ture": 1222,
      "சிறப்பு:BookSources/978-0-": 1223,
      "umm": 1224,
      "्या": 1225,
      "errors": 1226,
      "▁போ": 1227,
      ":BookSources/978-1": 1228,
      "िय": 1229,
      "land": 1230,
      "▁[B": 1231,
      "-s": 1232,
      "Category:": 1233,
      "7.": 1234,
      "opulation": 1235,
      "_எண்": 1236,
      "_தர": 1237,
      "4.": 1238,
      "हि": 1239,
      "ी](https://hi.wikipedia.org/wiki/": 1240,
      "ியல்": 1241,
      "MetcalfMetcalf": 1242,
      "ज़": 1243,
      "సి": 1244,
      "tim": 1245,
      "▁[ப": 1246,
      "](https://ta.wikipedia.org/wiki/பன்னாட்டுத்": 1247,
      "▁\"பன்னாட்டுத்": 1248,
      "](https://ta.wikipedia.org/wiki/பன்னாட்டுத்_தர": 1249,
      "త్": 1250,
      "Indian": 1251,
      "▁எண்\")": 1252,
      "_தொடர்_எண்": 1253,
      "](https://ta.wikipedia.org/wiki/பன்னாட்டுத்_தர_தொடர்_எண்": 1254,
      "Ro": 1255,
      "▁[↑](https://hi.wikipedia.org/wiki/भारत": 1256,
      "ல்க": 1257,
      "▁இரு": 1258,
      "33": 1259,
      "सं": 1260,
      "सा": 1261,
      "▁\"B": 1262,
      ").\n": 1263,
      "ss": 1264,
      "indu": 1265,
      "al_": 1266,
      "▁with": 1267,
      "▁as": 1268,
      "](Special": 1269,
      "ர்க": 1270,
      "ற்ப": 1271,
      "nic": 1272,
      "ana": 1273,
      "plate": 1274,
      "▁\"Special": 1275,
      "▁[↑](https://en.wikipedia.org/wiki/India#cite_ref-FOOTNOTE": 1276,
      "ank": 1277,
      "त्त": 1278,
      "▁र": 1279,
      "9.": 1280,
      "ani": 1281,
      "▁இது": 1282,
      "▁[ISBN](https://ta.wikipedia.org/wiki/பன்னாட்டுத்_தர_தொடர்_எண்": 1283,
      "*.": 1284,
      "df": 1285,
      "new": 1286,
      "overn": 1287,
      "rchived": 1288,
      "_ம": 1289,
      "▁\"A": 1290,
      "80": 1291,
      "90": 1292,
      "5.": 1293,
      "s.": 1294,
      "▁V": 1295,
      "](https://en.wikipedia.org/wiki/M": 1296,
      "fn": 1297,
      "gra": 1298,
      "▁University": 1299,
      "3.": 1300,
      "▁[2": 1301,
      "▁(సా.శ.": 1302,
      "istory": 1303,
      "_s": 1304,
      "ார்": 1305,
      "ற்கு": 1306,
      "](http://": 1307,
      "ric": 1308,
      "యా": 1309,
      "र्व": 1310,
      "-p": 1311,
      "iss": 1312,
      "bot": 1313,
      "ंड": 1314,
      "ులు": 1315,
      "▁రా": 1316,
      "2007": 1317,
      "ard": 1318,
      "▁இந்திய": 1319,
      "](https://en.wikipedia.org/wiki/ISBN_(identifier)": 1320,
      "250": 1321,
      "▁[ISBN](https://en.wikipedia.org/wiki/ISBN_(identifier)": 1322,
      "▁[1": 1323,
      "56": 1324,
      "िस": 1325,
      "ரிய": 1326,
      "–సా.శ.": 1327,
      "titu": 1328,
      "▁(P": 1329,
      "its": 1330,
      "▁\"P": 1331,
      "க்கிய": 1332,
      "▁అ": 1333,
      "राष्ट्र": 1334,
      "ue": 1335,
      "▁[P": 1336,
      "-1)": 1337,
      "ையில்": 1338,
      "2008": 1339,
      "ి.": 1340,
      "ord": 1341,
      "_R": 1342,
      "▁பு": 1343,
      "ik": 1344,
      "ers": 1345,
      "htm": 1346,
      "▁ल": 1347,
      "▁no": 1348,
      "albot": 1349,
      "லைக்க": 1350,
      "1)": 1351,
      "ய்": 1352,
      "AAQBAJ&pg=PA": 1353,
      "▁सा": 1354,
      "▁ప్ర": 1355,
      "्षेत्र": 1356,
      "au": 1357,
      "▁[![": 1358,
      "67": 1359,
      "_B": 1360,
      "ism": 1361,
      "ations": 1362,
      "▁de": 1363,
      "hin": 1364,
      "ిక": 1365,
      ".pdf": 1366,
      "overnment": 1367,
      "▁பா": 1368,
      "चि": 1369,
      "out": 1370,
      "ame": 1371,
      "ex": 1372,
      "▁\"ம": 1373,
      "6.": 1374,
      "मन": 1375,
      "ी_": 1376,
      "తం": 1377,
      "▁राज्य": 1378,
      "iv": 1379,
      "MetcalfMetcalf2006": 1380,
      "2004": 1381,
      "Asher": 1382,
      "oc": 1383,
      "पा": 1384,
      "ங்கள்": 1385,
      "conomic": 1386,
      "श्रेणी:Harv": 1387,
      "times": 1388,
      ",_": 1389,
      "se": 1390,
      "जा": 1391,
      "▁\"म": 1392,
      ".pdf)": 1393,
      "DF": 1394,
      "திய": 1395,
      "ess": 1396,
      "▁भाषा": 1397,
      "டிய": 1398,
      "eral": 1399,
      "சா": 1400,
      "ిన": 1401,
      "▁हैं": 1402,
      "జ్యం": 1403,
      "▁was": 1404,
      "▁य": 1405,
      "▁वि": 1406,
      "▁\"T": 1407,
      "▁(PDF": 1408,
      "34": 1409,
      "_N": 1410,
      "ven": 1411,
      "▁ex": 1412,
      "ai": 1413,
      "▁भ": 1414,
      "_ந": 1415,
      "▁5": 1416,
      "_G": 1417,
      "▁are": 1418,
      "ile": 1419,
      "జా": 1420,
      "_1": 1421,
      "▁an": 1422,
      "ark": 1423,
      "தே": 1424,
      "](https://en.wikipedia.org/wiki/B": 1425,
      "ूची": 1426,
      "world": 1427,
      "மி": 1428,
      "திப்ப": 1429,
      "गर": 1430,
      "ంచ": 1431,
      "కు": 1432,
      "▁சம": 1433,
      "▁ஆக": 1434,
      "aki": 1435,
      "udd": 1436,
      "language": 1437,
      "த்தின்": 1438,
      "▁that": 1439,
      "omm": 1440,
      ")\")": 1441,
      "ries": 1442,
      "](https://te.wikipedia.org/wiki/భారతదేశం": 1443,
      "]](https://hi.wikipedia.org/wiki/भारत#cite_note-": 1444,
      "led": 1445,
      "ால்": 1446,
      "](https://ta.wikipedia.org/wiki/ம": 1447,
      "ical": 1448,
      "](https://en.wikipedia.org/wiki/P": 1449,
      "vi": 1450,
      "ेला": 1451,
      "ను": 1452,
      "పూ": 1453,
      "ash": 1454,
      "tics": 1455,
      "_b": 1456,
      "ian": 1457,
      "▁\"E": 1458,
      "10.": 1459,
      "हा": 1460,
      "▁De": 1461,
      "8.": 1462,
      "▁பிர": 1463,
      "களின்": 1464,
      "ove": 1465,
      "ine": 1466,
      "ford": 1467,
      "భా": 1468,
      "▁[D": 1469,
      "man": 1470,
      "▁r": 1471,
      "▁[ம": 1472,
      "▁3": 1473,
      "ange": 1474,
      "कार": 1475,
      "पर": 1476,
      "▁कर": 1477,
      "▁language": 1478,
      "ंग्रे": 1479,
      "CS": 1480,
      "/https://www.": 1481,
      "cl": 1482,
      "▁நி": 1483,
      "ath": 1484,
      "क्त": 1485,
      "िर": 1486,
      "ी\")": 1487,
      "ोल": 1488,
      "ప్ర": 1489,
      "esh": 1490,
      "riti": 1491,
      "44": 1492,
      "_அ": 1493,
      "85": 1494,
      "_p": 1495,
      "▁199": 1496,
      "oli": 1497,
      "कि": 1498,
      "मी": 1499,
      "ద్": 1500,
      "ింద": 1501,
      "ated": 1502,
      "ொழி": 1503,
      "Dw": 1504,
      "ty": 1505,
      "▁\"D": 1506,
      "tates": 1507,
      "uly": 1508,
      "றி": 1509,
      "eng": 1510,
      "onstitu": 1511,
      "\"\n": 1512,
      "\"](https://web.archive.org/web/201": 1513,
      "▁[the": 1514,
      "-b": 1515,
      "ies": 1516,
      "கை": 1517,
      "கப்": 1518,
      "த்தில்": 1519,
      "▁அமை": 1520,
      "ட்சி": 1521,
      "tin": 1522,
      "▁ఉ": 1523,
      "हिन्द": 1524,
      "lop": 1525,
      "▁செ": 1526,
      "india.gov": 1527,
      "ublic": 1528,
      "co": 1529,
      "ंध": 1530,
      "ेष": 1531,
      "ం:": 1532,
      "ern": 1533,
      "](https://hi.wikipedia.org/wiki/म": 1534,
      "_க": 1535,
      "▁whi": 1536,
      "Stein1998": 1537,
      "12": 1538,
      "xford": 1539,
      "tive": 1540,
      "count": 1541,
      "2014": 1542,
      "000": 1543,
      "ஞ்": 1544,
      "▁7": 1545,
      "த்திய": 1546,
      "ाना": 1547,
      "▁अन": 1548,
      "ல்கலைக்க": 1549,
      "ல்கலைக்கழ": 1550,
      "indi": 1551,
      "▁\"த": 1552,
      "க்கி": 1553,
      "திப்பகம்": 1554,
      "द्": 1555,
      "से": 1556,
      "▁ఆ": 1557,
      "▁क्षेत्र": 1558,
      "stan": 1559,
      "கிற": 1560,
      "மான": 1561,
      "\\_with": 1562,
      "anguages": 1563,
      "र्म": 1564,
      "ction": 1565,
      "\\_with\\_": 1566,
      "la": 1567,
      "/http://": 1568,
      "धान": 1569,
      "वा": 1570,
      "ोत": 1571,
      "250px-": 1572,
      "▁4": 1573,
      "\"))": 1574,
      "3)": 1575,
      "ஆம்": 1576,
      "மாக": 1577,
      "](https://en.wikipedia.org/wiki/A": 1578,
      "த்தி": 1579,
      "-g": 1580,
      "भि": 1581,
      "श्": 1582,
      "▁ర": 1583,
      "▁con": 1584,
      "ions": 1585,
      "▁\"List": 1586,
      "\").\n": 1587,
      "Singh": 1588,
      "duc": 1589,
      "ral": 1590,
      "ன.": 1591,
      "▁[த": 1592,
      "](https://ta.wikipedia.org/wiki/த": 1593,
      "ச்சி": 1594,
      "\"](https://www.": 1595,
      "-m": 1596,
      "धार": 1597,
      "ृत": 1598,
      "targ": 1599,
      "▁ने": 1600,
      "target": 1601,
      "77": 1602,
      "ple": 1603,
      "▁\"க": 1604,
      "](https://en.wikipedia.org/wiki/E": 1605,
      "குப்பு": 1606,
      "0.": 1607,
      "end": 1608,
      "▁we": 1609,
      "▁\"G": 1610,
      "మా": 1611,
      "▁–": 1612,
      "▁సా": 1613,
      "his": 1614,
      "्रा": 1615,
      "భారతీయ": 1616,
      "als": 1617,
      "conomy": 1618,
      "வன": 1619,
      "குப்பு:": 1620,
      "వా": 1621,
      "▁[G": 1622,
      "logy": 1623,
      "विशेष": 1624,
      "ritish": 1625,
      "_E": 1626,
      "▁[978-1": 1627,
      ".;": 1628,
      "▁\"R": 1629,
      "▁\"இந்தியா": 1630,
      "](https://en.wikipedia.org/wiki/T": 1631,
      "ட்டி": 1632,
      "▁which": 1633,
      "2)": 1634,
      "69": 1635,
      "के": 1636,
      "రు": 1637,
      "लेख": 1638,
      "்ட்": 1639,
      "▁li": 1640,
      "4)": 1641,
      "ous": 1642,
      "59": 1643,
      "ைக்": 1644,
      "▁[अ": 1645,
      "▁[க": 1646,
      "ப்படு": 1647,
      "yson": 1648,
      "fe": 1649,
      "51": 1650,
      "mber": 1651,
      "னி": 1652,
      "ுள்ள": 1653,
      "▁இந்தியாவின்": 1654,
      "RI": 1655,
      "fic": 1656,
      "వి": 1657,
      "ష్ట": 1658,
      "▁१": 1659,
      "▁South": 1660,
      "ార్": 1661,
      "ीय_": 1662,
      "పూ.": 1663,
      "oh": 1664,
      "qu": 1665,
      "List_of_": 1666,
      "வாக": 1667,
      "ாட": 1668,
      "ோர": 1669,
      "ட்டியல்": 1670,
      "_Asia": 1671,
      "iki": 1672,
      "mund": 1673,
      "thermund": 1674,
      "ंद": 1675,
      "ंत्र": 1676,
      "ूल": 1677,
      "ेल": 1678,
      "▁\"अ": 1679,
      "▁ति": 1680,
      "క్ష": 1681,
      "▁एक": 1682,
      "பகுப்பு:": 1683,
      "▁./பகுப்பு:": 1684,
      "Singh2009": 1685,
      "..": 1686,
      "/artic": 1687,
      "DP": 1688,
      "Kul": 1689,
      "rou": 1690,
      "▁[E": 1691,
      "▁\"N": 1692,
      "▁July": 1693,
      "▁India's": 1694,
      "▁18": 1695,
      "னர்": 1696,
      "▁[R": 1697,
      "▁[भारत": 1698,
      "ali": 1699,
      "ril": 1700,
      "▁पु": 1701,
      "స్థ": 1702,
      "▁ret": 1703,
      "రిత్ర": 1704,
      "html": 1705,
      "विशेष:": 1706,
      "ree": 1707,
      "row": 1708,
      "-in": 1709,
      "ms": 1710,
      "ug": 1711,
      "](https://en.wikipedia.org/wiki/D": 1712,
      "ood": 1713,
      "ummit": 1714,
      "521": 1715,
      "தன்": 1716,
      "னை": 1717,
      "-81": 1718,
      "ost": 1719,
      "ोग": 1720,
      "▁[N": 1721,
      "ties": 1722,
      "ach": 1723,
      "▁2014": 1724,
      "doi": 1725,
      "Talbot": 1726,
      "AsherTalbot": 1727,
      "](https://ta.wikipedia.org/wiki/க": 1728,
      "ும்.": 1729,
      "rov": 1730,
      "uary": 1731,
      "िण": 1732,
      "स्तान": 1733,
      "மம்": 1734,
      "▁U": 1735,
      "▁[T": 1736,
      "hist": 1737,
      "ல்ல": 1738,
      "](https://ta.wikipedia.org/wiki/இந்தியா#cite_ref-FOOTNOTE": 1739,
      "template": 1740,
      "_F": 1741,
      "lia": 1742,
      "mer": 1743,
      "arg": 1744,
      "velop": 1745,
      "▁2010": 1746,
      "▁2021": 1747,
      "news/": 1748,
      "ten": 1749,
      "▁\"ச": 1750,
      "▁கா": 1751,
      "న్న": 1752,
      "▁has": 1753,
      "2005": 1754,
      "▁\"The": 1755,
      "inist": 1756,
      "▁மா": 1757,
      "ற்று": 1758,
      "United": 1759,
      "![](https://upload.wikimedia.org/wikipedia/commons/thumb/": 1760,
      ".jpg/250px-": 1761,
      "-india": 1762,
      "hy": 1763,
      "Kulke": 1764,
      "son": 1765,
      "▁v": 1766,
      "▁ஆண்டு": 1767,
      "▁original](https://": 1768,
      "par": 1769,
      "▁Re": 1770,
      "ीप": 1771,
      "▁History": 1772,
      "68": 1773,
      "ளி": 1774,
      "▁து": 1775,
      "tary": 1776,
      "2003": 1777,
      "▁வெ": 1778,
      "▁retrieved": 1779,
      "tain": 1780,
      "pire": 1781,
      "na": 1782,
      "▁\"स": 1783,
      "▁प्रदेश": 1784,
      "क्षिण": 1785,
      "earch": 1786,
      "ledge": 1787,
      "ult": 1788,
      "ite": 1789,
      "ழ்": 1790,
      "ன்று": 1791,
      "ட்டு": 1792,
      "▁கால": 1793,
      "ign": 1794,
      "சியா": 1795,
      "cto": 1796,
      "गमन": 1797,
      "थि": 1798,
      "▁ter": 1799,
      "▁[स": 1800,
      "▁Octo": 1801,
      "▁[↑](https://hi.wikipedia.org/wiki/भारत#cite_ref-": 1802,
      "▁October": 1803,
      "ate_": 1804,
      "▁its": 1805,
      "pu": 1806,
      "விய": 1807,
      "ome": 1808,
      "pril": 1809,
      "sv": 1810,
      "43": 1811,
      "6)": 1812,
      "census": 1813,
      "o-": 1814,
      "द्य": 1815,
      "नी": 1816,
      "ी_स": 1817,
      "▁2": 1818,
      "▁तिथि": 1819,
      "1_": 1820,
      "hand": 1821,
      "ணை": 1822,
      "isher": 1823,
      "/978": 1824,
      "ack": 1825,
      "C&pg=PA": 1826,
      "ration": 1827,
      "une": 1828,
      "▁[Archived": 1829,
      "▁[Archived](https://": 1830,
      ".nic": 1831,
      "0%": 1832,
      "ँच": 1833,
      "यु": 1834,
      "ून": 1835,
      "மைய": 1836,
      "గా": 1837,
      "▁பகு": 1838,
      "ase": 1839,
      "ound": 1840,
      "62": 1841,
      "ames": 1842,
      "_ஆ": 1843,
      "நில": 1844,
      "▁அர": 1845,
      "டிமம்": 1846,
      "டிமம்:": 1847,
      "ah": 1848,
      "ంట": 1849,
      "కి": 1850,
      "▁ख": 1851,
      "alth": 1852,
      "▁2007": 1853,
      "▁तिथि:": 1854,
      "pend": 1855,
      "▁\"சிறப்பு:BookSources/978-0-": 1856,
      "](https://en.wikipedia.org/wiki/G": 1857,
      "](https://ta.wikipedia.org/wiki/சிறப்பு:BookSources/978-0-": 1858,
      "▁வே": 1859,
      "ச்ச": 1860,
      "idge": 1861,
      "▁17": 1862,
      "velopment": 1863,
      "05": 1864,
      "మ్రా": 1865,
      "ater": 1866,
      "▁भारतीय": 1867,
      "elhi": 1868,
      "ష్ట్ర": 1869,
      "IN": 1870,
      "வெ": 1871,
      "](https://ta.wikipedia.org/wiki/ச": 1872,
      "க்கப்பட்ட": 1873,
      "](https://ta.wikipedia.org/wiki/படிமம்:": 1874,
      "port": 1875,
      "58": 1876,
      "▁pe": 1877,
      "rad": 1878,
      "जन": 1879,
      "ढ़": 1880,
      "धिक": 1881,
      "ంత": 1882,
      "–1": 1883,
      "▁ch": 1884,
      "](https://en.wikipedia.org/wiki/N": 1885,
      "](https://en.wikipedia.org/wiki/R": 1886,
      "▁மி": 1887,
      "▁நில": 1888,
      "▁अभि": 1889,
      "▁देश": 1890,
      "▁अभिगमन": 1891,
      "usin": 1892,
      ".jpg)\n": 1893,
      "இல்": 1894,
      "டைய": 1895,
      "▁இந்த": 1896,
      "▁[ச": 1897,
      "▁reg": 1898,
      "harma": 1899,
      "outledge": 1900,
      "onstitution": 1901,
      "धर्म": 1902,
      "्री": 1903,
      "्रोत": 1904,
      "ing\\_": 1905,
      "▁जन": 1906,
      "▁तथा": 1907,
      "▁\"भारतीय": 1908,
      "grap": 1909,
      "orth": 1910,
      "▁(201": 1911,
      "மெ": 1912,
      "▁8": 1913,
      "on-": 1914,
      "ர்\")": 1915,
      "▁சு": 1916,
      "\")*.": 1917,
      "5)": 1918,
      "any": 1919,
      "_the": 1920,
      "bb": 1921,
      "त्": 1922,
      "बर": 1923,
      "పు": 1924,
      "▁च": 1925,
      "▁\"क": 1926,
      "▁\"In": 1927,
      "▁हैं।": 1928,
      ".nic.in/": 1929,
      "7)": 1930,
      "World": 1931,
      "pr": 1932,
      "val": 1933,
      "தார": 1934,
      "▁te": 1935,
      "▁\"சிறப்பு": 1936,
      "](https://en.wikipedia.org/wiki/List_of_": 1937,
      "](https://ta.wikipedia.org/wiki/சிறப்பு": 1938,
      "ulture": 1939,
      "ters": 1940,
      "ரிக்க": 1941,
      "DwAAQBAJ&pg=PA": 1942,
      "ed.": 1943,
      "mpire": 1944,
      "ती": 1945,
      "हर": 1946,
      "ूर्व": 1947,
      "्ल": 1948,
      "பு": 1949,
      "▁న": 1950,
      "க்கள்": 1951,
      "omb": 1952,
      "ort": 1953,
      "tate": 1954,
      "isation": 1955,
      "akistan": 1956,
      "மு": 1957,
      "▁\"அ": 1958,
      "ined": 1959,
      "tinent": 1960,
      "-20": 1961,
      "ran": 1962,
      "वं": 1963,
      "మి": 1964,
      "ాన": 1965,
      "](https://hi.wikipedia.org/wiki/क": 1966,
      "स्तक": 1967,
      "पुस्तक": 1968,
      "विशेष:पुस्तक": 1969,
      "्रोत/978": 1970,
      "aper": 1971,
      "dit": 1972,
      "sland": 1973,
      "▁மே": 1974,
      "திக": 1975,
      "▁பொரு": 1976,
      "](Special:BookSources/978-0-": 1977,
      "▁\"Special:BookSources/978-0-": 1978,
      "data": 1979,
      "bridge": 1980,
      "[![](https://upload.wikimedia.org/wikipedia/commons/thumb/": 1981,
      "मान": 1982,
      "పా": 1983,
      "▁ఇ": 1984,
      "▁త": 1985,
      "▁sub": 1986,
      "illi": 1987,
      "िका": 1988,
      "▁जा": 1989,
      "राष्ट्रीय": 1990,
      "భాష": 1991,
      "द्ध": 1992,
      "aw": 1993,
      "போர": 1994,
      "ளா": 1995,
      "continent": 1996,
      "களில்": 1997,
      "ambridge": 1998,
      "65": 1999,
      "men": 2000,
      "ishing": 2001,
      "ansk": 2002,
      ".sv": 2003,
      "File": 2004,
      "दी": 2005,
      "रकार": 2006,
      "हार": 2007,
      "உலக": 2008,
      "▁சி": 2009,
      "](https://hi.wikipedia.org/wiki/स": 2010,
      "lection": 2011,
      "▁கோ": 2012,
      "▁தொ": 2013,
      "old": 2014,
      "age/": 2015,
      "पुर": 2016,
      "RICS": 2017,
      "_d": 2018,
      "ib": 2019,
      "hel": 2020,
      "dition": 2021,
      "ternational": 2022,
      "ashm": 2023,
      "Rothermund": 2024,
      "gen": 2025,
      "s-": 2026,
      "ன.[[": 2027,
      "ரை": 2028,
      "▁மூ": 2029,
      "](https://en.wikipedia.org/wiki/India#cite_ref-": 2030,
      "ங்கு": 2031,
      "▁கொண்டு": 2032,
      "▁இருந்த": 2033,
      "%28": 2034,
      "%29": 2035,
      "పాల": 2036,
      "లీ": 2037,
      "▁राज": 2038,
      "▁[क": 2039,
      "▁\"H": 2040,
      "▁\"ब": 2041,
      "विश्व": 2042,
      "▁इस": 2043,
      "_L": 2044,
      "a\")": 2045,
      "oi": 2046,
      "▁at": 2047,
      "ace": 2048,
      "india/": 2049,
      "▁Hindu": 2050,
      "▁New": 2051,
      "ffic": 2052,
      "anskrit": 2053,
      "ne": 2054,
      "uro": 2055,
      "▁un": 2056,
      "▁25": 2057,
      "▁ha": 2058,
      "த்தான": 2059,
      "▁உலக": 2060,
      "ograp": 2061,
      "ury": 2062,
      "▁దేశ": 2063,
      "▁मेला": 2064,
      "amil": 2065,
      "స్తా": 2066,
      "do-": 2067,
      "odern": 2068,
      "▁பதிப்பகம்": 2069,
      "▁An": 2070,
      "க்ஸ்": 2071,
      ".jpg)](https://ta.wikipedia.org/wiki/படிமம்:": 2072,
      "hr": 2073,
      "South": 2074,
      "ef": 2075,
      "▁[L": 2076,
      "ari": 2077,
      "▁were": 2078,
      "330": 2079,
      "57": 2080,
      "गु": 2081,
      "வே": 2082,
      "వర్": 2083,
      "ాయ": 2084,
      "▁26": 2085,
      "▁[இந்திய": 2086,
      "](https://ta.wikipedia.org/wiki/அ": 2087,
      "▁பல்கலைக்கழ": 2088,
      "aste": 2089,
      "▁स्": 2090,
      "ின்ற": 2091,
      "रालेख": 2092,
      "▁அதிக": 2093,
      "\")*,": 2094,
      "###": 2095,
      "File:": 2096,
      "air": 2097,
      "_m": 2098,
      "பா": 2099,
      "ைப்": 2100,
      "](https://books.google.com/books?id=": 2101,
      "ा_": 2102,
      "िव": 2103,
      "▁\"प": 2104,
      "erv": 2105,
      "▁10": 2106,
      "▁हु": 2107,
      "_की_स": 2108,
      "▁वर्": 2109,
      "_में": 2110,
      "1/": 2111,
      "PP": 2112,
      "Wiki": 2113,
      "tro": 2114,
      "▁\"Indian": 2115,
      "india.gov.in/": 2116,
      "/0": 2117,
      "கி": 2118,
      "2023": 2119,
      "ese": 2120,
      "▁மொழி": 2121,
      "▁cent": 2122,
      "▁உரு": 2123,
      "berg": 2124,
      "eptem": 2125,
      "eptember": 2126,
      "*,": 2127,
      "tical": 2128,
      "▁2006": 2129,
      "ध्य": 2130,
      "्च": 2131,
      "▁[ब": 2132,
      "](https://hi.wikipedia.org/wiki/अ": 2133,
      "▁pro": 2134,
      "र्थ": 2135,
      "स्क": 2136,
      "ंग्रेज़": 2137,
      "మ్రాజ్యం": 2138,
      "रालेखित": 2139,
      "ஒக்ஸ்": 2140,
      "மானது": 2141,
      "▁9": 2142,
      "▁[K": 2143,
      "ியா": 2144,
      "uring": 2145,
      "irst": 2146,
      "▁2009": 2147,
      "ர்கள்": 2148,
      "போர்ட்": 2149,
      "ஒக்ஸ்போர்ட்": 2150,
      "2_": 2151,
      "197": 2152,
      "inistry": 2153,
      "national": 2154,
      "▁se": 2155,
      "▁Aug": 2156,
      "usic": 2157,
      "AsherTalbot2008": 2158,
      "▁August": 2159,
      "_ச": 2160,
      "ज्": 2161,
      "](File:": 2162,
      "chw": 2163,
      "▁நீ": 2164,
      "దేశ్": 2165,
      "▁भी": 2166,
      "urope": 2167,
      "▁பல்கலைக்கழகப்": 2168,
      "rib": 2169,
      "Fisher": 2170,
      "shi": 2171,
      "198": 2172,
      "▁15": 2173,
      "▁Mar": 2174,
      "ission": 2175,
      "roup": 2176,
      "KulkeRothermund": 2177,
      "/p": 2178,
      "Ar": 2179,
      "ces": 2180,
      "▁ad": 2181,
      "்கள்": 2182,
      "ும்,": 2183,
      "1994": 2184,
      "ligion": 2185,
      "120": 2186,
      "_भारत": 2187,
      "uk": 2188,
      "थान": 2189,
      "हास": 2190,
      "िट": 2191,
      "िश": 2192,
      "ం](https://te.wikipedia.org/wiki/": 2193,
      "▁April": 2194,
      "▁2018": 2195,
      "चित्र": 2196,
      ".\"\n": 2197,
      "ho": 2198,
      "plate_": 2199,
      "▁World": 2200,
      "2-0)": 2201,
      "pic": 2202,
      "year": 2203,
      "ork": 2204,
      "](https://en.wikipedia.org/wiki/India#cite_ref-FOOTNOTE": 2205,
      "▁Archived": 2206,
      "▁பெரு": 2207,
      "4%": 2208,
      "Pages": 2209,
      "द्र": 2210,
      "फ़": 2211,
      "ुख": 2212,
      "ంబ": 2213,
      "టి": 2214,
      "▁\"K": 2215,
      "one": 2216,
      "](https://hi.wikipedia.org/wiki/ब": 2217,
      "/c": 2218,
      "8/": 2219,
      "9)": 2220,
      "RC": 2221,
      "att": 2222,
      "ளர்": 2223,
      "▁ஊ": 2224,
      "▁ஓ": 2225,
      "▁[அ": 2226,
      "line": 2227,
      "ிரை": 2228,
      "ள்ளது.": 2229,
      "வார்": 2230,
      "▁ஆகிய": 2231,
      "மெரிக்க": 2232,
      "_K": 2233,
      "▁May": 2234,
      "Oxford": 2235,
      "ati": 2236,
      "lish": 2237,
      "शिया": 2238,
      "ంలో": 2239,
      "▁24": 2240,
      "alay": 2241,
      "omp": 2242,
      "](https://hi.wikipedia.org/wiki/भारत_में": 2243,
      "▁நட": 2244,
      "ill": 2245,
      "ிரா": 2246,
      "Harle": 2247,
      "ேரரசு": 2248,
      "ர்கள": 2249,
      "స్తాన్": 2250,
      "_%28": 2251,
      "ople": 2252,
      "Pages\\_": 2253,
      "-26": 2254,
      "31": 2255,
      "E0%": 2256,
      "▁September": 2257,
      "iron": 2258,
      "Dyson": 2259,
      "zberg": 2260,
      "](https://en.wikipedia.org/wiki/In": 2261,
      "raven": 2262,
      "artzberg": 2263,
      "▁பொது": 2264,
      "தேச": 2265,
      "chwartzberg": 2266,
      "Edit": 2267,
      "Page/": 2268,
      "ीन": 2269,
      "గు": 2270,
      "డు": 2271,
      "నే": 2272,
      "్చ": 2273,
      "▁21": 2274,
      "▁सम": 2275,
      "▁हि": 2276,
      "त्तर": 2277,
      "EditPage/": 2278,
      "_H": 2279,
      "a,": 2280,
      "ீன": 2281,
      "king": 2282,
      "▁[இ": 2283,
      "ன்ப": 2284,
      "▁வா": 2285,
      "▁நாடு": 2286,
      ":BookSources/978-81": 2287,
      "3-0)": 2288,
      "▁le": 2289,
      "tation": 2290,
      "मिल": 2291,
      "ुस": 2292,
      "మూ": 2293,
      "▁[H": 2294,
      "▁सूची": 2295,
      "్రీ": 2296,
      "జాత": 2297,
      "4-0)": 2298,
      "_3": 2299,
      "மா": 2300,
      "](https://en.wikipedia.org/wiki/H": 2301,
      "துகா": 2302,
      "Comb": 2303,
      "▁o": 2304,
      "▁\"L": 2305,
      "ongress": 2306,
      "Combined": 2307,
      "-to": 2308,
      "viron": 2309,
      "ision": 2310,
      "▁Comm": 2311,
      "lim": 2312,
      "रु": 2313,
      "ूच": 2314,
      "ूर": 2315,
      "లా": 2316,
      "▁[प": 2317,
      "eneral": 2318,
      "ంగా": 2319,
      "▁Asian": 2320,
      "▁\"இந்தியாவில்": 2321,
      ",000": 2322,
      "edi": 2323,
      "1-0)": 2324,
      "▁Metcalf": 2325,
      "uj": 2326,
      "ணு": 2327,
      "▁பர": 2328,
      "now": 2329,
      "க்கும்": 2330,
      "ide": 2331,
      "▁தொட": 2332,
      "▁உய": 2333,
      "times.com/": 2334,
      ":[": 2335,
      "कर": 2336,
      "ते": 2337,
      "డ్": 2338,
      "ిల్": 2339,
      "▁జ": 2340,
      "▁सरकार": 2341,
      "ashmir": 2342,
      "mb": 2343,
      "▁com": 2344,
      "\"))\n": 2345,
      "emplate": 2346,
      "_by": 2347,
      "radesh": 2348,
      "-d": 2349,
      "98": 2350,
      "_re": 2351,
      "lass": 2352,
      "தாக": 2353,
      "ுக்கு": 2354,
      "ூட்ட": 2355,
      "▁em": 2356,
      "2001": 2357,
      "umber": 2358,
      "▁count": 2359,
      "▁Ro": 2360,
      "_Press": 2361,
      "ght": 2362,
      "Stein2010": 2363,
      "330px-": 2364,
      "7-1": 2365,
      "_at": 2366,
      "▁[In": 2367,
      "2000": 2368,
      "▁En": 2369,
      "▁languages": 2370,
      "ect": 2371,
      "2018),": 2372,
      "](http://www.": 2373,
      "100": 2374,
      "yn": 2375,
      "पाल": 2376,
      "हु": 2377,
      "ा:": 2378,
      "ैद": 2379,
      "ोक": 2380,
      "లి": 2381,
      "▁घ": 2382,
      "▁२": 2383,
      "స్త్ర": 2384,
      "▁तक": 2385,
      "साँच": 2386,
      "किस्तान": 2387,
      ".india": 2388,
      "rin": 2389,
      "வர": 2390,
      "](https://en.wikipedia.org/wiki/K": 2391,
      "](https://ta.wikipedia.org/wiki/இந்தியாவில்": 2392,
      "▁இட": 2393,
      "2/": 2394,
      "▁India:": 2395,
      "▁2019": 2396,
      "▁this": 2397,
      "help": 2398,
      "-l": 2399,
      "▁India,": 2400,
      "▁16": 2401,
      "▁(PDF)": 2402,
      "udden": 2403,
      "how": 2404,
      "्ड": 2405,
      "ரோ": 2406,
      "வது": 2407,
      "కా": 2408,
      "ణా": 2409,
      "దక్ష": 2410,
      "ధిక": 2411,
      "க்கா": 2412,
      "▁தெ": 2413,
      "▁pl": 2414,
      "](https://hi.wikipedia.org/wiki/भारतीय_": 2415,
      "indust": 2416,
      "▁ప్రా": 2417,
      "▁వి": 2418,
      "ிருந்து": 2419,
      "సియా": 2420,
      "జాతీయ": 2421,
      "rd": 2422,
      "imes": 2423,
      "/A": 2424,
      "_language": 2425,
      "er,": 2426,
      "▁June": 2427,
      "▁2023": 2428,
      "AARC": 2429,
      "ளைய": 2430,
      "ூர்": 2431,
      "ெடு": 2432,
      "ley": 2433,
      "டிப்பட": 2434,
      "matics": 2435,
      "_and_": 2436,
      "न\")": 2437,
      "सम": 2438,
      "వం": 2439,
      "ped": 2440,
      "ों_की_स": 2441,
      "▁సం": 2442,
      "▁చరిత్ర": 2443,
      "श्चि": 2444,
      "_4": 2445,
      "uman": 2446,
      "-80": 2447,
      "ublishing": 2448,
      "-f": 2449,
      "io": 2450,
      "ron": 2451,
      "ிழ": 2452,
      "ant": 2453,
      "ikshi": 2454,
      "ikshit": 2455,
      "ofindia": 2456,
      "2019": 2457,
      "\\_errors": 2458,
      "▁Chin": 2459,
      "▁have": 2460,
      "%E0%": 2461,
      "ओं": 2462,
      "गण": 2463,
      "ीं": 2464,
      "ूप": 2465,
      "డి": 2466,
      "](https://hi.wikipedia.org/wiki/प": 2467,
      "aman": 2468,
      "▁2012": 2469,
      "]](https://hi.wikipedia.org/wiki/भारत#cite_note-FOOTNOTE": 2470,
      "_Indian_": 2471,
      "ொத்த": 2472,
      "peration": 2473,
      "▁2022": 2474,
      "_and_S": 2475,
      ".indiatimes.com/": 2476,
      "▁6": 2477,
      "▁22": 2478,
      "lob": 2479,
      "usiness": 2480,
      "-re": 2481,
      "1,": 2482,
      "_f": 2483,
      "▁errors": 2484,
      "▁\"F": 2485,
      "no-": 2486,
      "radition": 2487,
      "ritory": 2488,
      "▁([help": 2489,
      "▁errors\"))\n": 2490,
      "/S": 2491,
      "/f": 2492,
      "8)": 2493,
      "रब": 2494,
      "्स": 2495,
      "வர்": 2496,
      "ంధ": 2497,
      "▁ag": 2498,
      "▁किया": 2499,
      "ங்காள": 2500,
      "ticles": 2501,
      "olic": 2502,
      "స్త": 2503,
      "नाम": 2504,
      "error": 2505,
      "ிரித்தான": 2506,
      ".jpg)](File:": 2507,
      "▁[978-0-19": 2508,
      "_के_राज्य": 2509,
      "▁రాజ్యం": 2510,
      "▁సామ్రాజ్యం": 2511,
      "ंदिर": 2512,
      "వర్గ": 2513,
      "దక్షి": 2514,
      "1–": 2515,
      "_W": 2516,
      "cies": 2517,
      "and\\_": 2518,
      "\\_and\\_": 2519,
      "▁2008": 2520,
      "web.archive.org/web/20": 2521,
      "brary": 2522,
      "121": 2523,
      "32": 2524,
      "▁ar": 2525,
      "▁ri": 2526,
      "07": 2527,
      "ck": 2528,
      "fter": 2529,
      "mi": 2530,
      "▁ra": 2531,
      "ம்](https://ta.wikipedia.org/wiki/": 2532,
      "க்கள": 2533,
      "▁இர": 2534,
      "த்_த": 2535,
      "ower": 2536,
      "▁சமய": 2537,
      "illion": 2538,
      "_प्र": 2539,
      "दक्षिण": 2540,
      "ष्": 2541,
      "దీ": 2542,
      "int": 2543,
      "्वीप": 2544,
      "-2)": 2545,
      "ండి": 2546,
      "ज्ञ": 2547,
      "వర్గం:": 2548,
      "ori": 2549,
      "Union": 2550,
      "ystem": 2551,
      "▁(PDF).": 2552,
      "10.10": 2553,
      ".html": 2554,
      "ure": 2555,
      "கின்ற": 2556,
      "▁[Metcalf": 2557,
      "்த்த": 2558,
      "▁பார": 2559,
      "▁தே": 2560,
      "ையாக": 2561,
      "rop": 2562,
      "Articles": 2563,
      "-21": 2564,
      "▁[3": 2565,
      "▁[W": 2566,
      "cience": 2567,
      "%2F": 2568,
      "ंजा": 2569,
      "ख्या": 2570,
      "जी": 2571,
      "वन": 2572,
      "తర": 2573,
      "ది": 2574,
      "▁Y": 2575,
      "▁బ": 2576,
      "cember": 2577,
      "न्न": 2578,
      "▁Jan": 2579,
      ".jpg/330px-": 2580,
      "▁भाषा\")": 2581,
      "▁खाना": 2582,
      "ों_की_सूची": 2583,
      "ंजाब": 2584,
      "cms": 2585,
      "ya": 2586,
      "சை": 2587,
      "ஜ்": 2588,
      "ழு": 2589,
      "▁year": 2590,
      "ories": 2591,
      "ப்பி": 2592,
      "lear": 2593,
      "](https://ta.wikipedia.org/wiki/இந்தியா#cite_ref-": 2594,
      "▁Pl": 2595,
      "▁cons": 2596,
      "▁[*A": 2597,
      "uclear": 2598,
      "history": 2599,
      "துகாப்பு": 2600,
      "-23": 2601,
      "Sfn": 2602,
      "▁0.": 2603,
      "▁par": 2604,
      "ourn": 2605,
      "view": 2606,
      "uch": 2607,
      "बसे": 2608,
      "ुल": 2609,
      "வல்": 2610,
      "ஸ்த": 2611,
      "ట్": 2612,
      "ిత": 2613,
      "▁23": 2614,
      "\").[[": 2615,
      "ool": 2616,
      "act": 2617,
      "ில்லி": 2618,
      "ेंद्र": 2619,
      "](https://hi.wikipedia.org/wiki/भारत_क": 2620,
      "▁गया": 2621,
      "▁राज्यों": 2622,
      "கிறது.": 2623,
      "slands": 2624,
      "ளாதார": 2625,
      "5-0)": 2626,
      "ution": 2627,
      "▁error": 2628,
      "ority": 2629,
      "-17": 2630,
      "avid": 2631,
      "▁error:": 2632,
      "500": 2633,
      "6-0)": 2634,
      "tar": 2635,
      "▁their": 2636,
      "low": 2637,
      "▁[*The": 2638,
      "ugh": 2639,
      "ond": 2640,
      "tail": 2641,
      "▁into": 2642,
      "▁தலை": 2643,
      "ural": 2644,
      "1997": 2645,
      "▁dis": 2646,
      "▁இந்தியாவில்": 2647,
      "_చ": 2648,
      "fn_": 2649,
      "चल": 2650,
      "बंध": 2651,
      "ం\")": 2652,
      "▁target": 2653,
      "▁template": 2654,
      "▁\"మ": 2655,
      "inis": 2656,
      "etwe": 2657,
      "\\_no-": 2658,
      "▁Sfn": 2659,
      "▁हो": 2660,
      "▁नि": 2661,
      "template_": 2662,
      "न्द्र": 2663,
      "▁[मूल": 2664,
      "ियों": 2665,
      "ింది.": 2666,
      "target\\_errors": 2667,
      "doi.org/": 2668,
      "argest": 2669,
      "ographi": 2670,
      "_and_Sfn_": 2671,
      "\\_and\\_Sfn": 2672,
      "▁target:": 2673,
      "etween": 2674,
      "\\_no-target\\_errors": 2675,
      "template_errors": 2676,
      "_and_Sfn_template_errors": 2677,
      "\\_and\\_Sfn\\_no-target\\_errors": 2678,
      "\\_and\\_Sfn\\_no-target\\_errors\n": 2679,
      "-c": 2680,
      "_In": 2681,
      "eg": 2682,
      "pt": 2683,
      "ual": 2684,
      "oll": 2685,
      "also": 2686,
      "▁subcontinent": 2687,
      "கர்": 2688,
      "மன்ற": 2689,
      "](https://en.wikipedia.org/wiki/L": 2690,
      "ும்.[[": 2691,
      "anges": 2692,
      "ப்புரு": 2693,
      "ையின்": 2694,
      "ayan": 2695,
      "கள்\")": 2696,
      "leshow": 2697,
      "ிருந்த": 2698,
      "▁கொண்ட": 2699,
      "▁./பகுப்பு:Pages\\_": 2700,
      "▁region": 2701,
      "leshow/": 2702,
      "ee": 2703,
      "▁k": 2704,
      "annic": 2705,
      "ritannic": 2706,
      "ffair": 2707,
      "fficial": 2708,
      "-language": 2709,
      "ब्": 2710,
      "िन": 2711,
      "▁ఎ": 2712,
      "▁it": 2713,
      "▁[మ": 2714,
      "▁सबसे": 2715,
      "▁CITEREF": 2716,
      "igh": 2717,
      "ालय": 2718,
      "▁[Stein": 2719,
      "▁government": 2720,
      "स्था": 2721,
      "logue": 2722,
      "चीन": 2723,
      "article": 2724,
      "▁(సా.శ.పూ.": 2725,
      "▁पुरालेखित": 2726,
      "चित्र:": 2727,
      "▁सूची\")": 2728,
      "%E0%A": 2729,
      "▁पुरालेखित।": 2730,
      "86": 2731,
      "cre": 2732,
      "dom": 2733,
      "mar": 2734,
      "ocial": 2735,
      "ீவு": 2736,
      "2016": 2737,
      "▁இய": 2738,
      "ங்கி": 2739,
      "ats": 2740,
      "rits": 2741,
      "த்துறை": 2742,
      "▁பகுதி": 2743,
      "வார்ப்புரு": 2744,
      "9-0)": 2745,
      "▁Population": 2746,
      "210": 2747,
      "nglish": 2748,
      "-28": 2749,
      "ey": 2750,
      "han": 2751,
      "racy": 2752,
      "▁Empire": 2753,
      "▁December": 2754,
      "4–": 2755,
      "Sharma": 2756,
      "ibrary": 2757,
      "rans": 2758,
      "जरा": 2759,
      "ेव": 2760,
      "ैन": 2761,
      "ஐக்கிய": 2762,
      "நா": 2763,
      "மீ": 2764,
      "ழி": 2765,
      "ధ్య": 2766,
      "▁ஏ": 2767,
      "▁గ": 2768,
      "▁శ": 2769,
      "▁\"இ": 2770,
      "](https://hi.wikipedia.org/wiki/चित्र:": 2771,
      "](https://en.wikipedia.org/wiki/Indian_": 2772,
      "▁sfn": 2773,
      "entre": 2774,
      "▁உற்ப": 2775,
      "ियाँ": 2776,
      "மைப்பு": 2777,
      "ంద్ర": 2778,
      "ேர்த": 2779,
      "क्ति": 2780,
      "ஞ்ச": 2781,
      "uropean": 2782,
      "76": 2783,
      "CN": 2784,
      "ive": 2785,
      "og": 2786,
      "rish": 2787,
      "▁[F": 2788,
      "asia": 2789,
      "▁Ar": 2790,
      "/http://www.": 2791,
      "JP": 2792,
      "▁also": 2793,
      "\\_s": 2794,
      "▁2011\n": 2795,
      "▁original](https://www.": 2796,
      "%7": 2797,
      "-19": 2798,
      "53": 2799,
      "_உ": 2800,
      "jab": 2801,
      "ton": 2802,
      "ves": 2803,
      "▁\"J": 2804,
      "cient": 2805,
      "omen": 2806,
      "த்தை": 2807,
      "▁கட": 2808,
      "▁வர": 2809,
      "iles/": 2810,
      "▁குறி": 2811,
      "▁போது": 2812,
      "81": 2813,
      "uis": 2814,
      "प्त": 2815,
      "ोर": 2816,
      "।[[": 2817,
      "ైన": 2818,
      "▁al": 2819,
      "▁[उ": 2820,
      "](https://en.wikipedia.org/wiki/F": 2821,
      "](https://te.wikipedia.org/wiki/మ": 2822,
      "▁di": 2823,
      "▁పే": 2824,
      "▁जिस": 2825,
      "▁प्रा": 2826,
      "स्थान": 2827,
      "ुसार": 2828,
      "tel": 2829,
      "anisation": 2830,
      "entral": 2831,
      ".com/news/": 2832,
      "-40": 2833,
      "▁2020": 2834,
      ".svg": 2835,
      "▁January": 2836,
      "ournal": 2837,
      "CE": 2838,
      "GDP": 2839,
      "fl": 2840,
      "ili": 2841,
      "ணிய": 2842,
      "தல்": 2843,
      "வும்": 2844,
      "idd": 2845,
      "▁first": 2846,
      "▁2016": 2847,
      "▁நூ": 2848,
      "tals": 2849,
      "▁குடிய": 2850,
      "ovember": 2851,
      "415": 2852,
      "▁28": 2853,
      "▁Talbot": 2854,
      "ficial": 2855,
      "ritannica": 2856,
      "-of": 2857,
      "2–": 2858,
      "5_": 2859,
      ":EditPage/": 2860,
      "a/": 2861,
      "dust": 2862,
      "her": 2863,
      "pos": 2864,
      "च्च": 2865,
      "ण्ड": 2866,
      "वरी": 2867,
      "ట్ట": 2868,
      "హింద": 2869,
      "▁us": 2870,
      "▁భారతదేశం": 2871,
      "2012": 2872,
      "▁13": 2873,
      "](https://hi.wikipedia.org/wiki/भारत#CITEREF": 2874,
      "_सं": 2875,
      "ంగ్": 2876,
      "▁been": 2877,
      "▁है।\n": 2878,
      "▁साथ": 2879,
      "ద్ధ": 2880,
      "](https://hi.wikipedia.org/wiki/भारत_में_": 2881,
      "▁Commission": 2882,
      "National": 2883,
      "_I": 2884,
      "_இ": 2885,
      "_19": 2886,
      "ting": 2887,
      "நாட்டு": 2888,
      "▁per": 2889,
      "▁[J": 2890,
      "ம்ஸ்": 2891,
      "▁அல்ல": 2892,
      "▁but": 2893,
      "ports": 2894,
      "vironment": 2895,
      "ளையாட்டு": 2896,
      "▁அல்லது": 2897,
      "7-0)": 2898,
      "88": 2899,
      "▁ac": 2900,
      "time": 2901,
      "▁between": 2902,
      "▁world": 2903,
      "▁**[": 2904,
      "dus": 2905,
      "thno": 2906,
      "_University": 2907,
      "pre": 2908,
      "van": 2909,
      "आई": 2910,
      "ाम": 2911,
      "டன்": 2912,
      "ించ": 2913,
      "▁ఒ": 2914,
      "▁था": 2915,
      "▁धर्म": 2916,
      "▁భాష": 2917,
      "wing": 2918,
      "▁[క": 2919,
      "▁\"श्रेणी:Harv": 2920,
      "](https://hi.wikipedia.org/wiki/श्रेणी:Harv": 2921,
      "▁பிற": 2922,
      "▁सि": 2923,
      "▁மலை": 2924,
      "rab": 2925,
      "ங்கை": 2926,
      "ాల్": 2927,
      "याल": 2928,
      "▁\"South": 2929,
      "्वर": 2930,
      "map": 2931,
      "ritories": 2932,
      "▁./श्रेणी:Harv": 2933,
      "▁आधार": 2934,
      "▁संघ": 2935,
      "Robb": 2936,
      "](Special:BookSources/978-1": 2937,
      "▁\"Special:BookSources/978-1": 2938,
      "पाकिस्तान": 2939,
      "engal": 2940,
      "▁([help](https://hi.wikipedia.org/wiki/श्रेणी:Harv": 2941,
      "olicy": 2942,
      "_and_Sfn_template_errors?action=edit&redlink=1": 2943,
      "▁./श्रेणी:Harv\\_and\\_Sfn\\_no-target\\_errors\n": 2944,
      "▁([help](https://hi.wikipedia.org/wiki/श्रेणी:Harv_and_Sfn_template_errors?action=edit&redlink=1": 2945,
      "chno": 2946,
      "▁Fe": 2947,
      "_V": 2948,
      "▁im": 2949,
      "▁\"O": 2950,
      "eds.": 2951,
      "▁2017": 2952,
      "▁[\"India": 2953,
      "bruary": 2954,
      "emplate:": 2955,
      "73": 2956,
      "Craven": 2957,
      "Schwartzberg": 2958,
      "_c": 2959,
      "athe": 2960,
      "va": 2961,
      "டப்பட்ட": 2962,
      "பி": 2963,
      "ரச": 2964,
      "வ்": 2965,
      "▁es": 2966,
      "்கள": 2967,
      "▁பட்டியல்": 2968,
      "2017": 2969,
      "ர்ந்த": 2970,
      "▁மக்கள்": 2971,
      "ண்டா": 2972,
      "emb": 2973,
      "▁ஒன்ற": 2974,
      "▁./Category:": 2975,
      "டைம்ஸ்": 2976,
      "▁Asia\")": 2977,
      "ப்படும்": 2978,
      "▁நிறு": 2979,
      "country": 2980,
      "gency": 2981,
      "ிரைப்பட": 2982,
      "டிப்படையில்": 2983,
      "Craven1997": 2984,
      "]](https://te.wikipedia.org/wiki/భారతదేశం": 2985,
      "ok": 2986,
      "की": 2987,
      "णा": 2988,
      "तंत्र": 2989,
      "्ला": 2990,
      "చ్చ": 2991,
      "జీ": 2992,
      "ేంద్ర": 2993,
      "▁'": 2994,
      "▁विश्व": 2995,
      "▁\"उ": 2996,
      "▁\"క": 2997,
      "ale": 2998,
      "](https://hi.wikipedia.org/wiki/उ": 2999,
      "्यट": 3000,
      "ाली": 3001,
      "श्मी": 3002,
      "tent": 3003,
      "▁March": 3004,
      "lobal": 3005,
      "-25": 3006,
      "ID": 3007,
      "_20": 3008,
      "▁wi": 3009,
      "▁all": 3010,
      "here": 3011,
      "▁2024": 3012,
      "/articleshow/": 3013,
      "▁[Archived](https://web.archive.org/web/201": 3014,
      "▁[ந": 3015,
      "▁[doi": 3016,
      "்க்க": 3017,
      "1970": 3018,
      "▁part": 3019,
      "▁இல": 3020,
      "▁class": 3021,
      "▁ஆறு": 3022,
      "-317": 3023,
      "South_Asia": 3024,
      "Harle1994": 3025,
      "\".": 3026,
      "e/": 3027,
      "utt": 3028,
      "▁K.": 3029,
      "▁not": 3030,
      "parame": 3031,
      "ffairs": 3032,
      "99": 3033,
      "oci": 3034,
      "ंब": 3035,
      "गढ़": 3036,
      "ज्य": 3037,
      "तमिल": 3038,
      "दा": 3039,
      "भी": 3040,
      "वे": 3041,
      "ांग": 3042,
      "ेर": 3043,
      "త్య": 3044,
      "బ్": 3045,
      "మీ": 3046,
      "▁27": 3047,
      "estern": 3048,
      "edic": 3049,
      "्रिट": 3050,
      "](https://te.wikipedia.org/wiki/ద": 3051,
      "ade": 3052,
      "▁Pradesh": 3053,
      "urr": 3054,
      "్యా": 3055,
      "▁अधिक": 3056,
      "form": 3057,
      "రాష్ట్ర": 3058,
      "epublic": 3059,
      "▁./వర్గం:": 3060,
      "तिहास": 3061,
      "▁१९": 3062,
      "युक्त": 3063,
      "स्कृत": 3064,
      "▁हिन्द": 3065,
      "▁February": 3066,
      "ft": 3067,
      "iver": 3068,
      "தா": 3069,
      "ேற்கு": 3070,
      "▁\"ந": 3071,
      "rect": 3072,
      "ise": 3073,
      "▁system": 3074,
      "▁அரசு": 3075,
      "ையானது": 3076,
      "▁me": 3077,
      "unjab": 3078,
      "▁during": 3079,
      "களை": 3080,
      "archived": 3081,
      "ங்களில்": 3082,
      "▁பொ.": 3083,
      "rick": 3084,
      "▁பிரதேச": 3085,
      "ummit\")": 3086,
      "▁பொருளாதார": 3087,
      "▁ஊ.": 3088,
      "are": 3089,
      "tr": 3090,
      "wo": 3091,
      "▁[19": 3092,
      "91": 3093,
      "▁res": 3094,
      "▁30": 3095,
      "ung": 3096,
      "_De": 3097,
      "countries": 3098,
      "chnology": 3099,
      "BC": 3100,
      "Dikshit": 3101,
      "ham": 3102,
      "ology": 3103,
      "में": 3104,
      "रे": 3105,
      "கர": 3106,
      "ంక": 3107,
      "ప్": 3108,
      "యు": 3109,
      "eser": 3110,
      "இந்தியா)": 3111,
      "rade": 3112,
      "▁मान": 3113,
      "▁बाद": 3114,
      "्वार": 3115,
      "िल्ल": 3116,
      "తంత్ర": 3117,
      "MetcalfMetcalf2006),": 3118,
      "्राज्य": 3119,
      "ohn": 3120,
      "/article": 3121,
      "దక్షిణ": 3122,
      "iddle": 3123,
      "_University_Press": 3124,
      "Schwartzberg2023": 3125,
      "DikshitSchwartzberg2023": 3126,
      "7/": 3127,
      "gy": 3128,
      "▁<": 3129,
      "tec": 3130,
      "#cite_note-1": 3131,
      "▁Cambridge": 3132,
      "▁population": 3133,
      "c=": 3134,
      "ru": 3135,
      "▁over": 3136,
      "▁ed.": 3137,
      "▁1.": 3138,
      "▁Pro": 3139,
      "ember": 3140,
      "▁2004": 3141,
      "▁1950": 3142,
      "▁For": 3143,
      "box": 3144,
      "▁language\")": 3145,
      "censusindia.gov.in/": 3146,
      "az": 3147,
      "kar": 3148,
      "ணா": 3149,
      "▁ர": 3150,
      "](https://en.wikipedia.org/wiki/J": 3151,
      "▁படி": 3152,
      "▁தா": 3153,
      "▁இத": 3154,
      "identifiers": 3155,
      "_பட்டியல்": 3156,
      "▁[*India": 3157,
      "ிறி": 3158,
      "owland": 3159,
      "](https://en.wikipedia.org/wiki/South": 3160,
      "▁இந்தியப்": 3161,
      "மிழ்": 3162,
      "னர்.": 3163,
      "▁years": 3164,
      "&s": 3165,
      "-India": 3166,
      "_స": 3167,
      "_और": 3168,
      "एं": 3169,
      "वर्": 3170,
      "शास": 3171,
      "తము": 3172,
      "వే": 3173,
      "ష్": 3174,
      "ాన్": 3175,
      "▁comm": 3176,
      "▁कार": 3177,
      "#cite_ref-1": 3178,
      "▁co": 3179,
      "స్క": 3180,
      "\"](https://books.google.com/books?id=": 3181,
      "क्षेत्र": 3182,
      "माण": 3183,
      "ड़ा": 3184,
      "▁शास": 3185,
      "म्ब": 3186,
      "▁साम": 3187,
      "▁यह": 3188,
      "▁[भारतीय": 3189,
      "▁2021.\n": 3190,
      "KulkeRothermund2004": 3191,
      "ిల్లీ": 3192,
      "▁countries": 3193,
      "ज्ञान": 3194,
      "pp": 3195,
      "▁Th": 3196,
      "contain": 3197,
      ".as": 3198,
      "TR": 3199,
      "ob": 3200,
      "ென்ன": 3201,
      "▁en": 3202,
      "ince": 3203,
      "\")**": 3204,
      "▁பேரரசு": 3205,
      "ough": 3206,
      "▁இரா": 3207,
      "ப்புற": 3208,
      "▁நாட": 3209,
      "▁more": 3210,
      "▁சே": 3211,
      "▁Oxford": 3212,
      "▁(identifier)\"):[": 3213,
      "ம்பரிய": 3214,
      "▁உள்ளது.": 3215,
      "▁[2](https://ta.wikipedia.org/wiki/இந்தியா#cite_ref-FOOTNOTE": 3216,
      "▁[1](https://ta.wikipedia.org/wiki/இந்தியா#cite_ref-FOOTNOTE": 3217,
      "_நாடு": 3218,
      "cri": 3219,
      "ls": 3220,
      "ins": 3221,
      "tis": 3222,
      "▁2015": 3223,
      "1996": 3224,
      "4-7": 3225,
      "_भाषा": 3226,
      "press": 3227,
      "तर": 3228,
      "ाट": 3229,
      "జి": 3230,
      "ధాన": 3231,
      "బె": 3232,
      "▁थ": 3233,
      "▁\"विशेष:पुस्तक": 3234,
      "tab": 3235,
      "](https://hi.wikipedia.org/wiki/ISBN_(identifier)": 3236,
      "](https://hi.wikipedia.org/wiki/विशेष:पुस्तक": 3237,
      "▁स्रोत/978": 3238,
      "▁पा": 3239,
      "ారు": 3240,
      "▁bo": 3241,
      "](https://hi.wikipedia.org/wiki/भारत_के_": 3242,
      "लाई": 3243,
      "▁[ISBN](https://hi.wikipedia.org/wiki/ISBN_(identifier)": 3244,
      "_स्रोत/978": 3245,
      "▁కా": 3246,
      "▁./श्रेणी:": 3247,
      "api": 3248,
      "_के_आ": 3249,
      "▁రాజ": 3250,
      "▁लि": 3251,
      "▁2014.\n": 3252,
      "-to-": 3253,
      "साँचा:": 3254,
      "श्चिम": 3255,
      "ांग्ला": 3256,
      "](https://hi.wikipedia.org/wiki/विशेष:पुस्तक_स्रोत/978": 3257,
      "6–": 3258,
      "89": 3259,
      "8-0)": 3260,
      "Nav": 3261,
      "ban": 3262,
      "ura": 3263,
      "](https://www.": 3264,
      "onwe": 3265,
      "eration": 3266,
      "ந்தை": 3267,
      "esearch": 3268,
      "rah": 3269,
      "▁Press\").": 3270,
      "▁இருந்து": 3271,
      "timesofindia": 3272,
      "▁மாநில": 3273,
      "▁அரசிய": 3274,
      "▁\"சிறப்பு:BookSources/978-1": 3275,
      "](https://ta.wikipedia.org/wiki/சிறப்பு:BookSources/978-1": 3276,
      "▁other": 3277,
      "thnologue": 3278,
      "containing\\_": 3279,
      "onwealth": 3280,
      "timesofindia.indiatimes.com/": 3281,
      "4/": 3282,
      "7_": 3283,
      "ks": 3284,
      "▁1998": 3285,
      "▁(eds.": 3286,
      "▁Census": 3287,
      "olper": 3288,
      "cyc": 3289,
      "olpert": 3290,
      "/s": 3291,
      "79": 3292,
      "India)": 3293,
      "andhi": 3294,
      "▁Ass": 3295,
      "ulti": 3296,
      "censusindia.gov.in/2011": 3297,
      "-le": 3298,
      "1-0": 3299,
      "93": 3300,
      "_-": 3301,
      "_வ": 3302,
      "lor": 3303,
      "oor": 3304,
      "ंप": 3305,
      "मुख": 3306,
      "ணக்க": 3307,
      "ளவு": 3308,
      "దు": 3309,
      "మ్": 3310,
      "శ్": 3311,
      "▁ட": 3312,
      "▁राष्ट्रीय": 3313,
      "than": 3314,
      "ள்நாட்டு": 3315,
      "▁Sh": 3316,
      "](https://te.wikipedia.org/wiki/క": 3317,
      "ங்கா": 3318,
      "ources": 3319,
      "్యవ": 3320,
      "▁BCE": 3321,
      "▁जु": 3322,
      "▁है,": 3323,
      "ेश्वर": 3324,
      "▁National": 3325,
      "ంది.": 3326,
      "▁उप": 3327,
      "ாளு": 3328,
      "ligi": 3329,
      "▁यु": 3330,
      "olitical": 3331,
      "▁அமைப்பு": 3332,
      "hism": 3333,
      "மையான": 3334,
      "▁இந்து": 3335,
      "त्प": 3336,
      "गुजरा": 3337,
      "Dyson2018": 3338,
      "ूचना": 3339,
      "_प्रदेश": 3340,
      "_చరిత్ర": 3341,
      "्रिटिश": 3342,
      "▁\"W": 3343,
      "\\_parame": 3344,
      "\\_identifiers": 3345,
      "▁*The": 3346,
      "Qu": 3347,
      "a.": 3348,
      "bank": 3349,
      "ph": 3350,
      "andard": 3351,
      "▁Act": 3352,
      "▁Publishing": 3353,
      "ourt": 3354,
      "▁form": 3355,
      ".png": 3356,
      "%2C_": 3357,
      "pib": 3358,
      "300": 3359,
      "CO": 3360,
      "tre": 3361,
      "ிட்ட": 3362,
      "ுக": 3363,
      "ேம்ப": 3364,
      "iation": 3365,
      "▁[I": 3366,
      "ந்திய": 3367,
      "▁வட": 3368,
      "▁வரு": 3369,
      "ument": 3370,
      "ையும்": 3371,
      "▁most": 3372,
      "▁ஆற்ற": 3373,
      "ண்ண": 3374,
      "ண்ப": 3375,
      "▁என்று": 3376,
      "detail": 3377,
      "eport": 3378,
      "ompany": 3379,
      "ujar": 3380,
      "UN": 3381,
      "_पर": 3382,
      "ele": 3383,
      "var": 3384,
      "काल": 3385,
      "बाद": 3386,
      "रक्ष": 3387,
      "वाद": 3388,
      "ाष्ट्र": 3389,
      "ागर": 3390,
      "ोर्": 3391,
      "ఢిల్లీ": 3392,
      "పంచ": 3393,
      "▁[सं": 3394,
      "arb": 3395,
      "196": 3396,
      "-14": 3397,
      "\\_im": 3398,
      "using\\_": 3399,
      "ారి": 3400,
      "िक्ष": 3401,
      ".gov.in/": 3402,
      "_मेला": 3403,
      "नेमा": 3404,
      "धार_पर": 3405,
      "द्योग": 3406,
      "ters#": 3407,
      "हाराष्ट्र": 3408,
      "మూస": 3409,
      "_के_आधार_पर": 3410,
      "\\_parameters#": 3411,
      "_के_आधार_पर_भारत": 3412,
      "3_": 3413,
      "55": 3414,
      "cord": 3415,
      "alley": 3416,
      "▁India*](https://books.google.com/books?id=": 3417,
      "▁1,": 3418,
      "▁14": 3419,
      "ird": 3420,
      "ingham": 3421,
      "lad": 3422,
      "mu": 3423,
      "மய": 3424,
      "al_P": 3425,
      "](https://ta.wikipedia.org/wiki/இ": 3426,
      "ும்ப": 3427,
      "▁வீ": 3428,
      "▁12": 3429,
      "▁இவை": 3430,
      "chool": 3431,
      "umar": 3432,
      "க்_க": 3433,
      "urton": 3434,
      "emoc": 3435,
      "emple": 3436,
      "ிலிருந்து": 3437,
      "_பல்கலைக்கழ": 3438,
      "▁...": 3439,
      "▁முறை": 3440,
      "rovision": 3441,
      "வெளி": 3442,
      "▁கொண்டுள்ளது.": 3443,
      "▁அதிகரி": 3444,
      "Articles\\_with\\_": 3445,
      "JPG": 3446,
      "ணக்கெடு": 3447,
      "fr": 3448,
      "\\_template": 3449,
      "ross": 3450,
      "_of_the": 3451,
      "depend": 3452,
      "▁1947": 3453,
      "auth": 3454,
      "2),": 3455,
      "84": 3456,
      "lam": 3457,
      "y,": 3458,
      "एशिया": 3459,
      "ली": 3460,
      "వు": 3461,
      "orther": 3462,
      "▁\"భారతీయ": 3463,
      "▁स्व": 3464,
      "▁मंदिर": 3465,
      "्यव": 3466,
      "adu": 3467,
      "▁दक्षिण": 3468,
      "ंगा": 3469,
      "](https://te.wikipedia.org/wiki/భారతదేశం#cite_ref-": 3470,
      "ंग्रेज़ी": 3471,
      "▁पुरालेखित।.": 3472,
      "]](https://te.wikipedia.org/wiki/భారతదేశం#cite_note-": 3473,
      "▁जुलाई": 3474,
      "_के_आधार_पर_भारत_के_राज्य": 3475,
      "3),": 3476,
      "UCN": 3477,
      "_ter": 3478,
      "fric": 3479,
      "hol": 3480,
      "ule": 3481,
      "கப்_ப": 3482,
      "லு": 3483,
      "ாண்ட": 3484,
      "kim": 3485,
      "pear": 3486,
      "▁\"I": 3487,
      "\");": 3488,
      "இந்து": 3489,
      "ates": 3490,
      "▁bec": 3491,
      "ilg": 3492,
      "▁after": 3493,
      "▁wh": 3494,
      "sian": 3495,
      "fore": 3496,
      "▁பெரிய": 3497,
      "லாய": 3498,
      "articles": 3499,
      "rganisation": 3500,
      "](https://ta.wikipedia.org/wiki/இந்திய_": 3501,
      "▁பகுதிய": 3502,
      "▁மிகப்": 3503,
      "பாய்": 3504,
      "ளர்ச்சி": 3505,
      "embly": 3506,
      "ned": 3507,
      "](https://doi.org/": 3508,
      "ini": 3509,
      "cite": 3510,
      "ident": 3511,
      "▁sta": 3512,
      "▁Con": 3513,
      "▁Congress": 3514,
      "▁East": 3515,
      "▁[Asher": 3516,
      "ovement": 3517,
      ";\n": 3518,
      "_O": 3519,
      "ortal": 3520,
      "](https://web.archive.org/web/201": 3521,
      "ering": 3522,
      "▁state": 3523,
      "life": 3524,
      "▁2013": 3525,
      "istan": 3526,
      "cond": 3527,
      "worldbank": 3528,
      "orthern": 3529,
      "-78": 3530,
      "C),": 3531,
      "_to": 3532,
      "cent": 3533,
      "if": 3534,
      "lations": 3535,
      "otals": 3536,
      "y-": 3537,
      "तेल": 3538,
      "ीस": 3539,
      "००": 3540,
      "வற்ற": 3541,
      "ோர்": 3542,
      "జన": 3543,
      "టు": 3544,
      "టె": 3545,
      "▁नाम": 3546,
      "▁[Indian": 3547,
      "hip": 3548,
      "](https://ta.wikipedia.org/wiki/ந": 3549,
      "cis": 3550,
      "off": 3551,
      "▁பே": 3552,
      "▁பிரி": 3553,
      "ice": 3554,
      "▁கார": 3555,
      "▁தொழ": 3556,
      "▁पूर्व": 3557,
      "▁Pakistan": 3558,
      "](https://hi.wikipedia.org/wiki/भारत#cite_ref-": 3559,
      "▁अप": 3560,
      "नाग": 3561,
      "குடிய": 3562,
      "▁विक": 3563,
      "▁చె": 3564,
      "▁It": 3565,
      "నాయ": 3566,
      "▁[↑](https://hi.wikipedia.org/wiki/भारत#cite_ref-FOOTNOTE": 3567,
      "▁रूप": 3568,
      "–సా.శ.పూ.": 3569,
      "▁பாதுகாப்பு": 3570,
      "arket": 3571,
      "▁ఆర్": 3572,
      "▁மிக": 3573,
      "▁देशों": 3574,
      "పాలిత": 3575,
      "▁உருவா": 3576,
      "స్త్రం:": 3577,
      "▁ప్రాంత": 3578,
      "ேர்தல்": 3579,
      "▁நூற்ற": 3580,
      "ிரைப்படத்துறை": 3581,
      "ేంద్రపాలిత": 3582,
      "](https://te.wikipedia.org/wiki/దస్త్రం:": 3583,
      "_பல்கலைக்கழகப்_ப": 3584,
      "_பல்கலைக்கழகப்_பதிப்பகம்": 3585,
      "IA": 3586,
      "bn": 3587,
      "itz": 3588,
      "▁states": 3589,
      "▁R.": 3590,
      "logo": 3591,
      "▁[Archived](https://web.archive.org/web/20": 3592,
      "nown": 3593,
      "En": 3594,
      "tition": 3595,
      "aran": 3596,
      "▁India\"),": 3597,
      "▁C.": 3598,
      "▁Constitution": 3599,
      "come": 3600,
      "▁Sanskrit": 3601,
      "_of_C": 3602,
      "▁national": 3603,
      "under": 3604,
      "▁tradition": 3605,
      ".n": 3606,
      "NGDP": 3607,
      "_J": 3608,
      "hp": 3609,
      "pur": 3610,
      "zation": 3611,
      "னம்": 3612,
      "ப்த": 3613,
      "வங்காள": 3614,
      "▁he": 3615,
      "▁29": 3616,
      "▁[[": 3617,
      "ones": 3618,
      "agar": 3619,
      "ங்கில": 3620,
      "க்_": 3621,
      "ிரசு": 3622,
      "▁ab": 3623,
      "str": 3624,
      "டுத்த": 3625,
      "▁war": 3626,
      "-88": 3627,
      "ட்ஜ்": 3628,
      "ற்கா": 3629,
      "_மொழி": 3630,
      "தேசிய": 3631,
      "▁century": 3632,
      "▁பாரம்பரிய": 3633,
      "வார்ப்புரு:": 3634,
      "ிறிட்ஜ்": 3635,
      "ேம்பிறிட்ஜ்": 3636,
      "-50": 3637,
      ".htm": 3638,
      "/india": 3639,
      "New": 3640,
      "ंक": 3641,
      "टे": 3642,
      "धी": 3643,
      "ोन": 3644,
      "ఖ్య": 3645,
      "గో": 3646,
      "తో": 3647,
      "బి": 3648,
      "హి": 3649,
      "ार्": 3650,
      "▁कि": 3651,
      "▁English": 3652,
      "ंगाल": 3653,
      "▁तट": 3654,
      "▁न्या": 3655,
      "artment": 3656,
      "▁एवं": 3657,
      "▁Development": 3658,
      "meric": 3659,
      "%E0%A4%": 3660,
      "श्मीर": 3661,
      "స్కృ": 3662,
      "्यवस्था": 3663,
      "-n": 3664,
      "5–": 3665,
      "7,": 3666,
      "Ludden": 3667,
      "ece": 3668,
      "get": 3669,
      "vol": 3670,
      "ann": 3671,
      "arlia": 3672,
      "▁J.": 3673,
      "▁number": 3674,
      "umbai": 3675,
      "doc": 3676,
      "rown": 3677,
      "▁<https://": 3678,
      "ae": 3679,
      "ges": 3680,
      "oon": 3681,
      "க்த": 3682,
      "ூபாய்": 3683,
      "ெரு": 3684,
      "▁j": 3685,
      "▁ref": 3686,
      "▁[O": 3687,
      "arh": 3688,
      "க்கோ": 3689,
      "anglad": 3690,
      "▁2003": 3691,
      "ச்சிய": 3692,
      "▁later": 3693,
      "▁one": 3694,
      "ட்ப": 3695,
      "ustral": 3696,
      "ங்களை": 3697,
      "▁two": 3698,
      "▁Islands": 3699,
      "athak": 3700,
      "olitics": 3701,
      "▁\"Doi": 3702,
      "▁\"இந்தியாவின்": 3703,
      "oi_(identifier)": 3704,
      "▁பதிப்பகம்\"),": 3705,
      "ritsch": 3706,
      "dustry": 3707,
      "angladesh": 3708,
      "-C": 3709,
      "/India": 3710,
      "124": 3711,
      "ised": 3712,
      "230": 3713,
      "▁British": 3714,
      "▁[\"C": 3715,
      "Wikipedia": 3716,
      "120px-": 3717,
      "rishn": 3718,
      "2,": 3719,
      "545": 3720,
      "Template:": 3721,
      "_ప": 3722,
      "hindu": 3723,
      "ल\")": 3724,
      "सद": 3725,
      "హా": 3726,
      "ి.\n": 3727,
      "▁$": 3728,
      "▁ను": 3729,
      "▁జాతీయ": 3730,
      "▁[न": 3731,
      "▁\"द": 3732,
      "▁केंद्र": 3733,
      "्तर": 3734,
      "▁2001": 3735,
      "▁Hindi": 3736,
      "भाग": 3737,
      "160": 3738,
      "▁than": 3739,
      "%20%20": 3740,
      "संख्या": 3741,
      "▁अनुसार": 3742,
      "▁Reg": 3743,
      "▁प्रदेश\")": 3744,
      "▁स्थ": 3745,
      ".aspx": 3746,
      "్యవస్థ": 3747,
      "64": 3748,
      "ehr": 3749,
      "ner": 3750,
      "ria": 3751,
      "site": 3752,
      "மான்": 3753,
      "ர்த்த": 3754,
      "▁ro": 3755,
      "▁up": 3756,
      "2015": 3757,
      "](https://ta.wikipedia.org/wiki/இந்தியாவின்": 3758,
      "▁கட்ட": 3759,
      "etra": 3760,
      "▁music": 3761,
      "▁[978-81": 3762,
      "ராச": 3763,
      "▁முதல்": 3764,
      "▁விளையாட்டு": 3765,
      "CS1": 3766,
      "▁செய": 3767,
      "▁பெரும்ப": 3768,
      "▁ஓர்": 3769,
      "Sharma2007": 3770,
      "ாளுமன்ற": 3771,
      "ligious": 3772,
      "ehru": 3773,
      "_2": 3774,
      "ttar": 3775,
      "▁pri": 3776,
      "▁Pe": 3777,
      ",[[": 3778,
      "54": 3779,
      "6_": 3780,
      "71": 3781,
      "▁[t": 3782,
      "tionary": 3783,
      "▁Modern": 3784,
      "▁Times": 3785,
      "118": 3786,
      "harat": 3787,
      "▁had": 3788,
      "abad": 3789,
      "ector": 3790,
      "inister": 3791,
      "3/": 3792,
      "4-0": 3793,
      "d/": 3794,
      "yle": 3795,
      "एँ": 3796,
      "एस": 3797,
      "खा": 3798,
      "गो": 3799,
      "चे": 3800,
      "लि": 3801,
      "सी": 3802,
      "ैक": 3803,
      "ोड़": 3804,
      "ஃப்": 3805,
      "ணைய": 3806,
      "னா": 3807,
      "வான": 3808,
      "డా": 3809,
      "దా": 3810,
      "బడ": 3811,
      "మే": 3812,
      "రణ": 3813,
      "▁లో": 3814,
      "▁[हिन्द": 3815,
      "ार्ट": 3816,
      "▁மொத்த": 3817,
      "raj": 3818,
      "ram": 3819,
      "▁கட்டு": 3820,
      "▁incl": 3821,
      "▁मूल": 3822,
      "▁Per": 3823,
      "▁dance": 3824,
      "विधान": 3825,
      "ள்ளது.[[": 3826,
      "▁जो": 3827,
      "▁November": 3828,
      "▁बहु": 3829,
      "▁सेना": 3830,
      "epartment": 3831,
      "ட்ச": 3832,
      "▁కూ": 3833,
      "ake": 3834,
      "▁முன்ன": 3835,
      "ాలు,": 3836,
      "▁குறை": 3837,
      "ndaman": 3838,
      "ड़ी": 3839,
      ".jpg)](https://hi.wikipedia.org/wiki/चित्र:": 3840,
      "म्बर": 3841,
      "▁రాష్ట్ర": 3842,
      "▁भू": 3843,
      "னைத்து": 3844,
      "కిస్తాన్": 3845,
      "धिकार": 3846,
      "▁2006](https://ta.wikipedia.org/wiki/இந்தியா#CITEREF": 3847,
      "▁చరిత్ర\")": 3848,
      "्यटन": 3849,
      "மிழ்ந": 3850,
      "-29": 3851,
      "bi": 3852,
      "city": 3853,
      "ased": 3854,
      "inguis": 3855,
      "▁2011.\n": 3856,
      "S.": 3857,
      "dis": 3858,
      "ger": 3859,
      "lang": 3860,
      "▁India.": 3861,
      "ety": 3862,
      "▁Ch": 3863,
      "-90": 3864,
      "▁new": 3865,
      "▁northern": 3866,
      "able": 3867,
      "llch": 3868,
      "duction": 3869,
      "Fisher2018": 3870,
      "Bl": 3871,
      "IUCN": 3872,
      "K:": 3873,
      "_இந்திய": 3874,
      "can": 3875,
      "gan": 3876,
      "ij": 3877,
      "wal": 3878,
      "றிய": 3879,
      "வையாக": 3880,
      "ேப": 3881,
      "ொரு": 3882,
      "▁hi": 3883,
      "ந்திர": 3884,
      "▁பல": 3885,
      "இந்தியா\n": 3886,
      "▁மக்கள": 3887,
      "rac": 3888,
      "▁கூ": 3889,
      "▁S.": 3890,
      "▁வழ": 3891,
      "▁வணி": 3892,
      "loy": 3893,
      "▁Budd": 3894,
      "formatics": 3895,
      "ட்சிய": 3896,
      "avi": 3897,
      "2006),": 3898,
      "▁Press.": 3899,
      "ligence": 3900,
      "ummits": 3901,
      "ார்.": 3902,
      "▁./பகுப்பு:Articles\\_with\\_": 3903,
      "▁தேசிய": 3904,
      "▁உற்பத்தி": 3905,
      "telligence": 3906,
      "ுகலாய": 3907,
      "\\_templates": 3908,
      "EX": 3909,
      "LA": 3910,
      "तिक": 3911,
      "दू": 3912,
      "भू": 3913,
      "श्री": 3914,
      "ीत": 3915,
      "ील": 3916,
      "▁ఈ": 3917,
      "▁భారత": 3918,
      "encies": 3919,
      "2024": 3920,
      "](https://en.wikipedia.org/wiki/W": 3921,
      "1950": 3922,
      "1947": 3923,
      "नाथ": 3924,
      "_क्षेत्र": 3925,
      "త్రి": 3926,
      "ాలు](https://te.wikipedia.org/wiki/": 3927,
      "▁एशिया": 3928,
      "▁अन्य": 3929,
      "mbol": 3930,
      "गुजरात": 3931,
      "-a": 3932,
      "75": 3933,
      "Hindi": 3934,
      "_for": 3935,
      "_2011": 3936,
      "tl": 3937,
      "▁under": 3938,
      "ould": 3939,
      "riod": 3940,
      "▁Se": 3941,
      "▁became": 3942,
      "01": 3943,
      "1-4": 3944,
      "72": 3945,
      "IM": 3946,
      "Provision": 3947,
      "ail": 3948,
      "c.": 3949,
      "odi": 3950,
      "rar": 3951,
      "ris": 3952,
      "ua": 3953,
      "ui": 3954,
      "ள்க": 3955,
      "▁டைம்ஸ்": 3956,
      "▁[s": 3957,
      "▁[உ": 3958,
      "ியாக": 3959,
      "omin": 3960,
      "▁India\")\n": 3961,
      "த்தான்": 3962,
      "ama": 3963,
      "ussia": 3964,
      "▁வடி": 3965,
      "change": 3966,
      "road": 3967,
      "ானவை": 3968,
      "1999": 3969,
      "aylor": 3970,
      "▁election": 3971,
      "AAJ": 3972,
      "▁people": 3973,
      "▁உலகின்": 3974,
      "inistry_of_": 3975,
      "ணுவ": 3976,
      "ropped": 3977,
      "%7c": 3978,
      "ricket": 3979,
      "ujarat": 3980,
      "-B": 3981,
      "3TR": 3982,
      "RL": 3983,
      "pa": 3984,
      "tus": 3985,
      "tions": 3986,
      "▁(*": 3987,
      "▁Al": 3988,
      "▁States": 3989,
      "content": 3990,
      "▁[978-0-521": 3991,
      ".svg/": 3992,
      ".svg.png": 3993,
      "3TRt": 3994,
      "-h": 3995,
      "2).": 3996,
      "DD": 3997,
      "EO": 3998,
      "Re": 3999,
      "_క": 4000,
      "mp": 4001,
      "अन": 4002,
      "जय": 4003,
      "टक": 4004,
      "पी": 4005,
      "पति": 4006,
      "मह": 4007,
      "रो": 4008,
      "ेस": 4009,
      "తు": 4010,
      "పతి": 4011,
      "▁ड": 4012,
      "▁फ": 4013,
      "▁ని": 4014,
      "▁స్థ": 4015,
      "▁Union": 4016,
      "ia\")": 4017,
      "▁[द": 4018,
      "▁[అ": 4019,
      "▁[ప": 4020,
      "▁\"భారతదేశం": 4021,
      "omas": 4022,
      "▁they": 4023,
      "▁official": 4024,
      "rain": 4025,
      "▁spe": 4026,
      "్రి": 4027,
      "▁P.": 4028,
      "ments": 4029,
      "upta": 4030,
      "ర్వ": 4031,
      "▁Economic": 4032,
      "న్ని": 4033,
      "िया\")": 4034,
      "▁गण": 4035,
      "म्म": 4036,
      "ी_भाषा": 4037,
      "वंश": 4038,
      "మిళ": 4039,
      "▁जाता": 4040,
      "▁वर्ष": 4041,
      "ैदान": 4042,
      "వంశ": 4043,
      "तंत्रता": 4044,
      "वेब": 4045,
      "▁साम्राज्य": 4046,
      "द्योगिक": 4047,
      "langoff": 4048,
      "3%": 4049,
      "313": 4050,
      "Rowland": 4051,
      "_with": 4052,
      "ka": 4053,
      "war": 4054,
      "work": 4055,
      "தம": 4056,
      "ிலை": 4057,
      "▁am": 4058,
      "▁2.": 4059,
      "▁archived": 4060,
      "▁\"ஆ": 4061,
      "▁\"தி": 4062,
      "reat": 4063,
      "arge": 4064,
      "](https://ta.wikipedia.org/wiki/தி": 4065,
      "ம்,": 4066,
      "theast": 4067,
      "▁sup": 4068,
      "▁வந்த": 4069,
      "▁அக": 4070,
      "▁2019.": 4071,
      "ையை": 4072,
      "▁many": 4073,
      "▁million": 4074,
      "ilk": 4075,
      "▁[South": 4076,
      "ாலி": 4077,
      "த்துவ": 4078,
      "▁[2](https://en.wikipedia.org/wiki/India#cite_ref-FOOTNOTE": 4079,
      "▁[1](https://en.wikipedia.org/wiki/India#cite_ref-FOOTNOTE": 4080,
      "னித": 4081,
      "rowth": 4082,
      "_For": 4083,
      "▁மூல": 4084,
      "pics": 4085,
      "ிழக்கு": 4086,
      "prec": 4087,
      "▁பட்டியல்\")": 4088,
      "▁நிறுவன": 4089,
      "tecture": 4090,
      "Rowland1970": 4091,
      "/auth": 4092,
      "a)": 4093,
      "ealth": 4094,
      "resident": 4095,
      "▁D.": 4096,
      "▁2005": 4097,
      "imf": 4098,
      "▁*[The": 4099,
      ".jpg/120px-": 4100,
      "▁territories": 4101,
      "▁Commissioner": 4102,
      "119": 4103,
      "42": 4104,
      "WEO": 4105,
      "_n": 4106,
      "economic": 4107,
      "most": 4108,
      "ving": 4109,
      "▁[e": 4110,
      "inger": 4111,
      "uslim": 4112,
      "▁M.": 4113,
      "union": 4114,
      "▁Di": 4115,
      "▁[\"The": 4116,
      ".php": 4117,
      "_Delhi": 4118,
      "▁term": 4119,
      "ociety": 4120,
      "4]](https://ta.wikipedia.org/wiki/இந்தியா#cite_note-FOOTNOTE": 4121,
      "5]](https://ta.wikipedia.org/wiki/இந்தியா#cite_note-FOOTNOTE": 4122,
      ">.\n": 4123,
      "_మ": 4124,
      "_18": 4125,
      "_భాష": 4126,
      "ahar": 4127,
      "bh": 4128,
      "iri": 4129,
      "jan": 4130,
      "min": 4131,
      "ote": 4132,
      "ures": 4133,
      "y\")": 4134,
      "ze": 4135,
      "पे": 4136,
      "मंत्र": 4137,
      "रवरी": 4138,
      "िज़": 4139,
      "ेट": 4140,
      "ஜி": 4141,
      "லிய": 4142,
      "ఫ్": 4143,
      "▁ஐ": 4144,
      "▁స్": 4145,
      "▁[इ": 4146,
      "▁[బ": 4147,
      "▁[స": 4148,
      "▁[पु": 4149,
      "teen": 4150,
      "▁\"इ": 4151,
      "▁\"అ": 4152,
      "▁\"हिन्द": 4153,
      "arn": 4154,
      "ests": 4155,
      "astern": 4156,
      "icha": 4157,
      "▁கணக்கெடு": 4158,
      "▁தோ": 4159,
      "▁मु": 4160,
      "▁11": 4161,
      "ched": 4162,
      "hell": 4163,
      "▁caste": 4164,
      "urve": 4165,
      "_of_2011": 4166,
      "onsoon": 4167,
      "ண்ட்": 4168,
      "विज्ञान": 4169,
      "ाला": 4170,
      "22)": 4171,
      "న్నాయ": 4172,
      "_Paper": 4173,
      "▁కాల": 4174,
      "asting": 4175,
      "ాలు\")": 4176,
      "]](https://hi.wikipedia.org/wiki/भारत#cite_note-1": 4177,
      "▁பெற்ற": 4178,
      "ड़े": 4179,
      "▁उत्तर": 4180,
      "_Totals": 4181,
      ".jpg)](https://te.wikipedia.org/wiki/దస్త్రం:": 4182,
      "-108": 4183,
      "-107-1": 4184,
      "opulation_Totals": 4185,
      "▁[↑](https://hi.wikipedia.org/wiki/भारत#cite_ref-1": 4186,
      "ులు](https://te.wikipedia.org/wiki/": 4187,
      "ivil": 4188,
      "_1_of_2011": 4189,
      "\\_with\\_de": 4190,
      "▁రై": 4191,
      "னர்.[[": 4192,
      "द्यान": 4193,
      "▁tex": 4194,
      "▁News": 4195,
      "▁2006](https://en.wikipedia.org/wiki/India#CITEREF": 4196,
      "र्थिक": 4197,
      "▁समय": 4198,
      "ிரித்தானிய": 4199,
      "ஸ்தான்": 4200,
      "ughal": 4201,
      "హిందూ": 4202,
      "यालय": 4203,
      "censusindia.gov.in/2011census": 4204,
      "al_Population_Totals": 4205,
      "Provisional_Population_Totals": 4206,
      "ichael": 4207,
      "_Paper_1_of_2011": 4208,
      "Provisional_Population_Totals_Paper_1_of_2011": 4209,
      "Provisional_Population_Totals_Paper_1_of_2011_India": 4210,
      "-24": 4211,
      "rid": 4212,
      "▁time": 4213,
      "as,": 4214,
      "▁Ac": 4215,
      "▁3,": 4216,
      "▁Plate": 4217,
      "ographic": 4218,
      "details/": 4219,
      "inguistic": 4220,
      "127": 4221,
      "ix": 4222,
      "\"):": 4223,
      "es,": 4224,
      "▁Public": 4225,
      "▁War": 4226,
      "▁2021.": 4227,
      "▁period": 4228,
      "110": 4229,
      "52": 4230,
      "owe": 4231,
      "sha": 4232,
      "way": 4233,
      "கார": 4234,
      "டா": 4235,
      "தை": 4236,
      "வட": 4237,
      "ொது": 4238,
      "▁ஜ": 4239,
      "▁[India": 4240,
      "▁\"V": 4241,
      "alli": 4242,
      "ess/": 4243,
      "ப்பா": 4244,
      "ப்பாட்ட": 4245,
      "19-5": 4246,
      "▁கூட்ட": 4247,
      "▁modern": 4248,
      "istrar": 4249,
      "▁சட்ட": 4250,
      "▁உண": 4251,
      "▁உள்நாட்டு": 4252,
      "▁who": 4253,
      "emale": 4254,
      "ryan": 4255,
      "ell": 4256,
      "ம்பி": 4257,
      "ணிக்க": 4258,
      "%20இந்தியா\n": 4259,
      "▁[2](https://en.wikipedia.org/wiki/India#cite_ref-": 4260,
      "riculture": 4261,
      "▁[1](https://en.wikipedia.org/wiki/India#cite_ref-": 4262,
      "ommonwealth": 4263,
      "ated\\_parameters#": 4264,
      "india.gov.in": 4265,
      "ஞ்சிய": 4266,
      "▁2010](https://en.wikipedia.org/wiki/India#CITEREF": 4267,
      "usiness/": 4268,
      "ீனா": 4269,
      "ூர்வ": 4270,
      "▁./பகுப்பு:Pages\\_containing\\_": 4271,
      "cite\\_templates": 4272,
      "▁காரண": 4273,
      "precated\\_parameters#": 4274,
      "\\_with\\_deprecated\\_parameters#": 4275,
      "▁./பகுப்பு:Pages\\_containing\\_cite\\_templates": 4276,
      "\\_with\\_deprecated\\_parameters#%20இந்தியா\n": 4277,
      "▁./பகுப்பு:Pages\\_containing\\_cite\\_templates\\_with\\_deprecated\\_parameters#%20இந்தியா\n": 4278,
      ".fr": 4279,
      "Uttar": 4280,
      "ymbol": 4281,
      "डी": 4282,
      "डु": 4283,
      "णि": 4284,
      "त्य": 4285,
      "धु": 4286,
      "लोक": 4287,
      "ఆసియా": 4288,
      "ద్ర": 4289,
      "భూ": 4290,
      "మె": 4291,
      "య్య": 4292,
      "ర్య": 4293,
      "▁छ": 4294,
      "▁ల": 4295,
      "tex": 4296,
      "▁\"न": 4297,
      "▁\"ప": 4298,
      "▁\"బ": 4299,
      "▁\"స": 4300,
      "▁\"सं": 4301,
      "-06": 4302,
      "▁incre": 4303,
      "▁मा": 4304,
      "adi": 4305,
      "▁Raj": 4306,
      "▁Data": 4307,
      "28)": 4308,
      "-30": 4309,
      "नाव": 4310,
      "▁द्वार": 4311,
      "माज": 4312,
      "ी](https://hi.wikipedia.org/wiki/अ": 4313,
      "త్త": 4314,
      "▁అధిక": 4315,
      "▁ప్రదేశ్": 4316,
      "ప్రదేశ్": 4317,
      "सेना": 4318,
      "▁चु": 4319,
      "data.": 4320,
      "▁हुई": 4321,
      "2001),": 4322,
      "शासित": 4323,
      "त्पाद": 4324,
      "▁నుండి": 4325,
      "3TRtDwAAQBAJ&pg=PA": 4326,
      "7-0": 4327,
      "Library": 4328,
      "bs": 4329,
      "go": 4330,
      "i,": 4331,
      "tb": 4332,
      "▁50": 4333,
      "▁history": 4334,
      "pect": 4335,
      ".org": 4336,
      "▁[V": 4337,
      "▁[v": 4338,
      "enn": 4339,
      "religion": 4340,
      "▁some": 4341,
      "25.": 4342,
      "▁dec": 4343,
      "imalay": 4344,
      "▁Language": 4345,
      "Stein1998),": 4346,
      "do-A": 4347,
      "-ஆ": 4348,
      "-de": 4349,
      ".uk": 4350,
      ":S": 4351,
      "European": 4352,
      "hang": 4353,
      "தம்": 4354,
      "தற்கு": 4355,
      "யு": 4356,
      "றவு": 4357,
      "ொகை": 4358,
      "▁[ஆ": 4359,
      "▁[ஐ": 4360,
      "arly": 4361,
      "ந்தி": 4362,
      "](https://en.wikipedia.org/wiki/V": 4363,
      "▁பய": 4364,
      "19-9": 4365,
      "▁கரு": 4366,
      "▁கிரா": 4367,
      "▁such": 4368,
      "▁இதன்": 4369,
      "ண்.": 4370,
      "▁என்ப": 4371,
      "▁பெய": 4372,
      "_Temple": 4373,
      "ainting": 4374,
      "](https://ta.wikipedia.org/wiki/இந்திய_அ": 4375,
      "▁போட்டி": 4376,
      "904-7": 4377,
      "_summit": 4378,
      "677": 4379,
      "▁ஆகும்.": 4380,
      "▁\"Economy": 4381,
      "களின்_பட்டியல்": 4382,
      "▁நிலை": 4383,
      "rancis": 4384,
      "limate": 4385,
      "-80904-7": 4386,
      "avidson": 4387,
      "Navbox": 4388,
      "▁தொழில்": 4389,
      "IMF": 4390,
      "▁வடிவ": 4391,
      "/P": 4392,
      "87": 4393,
      "_on": 4394,
      "tandard": 4395,
      "203": 4396,
      "rature": 4397,
      "resent": 4398,
      "▁Nations": 4399,
      "archive.org/details/": 4400,
      "akh": 4401,
      ",NGDP": 4402,
      "3–": 4403,
      "C).": 4404,
      "Wolpert": 4405,
      "_ब": 4406,
      "ced": 4407,
      "stitu": 4408,
      "ईसा": 4409,
      "कल": 4410,
      "खाना": 4411,
      "तु": 4412,
      "नगर": 4413,
      "ल्": 4414,
      "ोम": 4415,
      "।\n": 4416,
      "ణి": 4417,
      "తమిళ": 4418,
      "మైన": 4419,
      "హార": 4420,
      "ోర్": 4421,
      "▁ऊ": 4422,
      "▁\"ఇ": 4423,
      "▁\"భారత": 4424,
      "isions": 4425,
      "](https://hi.wikipedia.org/wiki/इ": 4426,
      "▁(20": 4427,
      "ict": 4428,
      "▁सु": 4429,
      "](https://te.wikipedia.org/wiki/బ": 4430,
      "र्दू": 4431,
      "ild": 4432,
      "▁अग": 4433,
      "1162": 4434,
      "▁दिया": 4435,
      "▁बढ़": 4436,
      "_Centre": 4437,
      "▁మొ": 4438,
      "నాగ": 4439,
      "త్తర": 4440,
      "ులు\")": 4441,
      "राष्ट्रपति": 4442,
      "हिन्दी": 4443,
      "्रां": 4444,
      "ervation": 4445,
      "▁हुआ": 4446,
      "हासागर": 4447,
      "फ़रवरी": 4448,
      "ष्ण": 4449,
      "posed": 4450,
      "ंबई": 4451,
      "_Development": 4452,
      "▁लिए": 4453,
      "శ్మీ": 4454,
      "మూస:": 4455,
      "▁विकास": 4456,
      ".JPG": 4457,
      "2]](https://ta.wikipedia.org/wiki/இந்தியா#cite_note-FOOTNOTE": 4458,
      "66": 4459,
      "britannica": 4460,
      "casting": 4461,
      "page": 4462,
      "ras": 4463,
      "ெற்கா": 4464,
      "ௌத்த": 4465,
      "hib": 4466,
      "alore": 4467,
      "ந்தமான்": 4468,
      "](https://en.wikipedia.org/wiki/The": 4469,
      "▁பி": 4470,
      "ooperation": 4471,
      "ப்பை": 4472,
      "க்கம்": 4473,
      "த்தர": 4474,
      "த்திர": 4475,
      "▁summit\")": 4476,
      "▁வை": 4477,
      "▁விரி": 4478,
      "ங்கம்": 4479,
      "angalore": 4480,
      "▁நு": 4481,
      "▁Research": 4482,
      "olk": 4483,
      "▁ஆண்ட": 4484,
      "26)": 4485,
      "_(இந்தியா)": 4486,
      "▁long": 4487,
      "▁large": 4488,
      "▁general": 4489,
      "overty": 4490,
      "ப்_பேரரசு": 4491,
      "induism": 4492,
      "▁1994": 4493,
      "](https://en.wikipedia.org/wiki/Economy": 4494,
      "ப்படுகிற": 4495,
      "2003),": 4496,
      "ultural": 4497,
      "mentary": 4498,
      "rdu": 4499,
      "▁வரலா": 4500,
      "▁சேர்ந்த": 4501,
      "llchin": 4502,
      "roadcasting": 4503,
      "urvey": 4504,
      "britannica.com/": 4505,
      "226": 4506,
      "AG": 4507,
      "Ag": 4508,
      "glia": 4509,
      "jec": 4510,
      "les/": 4511,
      "oy": 4512,
      "▁[United": 4513,
      "lect": 4514,
      "▁Republic": 4515,
      "▁Min": 4516,
      "166": 4517,
      "▁group": 4518,
      "etraglia": 4519,
      "2-1": 4520,
      "_g": 4521,
      "_11": 4522,
      "_13": 4523,
      "back": 4524,
      "ihar": 4525,
      "1990": 4526,
      "▁Government": 4527,
      "ose": 4528,
      "logical": 4529,
      "ountry": 4530,
      "ikh": 4531,
      "\"](https://web.archive.org/web/20160": 4532,
      "worldbank.org/": 4533,
      "aranth": 4534,
      "/g": 4535,
      "1]](https://en.wikipedia.org/wiki/India#cite_note-FOOTNOTE": 4536,
      "3.\n": 4537,
      "Asia": 4538,
      "Empire": 4539,
      "IJ": 4540,
      "ker": 4541,
      "m.nic.in/": 4542,
      "ncl": 4543,
      "s.[[": 4544,
      "slam": 4545,
      "west": 4546,
      "क्स": 4547,
      "न](https://hi.wikipedia.org/wiki/": 4548,
      "योग": 4549,
      "वै": 4550,
      "स्ट": 4551,
      "ूर्": 4552,
      "ृति": 4553,
      "பெ": 4554,
      "மே": 4555,
      "ாட்சி": 4556,
      "ூக": 4557,
      "శా": 4558,
      "ైనా": 4559,
      "oral": 4560,
      "▁[आ": 4561,
      "▁[ज": 4562,
      "▁[ఇ": 4563,
      "▁[இந்தியா": 4564,
      "▁\"आ": 4565,
      "▁\"உ": 4566,
      "▁\"జ": 4567,
      "▁\"India": 4568,
      "arlo": 4569,
      "ந்தா": 4570,
      "](https://en.wikipedia.org/wiki/O": 4571,
      "ारी": 4572,
      "ार्च": 4573,
      "▁பின்": 4574,
      "▁கல": 4575,
      "▁south": 4576,
      "](https://te.wikipedia.org/wiki/ఇ": 4577,
      "](https://te.wikipedia.org/wiki/స": 4578,
      "▁[↑](https://te.wikipedia.org/wiki/భారతదేశం#cite_ref-": 4579,
      "▁அடிப்படையில்": 4580,
      "சிந்து": 4581,
      "cean": 4582,
      "ற்றி": 4583,
      "▁சா": 4584,
      "िक्": 4585,
      "▁Be": 4586,
      "▁BRICS": 4587,
      "భారత_": 4588,
      "_(India)": 4589,
      "▁जून": 4590,
      "▁दे": 4591,
      "▁दिस": 4592,
      "▁Ge": 4593,
      "▁General": 4594,
      "राजस्थान": 4595,
      "ிலான": 4596,
      "రాజ": 4597,
      "లో](https://te.wikipedia.org/wiki/": 4598,
      "dies": 4599,
      "రిజ": 4600,
      "క్కు": 4601,
      "apan": 4602,
      "ங்களின்": 4603,
      "▁எண்ணிக்க": 4604,
      "ండ్": 4605,
      "rgani": 4606,
      "नेपाल": 4607,
      "त्तरा": 4608,
      "ரியா": 4609,
      "hina": 4610,
      "जाति": 4611,
      "ஞ்சா": 4612,
      "▁क्षेत्र\")": 4613,
      "धानमंत्र": 4614,
      "த்திற்கு": 4615,
      "-gl": 4616,
      "ப்படுகிறது.": 4617,
      "](https://en.wikipedia.org/wiki/Doi_(identifier)": 4618,
      "ultan": 4619,
      "्रीका": 4620,
      "गणना": 4621,
      "▁York": 4622,
      "▁खाना\")": 4623,
      "▁निर्": 4624,
      "▁குறிப்பி": 4625,
      "▁world's": 4626,
      "▁[doi](https://en.wikipedia.org/wiki/Doi_(identifier)": 4627,
      "▁classical": 4628,
      "esert": 4629,
      "माणु": 4630,
      "▁பேரரசு\")": 4631,
      "emocracy": 4632,
      "குடியரசு": 4633,
      "స్కృతి": 4634,
      ".svg.png)": 4635,
      "म्मू": 4636,
      "nclm.nic.in/": 4637,
      "▁दिसम्बर": 4638,
      "/h": 4639,
      "9–": 4640,
      "QAAQBAJ&pg=PA": 4641,
      "oint": 4642,
      "ams": 4643,
      "▁land": 4644,
      "rief": 4645,
      "▁Kashmir": 4646,
      "ankar": 4647,
      "onstituent": 4648,
      "4-3": 4649,
      "74": 4650,
      "II": 4651,
      "Raj": 4652,
      "med": 4653,
      "yan": 4654,
      "▁Qu": 4655,
      "ictionary": 4656,
      "ammu": 4657,
      "267": 4658,
      "▁Bank": 4659,
      "▁north": 4660,
      "▁[Singh": 4661,
      ".gov/": 4662,
      "▁Press,": 4663,
      "▁2,": 4664,
      ".aspx?": 4665,
      "-27": 4666,
      "/C": 4667,
      "1]](https://ta.wikipedia.org/wiki/இந்தியா#cite_note-FOOTNOTE": 4668,
      "2-4": 4669,
      "3]](https://ta.wikipedia.org/wiki/இந்தியா#cite_note-FOOTNOTE": 4670,
      "6)\n": 4671,
      "Tritsch": 4672,
      "ett": 4673,
      "eat": 4674,
      "hal": 4675,
      "lood": 4676,
      "yer": 4677,
      "yayan": 4678,
      "னால்": 4679,
      "வண": 4680,
      "ஷ்": 4681,
      "ுடன்": 4682,
      "–4": 4683,
      "▁end": 4684,
      "dian": 4685,
      "▁[ஒக்ஸ்போர்ட்": 4686,
      "▁\"ஒக்ஸ்போர்ட்": 4687,
      "inance": 4688,
      "ியம்": 4689,
      "ally": 4690,
      "](https://ta.wikipedia.org/wiki/ஆ": 4691,
      "](https://ta.wikipedia.org/wiki/ஒக்ஸ்போர்ட்": 4692,
      "்டு": 4693,
      "▁பண்ப": 4694,
      "ouse": 4695,
      "▁கல்": 4696,
      "-135": 4697,
      "rim": 4698,
      "right": 4699,
      "▁Affairs": 4700,
      "▁Cons": 4701,
      "ங்கிரசு": 4702,
      "ular": 4703,
      "▁main": 4704,
      "25)": 4705,
      "olle": 4706,
      "ச்சு": 4707,
      "களுக்கு": 4708,
      "வாய": 4709,
      "▁*[தி": 4710,
      "லாம்": 4711,
      "▁Press](https://en.wikipedia.org/wiki/": 4712,
      "▁[Dyson": 4713,
      "▁துணை": 4714,
      "▁பொருட": 4715,
      "▁கோடி": 4716,
      "▁தொகை": 4717,
      "▁Hinduism": 4718,
      "ography": 4719,
      "▁பதிப்பகம்](https://ta.wikipedia.org/wiki/ஒக்ஸ்போர்ட்": 4720,
      "▁ஆகியவை": 4721,
      "_at_the": 4722,
      "industan": 4723,
      "ographical": 4724,
      "▁./பகுப்பு:Pages\\_using\\_": 4725,
      "ீவுகள்": 4726,
      "atsyayan": 4727,
      "ரசின்": 4728,
      "countries_by": 4729,
      "ென்னி": 4730,
      "▁both": 4731,
      "க்தி": 4732,
      "▁among": 4733,
      "▁பதிப்பகம்](https://ta.wikipedia.org/wiki/ஒக்ஸ்போர்ட்_பல்கலைக்கழகப்_பதிப்பகம்": 4734,
      ".IN": 4735,
      "130": 4736,
      "520": 4737,
      "6/": 4738,
      "_प": 4739,
      "ao": 4740,
      "टी": 4741,
      "द्वीप": 4742,
      "वी": 4743,
      "हीं": 4744,
      "िज": 4745,
      "िन्": 4746,
      "ैल": 4747,
      "ैंड": 4748,
      "ం?action=edit&redlink=1": 4749,
      "చే": 4750,
      "బా": 4751,
      "▁फ़रवरी": 4752,
      "▁[జ": 4753,
      "](https://hi.wikipedia.org/wiki/सं": 4754,
      "▁(b": 4755,
      "▁since": 4756,
      "▁मार्च": 4757,
      "्यता": 4758,
      "▁पह": 4759,
      "▁पार्ट": 4760,
      "र्स": 4761,
      "र्जा": 4762,
      "](https://hi.wikipedia.org/wiki/भारतीय": 4763,
      "urn": 4764,
      "▁పా": 4765,
      "त्रि": 4766,
      "▁बना": 4767,
      "ubcontinent": 4768,
      "_Sh": 4769,
      "▁वा": 4770,
      "▁వా": 4771,
      "ffer": 4772,
      "ండు": 4773,
      "▁संविधान": 4774,
      "▁చూ": 4775,
      "త్వ": 4776,
      "र्वत": 4777,
      "ंडिया": 4778,
      "पात": 4779,
      "ंग्रेस": 4780,
      "ప్రధాన": 4781,
      "▁తే": 4782,
      "ffice": 4783,
      "स्कृति": 4784,
      "-largest": 4785,
      ".html)": 4786,
      "▁हिन्दी": 4787,
      "▁शासन": 4788,
      "▁थी": 4789,
      "वेबैक": 4790,
      "WEO.IN": 4791,
      "▁द्वारा": 4792,
      "IMFWEO.IN": 4793,
      "-for": 4794,
      "-on-": 4795,
      "0)": 4796,
      "6).": 4797,
      "AS": 4798,
      "NA": 4799,
      "_5": 4800,
      "cat": 4801,
      "itt": 4802,
      "minist": 4803,
      "nam": 4804,
      "▁out": 4805,
      "thehindu": 4806,
      "▁Ex": 4807,
      "▁territory": 4808,
      "pringer": 4809,
      "▁Rothermund": 4810,
      "94": 4811,
      "Gua": 4812,
      "JIJ": 4813,
      "Main": 4814,
      "PK:": 4815,
      "Zva": 4816,
      "af": 4817,
      "mill": 4818,
      "vatsyayan": 4819,
      "ண்கள்": 4820,
      "நாட": 4821,
      "ீப": 4822,
      "ைப்ப": 4823,
      "▁art": 4824,
      "▁oc": 4825,
      "▁\"[": 4826,
      "anc": 4827,
      "்தொகை": 4828,
      "tice": 4829,
      "▁(2014": 4830,
      "▁(ed.": 4831,
      "ப்பீ": 4832,
      "▁there": 4833,
      "க்கால": 4834,
      "ichell": 4835,
      "rative": 4836,
      "▁st": 4837,
      "▁Arab": 4838,
      "▁Afric": 4839,
      "acmill": 4840,
      "▁வளர்ச்சி": 4841,
      "▁found": 4842,
      "loc": 4843,
      "▁அறி": 4844,
      "▁அதன்": 4845,
      "▁2014.": 4846,
      "▁mathe": 4847,
      "23)": 4848,
      "253": 4849,
      "fir": 4850,
      "லைமை": 4851,
      "களும்": 4852,
      "களாக": 4853,
      "▁N.": 4854,
      "2905": 4855,
      "மைக்": 4856,
      "▁From": 4857,
      "▁முடி": 4858,
      "oreign": 4859,
      "ய்வு": 4860,
      "_BRICS": 4861,
      "▁cont": 4862,
      "▁துற": 4863,
      "▁நாடுகளின்": 4864,
      "-lord": 4865,
      "ront": 4866,
      "ondon": 4867,
      "ollingham": 4868,
      "](https://en.wikipedia.org/wiki/South_Asia": 4869,
      "▁(eds.).": 4870,
      "▁Act,": 4871,
      "-882905": 4872,
      "▁high": 4873,
      "▁வணிக": 4874,
      "](https://ta.wikipedia.org/wiki/தி_": 4875,
      "teenth": 4876,
      "arnata": 4877,
      "-107-11162": 4878,
      "rganization": 4879,
      "GuaJIJ": 4880,
      "ZvaGuaJIJ": 4881,
      "vatsyayan-lord": 4882,
      "▁occ": 4883,
      "acmillan": 4884,
      "-882905-8": 4885,
      "-107-11162-2": 4886,
      "ZvaGuaJIJgo": 4887,
      "123": 4888,
      "Vu": 4889,
      "ZVu": 4890,
      "_en": 4891,
      "_14": 4892,
      "aus": 4893,
      "kZVu": 4894,
      "vent": 4895,
      "208": 4896,
      "▁Science": 4897,
      "...": 4898,
      "▁Assembly": 4899,
      "318": 4900,
      "338": 4901,
      "British": 4902,
      "Report": 4903,
      "_न": 4904,
      "_సా": 4905,
      "dy": 4906,
      "ंट": 4907,
      "खंड": 4908,
      "खण्ड": 4909,
      "गोल": 4910,
      "धि": 4911,
      "रू": 4912,
      "रेल": 4913,
      "व्यवस्था": 4914,
      "शीन": 4915,
      "ुरु": 4916,
      "ुंबई": 4917,
      "ौर": 4918,
      "ौद्ध": 4919,
      "ौद्योगिक": 4920,
      "ంప": 4921,
      "కో": 4922,
      "గణ": 4923,
      "దిన": 4924,
      "నై": 4925,
      "రీ": 4926,
      "▁/": 4927,
      "▁या": 4928,
      "▁\"చ": 4929,
      "ancy": 4930,
      "्रम": 4931,
      "▁संग": 4932,
      "-16": 4933,
      "▁मैदान": 4934,
      "▁Stu": 4935,
      "](https://te.wikipedia.org/wiki/జ": 4936,
      "ource": 4937,
      "ారం": 4938,
      "](https://hi.wikipedia.org/wiki/भारत#cite_ref-FOOTNOTE": 4939,
      "▁अरब": 4940,
      "bert": 4941,
      "नाडु": 4942,
      "▁जल": 4943,
      "▁दर": 4944,
      "22-9": 4945,
      "▁प्रति": 4946,
      "ताब्": 4947,
      "▁క్రీ": 4948,
      "स्त्र": 4949,
      "క్‌": 4950,
      "पुरी": 4951,
      "నికి": 4952,
      "ల్ల": 4953,
      "ంగీ": 4954,
      "▁సి": 4955,
      "▁[Ministry": 4956,
      "నాభా": 4957,
      "▁इतिहास": 4958,
      "auto": 4959,
      "▁[![](https://upload.wikimedia.org/wikipedia/commons/thumb/": 4960,
      "erala": 4961,
      "▁हैं,": 4962,
      "జాబి": 4963,
      "पर्यटन": 4964,
      "किम": 4965,
      "code": 4966,
      "दीव": 4967,
      "▁इसके": 4968,
      "8/8": 4969,
      "पालिका": 4970,
      "▁घाट": 4971,
      "/files/": 4972,
      "▁శా": 4973,
      "▁భాష\")": 4974,
      "▁सिनेमा": 4975,
      "formation": 4976,
      "బెంగ": 4977,
      "timesofindia.indiatimes.com/india/": 4978,
      "िक्षा": 4979,
      "_of_Congress": 4980,
      "िक्किम": 4981,
      "జాబితా": 4982,
      "2%": 4983,
      "Con": 4984,
      "_&": 4985,
      "_இந்தியா": 4986,
      "ave": 4987,
      "fgh": 4988,
      "mal": 4989,
      "கமாக": 4990,
      "டல்": 4991,
      "மலை": 4992,
      "யிர": 4993,
      "ாநில": 4994,
      "ிர்": 4995,
      "ெய": 4996,
      "▁ta": 4997,
      "orn": 4998,
      "pec": 4999,
      "ances": 5000,
      "20)": 5001,
      "](https://en.wikipedia.org/wiki/I": 5002,
      "esti": 5003,
      "▁படை": 5004,
      "ல்லை": 5005,
      "ப்பின்": 5006,
      "icon": 5007,
      "ட்டம்": 5008,
      "த்தது.[[": 5009,
      "▁காட்ட": 5010,
      "ingdom": 5011,
      "▁Company": 5012,
      "lopedia": 5013,
      "▁அடி": 5014,
      "▁நா": 5015,
      "▁நடு": 5016,
      "olon": 5017,
      "▁Delhi": 5018,
      "-85": 5019,
      "▁largest": 5020,
      "▁economic": 5021,
      "tures": 5022,
      "verse": 5023,
      "-53": 5024,
      "ந்துள்ளது.": 5025,
      "▁trans": 5026,
      "ற்பட்ட": 5027,
      "issing": 5028,
      "டியா": 5029,
      "▁rule": 5030,
      "▁\"Routledge": 5031,
      "ுள்ளது.": 5032,
      "▁[Routledge": 5033,
      "histor": 5034,
      "சியா\")": 5035,
      "o-o": 5036,
      "▁produc": 5037,
      "▁2018](https://en.wikipedia.org/wiki/India#CITEREF": 5038,
      "onetary": 5039,
      "/cb": 5040,
      "▁நடத்த": 5041,
      "Dyson2018),": 5042,
      "▁பொதுத்": 5043,
      "▁உயிரி": 5044,
      "industry": 5045,
      "▁குடியரசு": 5046,
      "▁அரசியல்": 5047,
      "cyclopedia": 5048,
      "ultiple": 5049,
      "▁பெரும்பால": 5050,
      "ள்கை": 5051,
      "▁பயன்ப": 5052,
      "▁கிராம": 5053,
      "](https://en.wikipedia.org/wiki/Economy_of_": 5054,
      "fghan": 5055,
      "-D": 5056,
      "-an": 5057,
      "7.\n": 5058,
      "dr": 5059,
      "ities": 5060,
      "known": 5061,
      "po": 5062,
      "round": 5063,
      "▁(a)": 5064,
      "adhy": 5065,
      "217": 5066,
      "266": 5067,
      "▁H.": 5068,
      "pura": 5069,
      "hrist": 5070,
      "orities": 5071,
      "▁(b)": 5072,
      "-with": 5073,
      "-world": 5074,
      "ie": 5075,
      "oa": 5076,
      "▁[4": 5077,
      "▁[Kulke": 5078,
      "tered": 5079,
      "on,": 5080,
      "arli": 5081,
      "icat": 5082,
      "▁Chand": 5083,
      "ull": 5084,
      "▁made": 5085,
      "105": 5086,
      "289": 5087,
      "▁name": 5088,
      "▁Official": 5089,
      "_in_India?action=edit&redlink=1": 5090,
      "2007),": 5091,
      "endra": 5092,
      "Singh2009),": 5093,
      "_Informatics": 5094,
      "_Informatics_Centre": 5095,
      "\",": 5096,
      "2]](https://en.wikipedia.org/wiki/India#cite_note-FOOTNOTE": 5097,
      "Collingham": 5098,
      "Davidson": 5099,
      "Ministry_of_": 5100,
      "_சு": 5101,
      "dones": 5102,
      "hat": 5103,
      "lack": 5104,
      "yam": 5105,
      "रण": 5106,
      "लिस": 5107,
      "वार": 5108,
      "वीं": 5109,
      "शक": 5110,
      "स](https://hi.wikipedia.org/wiki/": 5111,
      "सभा": 5112,
      "ां": 5113,
      "ाप": 5114,
      "ांध": 5115,
      "ोष": 5116,
      "०१": 5117,
      "பர்": 5118,
      "யோ": 5119,
      "ரே": 5120,
      "ரம்": 5121,
      "ரசிய": 5122,
      "చల్": 5123,
      "యన్": 5124,
      "షు": 5125,
      "ూర్": 5126,
      "▁ध": 5127,
      "▁ci": 5128,
      "▁article": 5129,
      "pee": 5130,
      "▁[చ": 5131,
      "▁[భారత": 5132,
      "▁[భారతీయ": 5133,
      "▁\"United": 5134,
      "\")[[": 5135,
      "ental": 5136,
      "eries": 5137,
      "▁பழ": 5138,
      "leg": 5139,
      "க்கலை": 5140,
      "▁மீ": 5141,
      "▁industry": 5142,
      "▁sh": 5143,
      "entr": 5144,
      "▁A.": 5145,
      "▁pre": 5146,
      "](https://te.wikipedia.org/wiki/ప": 5147,
      "](https://te.wikipedia.org/wiki/భారతీయ": 5148,
      "राठ": 5149,
      "ada": 5150,
      "▁இச": 5151,
      "ార్ట": 5152,
      "21)": 5153,
      "00)": 5154,
      "003": 5155,
      "▁maj": 5156,
      "्ता:": 5157,
      "▁Man": 5158,
      "ility": 5159,
      "ாகி": 5160,
      "▁உடைய": 5161,
      "Books": 5162,
      "ాలయ": 5163,
      "▁ஆஃப்": 5164,
      "திவா": 5165,
      "286": 5166,
      "index": 5167,
      "ly,": 5168,
      "hatt": 5169,
      "▁दृ": 5170,
      "▁दो": 5171,
      "▁relations": 5172,
      "▁[\"A": 5173,
      "▁प्रमुख": 5174,
      "க்குப்": 5175,
      "aksh": 5176,
      "ast_Asia": 5177,
      "క్క": 5178,
      "▁వ్యవస్థ": 5179,
      "டைந்த": 5180,
      "▁ము": 5181,
      "utra": 5182,
      "ండో": 5183,
      "ணிம": 5184,
      "எண்ணிம": 5185,
      "ance/": 5186,
      "ముంబ": 5187,
      "िये": 5188,
      "సిన": 5189,
      "33-7": 5190,
      "▁रह": 5191,
      "▁இதுவாக": 5192,
      "▁V.": 5193,
      "▁Ved": 5194,
      "▁[2](https://ta.wikipedia.org/wiki/இந்தியா#cite_ref-": 5195,
      "▁[1](https://ta.wikipedia.org/wiki/இந்தியா#cite_ref-": 5196,
      "order": 5197,
      "▁लग": 5198,
      "ய்ய": 5199,
      "ినల్": 5200,
      "aking": 5201,
      "ద్ద": 5202,
      "▁ఉన్న": 5203,
      "▁ఉన్నాయ": 5204,
      "2014-p": 5205,
      "க்கிண்ண": 5206,
      "ducation": 5207,
      "ृत्य": 5208,
      "ूनिव": 5209,
      "▁\"சிறப்பு:BookSources/978-81": 5210,
      "](https://ta.wikipedia.org/wiki/சிறப்பு:BookSources/978-81": 5211,
      "▁மேற்கு": 5212,
      "పాకిస్తాన్": 5213,
      "](https://books.google.com/books?id=3TRtDwAAQBAJ&pg=PA": 5214,
      "▁ஓவிய": 5215,
      "ूरो": 5216,
      "ediff": 5217,
      "▁உயர்": 5218,
      "▁Environment": 5219,
      "ynast": 5220,
      "ంధీ": 5221,
      "▁இரண்டா": 5222,
      "](https://hi.wikipedia.org/wiki/भारत_की_": 5223,
      "](https://hi.wikipedia.org/wiki/भारत_का_": 5224,
      "_संघ": 5225,
      "▁ఒక": 5226,
      "▁ఒరిజ": 5227,
      "▁இராணுவ": 5228,
      "▁युद्ध": 5229,
      "▁அதிகரித்து": 5230,
      "तेलु": 5231,
      "▁न्यायालय": 5232,
      "धिकारिक": 5233,
      "వంశం": 5234,
      "▁[पुरालेखित": 5235,
      "▁अगस्त": 5236,
      "ெற்காசிய": 5237,
      "धानमंत्री": 5238,
      "-glance/": 5239,
      "வணச்": 5240,
      "▁తేదీ": 5241,
      "ZvaGuaJIJgoC&pg=PA": 5242,
      "Davidson2014-p": 5243,
      "ార్టీ": 5244,
      "▁ఒరిజినల్": 5245,
      "09": 5246,
      "2)\n": 5247,
      "5/": 5248,
      "63": 5249,
      "9,": 5250,
      "_26": 5251,
      "ds": 5252,
      "jpg": 5253,
      "lag": 5254,
      "rof": 5255,
      "t:": 5256,
      "▁(1,": 5257,
      "entury": 5258,
      "ISO": 5259,
      "109": 5260,
      "26.": 5261,
      "harm": 5262,
      "▁area": 5263,
      "worldcat": 5264,
      "▁union": 5265,
      "▁used": 5266,
      "-S": 5267,
      "-asia": 5268,
      ".ni": 5269,
      "4,": 5270,
      "_38": 5271,
      "cess": 5272,
      "day": 5273,
      "people": 5274,
      "them": 5275,
      "▁CE": 5276,
      "ults": 5277,
      "0000": 5278,
      "-3)": 5279,
      "indus": 5280,
      "ews": 5281,
      "▁John": 5282,
      "▁Indus": 5283,
      ".gov.in": 5284,
      "own": 5285,
      "MetcalfMetcalf2012": 5286,
      "▁status": 5287,
      "Library_of_Congress": 5288,
      "%3": 5289,
      "-e": 5290,
      "/news/": 5291,
      "223": 5292,
      "2]](https://ta.wikipedia.org/wiki/இந்தியா#cite_note-": 5293,
      "577": 5294,
      "8–": 5295,
      "ES": 5296,
      "MAAJ": 5297,
      "_ட": 5298,
      "aha": 5299,
      "cul": 5300,
      "ject": 5301,
      "languages": 5302,
      "my": 5303,
      "ஆக": 5304,
      "ங்": 5305,
      "டன": 5306,
      "டும்ப": 5307,
      "நகர": 5308,
      "மிய": 5309,
      "ளை": 5310,
      "ளிய": 5311,
      "ழை": 5312,
      "வியல்": 5313,
      "வும்,": 5314,
      "வர்கள": 5315,
      "▁\"கு": 5316,
      "▁\"Oxford": 5317,
      "in-": 5318,
      "ency": 5319,
      "eral_": 5320,
      "erritory": 5321,
      "hic": 5322,
      "ந்த்": 5323,
      "andit": 5324,
      "▁them": 5325,
      "-00": 5326,
      "▁மொழ": 5327,
      "rate": 5328,
      "raman": 5329,
      "▁கீ": 5330,
      "▁கட்சி": 5331,
      "▁தி": 5332,
      "▁திரு": 5333,
      "▁social": 5334,
      "lowing": 5335,
      "ads": 5336,
      "▁அனைத்து": 5337,
      "▁River": 5338,
      "▁This": 5339,
      "டுப்பாட்ட": 5340,
      "▁B.": 5341,
      "▁Gandhi": 5342,
      "▁Journal": 5343,
      "_Summit": 5344,
      "_in_South_Asia": 5345,
      "AAMAAJ": 5346,
      "diversity": 5347,
      "▁முக்கிய": 5348,
      "_Cor": 5349,
      "arty": 5350,
      "▁தொடர்ச்சி": 5351,
      "undam": 5352,
      "▁began": 5353,
      "ternal": 5354,
      "▁Press](https://ta.wikipedia.org/wiki/": 5355,
      "▁Press\"),": 5356,
      "ligions": 5357,
      "▁\"இந்தியக்": 5358,
      "overe": 5359,
      "ineering": 5360,
      "class": 5361,
      "_அடிப்படையில்": 5362,
      "ப்படுகின்ற": 5363,
      "rough": 5364,
      "-in-india": 5365,
      "▁நிலையில்": 5366,
      "▁\"History": 5367,
      "trol": 5368,
      "▁பொதுவாக": 5369,
      "தாகும்.": 5370,
      "▁play": 5371,
      "074": 5372,
      "▁dispu": 5373,
      "flu": 5374,
      "▁ஒன்றாக": 5375,
      "▁includ": 5376,
      "▁2006](https://ta.wikipedia.org/wiki/இந்தியா#CITEREFMetcalfMetcalf2006),": 5377,
      "மிழ்நாடு": 5378,
      "ymbols": 5379,
      "do-Aryan": 5380,
      "fghanistan": 5381,
      "ast_Asia_Summit": 5382,
      "-r": 5383,
      "-प": 5384,
      "/ark": 5385,
      "219": 5386,
      "_अ": 5387,
      "_ए": 5388,
      "_24": 5389,
      "f.fr": 5390,
      "ंका": 5391,
      "कट": 5392,
      "गंगा": 5393,
      "देव": 5394,
      "भो": 5395,
      "मेर": 5396,
      "ल](https://hi.wikipedia.org/wiki/": 5397,
      "लंका": 5398,
      "हैद": 5399,
      "िला": 5400,
      "ीमा": 5401,
      "ूह": 5402,
      "्म": 5403,
      "జ్": 5404,
      "వరి": 5405,
      "శ్చ": 5406,
      "ిన్న": 5407,
      "ెల": 5408,
      "▁ट": 5409,
      ":/121": 5410,
      "▁[ओ": 5411,
      "▁\"ओ": 5412,
      "▁\"భారతదేశ": 5413,
      "tatis": 5414,
      "rel": 5415,
      "](https://hi.wikipedia.org/wiki/आ": 5416,
      "▁(2018),": 5417,
      "్రె": 5418,
      "vel": 5419,
      "राबाद": 5420,
      "ाने": 5421,
      "र्ना": 5422,
      "▁अप्र": 5423,
      "ight": 5424,
      "28.": 5425,
      "_का_": 5426,
      "▁नी": 5427,
      "*](https://web.archive.org/web/201": 5428,
      "709": 5429,
      "ాలు\n": 5430,
      "నిస్తాన్": 5431,
      "48/cb": 5432,
      "▁మధ్య": 5433,
      "▁संबंध": 5434,
      "%2C_India": 5435,
      "म्प": 5436,
      "हिमा": 5437,
      "त्तीस": 5438,
      "र्वो": 5439,
      "▁भाषाओं": 5440,
      "](https://te.wikipedia.org/wiki/భారతదేశంలో": 5441,
      "▁करने": 5442,
      "िरपे": 5443,
      "वायु": 5444,
      "స్థాన్": 5445,
      "ीपी": 5446,
      "olden": 5447,
      "▁मेला\")": 5448,
      "▁हुए": 5449,
      "KulkeRothermund200": 5450,
      "▁left": 5451,
      "actbook": 5452,
      "▁పేజీ": 5453,
      "▁estim": 5454,
      "भीम": 5455,
      "▁कार्य": 5456,
      "మ్మూ": 5457,
      "](https://doi.org/10.10": 5458,
      "bnf.fr": 5459,
      "rishnan": 5460,
      "▁[हिन्दी](https://hi.wikipedia.org/wiki/": 5461,
      "▁\"భారతదేశంలో": 5462,
      "▁చూసిన": 5463,
      "kZVuDwAAQBAJ&pg=PA": 5464,
      "▁తేదీ:": 5465,
      "/ark:/121": 5466,
      "हैदराबाद": 5467,
      "శ్చి": 5468,
      "र्नाटक": 5469,
      "िरपेक्ष": 5470,
      "▁పేజీని": 5471,
      "bnf.fr/ark:/121": 5472,
      "bnf.fr/ark:/12148/cb": 5473,
      "1-1": 5474,
      "2-6": 5475,
      "3-8": 5476,
      "eval": 5477,
      "gni": 5478,
      "ii": 5479,
      "▁[Oxford": 5480,
      "▁\"19": 5481,
      "reed": 5482,
      "▁All": 5483,
      "▁Centre": 5484,
      "local": 5485,
      "▁culture": 5486,
      "▁GDP": 5487,
      "▁only": 5488,
      "170": 5489,
      "s/de": 5490,
      "▁Wiki": 5491,
      "mental": 5492,
      "edieval": 5493,
      "▁country": 5494,
      "_from": 5495,
      "cording": 5496,
      "Library_of_Congress2004": 5497,
      "122": 5498,
      "2nd": 5499,
      "Spear": 5500,
      "Tarlo": 5501,
      "]]": 5502,
      "_17": 5503,
      "_2010": 5504,
      "pan": 5505,
      "ude": 5506,
      "ym": 5507,
      "ர்த": 5508,
      "லமைப்பு": 5509,
      "ாண்டு": 5510,
      "ுடைய": 5511,
      "ென்": 5512,
      "–24": 5513,
      "▁35": 5514,
      "iam": 5515,
      "▁[m": 5516,
      "▁[உலக": 5517,
      "▁[Fisher": 5518,
      "ants": 5519,
      "thnic": 5520,
      "eri": 5521,
      "arna": 5522,
      "ality": 5523,
      "ப்பிய": 5524,
      "▁மைய": 5525,
      "ages/": 5526,
      "▁வங்கி": 5527,
      "los": 5528,
      "▁Punjab": 5529,
      "very": 5530,
      "urry": 5531,
      ":BookSources/978-9": 5532,
      "ண்மை": 5533,
      "▁women": 5534,
      "குதி": 5535,
      "▁Nadu": 5536,
      "▁eastern": 5537,
      "main": 5538,
      "_Publishing": 5539,
      "epal": 5540,
      "▁non-": 5541,
      "▁hum": 5542,
      "▁மு.": 5543,
      "abha": 5544,
      "▁International": 5545,
      "talk": 5546,
      "ம்பு": 5547,
      "▁உள்ளது.[[": 5548,
      "opular": 5549,
      "ainism": 5550,
      "ாளர்": 5551,
      "Special:S": 5552,
      "▁சமூக": 5553,
      "viol": 5554,
      "DwAAQBAJ": 5555,
      "த்தியில்": 5556,
      "51-9": 5557,
      "reek": 5558,
      "earch/India": 5559,
      "▁அரசா": 5560,
      "ச்சகம்": 5561,
      "▁\"அமெரிக்க": 5562,
      "ibcode": 5563,
      "](https://ta.wikipedia.org/wiki/அமெரிக்க": 5564,
      "Fisher2018),": 5565,
      "▁2018](https://ta.wikipedia.org/wiki/இந்தியா#CITEREF": 5566,
      "Stein2010),": 5567,
      "-4020": 5568,
      ":EditPage/Template:": 5569,
      "▁[doi](https://ta.wikipedia.org/wiki/": 5570,
      "▁இதில்": 5571,
      "-lead": 5572,
      "▁Persian": 5573,
      "EXT": 5574,
      "▁உணவு": 5575,
      "o-operation": 5576,
      "_அடிப்படையில்_நாடு": 5577,
      "Spear1990": 5578,
      "Tarlo1996": 5579,
      "Special:Search/India": 5580,
      "\";\n": 5581,
      ".ed": 5582,
      "0–": 5583,
      "418": 5584,
      "5%": 5585,
      "Ethnologue": 5586,
      "Jha": 5587,
      "_0": 5588,
      "fa": 5589,
      "pati": 5590,
      "yana": 5591,
      "▁46": 5592,
      "▁[\"P": 5593,
      "1):": 5594,
      "itzel": 5595,
      ".edu": 5596,
      "\"[[": 5597,
      "/D": 5598,
      "9).": 5599,
      "hl": 5600,
      "multiple": 5601,
      "public": 5602,
      "ंह": 5603,
      "गल": 5604,
      "झार": 5605,
      "डिया": 5606,
      "तट": 5607,
      "निक": 5608,
      "पान": 5609,
      "मालय": 5610,
      "हन": 5611,
      "हरी": 5612,
      "ाय": 5613,
      "िस्तान": 5614,
      "िहार": 5615,
      "షన్": 5616,
      "హ్": 5617,
      "ెలు": 5618,
      "▁ऑ": 5619,
      "▁36": 5620,
      "▁राष्ट्र": 5621,
      "▁लेख": 5622,
      "▁[च": 5623,
      "erg": 5624,
      "ed\\_im": 5625,
      "](https://hi.wikipedia.org/wiki/ओ": 5626,
      "▁कुल": 5627,
      "](https://te.wikipedia.org/wiki/అ": 5628,
      "र्ष": 5629,
      "▁केन्द्र": 5630,
      "atch": 5631,
      "▁ही": 5632,
      "▁होत": 5633,
      "tical_": 5634,
      "▁Tamil": 5635,
      "-0-521": 5636,
      "caled\\_im": 5637,
      "age\\_with\\_": 5638,
      "▁Himalay": 5639,
      "ियां": 5640,
      "▁बन": 5641,
      "▁बा": 5642,
      "▁India\").": 5643,
      "▁नद": 5644,
      "▁नहीं": 5645,
      "▁से](http://": 5646,
      "407": 5647,
      "▁human": 5648,
      "▁वार": 5649,
      "రియా": 5650,
      "पुरा": 5651,
      "स्ला": 5652,
      "▁మార్": 5653,
      "ages\n": 5654,
      "▁उद्यान": 5655,
      "▁है।[[": 5656,
      "▁शताब्": 5657,
      "▁रहा": 5658,
      "Asher2006": 5659,
      "AsherAsher2006": 5660,
      "ప్రపంచ": 5661,
      "विशेष:EditPage/": 5662,
      "▁मेला](https://hi.wikipedia.org/wiki/": 5663,
      "troduction": 5664,
      "▁composed": 5665,
      "▁సంస్కృతి": 5666,
      "श्चिमी": 5667,
      "गणराज्य": 5668,
      "దీవ": 5669,
      "cms).": 5670,
      "\\_scaled\\_im": 5671,
      "▁प्राप्त": 5672,
      "National_Informatics_Centre": 5673,
      "िल्ली": 5674,
      "▁स्रोत/978-1": 5675,
      "](https://hi.wikipedia.org/wiki/विशेष:पुस्तक_स्रोत/978-1": 5676,
      "\\_image\\_with\\_": 5677,
      "arliament": 5678,
      "▁भूम": 5679,
      "▁गणराज्य": 5680,
      "union_ter": 5681,
      "▁चुनाव": 5682,
      "रेलू": 5683,
      "auto\\_scaled\\_im": 5684,
      "▁[पुरालेखित](https://web.archive.org/web/201": 5685,
      "र्वोच्च": 5686,
      "multiple\\_image\\_with\\_": 5687,
      "विशेष:EditPage/साँचा:": 5688,
      "National_Informatics_Centre2005": 5689,
      "auto\\_scaled\\_images\n": 5690,
      "multiple\\_image\\_with\\_auto\\_scaled\\_images\n": 5691,
      "-ar": 5692,
      "-and": 5693,
      "-logo": 5694,
      "129": 5695,
      "220": 5696,
      "3]](https://en.wikipedia.org/wiki/India#cite_note-FOOTNOTE": 5697,
      "PT": 5698,
      "_9": 5699,
      "_ci": 5700,
      "_50": 5701,
      "_2008": 5702,
      "election": 5703,
      "mme": 5704,
      "nia": 5705,
      "ning": 5706,
      "ண்கள": 5707,
      "லில்": 5708,
      "லும்": 5709,
      "ளவில்": 5710,
      "ளஞ்சிய": 5711,
      "வல": 5712,
      "வானது": 5713,
      "வர்கள்": 5714,
      "ாதுகாப்பு": 5715,
      "ிக்கா": 5716,
      "ீடு": 5717,
      "▁ass": 5718,
      "▁6.": 5719,
      "▁his": 5720,
      "oram": 5721,
      "▁[கு": 5722,
      "technology": 5723,
      "▁\"உலக": 5724,
      "reen": 5725,
      "ியான": 5726,
      "er-": 5727,
      "artition": 5728,
      "](https://ta.wikipedia.org/wiki/உ": 5729,
      "cise": 5730,
      "இந்தி": 5731,
      "▁பூ": 5732,
      "▁பேர": 5733,
      "asthan": 5734,
      "ick": 5735,
      "ics": 5736,
      "▁India\"](https://web.archive.org/web/201": 5737,
      "rig": 5738,
      "ries/": 5739,
      "▁தனி": 5740,
      "▁தேர்தல்": 5741,
      "▁SAARC": 5742,
      "▁இன": 5743,
      "lief": 5744,
      "▁movement": 5745,
      "▁சோ": 5746,
      "ாட்டின்": 5747,
      "▁உறு": 5748,
      "▁div": 5749,
      "india.com/": 5750,
      "▁Bengal": 5751,
      "சுக": 5752,
      "115": 5753,
      "▁E.": 5754,
      "▁என": 5755,
      "▁2026": 5756,
      "fornia": 5757,
      "▁1960": 5758,
      "406": 5759,
      "க்குக்": 5760,
      "▁tree": 5761,
      "gramme": 5762,
      "566": 5763,
      "ikkim": 5764,
      "லைக்களஞ்சிய": 5765,
      "ocke": 5766,
      "engali": 5767,
      "countries/": 5768,
      "▁\"National": 5769,
      "alifornia": 5770,
      "▁மொழி\")": 5771,
      "1971": 5772,
      "▁நீதி": 5773,
      "▁நாடுகள்": 5774,
      "](https://en.wikipedia.org/wiki/History": 5775,
      "▁தொடங்க": 5776,
      "iodiversity": 5777,
      "▁ago": 5778,
      "ிரித்தானிக்கா": 5779,
      "mitt": 5780,
      "▁கொண்டிருந்த": 5781,
      "%7C": 5782,
      "ilitary": 5783,
      "▁பிறகு": 5784,
      "▁இலக்கிய": 5785,
      "▁ed.),": 5786,
      "treet": 5787,
      "urton199": 5788,
      "document": 5789,
      "னாமி": 5790,
      "Blurton199": 5791,
      "ote:": 5792,
      "▁2006](https://en.wikipedia.org/wiki/India#CITEREFMetcalfMetcalf2006),": 5793,
      "▁Quote:": 5794,
      "▁article:": 5795,
      "undamental": 5796,
      "லைக்களஞ்சியம்": 5797,
      "350": 5798,
      "534": 5799,
      "UT": 5800,
      "gi": 5801,
      "ling": 5802,
      "nc": 5803,
      "ar,": 5804,
      "hief": 5805,
      "▁Policy": 5806,
      "10)": 5807,
      "dex": 5808,
      "▁Linguistic": 5809,
      "2011),": 5810,
      "▁Valley": 5811,
      "fication": 5812,
      "▁Chinese": 5813,
      "CS1\\_": 5814,
      "AGE": 5815,
      "-i": 5816,
      "/F": 5817,
      "1-3": 5818,
      "7).": 5819,
      "9/": 5820,
      "aul": 5821,
      "cata": 5822,
      "ption": 5823,
      "uth": 5824,
      "erved": 5825,
      "Indian_": 5826,
      "2013": 5827,
      "2002),": 5828,
      "-100": 5829,
      "▁sector": 5830,
      "▁power": 5831,
      "▁Society": 5832,
      "107": 5833,
      "▁total": 5834,
      "indicat": 5835,
      "_Affairs": 5836,
      "▁2011.": 5837,
      "1.html": 5838,
      "▁life": 5839,
      "▁2019.\n": 5840,
      ".html).": 5841,
      "apita": 5842,
      "ildlife": 5843,
      "worldcat.org/": 5844,
      "indicator": 5845,
      "*)": 5846,
      "-st": 5847,
      "-विज्ञान": 5848,
      "/lin": 5849,
      "2)[[": 5850,
      "5-3": 5851,
      "Bas": 5852,
      "Census": 5853,
      "Ex": 5854,
      "Kumar": 5855,
      "Mar": 5856,
      "Pal": 5857,
      "Petraglia": 5858,
      "Un": 5859,
      "_आ": 5860,
      "_उ": 5861,
      "_व": 5862,
      "_देश": 5863,
      "ative": 5864,
      "fo": 5865,
      "hu": 5866,
      "oin": 5867,
      "pro": 5868,
      "rust": 5869,
      "s_of_India": 5870,
      "ward": 5871,
      "yd": 5872,
      "ंच": 5873,
      "ईरा": 5874,
      "छत्तीस": 5875,
      "त्व": 5876,
      "फल": 5877,
      "फ्रीका": 5878,
      "लग": 5879,
      "लयाल": 5880,
      "स\")": 5881,
      "सून": 5882,
      "िंध": 5883,
      "ीच": 5884,
      "१९": 5885,
      "டக்கலை": 5886,
      "மண": 5887,
      "யி": 5888,
      "யில்": 5889,
      "ல்த": 5890,
      "ழல்": 5891,
      "வீன": 5892,
      "ஸ்ட்": 5893,
      "ின": 5894,
      "ం\"),": 5895,
      "ంత్రి": 5896,
      "ఆఫ్": 5897,
      "కత": 5898,
      "కై": 5899,
      "క్య": 5900,
      "దాయ": 5901,
      "రే": 5902,
      "లంక": 5903,
      "వీ": 5904,
      "శ్రీ": 5905,
      "షి": 5906,
      "సు": 5907,
      "▁ఏ": 5908,
      "orest": 5909,
      "▁[సి": 5910,
      "▁\"च": 5911,
      "▁\"ल": 5912,
      "ines": 5913,
      "tig": 5914,
      "erence": 5915,
      "erman": 5916,
      "aldi": 5917,
      "](https://ta.wikipedia.org/wiki/கு": 5918,
      "ம்\"),": 5919,
      "](https://hi.wikipedia.org/wiki/च": 5920,
      "▁कई": 5921,
      "▁कश्मीर": 5922,
      "▁(India": 5923,
      "ootb": 5924,
      "ப்பாக": 5925,
      "ப்பானது": 5926,
      "1967": 5927,
      "itchi": 5928,
      "asi": 5929,
      "asha": 5930,
      "astal": 5931,
      "leav": 5932,
      "ட்டிய": 5933,
      "▁सद": 5934,
      "▁सैन": 5935,
      "rak": 5936,
      "rates": 5937,
      "த்தா": 5938,
      "▁influ": 5939,
      "▁திரைப்படத்துறை": 5940,
      "▁मुख": 5941,
      "achin": 5942,
      "▁Summit\")": 5943,
      "](https://te.wikipedia.org/wiki/చ": 5944,
      "▁வங்காள": 5945,
      "▁पर्वत": 5946,
      "▁அட": 5947,
      "▁அரு": 5948,
      "▁அவை": 5949,
      "▁அணு": 5950,
      "ver,": 5951,
      "▁நேர": 5952,
      "▁member": 5953,
      "▁minister": 5954,
      "red/lin": 5955,
      "▁Michael": 5956,
      "▁சந்தை": 5957,
      "ாகரி": 5958,
      "▁app": 5959,
      "▁ஆயு": 5960,
      "டுத்து": 5961,
      "links": 5962,
      "india-glance/": 5963,
      "ண்டல": 5964,
      "லைவன": 5965,
      "▁B.;": 5966,
      "24)": 5967,
      "స్సా": 5968,
      "சுலி": 5969,
      "ema": 5970,
      "-459": 5971,
      "वित": 5972,
      "▁పరి": 5973,
      "▁పార్టీ": 5974,
      "_का": 5975,
      "களானவை": 5976,
      "▁दि": 5977,
      "న్‌": 5978,
      "▁Gu": 5979,
      "▁Nehru": 5980,
      "](https://ta.wikipedia.org/wiki/பு": 5981,
      "▁बीच": 5982,
      "▁[\"G": 5983,
      "▁[\"M": 5984,
      "force": 5985,
      "ountain": 5986,
      "▁से](http://www.": 5987,
      "▁Francis": 5988,
      "ताज": 5989,
      "▁\"பு": 5990,
      "▁కు": 5991,
      "क्षा": 5992,
      "न्दिर": 5993,
      "▁आधिकारिक": 5994,
      "conomist": 5995,
      "▁వచ్చ": 5996,
      "स्थ": 5997,
      "ங்களும்": 5998,
      "▁गु": 5999,
      "▁before": 6000,
      "▁उत्पाद": 6001,
      "ाद्वीप": 6002,
      "லால்": 6003,
      "ிருத": 6004,
      "▁உள்ளன.": 6005,
      "_मंदिर": 6006,
      "▁संस्कृति": 6007,
      "2010),": 6008,
      "लेट": 6009,
      "प्रा": 6010,
      "ముద్ర": 6011,
      "ப்_பொது": 6012,
      "▁इन": 6013,
      "ummer": 6014,
      "▁போன்ற": 6015,
      "▁[பு": 6016,
      "ற்போ": 6017,
      "िस्ट": 6018,
      "▁development": 6019,
      "ext": 6020,
      "34)": 6021,
      "uddhism": 6022,
      "10.23": 6023,
      "▁करोड़": 6024,
      "_page": 6025,
      "▁1997": 6026,
      "▁செய்ய": 6027,
      "▁अनु": 6028,
      "▁\"Re": 6029,
      "केर": 6030,
      "▁like": 6031,
      "▁[अंग्रेज़": 6032,
      "ாடாளுமன்ற": 6033,
      "▁காங்கிரசு": 6034,
      "గాంధీ": 6035,
      "_ஆறு": 6036,
      "ahal": 6037,
      "▁जनगणना": 6038,
      "▁हैं।\n": 6039,
      "ibet": 6040,
      "▁राजनी": 6041,
      "do-P": 6042,
      "▁\"पंजाब": 6043,
      "india.gov.in/india-glance/": 6044,
      "र्थव्यवस्था": 6045,
      "▁second": 6046,
      "Oxford_University_Press": 6047,
      "నేపాల": 6048,
      "▁[पंजाब": 6049,
      "करण": 6050,
      "▁இடையில்": 6051,
      "▁rate": 6052,
      "▁होता": 6053,
      "ually": 6054,
      "ब्ब": 6055,
      "▁Empire\")": 6056,
      "▁கடற்க": 6057,
      "▁పేరు": 6058,
      "▁जिसमें": 6059,
      "హిందీ": 6060,
      "டப்பட்டது.": 6061,
      "truc": 6062,
      "▁कारण": 6063,
      "▁(identifier)\"):[10.10": 6064,
      "▁1998](https://ta.wikipedia.org/wiki/இந்தியா#CITEREF": 6065,
      "▁ஆற்றல்": 6066,
      "ोर्ड": 6067,
      "_मेला?action=edit&redlink=1": 6068,
      "▁வீத": 6069,
      "kimages/": 6070,
      "-78074": 6071,
      "▁చెయ్య": 6072,
      "▁நூற்றாண்ட": 6073,
      "▁நூற்றாண்டு": 6074,
      "ங்கிலம்": 6075,
      "வார்ப்புரு:Navbox": 6076,
      "volution": 6077,
      "▁prime": 6078,
      "गोआ": 6079,
      "▁కూడా": 6080,
      "ேபாள": 6081,
      "श्रीलंका": 6082,
      "uiper": 6083,
      "-108-6": 6084,
      "shared/lin": 6085,
      "▁2010](https://en.wikipedia.org/wiki/India#CITEREFStein2010),": 6086,
      "ultanate": 6087,
      "nclm.nic.in/shared/lin": 6088,
      "yanmar": 6089,
      "▁Press](https://en.wikipedia.org/wiki/Oxford_University_Press": 6090,
      "▁./பகுப்பு:Pages\\_using\\_multiple\\_image\\_with\\_auto\\_scaled\\_images\n": 6091,
      "र्सिट": 6092,
      "ministrative": 6093,
      "first": 6094,
      "arnataka": 6095,
      "ంగీతం": 6096,
      "ముంబై": 6097,
      "ूनिवर्सिट": 6098,
      "శ్చిమ": 6099,
      "Spear199024": 6100,
      "▁మార్గ": 6101,
      "PetragliaA": 6102,
      "aldives": 6103,
      "ootball": 6104,
      "itchison": 6105,
      "▁[अंग्रेज़ी](https://hi.wikipedia.org/wiki/अ": 6106,
      "-78074-108-6": 6107,
      "▁చెయ్యబడ": 6108,
      "nclm.nic.in/shared/linkimages/": 6109,
      "324": 6110,
      "b/": 6111,
      "c/c": 6112,
      "que": 6113,
      "International": 6114,
      "▁(c": 6115,
      "ading": 6116,
      "url": 6117,
      "▁des": 6118,
      "▁David": 6119,
      "emplate_": 6120,
      "▁2002": 6121,
      "elang": 6122,
      "akhand": 6123,
      "-219": 6124,
      "udget": 6125,
      "AsherTalbot2008),": 6126,
      "crease": 6127,
      "cyclop": 6128,
      "2.\n": 6129,
      "Se": 6130,
      "_in": 6131,
      "fence": 6132,
      "ode": 6133,
      "p?": 6134,
      "▁old": 6135,
      "en,": 6136,
      "reme": 6137,
      "id.": 6138,
      "▁Ad": 6139,
      "▁prov": 6140,
      "▁Sec": 6141,
      "opland": 6142,
      "oung": 6143,
      "ounci": 6144,
      "27)": 6145,
      "270": 6146,
      "div": 6147,
      "▁depend": 6148,
      "olitical_": 6149,
      "onstitutional": 6150,
      "vironmental": 6151,
      "urrent": 6152,
      "▁ed.).": 6153,
      "KulkeRothermund2004),": 6154,
      "pectancy": 6155,
      ")\"),": 6156,
      "-A": 6157,
      ".\")\n": 6158,
      ".](https://upload.wikimedia.org/wikipedia/commons/thumb/": 6159,
      "/e": 6160,
      "1.\n": 6161,
      "2-8": 6162,
      "319": 6163,
      "410": 6164,
      "5).": 6165,
      "6]](https://ta.wikipedia.org/wiki/இந்தியா#cite_note-FOOTNOTE": 6166,
      "7%": 6167,
      "7]](https://ta.wikipedia.org/wiki/இந்தியா#cite_note-FOOTNOTE": 6168,
      "9]](https://ta.wikipedia.org/wiki/இந்தியா#cite_note-": 6169,
      "_வி": 6170,
      "_2007": 6171,
      "ez": 6172,
      "had": 6173,
      "mrits": 6174,
      "ploy": 6175,
      "yy": 6176,
      "ஒடி": 6177,
      "சே": 6178,
      "தலை": 6179,
      "ரூபாய்": 6180,
      "ீக்கிய": 6181,
      "ீதிய": 6182,
      "▁·": 6183,
      "▁சிற": 6184,
      "▁9.": 6185,
      "▁United": 6186,
      "](Category:": 6187,
      "▁[கா": 6188,
      "an,": 6189,
      "arl": 6190,
      "ester": 6191,
      "](https://ta.wikipedia.org/wiki/B": 6192,
      "ன்ஸ்": 6193,
      "▁பள்ள": 6194,
      "▁(in": 6195,
      "ல்வ": 6196,
      "க்கான": 6197,
      "▁India*.": 6198,
      "த்தக்க": 6199,
      "▁கி": 6200,
      "▁கண்ட": 6201,
      "ரும்": 6202,
      "amb": 6203,
      "▁Schwartzberg": 6204,
      "ில்லிய": 6205,
      "▁இற": 6206,
      "▁இவ்": 6207,
      "lite": 6208,
      "tock": 6209,
      "▁அன்று": 6210,
      "▁அமெரிக்க": 6211,
      "218": 6212,
      "urban": 6213,
      "▁ஆனால்": 6214,
      "▁western": 6215,
      "-349": 6216,
      "ச்_ச": 6217,
      "▁Europe": 6218,
      "▁1965": 6219,
      "AAAAMAAJ": 6220,
      "▁these": 6221,
      "_Ar": 6222,
      "_Agency": 6223,
      "*](https://www.": 6224,
      "eck": 6225,
      "▁முக": 6226,
      "_and_Development": 6227,
      "▁குடும்ப": 6228,
      "▁\"Category:": 6229,
      "▁[Craven": 6230,
      "ains": 6231,
      "_மற்றும்": 6232,
      "▁Vedic": 6233,
      "-prov": 6234,
      "▁exp": 6235,
      "▁நிர்": 6236,
      "athura": 6237,
      "_East_Asia_Summit": 6238,
      "ுள்ளது.[[": 6239,
      "quality": 6240,
      "▁2010](https://ta.wikipedia.org/wiki/இந்தியா#CITEREF": 6241,
      "▁காண": 6242,
      "ற்றும": 6243,
      "](https://en.wikipedia.org/wiki/List_of_countries_by": 6244,
      "awahar": 6245,
      "▁தொக": 6246,
      "▁2009](https://ta.wikipedia.org/wiki/இந்தியா#CITEREF": 6247,
      "kingdom": 6248,
      "▁தொடக்க": 6249,
      "▁employ": 6250,
      "rince": 6251,
      "ரோப்பிய": 6252,
      "▁China": 6253,
      "▁இரண்டு": 6254,
      "த்_தேர்தல்": 6255,
      "maputra": 6256,
      "▁ரூபாய்": 6257,
      "▁ரீதிய": 6258,
      "rahmaputra": 6259,
      "லுவல்": 6260,
      "ilgrim": 6261,
      "merican": 6262,
      "▁Registrar": 6263,
      "ணையர்": 6264,
      "▁groups": 6265,
      "▁பெரும்பாலான": 6266,
      "▁பயன்படுத்த": 6267,
      "entral_": 6268,
      "திவாளர்": 6269,
      "ல்தான": 6270,
      "▁(India)\")": 6271,
      "awaharl": 6272,
      "3,": 6273,
      "CL": 6274,
      "De": 6275,
      "_వ": 6276,
      "_10": 6277,
      "ns": 6278,
      "t-": 6279,
      "जम्मू": 6280,
      "पि": 6281,
      "भ्यता": 6282,
      "मो": 6283,
      "लों": 6284,
      "शा": 6285,
      "िख": 6286,
      "िम": 6287,
      "ीगढ़": 6288,
      "ॉक": 6289,
      "గర": 6290,
      "టక": 6291,
      "టా": 6292,
      "దార": 6293,
      "నీ": 6294,
      "రో": 6295,
      "సభ": 6296,
      "ెద్ద": 6297,
      "▁ओ": 6298,
      "▁[वि": 6299,
      "▁[सा": 6300,
      "▁\"ग": 6301,
      "▁\"సి": 6302,
      "2022": 6303,
      "ominal": 6304,
      "educ": 6305,
      "](https://hi.wikipedia.org/wiki/ल": 6306,
      "▁कु": 6307,
      "▁(1):": 6308,
      "▁सूचना": 6309,
      "▁मध्य": 6310,
      "▁महासागर": 6311,
      "](https://te.wikipedia.org/wiki/భారత_": 6312,
      "ानव": 6313,
      "216": 6314,
      "र्ज": 6315,
      "▁mi": 6316,
      "urch": 6317,
      "rest": 6318,
      "▁పు": 6319,
      "▁जी": 6320,
      "ालदीव": 6321,
      "▁दशक": 6322,
      "ेशन": 6323,
      "ेशिया": 6324,
      "▁religious": 6325,
      "▁1980": 6326,
      "రాజ్య": 6327,
      "▁కేంద్రపాలిత": 6328,
      "akes": 6329,
      "क्षर": 6330,
      "षाण": 6331,
      "▁మా": 6332,
      "▁Asia:": 6333,
      "▁शक्ति": 6334,
      "▁शिक्षा": 6335,
      "काश": 6336,
      "▁చే": 6337,
      "ము\")": 6338,
      "త్స": 6339,
      "anka": 6340,
      "ंडीगढ़": 6341,
      "▁రాజ్య": 6342,
      "▁लोग": 6343,
      "▁(PDF),": 6344,
      "▁क्षेत्रीय": 6345,
      "వాతంత్ర": 6346,
      "Singh200918": 6347,
      "▁पुरा": 6348,
      "जनसंख्या": 6349,
      "▁जनसंख्या": 6350,
      "▁దేశాల": 6351,
      "▁वर्ग": 6352,
      "లాదేశ్": 6353,
      "▁2019,": 6354,
      "]](https://hi.wikipedia.org/wiki/भारत#cite_note-FOOTNOTEStein1998": 6355,
      "స్తు": 6356,
      "▁సామ్రాజ్యం](https://te.wikipedia.org/wiki/": 6357,
      "ంగ్లాదేశ్": 6358,
      "▁భాషలు": 6359,
      "ారు.": 6360,
      "▁(eds.),": 6361,
      "मुख्य": 6362,
      "%E0%A4%B": 6363,
      "_ప్రా": 6364,
      "▁स्थित": 6365,
      "tlas": 6366,
      "్రిటి": 6367,
      "▁అధికార": 6368,
      "▁Minorities": 6369,
      "त्तराखण्ड": 6370,
      "fferent": 6371,
      "hristian": 6372,
      "ూర్పు": 6373,
      ".nih": 6374,
      "▁अप्रैल": 6375,
      "हिमाचल": 6376,
      "▁लेख:": 6377,
      "▁शताब्दी": 6378,
      "కైవు": 6379,
      "education": 6380,
      "400": 6381,
      "C)": 6382,
      "Col": 6383,
      "Th": 6384,
      "_15": 6385,
      "iet": 6386,
      "ime": 6387,
      "iew": 6388,
      "rial": 6389,
      "▁70": 6390,
      "▁[c": 6391,
      "▁independ": 6392,
      "ets": 6393,
      "▁billion": 6394,
      "▁Ram": 6395,
      "▁[\"H": 6396,
      "imach": 6397,
      "-5196": 6398,
      "▁\"British": 6399,
      "_pro": 6400,
      "▁[National": 6401,
      "▁[Ludden": 6402,
      "ribution": 6403,
      "▁2022.\n": 6404,
      "▁along": 6405,
      "▁Thomas": 6406,
      "cript": 6407,
      "New_Delhi": 6408,
      "d/d": 6409,
      "data.worldbank.org/": 6410,
      "data.worldbank.org/indicator": 6411,
      "&#": 6412,
      "&ss": 6413,
      "/m": 6414,
      "125": 6415,
      "2-0": 6416,
      "3).": 6417,
      "5]](https://ta.wikipedia.org/wiki/இந்தியா#cite_note-": 6418,
      "83": 6419,
      "=\"": 6420,
      "Michell": 6421,
      "Oj": 6422,
      "SAARC": 6423,
      "Taj": 6424,
      "UK": 6425,
      "_உலக": 6426,
      "ather": 6427,
      "aury": 6428,
      "business": 6429,
      "cover": 6430,
      "cropped": 6431,
      "lé": 6432,
      "mall": 6433,
      "uff": 6434,
      "கவல்": 6435,
      "ஜன": 6436,
      "பதி": 6437,
      "லின்": 6438,
      "ளம்": 6439,
      "வண்": 6440,
      "ஸ்ட": 6441,
      "ீர்": 6442,
      "iary": 6443,
      "ortheast": 6444,
      "pen": 6445,
      "▁[Harle": 6446,
      "ene": 6447,
      "enj": 6448,
      "rew": 6449,
      "arth": 6450,
      "araj": 6451,
      "aries": 6452,
      "arrow": 6453,
      "arendra": 6454,
      "ந்தியா": 6455,
      "](https://ta.wikipedia.org/wiki/S": 6456,
      "](https://ta.wikipedia.org/wiki/வி": 6457,
      "](https://ta.wikipedia.org/wiki/உலக": 6458,
      "இந்தோ": 6459,
      "ising": 6460,
      "ed,": 6461,
      "ederal": 6462,
      "▁பத": 6463,
      "▁(இந்தியா)": 6464,
      "ப்பில்": 6465,
      "icob": 6466,
      "▁மர": 6467,
      "▁மெ": 6468,
      "▁மனித": 6469,
      "raz": 6470,
      "த்தொடர்": 6471,
      "த்தால்": 6472,
      "▁கலை": 6473,
      "▁கிழ": 6474,
      "-15": 6475,
      "ருநாட": 6476,
      "▁As": 6477,
      "▁*India": 6478,
      "▁வரை": 6479,
      "▁far": 6480,
      "▁fam": 6481,
      "▁அறிய": 6482,
      "\"),[[": 6483,
      "த்_": 6484,
      "atna": 6485,
      "ature": 6486,
      "▁mar": 6487,
      "▁Routledge": 6488,
      "ists": 6489,
      "ற்றல்": 6490,
      "ிரே": 6491,
      "23.": 6492,
      "▁att": 6493,
      "iger": 6494,
      "igved": 6495,
      "igration": 6496,
      "▁would": 6497,
      "mentin-": 6498,
      "சுவ": 6499,
      "emic": 6500,
      "▁Games": 6501,
      "ional": 6502,
      "▁economy": 6503,
      "▁report": 6504,
      "▁1970": 6505,
      "pecially": 6506,
      "168": 6507,
      "409": 6508,
      "40px-": 6509,
      "17.": 6510,
      "▁through": 6511,
      "_Pl": 6512,
      "▁இந்தியாவை": 6513,
      "ாரி": 6514,
      "ecu": 6515,
      "eccan": 6516,
      "▁முதன்": 6517,
      "▁Law": 6518,
      "▁London": 6519,
      "▁W.": 6520,
      "▁Kingdom": 6521,
      "]](https://en.wikipedia.org/wiki/India#cite_note-FOOTNOTEMetcalfMetcalf2006": 6522,
      "▁2011,": 6523,
      "ountries": 6524,
      "ன்றா": 6525,
      "▁[↑](https://ta.wikipedia.org/wiki/இந்தியா#cite_ref-FOOTNOTEMetcalfMetcalf2006": 6526,
      "a_d": 6527,
      "Harvard": 6528,
      "▁[பா": 6529,
      "ல்கள்": 6530,
      "_மலை": 6531,
      "ociation": 6532,
      "ங்கள்\")": 6533,
      "▁range": 6534,
      "law": 6535,
      "_Economic": 6536,
      "தன்மைக்": 6537,
      "▁regions": 6538,
      "▁technology": 6539,
      "முறை": 6540,
      "முதன்மைக்": 6541,
      "-203": 6542,
      "need": 6543,
      "1988": 6544,
      "2000),": 6545,
      "▁இயக்க": 6546,
      "_Islands": 6547,
      "▁ஒன்றிய": 6548,
      "Harle1994),": 6549,
      "▁2004](https://ta.wikipedia.org/wiki/இந்தியா#CITEREF": 6550,
      "ும்பை": 6551,
      "](https://ta.wikipedia.org/wiki/இந்திய_ரூபாய்": 6552,
      "Environment": 6553,
      ".htm)": 6554,
      "▁கட்டுரை": 6555,
      "▁texts": 6556,
      "67733-7": 6557,
      "ச்சு:": 6558,
      "donesia": 6559,
      "யோன்": 6560,
      "Tarlo1996-26": 6561,
      "▁ஆயுத": 6562,
      "ப்_பொதுத்_தேர்தல்": 6563,
      "▁ரூபாய்\")": 6564,
      "Ojha": 6565,
      "lémentin-": 6566,
      "lémentin-Ojha": 6567,
      "-T": 6568,
      "-ex": 6569,
      "/india/": 6570,
      "Alig": 6571,
      "John": 6572,
      "TO": 6573,
      "_he": 6574,
      "f/f": 6575,
      "rance": 6576,
      "▁68": 6577,
      "](https://d": 6578,
      "asing": 6579,
      "ica": 6580,
      "\\_(": 6581,
      "ager": 6582,
      "chol": 6583,
      "_Act": 6584,
      "osi": 6585,
      "ssam": 6586,
      "_News": 6587,
      "on-Alig": 6588,
      "a/a": 6589,
      "on-Aligned": 6590,
      "/).": 6591,
      "/we": 6592,
      "Co": 6593,
      "_राज": 6594,
      "_30": 6595,
      "_46": 6596,
      "eb": 6597,
      "gu": 6598,
      "iz": 6599,
      "ps": 6600,
      "को": 6601,
      "गत": 6602,
      "गू": 6603,
      "तृत": 6604,
      "म\")": 6605,
      "वल": 6606,
      "श्य": 6607,
      "षय": 6608,
      "हरा": 6609,
      "हित": 6610,
      "िनेमा": 6611,
      "ी.": 6612,
      "ृद्ध": 6613,
      "ेघ": 6614,
      "ంజా": 6615,
      "గి": 6616,
      "టీ": 6617,
      "టాన్": 6618,
      "మంత్రి": 6619,
      "లను": 6620,
      "వె": 6621,
      "వరణ": 6622,
      "హదార": 6623,
      "ూచ": 6624,
      "–70": 6625,
      "▁°": 6626,
      "▁హ": 6627,
      "▁40": 6628,
      "▁భారతదేశ": 6629,
      "▁[ग": 6630,
      "▁\"तमिल": 6631,
      "19-882905-8": 6632,
      "▁सक": 6633,
      "-18": 6634,
      "78.": 6635,
      "▁Central": 6636,
      "्यों": 6637,
      "్రమ": 6638,
      "lion": 6639,
      "▁अव": 6640,
      "▁2000": 6641,
      "▁Economy": 6642,
      "▁1962": 6643,
      "▁प्रेस": 6644,
      "▁प्रौद्योगिक": 6645,
      "्वतंत्रता": 6646,
      "భారతదేశ_": 6647,
      "▁near": 6648,
      "▁Ocean": 6649,
      "▁కొ": 6650,
      "▁व्य": 6651,
      "▁వ్యా": 6652,
      "▁మత": 6653,
      "▁మతము": 6654,
      "▁शु": 6655,
      "▁संसद": 6656,
      "తావరణ": 6657,
      "నాడు": 6658,
      "ummary": 6659,
      "ियार": 6660,
      "▁[British": 6661,
      "333": 6662,
      "issile": 6663,
      "▁लोक": 6664,
      "▁राज्य\")": 6665,
      "times.indiatimes.com/": 6666,
      "हाय": 6667,
      "परमाणु": 6668,
      "ोलन": 6669,
      "type": 6670,
      "▁ఉంది.": 6671,
      "feb": 6672,
      "ेली": 6673,
      "_Fund": 6674,
      "2005),": 6675,
      "▁ఇతర": 6676,
      "▁जाती": 6677,
      "▁राजवंश": 6678,
      "ాయి": 6679,
      "▁स्था": 6680,
      "▁स्थान": 6681,
      "ज्ज": 6682,
      "ణాసియా": 6683,
      "▁right": 6684,
      "▁प्राचीन": 6685,
      "▁था।": 6686,
      "▁धर्म\")": 6687,
      "ांग्लादेश": 6688,
      "టెడ్": 6689,
      "▁ఆర్కైవు": 6690,
      "ustralia": 6691,
      "महाद्वीप": 6692,
      "economictimes.indiatimes.com/": 6693,
      "▁\"हिन्दी\")": 6694,
      "▁రైలు": 6695,
      "▁Plateau": 6696,
      "భూటాన్": 6697,
      "▁पहले": 6698,
      "_సామ్రాజ్యం": 6699,
      "arliest": 6700,
      "▁[हिन्दी](https://hi.wikipedia.org/wiki/हिन्दी": 6701,
      "▁चुनावों": 6702,
      "▁सैन्य": 6703,
      "వాతంత్ర్య": 6704,
      "$](https://ta.wikipedia.org/wiki/அமெரிக்க": 6705,
      "-க": 6706,
      "0-0)": 6707,
      "Business": 6708,
      "Language": 6709,
      "SN": 6710,
      "US": 6711,
      "Xavi": 6712,
      "_val": 6713,
      "a-": 6714,
      "each": 6715,
      "hind": 6716,
      "ji": 6717,
      "ological": 6718,
      "phere": 6719,
      "ren": 6720,
      "uters": 6721,
      "whi": 6722,
      "wana": 6723,
      "y=": 6724,
      "ஃப": 6725,
      "அ$](https://ta.wikipedia.org/wiki/அமெரிக்க": 6726,
      "ஒன்ற": 6727,
      "டம்": 6728,
      "ணய": 6729,
      "ந்": 6730,
      "ன்க": 6731,
      "ராக": 6732,
      "லே": 6733,
      "லைய": 6734,
      "வோ": 6735,
      "ேரு": 6736,
      "ோதி": 6737,
      "–18": 6738,
      "iated": 6739,
      "org": 6740,
      "enni": 6741,
      "eneration": 6742,
      "onom": 6743,
      "onit": 6744,
      "tici": 6745,
      "erry": 6746,
      "ern_": 6747,
      "arayan": 6748,
      "hild": 6749,
      "alak": 6750,
      "alys": 6751,
      "](https://en.wikipedia.org/wiki/United": 6752,
      "](https://ta.wikipedia.org/wiki/R": 6753,
      "ம்\")\n": 6754,
      "anda": 6755,
      "▁(இந்தியா": 6756,
      "▁(2nd": 6757,
      "-01": 6758,
      "ravi": 6759,
      "த்தது.": 6760,
      "த்தைக்": 6761,
      "▁கே": 6762,
      "▁காடு": 6763,
      "▁திற": 6764,
      "▁Ag": 6765,
      "▁Comp": 6766,
      "▁Civil": 6767,
      "▁painting": 6768,
      "amp": 6769,
      "ush": 6770,
      "▁four": 6771,
      "▁இசை": 6772,
      "சிசி": 6773,
      "uled": 6774,
      "-0)\n": 6775,
      "▁நகர்": 6776,
      "▁man": 6777,
      "urs": 6778,
      "▁ஆட்சி": 6779,
      "▁where": 6780,
      "சுலா": 6781,
      "ayback": 6782,
      "ள்ளன.": 6783,
      "களு": 6784,
      "களால்": 6785,
      "களைக்": 6786,
      "architecture": 6787,
      "22.": 6788,
      "▁2025": 6789,
      "_School": 6790,
      "_in_the": 6791,
      "_in_New_Delhi": 6792,
      "ishers": 6793,
      "றுப": 6794,
      "▁[*H": 6795,
      "▁[*P": 6796,
      "_Per": 6797,
      "web.archive.org/web/2009": 6798,
      "ார்க்க": 6799,
      "▁முசுலி": 6800,
      "▁forest": 6801,
      "ாலர்": 6802,
      "ாலர்\")": 6803,
      "_Comm": 6804,
      "uduch": 6805,
      "aph": 6806,
      "orship": 6807,
      "▁தொடர்ந்து": 6808,
      "▁2011ஆம்": 6809,
      "49-2": 6810,
      "▁([₹": 6811,
      "ublishers": 6812,
      "ணிடப்பட்டது.": 6813,
      "-107-0": 6814,
      "▁\"இந்தியப்": 6815,
      "▁\"இந்தியத்": 6816,
      "▁within": 6817,
      "▁[↑](https://en.wikipedia.org/wiki/India#cite_ref-FOOTNOTEMetcalfMetcalf2006": 6818,
      "arden": 6819,
      "_Raj": 6820,
      "▁புற": 6821,
      "_Nadu": 6822,
      "▁பிரப": 6823,
      "▁பிரதம": 6824,
      "▁[Government": 6825,
      "▁US": 6826,
      "▁துறை": 6827,
      "▁2007](https://ta.wikipedia.org/wiki/இந்தியா#CITEREF": 6828,
      "▁வேறுப": 6829,
      "bbc": 6830,
      "ளாண்மை": 6831,
      "ashmiri": 6832,
      "general_": 6833,
      "amil_Nadu": 6834,
      "national-language": 6835,
      "attle": 6836,
      "illenni": 6837,
      "▁[இம்": 6838,
      "▁வாழ்": 6839,
      "▁பரணிடப்பட்டது.": 6840,
      "▁emerg": 6841,
      "_Indian_general_": 6842,
      "▁2008](https://ta.wikipedia.org/wiki/இந்தியா#CITEREF": 6843,
      "த்_திரைப்படத்துறை": 6844,
      "மீர்": 6845,
      "_இய": 6846,
      "▁especially": 6847,
      "Craven1997),": 6848,
      "▁ஆறு\")": 6849,
      "ேற்குத்": 6850,
      "▁பிரதேசத்தின்": 6851,
      "▁டாலர்\")": 6852,
      "▁வடக்கு": 6853,
      "arliamentary": 6854,
      "disha": 6855,
      "_Force": 6856,
      "▁மூலத்தில்": 6857,
      ".php?": 6858,
      "▁கணக்கெடுப்பு": 6859,
      "▁[ஐஅ$](https://ta.wikipedia.org/wiki/அமெரிக்க": 6860,
      "▁குறிப்பிட": 6861,
      "▁Studies": 6862,
      "olonial": 6863,
      "_டாலர்": 6864,
      "▁கீழ்": 6865,
      "overeign": 6866,
      "▁அரசாங்க": 6867,
      "▁தேர்தல்\")": 6868,
      "▁1998](https://ta.wikipedia.org/wiki/இந்தியா#CITEREFStein1998),": 6869,
      "▁அன்று.": 6870,
      "entral_In": 6871,
      "icobar": 6872,
      "_value": 6873,
      "onitor": 6874,
      "alakrishnan": 6875,
      "▁(இந்தியா)\")": 6876,
      "uducherry": 6877,
      "illennium": 6878,
      "▁பரணிடப்பட்டது..": 6879,
      "_Indian_general_election": 6880,
      "▁[ஐஅ$](https://ta.wikipedia.org/wiki/அமெரிக்க_டாலர்": 6881,
      "-H": 6882,
      ".in_": 6883,
      "BS": 6884,
      "PO": 6885,
      "_36": 6886,
      "lm": 6887,
      "ues": 6888,
      ".org/s": 6889,
      "ripura": 6890,
      "\\_articles": 6891,
      "istor": 6892,
      "238": 6893,
      "▁Dictionary": 6894,
      "50th": 6895,
      "\"](https://web.archive.org/web/20": 6896,
      "▁Fund": 6897,
      "▁Increase": 6898,
      "anipur": 6899,
      "india.gov.in_": 6900,
      "co.uk": 6901,
      "▁2020.": 6902,
      "▁2024.": 6903,
      "▁commun": 6904,
      ".nlm": 6905,
      "bi.nlm": 6906,
      "langoff-1": 6907,
      "Uttarakhand": 6908,
      "Report.pdf)": 6909,
      "ncbi.nlm": 6910,
      "ncbi.nlm.nih": 6911,
      "2-7": 6912,
      "4).": 6913,
      "Economic": 6914,
      "Home": 6915,
      "_28": 6916,
      "_16": 6917,
      "_45": 6918,
      "f/": 6919,
      "hra": 6920,
      "hmed": 6921,
      "mil": 6922,
      "ot": 6923,
      "tle": 6924,
      "worth": 6925,
      "▁z": 6926,
      "▁80": 6927,
      "win": 6928,
      "▁[World": 6929,
      "estic": 6930,
      "omestic": 6931,
      "▁(2004": 6932,
      "▁si": 6933,
      "▁sim": 6934,
      "▁Ste": 6935,
      "▁*A": 6936,
      "▁14.": 6937,
      "▁185": 6938,
      "▁2015.": 6939,
      "urity": 6940,
      "ilbert": 6941,
      "results": 6942,
      "108": 6943,
      "-39": 6944,
      "_Ass": 6945,
      "489": 6946,
      "_Times": 6947,
      "news": 6948,
      "overnment_of_India": 6949,
      "_128": 6950,
      "\"](https://web.archive.org/web/20140": 6951,
      "iteracy": 6952,
      "–120": 6953,
      "prof": 6954,
      "atter": 6955,
      "ureau": 6956,
      "▁use": 6957,
      "▁\"Official": 6958,
      "rector": 6959,
      "-India-": 6960,
      "reedom": 6961,
      "-the": 6962,
      "-22": 6963,
      "41": 6964,
      "748": 6965,
      "8%": 6966,
      "9-6": 6967,
      ":C": 6968,
      "Ali": 6969,
      "Aitchison": 6970,
      "Be": 6971,
      "Dg": 6972,
      "Garg": 6973,
      "Karanth": 6974,
      "L.": 6975,
      "San": 6976,
      "_a": 6977,
      "_t": 6978,
      "_घ": 6979,
      "_द": 6980,
      "_கா": 6981,
      "_43": 6982,
      "_Union": 6983,
      "business/": 6984,
      "e,": 6985,
      "eers": 6986,
      "epend": 6987,
      "sur": 6988,
      "search": 6989,
      "subcontinent": 6990,
      "u,": 6991,
      "ंत": 6992,
      "अभि": 6993,
      "क्": 6994,
      "खन": 6995,
      "गान": 6996,
      "ग्व": 6997,
      "च्": 6998,
      "जं": 6999,
      "टान": 7000,
      "थिल": 7001,
      "दार": 7002,
      "फोर्ड": 7003,
      "ब्ल": 7004,
      "बेट": 7005,
      "भु": 7006,
      "मु": 7007,
      "यत": 7008,
      "यर": 7009,
      "रत": 7010,
      "वास": 7011,
      "ेड": 7012,
      "ैंक": 7013,
      "ैथिल": 7014,
      "ॉल": 7015,
      "ॉंग्रेस": 7016,
      "ोस": 7017,
      "ौसेना": 7018,
      "१८": 7019,
      "२००": 7020,
      "தில்": 7021,
      "நிலை": 7022,
      "னே": 7023,
      "னிய": 7024,
      "பூ": 7025,
      "பார்": 7026,
      "ாத": 7027,
      "ுறை": 7028,
      "ேல": 7029,
      "ைத்": 7030,
      "ంశ": 7031,
      "ఆర్": 7032,
      "ఉత్తర": 7033,
      "ఒడి": 7034,
      "కీయ": 7035,
      "గలు": 7036,
      "చు": 7037,
      "జరా": 7038,
      "తూర్పు": 7039,
      "భు": 7040,
      "మన్": 7041,
      "యి": 7042,
      "లస": 7043,
      "ీన": 7044,
      "ేక": 7045,
      "▁డ": 7046,
      "▁ge": 7047,
      "▁qu": 7048,
      "▁ईसा": 7049,
      "▁జాబితా": 7050,
      "▁Books": 7051,
      "▁urban": 7052,
      "orne": 7053,
      "▁[p": 7054,
      "▁[ड": 7055,
      "▁[ल": 7056,
      "▁[భారతదేశ": 7057,
      "▁[दक्षिण": 7058,
      "▁[पाकिस्तान": 7059,
      "▁[archived": 7060,
      "▁\"சி": 7061,
      "▁\"வி": 7062,
      "▁\"दक्षिण": 7063,
      "▁\"पाकिस्तान": 7064,
      "inema": 7065,
      "ences": 7066,
      "anch": 7067,
      "tage": 7068,
      "report": 7069,
      "aro": 7070,
      "ந்தே": 7071,
      "](https://hi.wikipedia.org/wiki/न": 7072,
      "](https://hi.wikipedia.org/wiki/पाकिस्तान": 7073,
      "▁பங்கு": 7074,
      "andy": 7075,
      "▁(2006),": 7076,
      "இந்தியாவின்": 7077,
      "ப்பாடு": 7078,
      "ப்பிரி": 7079,
      "भारत)": 7080,
      "ர்ச்சி": 7081,
      "▁साल": 7082,
      "▁மண்டல": 7083,
      "▁India](https://en.wikipedia.org/wiki/G": 7084,
      "▁காட்டு": 7085,
      "▁கால்": 7086,
      "[[14": 7087,
      "789": 7088,
      "▁summits": 7089,
      "ருவ": 7090,
      "▁मो": 7091,
      "▁मौ": 7092,
      ").jpg": 7093,
      "ago": 7094,
      "▁வழி": 7095,
      "राम": 7096,
      "loth": 7097,
      "well": 7098,
      "▁இக்கால": 7099,
      "▁அண்.": 7100,
      "▁bre": 7101,
      "21.": 7102,
      "](https://hi.wikipedia.org/wiki/भारत_के": 7103,
      "▁நாட்டு": 7104,
      ".[[3": 7105,
      "▁சது": 7106,
      ".com/article": 7107,
      "▁Trade": 7108,
      "24.": 7109,
      "ayana": 7110,
      "emographic": 7111,
      "▁పట్ట": 7112,
      "▁**జాతీయ": 7113,
      "_की_": 7114,
      "ర్\")": 7115,
      "▁last": 7116,
      "▁என்ற": 7117,
      "▁Nuclear": 7118,
      "▁religion": 7119,
      "29)": 7120,
      "ंगाना": 7121,
      "▁भारत\")": 7122,
      "oples": 7123,
      "_in_B": 7124,
      "▁Food": 7125,
      "_Air": 7126,
      "வுக்கு": 7127,
      "▁Organization": 7128,
      "-526": 7129,
      "▁முற": 7130,
      "▁L.": 7131,
      "oss": 7132,
      "osphere": 7133,
      "ப்பட்டது.": 7134,
      "aves": 7135,
      "▁आर्थिक": 7136,
      "ataraj": 7137,
      "&pg=PT": 7138,
      "నిక": 7139,
      "ంగ్రె": 7140,
      "▁సభ": 7141,
      "lled": 7142,
      "▁எண்ண": 7143,
      "ड़ियाँ": 7144,
      "▁उन": 7145,
      "கம்\")": 7146,
      "alled": 7147,
      "poration": 7148,
      "▁உள்ளட": 7149,
      "काता": 7150,
      "%2C_S": 7151,
      "▁கொள்கை": 7152,
      "rchitecture": 7153,
      "తాబ్": 7154,
      "▁इंडिया": 7155,
      "ी](https://hi.wikipedia.org/wiki/द": 7156,
      "neworld": 7157,
      "grave": 7158,
      "_summits": 7159,
      "issions": 7160,
      "ंडोन": 7161,
      "▁புதிய": 7162,
      "▁ప్రపంచ": 7163,
      "▁ప్రభు": 7164,
      "▁[![A": 7165,
      "_Broadcasting": 7166,
      "▁राज्यक्षेत्र": 7167,
      "▁विस्त": 7168,
      "▁विदेश": 7169,
      "_Nations": 7170,
      "_நி": 7171,
      "▁[Dikshit": 7172,
      "ंग्रेजी": 7173,
      "ोलकाता": 7174,
      "றிவு": 7175,
      "\"](https://web.archive.org/web/20150": 7176,
      "ंध्र": 7177,
      "▁अन्त": 7178,
      "▁ఆసియా": 7179,
      "▁क्षेत्रों": 7180,
      "▁नेतृत": 7181,
      "ender": 7182,
      "ட்டி\")": 7183,
      "केन्द्र": 7184,
      "51–": 7185,
      "▁\"अंग्रेज़ी": 7186,
      "AsherTalbot2006),": 7187,
      "▁மாற்ற": 7188,
      "▁2007\n": 7189,
      "మ్రాజ్య": 7190,
      "▁change": 7191,
      "](https://en.wikipedia.org/wiki/National": 7192,
      "](https://en.wikipedia.org/wiki/Re": 7193,
      "▁देश\")": 7194,
      "▁जनवरी": 7195,
      "](https://en.wikipedia.org/wiki/List_of_SAARC": 7196,
      "हरिया": 7197,
      "ूर्वी": 7198,
      "▁சிற்ப": 7199,
      "पुरम": 7200,
      "aceu": 7201,
      "▁मेला\"),": 7202,
      "do-European": 7203,
      "](https://books.google.com/books?id=ZvaGuaJIJgoC&pg=PA": 7204,
      "](https://books.google.com/books?id=kZVuDwAAQBAJ&pg=PA": 7205,
      "ंग्रेज़ी_भाषा": 7206,
      "▁addition": 7207,
      "िशा": 7208,
      "▁பெரும்": 7209,
      "alayal": 7210,
      "▁நடன": 7211,
      "தேசம்": 7212,
      "గుజరా": 7213,
      "▁२०१": 7214,
      "▁தெற்கு": 7215,
      "industani": 7216,
      "समिया": 7217,
      "▁సామ్రాజ్యం\")": 7218,
      "ज्ञाप": 7219,
      "न्नई": 7220,
      "बंधन": 7221,
      "▁पुरालेखित।,": 7222,
      "▁இயற்க": 7223,
      "rishna": 7224,
      "uisine": 7225,
      "త్యేక": 7226,
      "రాష్ట్రపతి": 7227,
      "ప్ప": 7228,
      "eserve": 7229,
      "▁मानसून": 7230,
      "DikshitSchwartzberg2023),": 7231,
      "gypt": 7232,
      "_और_संघ": 7233,
      "table": 7234,
      "▁కాశ్మీ": 7235,
      "▁రాజవంశం": 7236,
      "4/4": 7237,
      "▁युग": 7238,
      "रक्षा": 7239,
      "वादी": 7240,
      "▁स्वतंत्रता": 7241,
      "_के_आधार_पर_भारत_के_राज्यों_की_सूची": 7242,
      "▁when": 7243,
      "तेलंगाना": 7244,
      "▁చెంద": 7245,
      "▁ఆర్ధిక": 7246,
      "▁<https://web.archive.org/web/201": 7247,
      "%20%20%20%20": 7248,
      "चेन्नई": 7249,
      "▁बहुत": 7250,
      "▁Buddhist": 7251,
      "telligence_Agency": 7252,
      ".svg/40px-": 7253,
      "पीठ": 7254,
      "▁స్థాన": 7255,
      "bhasha": 7256,
      "Provisional_Population_Totals_Paper_1_of_2011_India16": 7257,
      "owever,": 7258,
      "Wolpert2003": 7259,
      "తమిళనాడు": 7260,
      "क्सफोर्ड": 7261,
      "▁निर्माण": 7262,
      "त्रिपुरा": 7263,
      "ప్రధానమంత్రి": 7264,
      "PK:14": 7265,
      "ீபக": 7266,
      "▁(ed.).": 7267,
      "_BRICS_summit": 7268,
      "గణతంత్ర": 7269,
      "▁క్రీడ": 7270,
      "▁ఉన్నాయి.": 7271,
      "ynasty": 7272,
      "तेलुगू": 7273,
      "harmaceu": 7274,
      "▁including": 7275,
      "भीमबेट": 7276,
      "talk:": 7277,
      "fault": 7278,
      "झारखंड": 7279,
      "-0-521-80904-7": 7280,
      "छत्तीसगढ़": 7281,
      "िंधु": 7282,
      "ఆఫ్ఘ": 7283,
      "శ్రీలంక": 7284,
      "షియా": 7285,
      "rakash": 7286,
      "▁मुख्य": 7287,
      "న్‌ఫ": 7288,
      "నేపాల్": 7289,
      "ब्बत": 7290,
      "▁[अंग्रेज़ी](https://hi.wikipedia.org/wiki/अंग्रेज़ी_भाषा": 7291,
      "ல்வகை": 7292,
      "▁நிர்வாக": 7293,
      "▁ओर": 7294,
      "▁कुछ": 7295,
      "▁முதன்மையான": 7296,
      "_Commission": 7297,
      "▁([₹](https://ta.wikipedia.org/wiki/இந்திய_ரூபாய்": 7298,
      "entral_Intelligence_Agency": 7299,
      "AliAitchison": 7300,
      "अभिज्ञाप": 7301,
      "च्छ": 7302,
      "▁summits\")": 7303,
      "తాబ్ద": 7304,
      "](https://en.wikipedia.org/wiki/List_of_SAARC_summits": 7305,
      "भीमबेटका": 7306,
      "AliAitchison2005": 7307,
      "अभिज्ञापक": 7308,
      "-70": 7309,
      "528": 7310,
      "5)\n": 7311,
      "nominal": 7312,
      "▁7.": 7313,
      "▁times": 7314,
      "ara": 7315,
      "▁Social": 7316,
      "▁2012.": 7317,
      "ume": 7318,
      "▁Report": 7319,
      "▁Territory": 7320,
      "240": 7321,
      "-45": 7322,
      "▁Health": 7323,
      "▁[*M": 7324,
      "_Pro": 7325,
      "eph": 7326,
      "▁control": 7327,
      "-in-": 7328,
      "_the_": 7329,
      "Pages\\_using\\_": 7330,
      "▁[*An": 7331,
      "-language\\_s": 7332,
      ".com/news/national": 7333,
      "▁Short": 7334,
      "ources\\_(": 7335,
      "thehindu.com/news/national": 7336,
      "▁(2014).": 7337,
      "mritsar": 7338,
      "-language\\_sources\\_(": 7339,
      "0/0": 7340,
      "Pos": 7341,
      "_languages": 7342,
      "edia": 7343,
      "eth": 7344,
      "gion": 7345,
      "garh": 7346,
      "hut": 7347,
      "tten": 7348,
      "rame": 7349,
      "ing,": 7350,
      "▁prom": 7351,
      "2542": 7352,
      "upreme": 7353,
      "opal": 7354,
      "▁nation": 7355,
      "▁On": 7356,
      "_and_T": 7357,
      "▁[Ar": 7358,
      "_Data": 7359,
      "Roy": 7360,
      "tates_and_": 7361,
      "lative": 7362,
      "684": 7363,
      "▁different": 7364,
      "▁across": 7365,
      "▁wide": 7366,
      "ksai": 7367,
      "7,26": 7368,
      "▁estimate": 7369,
      "▁Wikidata": 7370,
      "b/b": 7371,
      "data.worldbank.org/indicator/S": 7372,
      "2542-5196": 7373,
      "\"](http://": 7374,
      "%ஆக": 7375,
      "-w": 7376,
      "/M": 7377,
      "2-3": 7378,
      "2]](https://en.wikipedia.org/wiki/India#cite_note-": 7379,
      "4]](https://en.wikipedia.org/wiki/India#cite_note-": 7380,
      "4]](https://en.wikipedia.org/wiki/India#cite_note-FOOTNOTE": 7381,
      "6.\n": 7382,
      "8]](https://ta.wikipedia.org/wiki/இந்தியா#cite_note-FOOTNOTE": 7383,
      "EB": 7384,
      "F)": 7385,
      "MC": 7386,
      "MID": 7387,
      "Organisation": 7388,
      "_25": 7389,
      "_கு": 7390,
      "_a_": 7391,
      "_2009": 7392,
      "aid": 7393,
      "ful": 7394,
      "lid": 7395,
      "ncient": 7396,
      "other": 7397,
      "pture": 7398,
      "pani": 7399,
      "rup": 7400,
      "spec": 7401,
      "vid": 7402,
      "vil": 7403,
      "wAAQBAJ&pg=PA": 7404,
      "கிய": 7405,
      "செ": 7406,
      "சர்": 7407,
      "டும்": 7408,
      "டக்": 7409,
      "டனம்": 7410,
      "தார்": 7411,
      "னஸ்": 7412,
      "மர்": 7413,
      "ரில்": 7414,
      "ல்டு": 7415,
      "வதற்கு": 7416,
      "ீதி": 7417,
      "ோள": 7418,
      "▁rit": 7419,
      "▁ரா": 7420,
      "▁low": 7421,
      "▁histor": 7422,
      "ora": 7423,
      "oro": 7424,
      "▁[Y": 7425,
      "▁[f": 7426,
      "▁[வி": 7427,
      "▁[Robb": 7428,
      "enous": 7429,
      "th_BRICS_summit": 7430,
      "ியான்": 7431,
      "aland": 7432,
      "omo": 7433,
      "▁பரி": 7434,
      "outheast": 7435,
      "▁(19": 7436,
      "ப்பந்த": 7437,
      "ashi": 7438,
      "nold": 7439,
      "க்கண்ட": 7440,
      "க்கிற": 7441,
      "து.\n": 7442,
      "ical_": 7443,
      "▁மின்": 7444,
      "raw": 7445,
      "ingap": 7446,
      "rime": 7447,
      "▁தடு": 7448,
      "▁திட்ட": 7449,
      "▁Cooperation": 7450,
      "▁prac": 7451,
      "▁Singh": 7452,
      "▁State": 7453,
      "agari": 7454,
      "▁வகு": 7455,
      "ately": 7456,
      "▁feat": 7457,
      "▁இணை": 7458,
      "▁Park": 7459,
      "சினஸ்": 7460,
      "▁cre": 7461,
      "▁colle": 7462,
      "▁caus": 7463,
      "க்சு": 7464,
      "▁நான": 7465,
      "urk": 7466,
      "una": 7467,
      ".[[4": 7468,
      "▁சூ": 7469,
      "ial_": 7470,
      "▁ஆசியா": 7471,
      "திர்": 7472,
      "**\n": 7473,
      "igenous": 7474,
      "-345": 7475,
      "beral": 7476,
      "emi": 7477,
      "▁Emer": 7478,
      "களி": 7479,
      "▁G.": 7480,
      "▁led": 7481,
      "▁east": 7482,
      "forest": 7483,
      "_in_T": 7484,
      "ிலுள்ள": 7485,
      "169": 7486,
      "matic": 7487,
      "▁though": 7488,
      "*](https://archive.org/details/": 7489,
      "▁[Sharma": 7490,
      "▁growth": 7491,
      "tempor": 7492,
      "ples": 7493,
      "ராட்சி": 7494,
      "osa": 7495,
      "]](https://en.wikipedia.org/wiki/India#cite_note-Combined": 7496,
      ")[[4": 7497,
      "_Co-operation": 7498,
      "ங்களாக": 7499,
      "_DS": 7500,
      "39-4": 7501,
      "ணிப்பு": 7502,
      "a_Empire": 7503,
      "%2C5": 7504,
      "▁Press](https://en.wikipedia.org/wiki/C": 7505,
      "▁Island": 7506,
      "](https://ta.wikipedia.org/wiki/இந்தியப்_ப": 7507,
      "s.\"\n": 7508,
      "_River": 7509,
      "▁புவி": 7510,
      "▁புலி": 7511,
      "ikhism": 7512,
      "▁பாணி": 7513,
      "▁language\"),": 7514,
      "engu": 7515,
      "▁\"தெ": 7516,
      "கிறி": 7517,
      "](https://ta.wikipedia.org/wiki/தெ": 7518,
      "-market": 7519,
      "ட்டிடக்கலை": 7520,
      "▁Urdu": 7521,
      "▁Review": 7522,
      "வெப்ப": 7523,
      "ரிக்கும்": 7524,
      "▁தொலை": 7525,
      "_des": 7526,
      "▁மூன்று": 7527,
      "▁கொண்டுள்ளது.[[": 7528,
      "வேத": 7529,
      "ervice": 7530,
      "PPP": 7531,
      "▁நீர்": 7532,
      "▁நீண்ட": 7533,
      "▁பரப்ப": 7534,
      "▁பரவல": 7535,
      "▁languages\")": 7536,
      "▁[978-0-19-9": 7537,
      "▁subcontinent\")": 7538,
      "▁known": 7539,
      "ighth": 7540,
      "▁direct": 7541,
      "ilies": 7542,
      "415-3": 7543,
      "vanagari": 7544,
      "formance": 7545,
      "▁These": 7546,
      "▁இராச்சிய": 7547,
      "▁நாடாளுமன்ற": 7548,
      "மயமலை": 7549,
      "_to_the": 7550,
      "▁பாதுகாப்புப்": 7551,
      "▁பாதுகாப்புச்": 7552,
      "▁about": 7553,
      "Ludden2014": 7554,
      "▁Islands\")": 7555,
      "▁People": 7556,
      "_இந்தியப்_பொதுத்_தேர்தல்": 7557,
      "▁கூட": 7558,
      "ுகலாயப்": 7559,
      "_for_Economic": 7560,
      "janta": 7561,
      "▁Publications": 7562,
      "▁காரணமாக": 7563,
      "▁increased": 7564,
      "](https://ta.wikipedia.org/wiki/இந்திய_அரசு": 7565,
      "▁விரிவ": 7566,
      "olkata": 7567,
      "/hindi": 7568,
      "▁கல்வி": 7569,
      "▁Conservation": 7570,
      "▁பொருட்கள": 7571,
      "estival": 7572,
      "s/default": 7573,
      "arnatic": 7574,
      "violence": 7575,
      "](https://en.wikipedia.org/wiki/History_of_": 7576,
      "▁கடற்கரை": 7577,
      "இந்தோனே": 7578,
      "Home_Affairs": 7579,
      "▁[archived](https://web.archive.org/web/201": 7580,
      "ீபகற்ப": 7581,
      "vidence": 7582,
      "ingapore": 7583,
      "_Co-operation_and_Development": 7584,
      "_for_Economic_Co-operation_and_Development": 7585,
      "s/default/files/": 7586,
      "-k": 7587,
      "-22)": 7588,
      "/R": 7589,
      "/countries/": 7590,
      "314": 7591,
      "61": 7592,
      "6),": 7593,
      "96": 7594,
      "CH": 7595,
      "M50th": 7596,
      "NCL": 7597,
      "\\*": 7598,
      "_7": 7599,
      "_U": 7600,
      "_इ": 7601,
      "_श": 7602,
      "_धर्म": 7603,
      "_history": 7604,
      "_ప్రదేశ్": 7605,
      "kb": 7606,
      "m2": 7607,
      "voy": 7608,
      "ँची": 7609,
      "अंग्रेज़ी": 7610,
      "उप": 7611,
      "एन": 7612,
      "टना": 7613,
      "तन": 7614,
      "द्वार": 7615,
      "पार": 7616,
      "भग": 7617,
      "मरी": 7618,
      "रि": 7619,
      "स्व": 7620,
      "ेद": 7621,
      "ोला": 7622,
      "ం,": 7623,
      "ఉప": 7624,
      "కొ": 7625,
      "కేంద్రపాలిత": 7626,
      "జె": 7627,
      "ఢ్": 7628,
      "ది.": 7629,
      "నాల": 7630,
      "లే": 7631,
      "ళు": 7632,
      "ౌద్ధ": 7633,
      "▁:": 7634,
      "▁औ": 7635,
      "▁78": 7636,
      "▁भा": 7637,
      "▁ले": 7638,
      "▁భా": 7639,
      "▁भाग": 7640,
      "▁[य": 7641,
      "▁[ह": 7642,
      "▁[వి": 7643,
      "▁\"य": 7644,
      "](https://hi.wikipedia.org/wiki/दक्षिण": 7645,
      "](https://hi.wikipedia.org/wiki/तमिल": 7646,
      "▁काल": 7647,
      "▁कॉंग्रेस": 7648,
      "▁(J": 7649,
      "्रय": 7650,
      "asht": 7651,
      "भारतीय": 7652,
      "▁सभा": 7653,
      "▁सित": 7654,
      "▁समाज": 7655,
      "etwork": 7656,
      "▁मई": 7657,
      "▁मन": 7658,
      "▁मह": 7659,
      "▁मिल": 7660,
      "▁मशीन": 7661,
      "ations/": 7662,
      "agen": 7663,
      "ेंगल": 7664,
      "र्ध": 7665,
      "](https://hi.wikipedia.org/wiki/भारत_के_राज्य": 7666,
      "्तु": 7667,
      "urd": 7668,
      "▁Muslim": 7669,
      "ాలీ": 7670,
      "▁में,": 7671,
      "▁अभ": 7672,
      "▁Day": 7673,
      "280": 7674,
      "_(भारत)": 7675,
      "▁जब": 7676,
      "ర్చ": 7677,
      "▁द्वीप": 7678,
      "▁Ne": 7679,
      "▁नव": 7680,
      "_से": 7681,
      "_साम": 7682,
      "▁व्या": 7683,
      "ాలు?action=edit&redlink=1": 7684,
      "bove": 7685,
      "▁गई": 7686,
      "ड़िया": 7687,
      "▁शहर": 7688,
      "▁[मध्य": 7689,
      "%20A": 7690,
      "म्भ": 7691,
      "_के_अन": 7692,
      "-symbols": 7693,
      "संधान": 7694,
      "त्तरी": 7695,
      "▁Vol": 7696,
      "–సా.శ.18": 7697,
      "▁అత్య": 7698,
      "▁लिये": 7699,
      "exis": 7700,
      "▁यूनिवर्सिट": 7701,
      "]](https://hi.wikipedia.org/wiki/भारत#cite_note-pib": 7702,
      "iance": 7703,
      "▁ఆధ": 7704,
      "మాఖ్య": 7705,
      "వాణా": 7706,
      "puri": 7707,
      "ంటి": 7708,
      "▁जनजाति": 7709,
      "▁राजधान": 7710,
      "▁దేశం": 7711,
      "national-symbols": 7712,
      "रुणा": 7713,
      "డ్డ": 7714,
      "▁జనాభా": 7715,
      "దక్షిణాసియా": 7716,
      "▁గల": 7717,
      "▁భారతదేశంలో": 7718,
      "ంగ్లీ": 7719,
      "యునై": 7720,
      "ష్ణ": 7721,
      "_చరిత్ర?action=edit&redlink=1": 7722,
      "ोर्ट": 7723,
      "▁రాష్ట్రాలు,": 7724,
      "▁साम्राज्य\")": 7725,
      "_number": 7726,
      "_మతము": 7727,
      "धुनिक": 7728,
      "▁మొద": 7729,
      "ूर्ण": 7730,
      "adhya": 7731,
      "Jha2018": 7732,
      "_देशों_की_सूची": 7733,
      "ताजमह": 7734,
      "▁చెయ్యబడింది.": 7735,
      "nclm.nic.in/shared/linkimages/NCL": 7736,
      "क्षरता": 7737,
      "▁स्थाप": 7738,
      "▁[पाकिस्तान](https://hi.wikipedia.org/wiki/पाकिस्तान": 7739,
      "M50thReport.pdf)": 7740,
      "ashtra": 7741,
      "ेंगलुरु": 7742,
      "_साम्राज्य": 7743,
      "_के_अनुसार": 7744,
      "▁यूनिवर्सिटी": 7745,
      "యునైటెడ్": 7746,
      "nclm.nic.in/shared/linkimages/NCLM50thReport.pdf)": 7747,
      "1)\n": 7748,
      "623": 7749,
      ";[[": 7750,
      "EN": 7751,
      "Pakistan": 7752,
      "Sanskrit": 7753,
      "_8": 7754,
      "_con": 7755,
      "_39": 7756,
      "ethnologue": 7757,
      "rum": 7758,
      "t,": 7759,
      "went": 7760,
      "āra": 7761,
      "▁web": 7762,
      "▁60": 7763,
      "info": 7764,
      "tiger": 7765,
      "cific": 7766,
      "ices": 7767,
      "\\_of": 7768,
      "\\_country": 7769,
      "▁Co": 7770,
      "▁*C": 7771,
      "loped": 7772,
      "▁2017.": 7773,
      "▁can": 7774,
      ".[[23": 7775,
      "▁air": 7776,
      "1991": 7777,
      "▁Home": 7778,
      "▁[\"B": 7779,
      "18)": 7780,
      "place": 7781,
      "▁Wall": 7782,
      "37.": 7783,
      "aith": 7784,
      "_Gandhi": 7785,
      "world-asia": 7786,
      "cogni": 7787,
      "▁contin": 7788,
      "▁\"Government": 7789,
      "▁2010\n": 7790,
      "iterature": 7791,
      "▁Environmental": 7792,
      "▁around": 7793,
      "ights": 7794,
      "▁Art": 7795,
      "dustrial": 7796,
      "ustralian": 7797,
      "-a-b": 7798,
      "ouncil": 7799,
      "-language\\_sources\\_(en": 7800,
      "ethnologue.com/": 7801,
      "infobox": 7802,
      "world-asia-india": 7803,
      "-R": 7804,
      "-th": 7805,
      "0&s": 7806,
      "1)[[": 7807,
      "1]](https://ta.wikipedia.org/wiki/இந்தியா#cite_note-": 7808,
      "4]](https://ta.wikipedia.org/wiki/இந்தியா#cite_note-": 7809,
      "5]](https://en.wikipedia.org/wiki/India#cite_note-FOOTNOTE": 7810,
      "7C": 7811,
      "Clémentin-Ojha": 7812,
      "Central_Intelligence_Agency": 7813,
      "Ge": 7814,
      "IF": 7815,
      "Kathak": 7816,
      "Kuiper": 7817,
      "Ne": 7818,
      "Nehru": 7819,
      "Pandit": 7820,
      "Urdu": 7821,
      "_21": 7822,
      "_2019": 7823,
      "cia": 7824,
      "ees": 7825,
      "nus": 7826,
      "ocal": 7827,
      "ots": 7828,
      "pB": 7829,
      "pat": 7830,
      "pace": 7831,
      "q9": 7832,
      "range": 7833,
      "rban": 7834,
      "sa": 7835,
      "tool": 7836,
      "via": 7837,
      "x.": 7838,
      "yth": 7839,
      "சரா": 7840,
      "தக்": 7841,
      "தமி": 7842,
      "மல்": 7843,
      "யக": 7844,
      "ரத": 7845,
      "ழக்கு": 7846,
      "வட்ட": 7847,
      "ேற்ற": 7848,
      "▁`": 7849,
      "▁ஈ": 7850,
      "▁—": 7851,
      "▁ஐக்கிய": 7852,
      "▁kingdom": 7853,
      "orm": 7854,
      "](Template:": 7855,
      "▁[எ": 7856,
      "▁[University": 7857,
      "tection": 7858,
      "▁\"ஐ": 7859,
      "▁\"University": 7860,
      "▁\"கா": 7861,
      "▁\"World": 7862,
      "ino-": 7863,
      "anat": 7864,
      "anion": 7865,
      "though": 7866,
      "til": 7867,
      "tile": 7868,
      "reater": 7869,
      "ியது.[[": 7870,
      "aria": 7871,
      "arath": 7872,
      "ardian": 7873,
      "cid": 7874,
      "ம்மு": 7875,
      "ன்\")": 7876,
      "▁பங்கள": 7877,
      "▁பூர்வ": 7878,
      "ouli": 7879,
      "▁(2008": 7880,
      "ல்லா": 7881,
      "19-8": 7882,
      "▁மரு": 7883,
      "▁India](https://en.wikipedia.org/wiki/C": 7884,
      "ratic": 7885,
      "▁கலைக்களஞ்சியம்": 7886,
      "et/": 7887,
      "▁தேர்த": 7888,
      "▁தற்போ": 7889,
      "▁sha": 7890,
      "\\_containing\\_": 7891,
      "▁Asher": 7892,
      "▁California": 7893,
      "▁political": 7894,
      "▁St": 7895,
      "▁Survey": 7896,
      "▁வல": 7897,
      "▁வளர்": 7898,
      "atel": 7899,
      "▁fol": 7900,
      "weep": 7901,
      "adras": 7902,
      "adweep": 7903,
      "▁இப்ப": 7904,
      "▁இவர்": 7905,
      "lie": 7906,
      "▁அணி": 7907,
      "▁அளவு": 7908,
      "▁அலுவல்": 7909,
      "ultures": 7910,
      "umeration": 7911,
      "▁cour": 7912,
      "▁called": 7913,
      "ையா": 7914,
      "▁உட": 7915,
      "▁உறவு": 7916,
      "stani": 7917,
      "style": 7918,
      "டுதலை": 7919,
      "ண்வெளி": 7920,
      "2649": 7921,
      "indiab": 7922,
      "▁By": 7923,
      "▁Bharat": 7924,
      "igarh": 7925,
      "▁Dyson": 7926,
      "▁Desert": 7927,
      "287,26": 7928,
      "irth": 7929,
      "ays": 7930,
      "-438": 7931,
      "rynus": 7932,
      "hak": 7933,
      "uborne": 7934,
      "கள்\n": 7935,
      "27.": 7936,
      "_An": 7937,
      "▁இந்தியா\")": 7938,
      "ற்கால": 7939,
      "ரால்": 7940,
      "▁her": 7941,
      "▁Languages": 7942,
      "abour": 7943,
      "ability": 7944,
      "ghts": 7945,
      "வால்": 7946,
      "வாய்": 7947,
      "2011religion": 7948,
      "48)": 7949,
      "▁trib": 7950,
      "▁பெண்கள்": 7951,
      "▁become": 7952,
      "ிரிபு": 7953,
      "▁[↑](https://en.wikipedia.org/wiki/India#cite_ref-4": 7954,
      "▁\"Mughal": 7955,
      "](https://en.wikipedia.org/wiki/Mugh": 7956,
      "▁இந்தியத்": 7957,
      "_Re": 7958,
      "_Ram": 7959,
      "▁now": 7960,
      "▁பாலைவன": 7961,
      "தியில்": 7962,
      "▁\"Template:": 7963,
      "_Games": 7964,
      "](https://en.wikipedia.org/wiki/British": 7965,
      "▁ஆகும்.[[": 7966,
      "akistani": 7967,
      "▁\"En": 7968,
      "angetic": 7969,
      "cott": 7970,
      "த்தியப்": 7971,
      "ுள்ளன.": 7972,
      "வியியல்": 7973,
      "handigarh": 7974,
      "▁அரச": 7975,
      "▁2007](https://en.wikipedia.org/wiki/India#CITEREF": 7976,
      "outledge?action=edit&redlink=1": 7977,
      "▁சுல்தான": 7978,
      "▁மேற்க": 7979,
      "▁மூடப்பட்ட": 7980,
      "▁இருந்தது.": 7981,
      "amily": 7982,
      "கிழக்கு": 7983,
      "▁உருவாக": 7984,
      "ribune": 7985,
      "▁1500": 7986,
      "▁பெருங்க": 7987,
      "▁ஆகியவற்ற": 7988,
      "alaysia": 7989,
      "▁வாழ": 7990,
      "_Press?action=edit&redlink=1": 7991,
      "ynth": 7992,
      "ronom": 7993,
      "amanuj": 7994,
      "▁agriculture": 7995,
      "ப்பின": 7996,
      "நாத்": 7997,
      "நாயக": 7998,
      "▁Talbot,": 7999,
      "-of-india": 8000,
      "/articleshow/5": 8001,
      "uttaph": 8002,
      "▁அரசியலமைப்பு": 8003,
      "emocratic": 8004,
      "hola": 8005,
      "IAEXT": 8006,
      "strument": 8007,
      "_மொழிகள்": 8008,
      "230-345": 8009,
      "▁2001](https://ta.wikipedia.org/wiki/இந்தியா#CITEREF": 8010,
      "nergy": 8011,
      "▁rock": 8012,
      "ramouli": 8013,
      "▁மக்கள்தொகை": 8014,
      "%7c%7c": 8015,
      "119–120": 8016,
      "▁3,287,26": 8017,
      "த்தரப்": 8018,
      "ப்படுகிறது.[[": 8019,
      "▁Before": 8020,
      "▁தொகைக்": 8021,
      "](https://en.wikipedia.org/wiki/South_Asian_": 8022,
      "▁[Routledge](https://ta.wikipedia.org/wiki/R": 8023,
      "▁2018](https://en.wikipedia.org/wiki/India#CITEREFDyson2018),": 8024,
      "▁majority": 8025,
      "hattis": 8026,
      "akshadweep": 8027,
      "▁இரண்டாவது": 8028,
      "culpture": 8029,
      "_அடிப்படையில்_நாடுகளின்_பட்டியல்": 8030,
      "Census2011religion": 8031,
      "achine": 8032,
      "▁அடர்த்த": 8033,
      "forcement": 8034,
      "▁அமெரிக்கா": 8035,
      "rincely": 8036,
      "Xavier": 8037,
      "alysis": 8038,
      "-107-02649": 8039,
      "ப்பிரிக்கா": 8040,
      "hutan": 8041,
      "_for_Economic_Co-operation_and_Development_2007": 8042,
      "Clémentin-Ojha2014": 8043,
      "▁பங்களி": 8044,
      "▁Asher,": 8045,
      "▁Dyson,": 8046,
      "](https://en.wikipedia.org/wiki/Mughal_": 8047,
      "uttaphrynus": 8048,
      "230-34549-2": 8049,
      "▁[Routledge](https://ta.wikipedia.org/wiki/Routledge?action=edit&redlink=1": 8050,
      "-107-02649-0": 8051,
      "76.": 8052,
      "8,": 8053,
      "AQAAQBAJ&pg=PA": 8054,
      "Ch": 8055,
      "DR": 8056,
      "LO": 8057,
      "RA": 8058,
      "aut": 8059,
      "mon": 8060,
      "tification": 8061,
      "ars": 8062,
      "1980": 8063,
      "▁Court": 8064,
      "▁Century": 8065,
      "▁12.": 8066,
      ".jpe": 8067,
      "▁Britannica": 8068,
      "11.": 8069,
      "113": 8070,
      "39.": 8071,
      "sehl": 8072,
      "_population": 8073,
      "\"](https://www.britannica.com/": 8074,
      ".jpg/250px-S": 8075,
      "IND": 8076,
      "bbc.": 8077,
      "cms)": 8078,
      "PetragliaAllchin": 8079,
      "bbc.co.uk": 8080,
      ");": 8081,
      "126": 8082,
      "336": 8083,
      "4),": 8084,
      "5-4": 8085,
      "9)\n": 8086,
      ":\\_": 8087,
      ":IN": 8088,
      "C-01": 8089,
      "E﻿": 8090,
      "LS": 8091,
      "MDD": 8092,
      "View": 8093,
      "XLS": 8094,
      "_న": 8095,
      "_22": 8096,
      "_राज्य": 8097,
      "_एशिया": 8098,
      "lc": 8099,
      "minis": 8100,
      "pact": 8101,
      "ंतर": 8102,
      "ईल": 8103,
      "ख्य": 8104,
      "घर": 8105,
      "चें": 8106,
      "तम": 8107,
      "तुल": 8108,
      "थियार": 8109,
      "फा": 8110,
      "बा": 8111,
      "मर": 8112,
      "मार": 8113,
      "वेश": 8114,
      "वैद": 8115,
      "शन": 8116,
      "िबंध": 8117,
      "ृष": 8118,
      "ृष्ण": 8119,
      "ोट": 8120,
      "्लेट": 8121,
      "ఖండ": 8122,
      "గం": 8123,
      "టిక": 8124,
      "డే": 8125,
      "ద్య": 8126,
      "మార్": 8127,
      "మాలయ": 8128,
      "లలో": 8129,
      "లకు": 8130,
      "ళ్": 8131,
      "వ](https://te.wikipedia.org/wiki/": 8132,
      "ానికి": 8133,
      "ాళు": 8134,
      "ీర్": 8135,
      "–10": 8136,
      "▁,": 8137,
      "▁Z": 8138,
      "▁५": 8139,
      "▁భ": 8140,
      "▁ला": 8141,
      "▁37": 8142,
      "▁యు": 8143,
      "](https://cata": 8144,
      "▁[प्र": 8145,
      "▁[तमिल": 8146,
      "▁[गुजरात": 8147,
      "▁\"ड": 8148,
      "▁\"ह": 8149,
      "▁\"వి": 8150,
      "2021": 8151,
      "ारो": 8152,
      "ारम्भ": 8153,
      "](https://hi.wikipedia.org/wiki/ग": 8154,
      "](https://hi.wikipedia.org/wiki/द": 8155,
      "▁कम": 8156,
      "▁किन": 8157,
      "▁(भारत": 8158,
      "▁(2018": 8159,
      "्रह": 8160,
      "19)": 8161,
      "19.": 8162,
      "-01/": 8163,
      "▁सह": 8164,
      "▁स्तर": 8165,
      "▁सभ्यता": 8166,
      "ided": 8167,
      "-138": 8168,
      "\\_क": 8169,
      "▁poll": 8170,
      "▁fig": 8171,
      "ेंस": 8172,
      "र्ट": 8173,
      "verage": 8174,
      "्त्र": 8175,
      "ily": 8176,
      "istribution": 8177,
      "ాలో": 8178,
      "▁अमेर": 8179,
      "▁अलग": 8180,
      "▁अर्थव्यवस्था": 8181,
      "-0-19-882905-8": 8182,
      "స్వ": 8183,
      "స్లా": 8184,
      "-49": 8185,
      "वियत": 8186,
      "▁పాల": 8187,
      "▁जिन": 8188,
      "ाले": 8189,
      "ालैंड": 8190,
      "▁देव": 8191,
      "▁दोन": 8192,
      "▁Hindus": 8193,
      "న్\")": 8194,
      "न्ध": 8195,
      "▁बंगाल": 8196,
      "▁बड़े": 8197,
      "▁प्रधानमंत्री": 8198,
      "भाजन": 8199,
      "geoh": 8200,
      "▁सेवा": 8201,
      "▁काम": 8202,
      "▁[*F": 8203,
      "▁కార": 8204,
      "▁కలి": 8205,
      "▁व्यवस्था": 8206,
      "abin": 8207,
      "రిహ": 8208,
      "రికత": 8209,
      "▁West": 8210,
      "క్నాల": 8211,
      "▁आक": 8212,
      "▁आद": 8213,
      "ంది.\n": 8214,
      "perCol": 8215,
      "నిమా": 8216,
      "uccess": 8217,
      "47.": 8218,
      "-7mar": 8219,
      "▁సంగీతం": 8220,
      "ndhra": 8221,
      "▁परि": 8222,
      "▁शा": 8223,
      "▁संस्थान": 8224,
      "▁చి": 8225,
      "%20MDD": 8226,
      "_Monetary": 8227,
      "ियन": 8228,
      "ी](https://hi.wikipedia.org/wiki/म": 8229,
      "संबर": 8230,
      "सां": 8231,
      "त्ति": 8232,
      "▁रक्षा": 8233,
      "ులు\"),": 8234,
      "–సా.శ.13": 8235,
      "▁అయ": 8236,
      "▁ప్రధాన": 8237,
      "▁def": 8238,
      "जापान": 8239,
      "▁\"मध्य": 8240,
      "_GDP": 8241,
      "]](https://hi.wikipedia.org/wiki/भारत#cite_note-langoff-1": 8242,
      "हाँ": 8243,
      "ोली": 8244,
      "ప్రదాయ": 8245,
      "ప్రత్యేక": 8246,
      "▁1990": 8247,
      "ద్వీ": 8248,
      "▁ఉప": 8249,
      "](https://hi.wikipedia.org/wiki/मध्य": 8250,
      "▁రె": 8251,
      "న్నడ": 8252,
      "द्यालय": 8253,
      "ంటు": 8254,
      "▁దేశంలో": 8255,
      "गुप्त": 8256,
      "▁2009](https://hi.wikipedia.org/wiki/भारत#CITEREF": 8257,
      "AsherTalbot200853": 8258,
      "▁adop": 8259,
      "120]](https://hi.wikipedia.org/wiki/भारत#cite_note-langoff-1": 8260,
      "కాశ్మీ": 8261,
      "](https://hi.wikipedia.org/wiki/पंजाब": 8262,
      "](https://hi.wikipedia.org/wiki/पश्चिम": 8263,
      "]](https://hi.wikipedia.org/wiki/भारत#cite_note-FOOTNOTESingh2009": 8264,
      "-report": 8265,
      "_files/": 8266,
      "ంధు": 8267,
      "121–1": 8268,
      "వర్గం:Harv": 8269,
      "ों_की_सूची?action=edit&redlink=1": 8270,
      "▁निभा": 8271,
      "▁CITEREFStein1998": 8272,
      "▁CITEREFSingh2009": 8273,
      ":EditPage/మూస:": 8274,
      "](https://hi.wikipedia.org/wiki/भारत#CITEREFStein1998),": 8275,
      "ద్ధం": 8276,
      "ద్ధి": 8277,
      "ాల్దీవ": 8278,
      "చ్చే": 8279,
      "దక్షిణ_": 8280,
      "▁Programme": 8281,
      "▁थे": 8282,
      "▁पाकिस्तान": 8283,
      "▁కాంగ్రె": 8284,
      "▁1998](https://hi.wikipedia.org/wiki/भारत#CITEREFStein1998),": 8285,
      "▁उपमहाद्वीप": 8286,
      "कालीन": 8287,
      "▁मंदिर\")": 8288,
      "టెక్నాల": 8289,
      "](https://hi.wikipedia.org/wiki/भारत#cite_ref-pib": 8290,
      "](https://hi.wikipedia.org/wiki/भारत#cite_ref-langoff": 8291,
      "नागालैंड": 8292,
      "▁ప్రాంతాలు": 8293,
      "धीरे": 8294,
      "హిమాలయ": 8295,
      "rajbhasha": 8296,
      "S.XLS": 8297,
      "content/": 8298,
      "DDW": 8299,
      "रोहर": 8300,
      "▁वर्षों": 8301,
      "censusindia.gov.in/2011census/C": 8302,
      "▁లే": 8303,
      "text": 8304,
      "త్తరా": 8305,
      "నాగరికత": 8306,
      "▁देख": 8307,
      "క్కువ": 8308,
      "క్‌సభ": 8309,
      "▁శాస్త్ర": 8310,
      "▁सिनेमा\"),": 8311,
      "ांति": 8312,
      "ांधी": 8313,
      "▁दृश्य": 8314,
      "rofile": 8315,
      "MetcalfMetcalf2012-26": 8316,
      "%3D": 8317,
      "ెలుగు": 8318,
      "▁होती": 8319,
      "▁भूमिका": 8320,
      "uthority": 8321,
      "▁दिसंबर": 8322,
      "▁వచ్చింది.": 8323,
      "प्राचीन": 8324,
      "▁(c)": 8325,
      "_ప్రాంత": 8326,
      "हित्य": 8327,
      "ेघालय": 8328,
      "hmedabad": 8329,
      "▁\"पाकिस्तान\")": 8330,
      "▁नेतृत्व": 8331,
      "ర్చ:": 8332,
      "रुणाचल": 8333,
      "C-01%20MDD": 8334,
      "ministered": 8335,
      "चेंज": 8336,
      "वैदिक": 8337,
      "िबंधीय": 8338,
      "ాళుక్య": 8339,
      "▁(2018).": 8340,
      "-01/DDW": 8341,
      "geohack": 8342,
      "perCollin": 8343,
      "-7mar2011": 8344,
      "_Monetary_Fund": 8345,
      "_GDP_(": 8346,
      "ప్రత్యేక:EditPage/మూస:": 8347,
      "▁2009](https://hi.wikipedia.org/wiki/भारत#CITEREFSingh2009),": 8348,
      "120]](https://hi.wikipedia.org/wiki/भारत#cite_note-langoff-128)": 8349,
      "టెక్నాలజీ": 8350,
      "](https://hi.wikipedia.org/wiki/भारत#cite_ref-langoff_128": 8351,
      "censusindia.gov.in/2011census/C-01/DDW": 8352,
      "C-01%20MDDS.XLS": 8353,
      "*](http://": 8354,
      ",_India": 8355,
      "-W": 8356,
      "-ve": 8357,
      "1-2": 8358,
      "2-1)": 8359,
      "370": 8360,
      "4.\n": 8361,
      "6-1": 8362,
      "6]](https://ta.wikipedia.org/wiki/இந்தியா#cite_note-": 8363,
      "6]](https://en.wikipedia.org/wiki/India#cite_note-FOOTNOTE": 8364,
      "7)[[": 8365,
      "7]](https://en.wikipedia.org/wiki/India#cite_note-FOOTNOTE": 8366,
      "8+": 8367,
      "Chand": 8368,
      "EM": 8369,
      "Kashmir": 8370,
      "Young": 8371,
      "_industry": 8372,
      "_class": 8373,
      "baki": 8374,
      "fun": 8375,
      "gam": 8376,
      "gions": 8377,
      "iw": 8378,
      "kata": 8379,
      "khand": 8380,
      "lated": 8381,
      "mand": 8382,
      "more": 8383,
      "p;": 8384,
      "sci": 8385,
      "shis": 8386,
      "uries": 8387,
      "yria": 8388,
      "கோ": 8389,
      "தர": 8390,
      "மல": 8391,
      "மிருந்து": 8392,
      "மேற்கு": 8393,
      "மசுக": 8394,
      "ய்க": 8395,
      "லமை": 8396,
      "ழர்": 8397,
      "ாந்திய": 8398,
      "ேய": 8399,
      "▁ve": 8400,
      "▁eng": 8401,
      "](https://www": 8402,
      "▁[சி": 8403,
      "▁[வங்காள": 8404,
      "▁[தேசிய": 8405,
      "▁\"எ": 8406,
      "▁\"ஜ": 8407,
      "▁\"வ": 8408,
      "▁\"ஐக்கிய": 8409,
      "▁\"வங்காள": 8410,
      "▁\"தேசிய": 8411,
      "ina": 8412,
      "inan": 8413,
      "202": 8414,
      "tah": 8415,
      "ties/": 8416,
      "rees": 8417,
      "rely": 8418,
      "him": 8419,
      "algrave": 8420,
      "](https://en.wikipedia.org/wiki/World": 8421,
      "](https://ta.wikipedia.org/wiki/ஜ": 8422,
      "ம்ம": 8423,
      "isl": 8424,
      "ison": 8425,
      "▁பட்ட": 8426,
      "▁பௌத்த": 8427,
      "▁(199": 8428,
      "ல்ப": 8429,
      "ல்வே": 8430,
      "ப்பான்": 8431,
      "▁off": 8432,
      "asian": 8433,
      "20011": 8434,
      "க்கை": 8435,
      "க்கப்படும்": 8436,
      "துரு": 8437,
      "துடுப்பாட்ட": 8438,
      "ico": 8439,
      "▁மதிப்ப": 8440,
      "▁India.[[": 8441,
      "த்தக": 8442,
      "த்தீ": 8443,
      "▁க.": 8444,
      "▁கிட்ட": 8445,
      "▁ind": 8446,
      "▁inte": 8447,
      "](https://en.wikipedia.org/wiki/Indian": 8448,
      "#cite_ref-10": 8449,
      "#cite_note-10": 8450,
      "78)": 8451,
      "▁தீவு": 8452,
      "▁தீபகற்ப": 8453,
      "▁sc": 8454,
      "▁so": 8455,
      "▁Amb": 8456,
      "▁popular": 8457,
      "uss": 8458,
      "ation,": 8459,
      "▁*B": 8460,
      "aten": 8461,
      "lock": 8462,
      "▁1200": 8463,
      "chae": 8464,
      "ourbaki": 8465,
      "▁2016.": 8466,
      "▁bu": 8467,
      "ango": 8468,
      "angam": 8469,
      "ையான": 8470,
      "rowing": 8471,
      "க்சி": 8472,
      "▁நபர்": 8473,
      "▁may": 8474,
      "▁military": 8475,
      "redi": 8476,
      "iland": 8477,
      "ிரதேசம்": 8478,
      "ாட்டில்": 8479,
      "▁உல": 8480,
      "oln": 8481,
      "டுவண்": 8482,
      "ண்டும்": 8483,
      "▁Black": 8484,
      "▁work": 8485,
      "nimal": 8486,
      "-316": 8487,
      "ldlife": 8488,
      "_தே": 8489,
      "hai": 8490,
      "▁Ganges": 8491,
      "▁Nicobar": 8492,
      "▁even": 8493,
      "▁early": 8494,
      "▁event": 8495,
      "](https://ta.wikipedia.org/wiki/பி": 8496,
      "▁[\"In": 8497,
      "40.": 8498,
      "▁third": 8499,
      "▁\"பி": 8500,
      "147": 8501,
      "harkhand": 8502,
      "▁gen": 8503,
      "astr": 8504,
      "ாலும்": 8505,
      "]](https://en.wikipedia.org/wiki/India#cite_note-4": 8506,
      "]](https://en.wikipedia.org/wiki/India#cite_note-vatsyayan-lord": 8507,
      "த்துக்கு": 8508,
      "uck": 8509,
      "▁Kumar": 8510,
      "▁*[ப": 8511,
      "_and_For": 8512,
      "▁குகை": 8513,
      "▁2011](https://ta.wikipedia.org/wiki/இந்தியா#CITEREF": 8514,
      "▁original](http://www.": 8515,
      "▁\"Cambridge": 8516,
      "397": 8517,
      "▁[Cambridge": 8518,
      "▁[Central": 8519,
      "வினை": 8520,
      "odern_": 8521,
      "▁உள்ளிட்ட": 8522,
      "aint": 8523,
      "](https://ta.wikipedia.org/wiki/இந்தியக்_": 8524,
      "](Special:BookSources/978-81": 8525,
      "ற்பத்தி": 8526,
      "▁\"Special:BookSources/978-81": 8527,
      "▁[↑](https://en.wikipedia.org/wiki/India#cite_ref-FOOTNOTEStein2010": 8528,
      "▁புது": 8529,
      "express": 8530,
      "iving": 8531,
      "ங்கள்,": 8532,
      "vention": 8533,
      "arkar": 8534,
      "](https://ta.wikipedia.org/wiki/முகலாய": 8535,
      "▁\"Economic": 8536,
      "▁பிராந்திய": 8537,
      "angered": 8538,
      "_அமைப்பு": 8539,
      "▁79.": 8540,
      "க்கித்தான்": 8541,
      "க்கிப்பீ": 8542,
      "கிறது.[[": 8543,
      "laci": 8544,
      "▁\"கேம்பிறிட்ஜ்": 8545,
      "▁lite": 8546,
      "▁[கேம்பிறிட்ஜ்": 8547,
      "▁[Re": 8548,
      "acher": 8549,
      "](https://ta.wikipedia.org/wiki/கேம்பிறிட்ஜ்": 8550,
      "▁vill": 8551,
      "▁(2017).": 8552,
      "▁மேற்பட்ட": 8553,
      "ambridge_University_Press": 8554,
      "ible": 8555,
      "▁மூன்றா": 8556,
      "▁இருந்தது.[[": 8557,
      "do-G": 8558,
      "▁பதிப்பகம்](https://ta.wikipedia.org/wiki/கேம்பிறிட்ஜ்": 8559,
      "erves": 8560,
      "கித": 8561,
      "▁centuries": 8562,
      "▁நடனம்": 8563,
      "▁[இல": 8564,
      "_recent": 8565,
      "வரலா": 8566,
      "▁plain": 8567,
      "▁2023.": 8568,
      "iotechnology": 8569,
      "ிழக்கா": 8570,
      "raditional": 8571,
      "32-1": 8572,
      "Articles\\_containing\\_": 8573,
      "▁[3](https://ta.wikipedia.org/wiki/இந்தியா#cite_ref-FOOTNOTE": 8574,
      "▁தலைமை": 8575,
      "_உற்பத்தி": 8576,
      "▁வரைய": 8577,
      "_1960": 8578,
      "athematics": 8579,
      "_2024": 8580,
      "▁இலட்ச": 8581,
      "unjabi": 8582,
      "▁Prospec": 8583,
      "▁இதற்கு": 8584,
      "▁நாடாக": 8585,
      "_நாடுகள்": 8586,
      "inghamYoung": 8587,
      "▁பகுதியாக": 8588,
      "▁உருவாக்கப்பட்ட": 8589,
      "▁[Archived](https://web.archive.org/web/20210": 8590,
      "க்_கா": 8591,
      "க்கோபார்": 8592,
      "▁upper": 8593,
      "▁விளையாட்டுப்": 8594,
      "▁செய்த": 8595,
      "னைத்துலக": 8596,
      "▁species": 8597,
      "most_recent": 8598,
      "ஜி-20": 8599,
      "cheduled": 8600,
      "▁[India](https://en.wikipedia.org/wiki/India": 8601,
      "▁நுட்ப": 8602,
      "▁ஆண்டின்": 8603,
      "▁1994](https://ta.wikipedia.org/wiki/இந்தியா#CITEREF": 8604,
      "▁1994](https://en.wikipedia.org/wiki/India#CITEREF": 8605,
      "▁York:": 8606,
      "▁contrib": 8607,
      "vatsyayan-lord_43": 8608,
      "▁occup": 8609,
      "ConinghamYoung": 8610,
      "▁\"Routledge\"),": 8611,
      "▁குடியரசுத்": 8612,
      "ரசியல்": 8613,
      "▁இதுவாகும்.": 8614,
      "▁முக்கியமான": 8615,
      "406]](https://en.wikipedia.org/wiki/India#cite_note-vatsyayan-lord": 8616,
      "▁திரைப்படத்துறை\"),": 8617,
      "▁appro": 8618,
      "do-Pakistani": 8619,
      "elangana": 8620,
      "▁oldest": 8621,
      "▁independence": 8622,
      "Environment_and_For": 8623,
      "▁Companion": 8624,
      "▁குறிப்பிடத்தக்க": 8625,
      "_value_des": 8626,
      "lothing": 8627,
      "alayalam": 8628,
      "harmaceutical": 8629,
      "▁நான்க": 8630,
      "beralisation": 8631,
      "temporary": 8632,
      "▁Press](https://en.wikipedia.org/wiki/Cambridge_University_Press": 8633,
      "Ludden2014),": 8634,
      "inancial": 8635,
      "க்கிப்பீடியா": 8636,
      "▁பதிப்பகம்](https://ta.wikipedia.org/wiki/கேம்பிறிட்ஜ்_பல்கலைக்கழகப்_பதிப்பகம்": 8637,
      "▁Prospects": 8638,
      "most_recent_value_des": 8639,
      "ConinghamYoung2015": 8640,
      "406]](https://en.wikipedia.org/wiki/India#cite_note-vatsyayan-lord-4": 8641,
      "Environment_and_Forests": 8642,
      "320": 8643,
      "5-0": 8644,
      "8)[[": 8645,
      "9-5": 8646,
      "=20": 8647,
      "CCN": 8648,
      "IL": 8649,
      "equality": 8650,
      "sm": 8651,
      "–13": 8652,
      "tter": 8653,
      "inated": 8654,
      "\")\"": 8655,
      "is-": 8656,
      "▁(%": 8657,
      "▁sq": 8658,
      "▁100": 8659,
      "▁capita": 8660,
      "▁Rec": 8661,
      "▁Movement": 8662,
      "▁Barb": 8663,
      "▁Department": 8664,
      "308": 8665,
      "16.": 8666,
      "159": 8667,
      "13)": 8668,
      "905": 8669,
      "issn": 8670,
      "duct": 8671,
      "_Lanka": 8672,
      "▁km2": 8673,
      "ece)": 8674,
      "Wikipedia\\_articles": 8675,
      "worldcat.org/issn": 8676,
      "▁Minorities,": 8677,
      "istorical": 8678,
      "%,": 8679,
      "-results": 8680,
      "2-10": 8681,
      "4)\n": 8682,
      "5),": 8683,
      "First": 8684,
      "base": 8685,
      "wa": 8686,
      "orig": 8687,
      "](https://id.": 8688,
      "onal": 8689,
      "2025": 8690,
      "tives": 8691,
      "title": 8692,
      "▁(15": 8693,
      "▁(2006": 8694,
      "ader": 8695,
      "▁men": 8696,
      "unknown": 8697,
      ".com/s": 8698,
      "▁Te": 8699,
      "stre": 8700,
      "▁do": 8701,
      "-36": 8702,
      "▁2007.": 8703,
      "▁Global": 8704,
      "1857": 8705,
      "▁house": 8706,
      ")[[13": 8707,
      "39)": 8708,
      "▁\"BBC": 8709,
      "▁expectancy": 8710,
      "▁500": 8711,
      "▁300": 8712,
      "/articles/": 8713,
      "onstitution_of_India": 8714,
      "▁\"International": 8715,
      "▁[International": 8716,
      "▁partition": 8717,
      "▁2016.\n": 8718,
      "censusindia.gov.in/2011-prov": 8719,
      "epartment_of_": 8720,
      "stitute": 8721,
      "web.archive.org/web/20090": 8722,
      "bbc.com/news/": 8723,
      "nominal)": 8724,
      "▁widely": 8725,
      "\\_of\\_": 8726,
      "▁(2006).": 8727,
      "censusindia.gov.in/2011-prov-results": 8728,
      "\">": 8729,
      "-li": 8730,
      "-news/": 8731,
      ".పూ.": 8732,
      ".UK": 8733,
      "/st": 8734,
      "0/": 8735,
      "310": 8736,
      "315": 8737,
      "3]](https://ta.wikipedia.org/wiki/இந்தியா#cite_note-": 8738,
      "631": 8739,
      "82": 8740,
      ":**": 8741,
      ";<": 8742,
      "<s": 8743,
      "AL": 8744,
      "Brown": 8745,
      "Curry": 8746,
      "Copland": 8747,
      "E%": 8748,
      "Fl": 8749,
      "Hindustan": 8750,
      "Pan": 8751,
      "Press": 8752,
      "Peers": 8753,
      "Rediff": 8754,
      "TY": 8755,
      "TS.": 8756,
      "Women": 8757,
      "_ஒ": 8758,
      "_2004": 8759,
      "_e/": 8760,
      "_work": 8761,
      "ax": 8762,
      "aos": 8763,
      "cend": 8764,
      "from": 8765,
      "gf": 8766,
      "i>": 8767,
      "itar": 8768,
      "ken": 8769,
      "kel": 8770,
      "mc": 8771,
      "oz": 8772,
      "rand": 8773,
      "rune": 8774,
      "tou": 8775,
      "uri": 8776,
      "vest": 8777,
      "vens": 8778,
      "wh": 8779,
      "xim": 8780,
      "अरब": 8781,
      "इन": 8782,
      "ईद": 8783,
      "ऍथ": 8784,
      "ऑक्सफोर्ड": 8785,
      "कणी": 8786,
      "ख़": 8787,
      "गध": 8788,
      "जल": 8789,
      "जपा": 8790,
      "जपुरी": 8791,
      "जिस्ट": 8792,
      "ताल": 8793,
      "थम": 8794,
      "थल": 8795,
      "दल": 8796,
      "दान": 8797,
      "नोल": 8798,
      "न्तर": 8799,
      "फ्रां": 8800,
      "बी": 8801,
      "बू": 8802,
      "बार": 8803,
      "मत": 8804,
      "मृत": 8805,
      "यपुर": 8806,
      "रस": 8807,
      "ल्ल": 8808,
      "वत": 8809,
      "शत": 8810,
      "शोक": 8811,
      "हम": 8812,
      "हें": 8813,
      "ाक": 8814,
      "ुरा": 8815,
      "ुम्ब": 8816,
      "ूबर": 8817,
      "ेक": 8818,
      "ॉग": 8819,
      "५७": 8820,
      "கால": 8821,
      "கனாமி": 8822,
      "சார்": 8823,
      "தான": 8824,
      "திர": 8825,
      "ப்க": 8826,
      "படை": 8827,
      "மின்": 8828,
      "யண": 8829,
      "யில": 8830,
      "யநகர": 8831,
      "ரின்": 8832,
      "ரங்க": 8833,
      "றாக": 8834,
      "லிருந்து": 8835,
      "லங்கா": 8836,
      "ழந்தை": 8837,
      "வர்\")": 8838,
      "ைச்": 8839,
      "ோக்": 8840,
      "ంతం": 8841,
      "ఆగ": 8842,
      "కళ": 8843,
      "ఖండ్": 8844,
      "గ్": 8845,
      "గిన": 8846,
      "గఢ్": 8847,
      "జో": 8848,
      "ట్ర": 8849,
      "తెలుగు": 8850,
      "ద్రా": 8851,
      "పద": 8852,
      "భి": 8853,
      "యో": 8854,
      "లక్ష": 8855,
      "వర": 8856,
      "శో": 8857,
      "షా": 8858,
      "హు": 8859,
      "హార్": 8860,
      "హాయ": 8861,
      "ాష్ట్ర": 8862,
      "ీక": 8863,
      "ీహార్": 8864,
      "ుల": 8865,
      "ుల్": 8866,
      "ోల్": 8867,
      "ోత్స": 8868,
      "ౌర్య": 8869,
      "–11": 8870,
      "▁x": 8871,
      "▁रा": 8872,
      "▁enti": 8873,
      "▁ना": 8874,
      "ia/A": 8875,
      "▁[b": 8876,
      "▁[श": 8877,
      "▁[హ": 8878,
      "▁[राज्य": 8879,
      "▁[ஐக்கிய": 8880,
      "teri": 8881,
      "▁\"Y": 8882,
      "▁\"హ": 8883,
      "▁\"साँच": 8884,
      "▁\"साँचा:": 8885,
      "▁\"ఢిల్లీ": 8886,
      "▁\"இந்து": 8887,
      "▁\"எண்ணிம": 8888,
      "enkata": 8889,
      "ியூ": 8890,
      "ியும்": 8891,
      "ala": 8892,
      "alit": 8893,
      "ந்தைய": 8894,
      "ந்தது.[[": 8895,
      "](https://ta.wikipedia.org/wiki/எ": 8896,
      "](https://ta.wikipedia.org/wiki/சி": 8897,
      "](https://ta.wikipedia.org/wiki/கா": 8898,
      "ofker": 8899,
      "oman": 8900,
      "istic": 8901,
      "iscover": 8902,
      "isaria": 8903,
      "ed/": 8904,
      "edne": 8905,
      "edora": 8906,
      "](https://hi.wikipedia.org/wiki/हिन्द": 8907,
      "](https://hi.wikipedia.org/wiki/साँच": 8908,
      "](https://hi.wikipedia.org/wiki/साँचा:": 8909,
      "ன்சு": 8910,
      "▁பிரித்தானிய": 8911,
      "ands": 8912,
      "▁(2007": 8913,
      "▁(2003": 8914,
      "्रार": 8915,
      "ito": 8916,
      "20034": 8917,
[...]
