{
  "ూప": 9962,
  "ustralian": 7797,
  "ரின்": 8832,
  "▁\"Routledge": 5031,
  "AsherTalbot2008": 2158,
  "vironment": 2895,
  "▁அடர்த்த": 8033,
  "▁[మ": 2714,
  "▁जनसंख्या": 6350,
  "▁நிறுவ": 9788,
  "▁गया": 2621,
  "ेट": 4140,
  "_Indian_": 2471,
  "ik": 1344,
  "▁economic": 5021,
  "▁[↑](https://ta.wikipedia.org/wiki/இந்தியா#cite_ref-FOOTNOTE": 1083,
  "త్వ": 4776,
  "▁[G": 1622,
  "▁[భారతదేశ": 7057,
  "ओ": 149,
  "▁(PDF": 1408,
  "ுடன்": 4682,
  "uis": 2814,
  "able": 3867,
  "National": 2883,
  "5]](https://en.wikipedia.org/wiki/India#cite_note-FOOTNOTE": 7810,
  "ూ": 307,
  "திர்": 7472,
  "▁பொதுவாக": 5369,
  "_2011": 3936,
  "2%": 4983,
  "९": 209,
  "▁\"ओ": 5412,
  "4/4": 7237,
  "6–18": 9433,
  "▁2010](https://en.wikipedia.org/wiki/India#CITEREF": 4267,
  "%7c": 3978,
  "ுறை": 7028,
  "▁மெ": 6468,
  "lect": 4514,
  "yson": 1648,
  "▁2": 1818,
  "▁[జ": 4753,
  "ant": 2453,
  "व": 180,
  "elang": 6122,
  "▁western": 6215,
  "ribune": 7985,
  "బి": 3648,
  "olkata": 7567,
  "▁Park": 7459,
  "most_recent_value_des": 8639,
  "NOT": 474,
  "्रा": 1615,
  "फ": 172,
  "ults": 5277,
  "▁విస్త": 9163,
  "ंजाब": 2584,
  "edia": 7343,
  "CA": 9447,
  "tim": 1245,
  "▁t": 1059,
  "▁other": 3277,
  "▁இதன்": 4369,
  "ूर": 2315,
  "ConinghamYoung": 8610,
  "inger": 4111,
  "amil": 2065,
  "ISBN_(identifier)": 1151,
  "▁industry": 5142,
  "नोल": 8798,
  "Ludden200": 9223,
  "▁[\"India": 2953,
  "▁राष्ट्र": 5621,
  "▁கூட்ட": 4247,
  "னிய": 7024,
  "](https://en.wikipedia.org/wiki/India#cite_ref-": 2030,
  "ங்களாக": 7499,
  "ervice": 7530,
  "▁தேர்ந்த": 9173,
  "cata": 5822,
  "க்ஸ்": 2071,
  "121": 2523,
  "ెలుగు": 8318,
  "4%": 2208,
  "%7": 2797,
  "reedom": 6961,
  "ంచ": 1431,
  "ass": 1129,
  "ரு": 473,
  "లో](https://te.wikipedia.org/wiki/": 4598,
  "talk:": 7277,
  "ంగీ": 4954,
  "utra": 5182,
  "▁ed.),": 5786,
  "पति": 4006,
  "▁[गुजरात": 8147,
  "ரத": 7845,
  "_re": 2351,
  "▁Present": 9997,
  ".gov": 1015,
  "cms": 2585,
  "▁D": 651,
  "Census": 5853,
  "](https://ta.wikipedia.org/wiki/அமெரிக்க": 5564,
  "▁सेवा": 8201,
  "भूटान": 9237,
  "_of_India": 960,
  "ீ": 247,
  "$": 5,
  "▁\"आ": 4565,
  "▁comm": 3176,
  "opular": 5549,
  "ந": 231,
  "अन": 4002,
  "get": 3669,
  "world-asia": 7786,
  "र्सिट": 6092,
  "amb": 6203,
  "ibrary": 2757,
  "ITER": 595,
  "▁\"భారత": 4424,
  "enkata": 8889,
  "ision": 2310,
  "ons": 584,
  "ல்வகைமை": 9334,
  "बर": 1923,
  "विज्ञान": 4169,
  "▁बार": 9012,
  "▁\"Special:BookSources/978-81": 8527,
  "िम": 6287,
  "_29": 9449,
  "రాష్ట్రాలు": 9197,
  "▁மொழி": 2121,
  "](https://hi.wikipedia.org/wiki/विशेष:पुस्तक": 3237,
  "படை": 8827,
  "▁became": 3942,
  "the-world-factbook": 9504,
  "▁பிரதம": 6824,
  "indicat": 5835,
  "▁template": 2654,
  "▁to": 638,
  "encies": 3919,
  "_population": 8073,
  "▁తేదీ:": 5465,
  "_நி": 7171,
  "▁नी": 5427,
  "etwork": 7656,
  "▁they": 4023,
  "](https://hi.wikipedia.org/wiki/साँचा:": 8909,
  "▁எ": 729,
  "110": 4229,
  "uss": 8458,
  "ak": 892,
  "es,": 4224,
  "తా": 1200,
  "II": 4651,
  "▁வரலா": 4500,
  "ake": 3834,
  "▁India*.": 6198,
  "ेंस": 8172,
  "▁att": 6493,
  "▁सह": 8164,
  "Home_Affairs": 7579,
  "ுள்ளன.": 7972,
  "wana": 6723,
  "ली": 3460,
  "హి": 3649,
  "pen": 6445,
  "slands": 2624,
  "▁நா": 5015,
  "హింద": 2869,
  "7,": 3666,
  "2-1": 4520,
  "ంత్రి": 5896,
  "ari": 2077,
  "90": 1292,
  "▁Movement": 8662,
  "_చ": 2648,
  ".com/news/": 2832,
  "▁2022": 2474,
  "தியில்": 7962,
  "▁परि": 8222,
  "arb": 3395,
  "▁அமைந்துள்ளது.": 9729,
  "Wright": 9518,
  ".పూ.": 8732,
  "2/": 2394,
  "▁பாணி": 7513,
  "▁2003](https://en.wikipedia.org/wiki/India#CITEREF": 9805,
  "▁\"ச": 1750,
  "பகுப்பு:": 1683,
  ".pdf)": 1393,
  "](https://ta.wikipedia.org/wiki/பன்னாட்டுத்_தர_தொடர்_எண்": 1254,
  "(": 9,
  "▁last": 7116,
  "▁Comm": 2311,
  "▁countries": 3193,
  "्म": 5403,
  "subcontinent": 6990,
  ".[[4": 7468,
  "KulkeRothermund": 2177,
  "dis": 3858,
  "▁कर": 1477,
  "సు": 5907,
  "South_Asia": 3024,
  "uduch": 6805,
  "7-0)": 2898,
  "▁[पंजाब](https://hi.wikipedia.org/wiki/पंजाब": 9306,
  "π": 132,
  "DikshitSchwartzberg2023),": 7231,
  "विशेष": 1624,
  "ubl": 1127,
  "y": 89,
  "▁20": 749,
  "வே": 2082,
  "త్స": 6339,
  "_n": 4106,
  "_7": 7599,
  "ising": 6460,
  "Ne": 7818,
  "▁पड़": 8951,
  "▁[ஐ": 4360,
  "▁சது": 7106,
  "uthority": 8321,
  "ेल": 1678,
  "with": 846,
  "4-0": 3793,
  ".wikipedia": 365,
  "▁வ": 501,
  "तेलंगाना": 7244,
  "▁\"भारत": 888,
  ",NGDP": 4402,
  "rees": 8417,
  "▁[ஜ": 9560,
  "_உள்நாட்டு": 9783,
  "AA": 817,
  "్రీ": 2296,
  "ப்புச்": 8961,
  "धिकार": 3846,
  "168": 6507,
  "▁(PDF)": 2402,
  "पि": 6281,
  "_1_of_2011": 4189,
  "వం": 2439,
  "त्प": 3336,
  "▁जिस": 2825,
  "▁old": 6135,
  "/F": 5817,
  "\\_and\\_Sfn\\_no-target\\_errors": 2678,
  "ஜன": 6436,
  "](https://dx.": 9315,
  "en,": 6136,
  "▁11": 4161,
  "_26": 5251,
  "▁36": 5620,
  "rates": 5937,
  "ligence": 3900,
  "తంత్ర": 3117,
  "\")\"": 8655,
  ".org/wiki/Special:Search/India": 9559,
  "భూటాన్": 6697,
  "చ్చేరి": 9348,
  "tive": 1540,
  "censusindia.gov.in/2011census/C-01/DDW": 8352,
  "ijayanagar": 9235,
  "1/": 2111,
  "▁పేజీని": 5471,
  "ష్ణ": 7721,
  "ligions": 5357,
  "llch": 3868,
  "ద్రా": 8851,
  "_and_Sfn_": 2671,
  ".": 15,
  "677": 4379,
  "tablish": 9489,
  "5": 22,
  "▁employed": 9309,
  "eb": 6597,
  "ையும்": 3371,
  "ker": 4541,
  "▁River": 5338,
  "నల్": 9954,
  "Q": 49,
  "▁[c": 6391,
  "இந்தி": 5731,
  "ార్టీ": 5244,
  "थिल": 7001,
  "▁இருந்து": 3271,
  "ष्ट": 1097,
  "abin": 8207,
  "edic": 3049,
  "_உ": 2800,
  "Atlas": 9904,
  "ंडीगढ़": 6341,
  "▁[Y": 7425,
  "XLS": 8094,
  "#cite_ref-10": 8449,
  "\");": 3488,
  "ிரித்தானிக்கா": 5779,
  "ालर": 9002,
  "ाम": 2911,
  "ப்பட்டன.[[": 9679,
  "ी_भाषा": 4037,
  "ction": 1565,
  "▁पूर्व": 3557,
  "▁தீபகற்ப": 8453,
  "▁குடியரசு": 5046,
  "United": 1759,
  "fore": 3496,
  "-317": 3023,
  "ஐ": 220,
  "ணா": 3149,
  "-logo": 5694,
  "velop": 1745,
  "censusindia.gov.in/2011-prov": 8719,
  "22": 723,
  "चें": 8106,
  "ంతం": 8841,
  "%E0%A": 2729,
  "మాలయ": 8128,
  "right": 4699,
  "hina": 4610,
  "ict": 4428,
  "▁name": 5088,
  "AQAAQBAJ&pg=PA": 8054,
  "ugh": 2639,
  "AARC": 2429,
  "230": 3713,
  "Davidson2014-p": 5243,
  "ur": 561,
  "et_": 9590,
  "இந்தியா\n": 3886,
  "த்துக்கு": 8508,
  "40-0)": 9421,
  "ண்டல": 5964,
  "ffic": 2052,
  "ీన": 7044,
  "athura": 6237,
  "alayal": 7210,
  "▁ह": 554,
  "olnar": 9350,
  "த்_தேர்தல்": 6255,
  "world-asia-india": 7803,
  "டனம்": 7410,
  "▁All": 5483,
  "▁రాష్ట్రాలు,": 7724,
  "▁निर्": 4624,
  "▁कारण": 6063,
  "ద్ద": 5202,
  "una": 7467,
  "ிரிபு": 7953,
  "▁भारत": 764,
  "ocal": 7827,
  "_Ar": 6222,
  "▁times": 7314,
  "iosphere": 9525,
  "ெரு": 3684,
  "alifornia": 5770,
  "ிரைப்பட": 2982,
  "-438": 7931,
  "ऑपरेशन": 9923,
  "](https://en.wikipedia.org/wiki/W": 3921,
  "▁Ganges": 8491,
  "▁संघ": 2935,
  "▁प्रदेश": 1784,
  "नेमा": 3404,
  "▁\"இந்தியத்": 6816,
  "▁தன்": 8928,
  ".[[23": 7775,
  "▁ఆధ": 7704,
  "ataraj": 7137,
  ".in_": 6883,
  "▁[\"B": 7779,
  "மம்": 1734,
  "\\_errors": 2458,
  "Hindustan": 8750,
  "▁[அ": 2226,
  "▁Lank": 9036,
  "_భాష": 4126,
  "మార్": 8127,
  "▁புது": 8529,
  "akhand": 6123,
  "▁ஆட்சிய": 9639,
  "▁కు": 5991,
  "నాయ": 3566,
  "shared/lin": 6085,
  "▁(సా.శ.పూ.": 2725,
  "ानगर": 8963,
  "mme": 5704,
  "த": 230,
  "E﻿": 8090,
  "esearch": 3268,
  "भीमबेटका": 7306,
  "ुख": 2212,
  "க்கப்படும்": 8436,
  "त": 166,
  "▁Press": 1174,
  "u,": 6991,
  "uddhism": 6022,
  "▁1950": 3142,
  "22-9": 4945,
  "](https://hi.wikipedia.org/wiki/ब": 2217,
  "टक": 4004,
  "69": 1635,
  "continent": 1996,
  "kZVuDwAAQBAJ&pg=PA": 5464,
  "▁பட்ட": 8426,
  "4)\n": 8682,
  "▁लोग": 6343,
  "▁U": 1735,
  "aedia": 9436,
  "2011": 997,
  "கிற": 1560,
  ".jpg/120px-": 4100,
  "rance": 6576,
  "ெடு": 2432,
  "hmed": 6921,
  "32": 2524,
  "வின்": 930,
  "ii": 5479,
  "-market": 7519,
  "▁languages": 2370,
  "▁./பகுப்பு:Pages\\_containing\\_cite\\_templates": 4276,
  "ாளர்கள": 9708,
  "▁घरेलू": 9162,
  "▁[Archived](https://web.archive.org/web/201": 3014,
  "▁मंदिर\")": 8288,
  "_ప": 3722,
  "_of_P": 9631,
  "nd": 1076,
  "an": 373,
  ",4": 9390,
  "-ma": 9508,
  "▁Dec": 9417,
  "▁पु": 1701,
  "national": 2154,
  "AliAitchison2005": 7307,
  "▁[History": 9768,
  "igni": 9647,
  "weep": 7901,
  "ப்_ப": 1218,
  "chno": 2946,
  "ப": 233,
  "r": 82,
  "Be": 6971,
  "aury": 6428,
  "-0-521-80904-7": 7280,
  "षा": 947,
  "itchi": 5928,
  "▁फ़रवरी": 4752,
  "ொ": 253,
  "▁79.": 8540,
  "ண்களுக்கு": 9300,
  "ఈ": 262,
  "▁24": 2240,
  "ళు": 7632,
  "வீ": 9550,
  "_of_the": 3451,
  "anch": 7067,
  "न](https://hi.wikipedia.org/wiki/": 4548,
  "local": 5485,
  "▁ప్రధాన": 8237,
  "rom": 718,
  "▁युग": 7238,
  "lie": 7906,
  "de": 770,
  "▁wide": 7366,
  "काश": 6336,
  "्तर": 3734,
  "▁small": 8935,
  "ராக": 6732,
  "▁सभा": 7653,
  "ivaperuman": 9371,
  "tics": 1455,
  "ంగీతం": 6096,
  "▁திரைப்படத்துறை\"),": 8617,
  "%29": 2035,
  "rate": 5328,
  "ीच": 5884,
  "_மலை": 6531,
  "5]](https://ta.wikipedia.org/wiki/இந்தியா#cite_note-FOOTNOTE": 4122,
  "istrar": 4249,
  "▁Wall": 7782,
  "erry": 6746,
  "Pal": 5857,
  "Singh200918": 6347,
  "Dwyer": 9113,
  "▁[मूल": 2664,
  "▁लिए": 4453,
  "2542-5196": 7373,
  "2018": 1074,
  "ledge": 1787,
  "▁[V": 4337,
  "फा": 8110,
  "web": 579,
  "timesofindia.indiatimes.com/": 3281,
  "S": 51,
  "roup": 2176,
  "▁ఆ": 1557,
  "▁\"த": 1552,
  "త్తర": 4440,
  "ணய": 6729,
  "pend": 1855,
  "లు": 812,
  "13": 858,
  "▁[m": 5516,
  "rincely": 8036,
  "▁हुआ": 4446,
  "ho": 2198,
  "ఓ": 269,
  "▁[s": 3957,
  "]](https://ta.wikipedia.org/wiki/இந்தியா#cite_note-FOOTNOTE": 875,
  "த்தின்": 1438,
  "teri": 8881,
  "ोग": 1720,
  "_2010": 5504,
  "Raj": 4652,
  "खा": 3798,
  "▁life": 5839,
  "oun": 773,
  "-2\").": 9677,
  "ற்": 527,
  "](https://hi.wikipedia.org/wiki/म": 1534,
  "108": 6943,
  "_Press": 2361,
  "E0%": 2256,
  "List": 1052,
  "జాతీయ": 2421,
  "कल": 4410,
  "2009": 1162,
  "](https://ta.wikipedia.org/wiki/ம": 1447,
  "](https://te.wikipedia.org/wiki/దస్త్రం:": 3583,
  "_BRICS": 4861,
  "▁Organisation": 9672,
  "up": 709,
  "*": 11,
  "▁Octo": 1801,
  "ric": 1308,
  "ashmir": 2342,
  "வண": 4680,
  "▁numbers": 9803,
  "▁உள்ளடக்கிய": 9329,
  "tb": 4332,
  "▁இதில்": 5571,
  "ில்": 492,
  "ரசியல்": 8613,
  "2542": 7352,
  "▁பெய": 4372,
  "▁(2007),": 9581,
  ".[[3": 7105,
  "स्कृत": 3064,
  "](https://books.google.com/books?id=3TRtDwAAQBAJ&pg=PA": 5214,
  "ిల్లీ": 3192,
  "truction": 9307,
  "▁x": 8871,
  "]]": 5502,
  "159": 8667,
  "வல": 5712,
  "▁साम्राज्य": 4046,
  "ப்பாட்ட": 4245,
  "वै": 4550,
  "▁Summit\")": 5943,
  "▁जल": 4943,
  "cul": 5300,
  "ayak": 8998,
  "समिया": 7217,
  "िया": 737,
  "▁தா": 3153,
  "oples": 7123,
  "engal": 2940,
  "▁religions": 9009,
  "▁res": 3094,
  "▁सिनेमा": 4975,
  "ன்னாட்டுத்": 833,
  "ν": 130,
  "nic": 1272,
  "ஞ்சிய": 4266,
  "ager": 6582,
  "ld": 697,
  "▁அன்று": 6210,
  "_मंदिर": 6006,
  "**": 647,
  "ark": 1423,
  "▁middle": 9625,
  "cogni": 7787,
  "identifier": 659,
  "Co": 6593,
  "ries": 1442,
  "రిత్ర": 1704,
  "ब": 173,
  "](https://en.wikipedia.org/wiki/L": 2690,
  "▁California": 7893,
  "ail": 3948,
  "िरपेक्ष": 5470,
  "Rowland1970": 4091,
  "▁7": 1545,
  "▁world": 2903,
  "a_d": 6527,
  "▁नि": 2661,
  ":C": 6968,
  "AL": 8744,
  "नाम": 2504,
  "▁एक": 1682,
  "fl": 2840,
  "41": 6964,
  "pp": 3195,
  "▁[Fisher": 5518,
  "onia": 9563,
  "▁./श्रेणी:": 3247,
  "▁the": 427,
  "7%": 6167,
  "%2C": 1166,
  "albot": 1349,
  "वी": 4743,
  "वेबैक": 4790,
  "](https://te.wikipedia.org/wiki/": 498,
  "▁தெற்கு": 7215,
  "▁population": 3133,
  "डी": 4282,
  "](https://hi.wikipedia.org/wiki/भारत_के_": 3242,
  "மின்": 8828,
  "ங்கை": 2926,
  "दीव": 4967,
  "books.g": 774,
  "ouli": 7879,
  "loc": 4843,
  "sm": 8651,
  "\"](https://web.archive.org/web/20140": 6951,
  "202": 8414,
  "ध्य": 2130,
  "▁Ne": 7679,
  "ாட்சி": 4556,
  "/ark:/121": 5466,
  "▁more": 3210,
  "ను": 1452,
  "owe": 4231,
  "113": 8070,
  "cy": 1156,
  ".pdf": 1366,
  "Nehru": 7819,
  "▁CE": 5276,
  "▁स्रोत/978-1": 5675,
  "_கு": 7390,
  "ைக்": 1644,
  ".jpg": 792,
  "ography": 4719,
  "▁வேலை": 9752,
  "▁நடத்தப்படும்": 9837,
  "▁మతము": 6654,
  "industan": 4723,
  "ం?action=edit&redlink=1": 4749,
  "இ": 214,
  "தை": 4236,
  "▁గ": 2768,
  "wh": 8779,
  "-": 14,
  "ிர": 573,
  "osphere": 7133,
  "▁[p": 7054,
  "_ஆஃப்": 9141,
  "_Cooperation": 9680,
  "1-2": 8358,
  "▁अधिक": 3056,
  "▁ஆவணச்": 8988,
  "▁forest": 6801,
  "▁பட்டியல்\")": 4088,
  "▁ins": 8923,
  "1971": 5772,
  "_Monetary_Fund": 8345,
  "ांग": 3042,
  "Dikshit": 3101,
  "itt": 4802,
  "द्योग": 3406,
  "▁[క": 2919,
  "upload.wikimedia": 978,
  "चेन्नई": 7249,
  "Michell": 6421,
  "_தொடர்_எண்": 1253,
  "t:": 5256,
  "னர்": 1696,
  "▁இச": 5151,
  "లోక్‌సభ": 9030,
  "राज": 728,
  "ates": 3490,
  "హార్": 8860,
  "3TRt": 3994,
  "ம்ம": 8423,
  "▁எதிர்": 9655,
  "ேர்தல்": 3579,
  "▁விளைய": 9072,
  "▁[महाराष्ट्र](https://hi.wikipedia.org/wiki/महाराष्ट्र": 9369,
  "▁(இந்தியா": 6756,
  "21": 541,
  "c": 67,
  "ச்ச": 1860,
  "▁కూడా": 6080,
  "▁2011](https://en.wikipedia.org/wiki/India#CITEREF": 9691,
  "worth": 6925,
  "▁Urdu": 7521,
  "-in-india": 5365,
  "2005": 1754,
  "▁Department": 8664,
  "▁\"உ": 4566,
  "ழர்": 8397,
  "upee": 9535,
  "51-9": 5557,
  "ges": 3680,
  "IMF": 4390,
  "ధ్య": 2766,
  ":Book": 608,
  "▁Commissioner": 4102,
  "▁land": 4644,
  "▁अप": 3560,
  "▁incl": 3821,
  "links": 5962,
  "▁जाती": 6677,
  "rans": 2758,
  "சிய": 746,
  "](https://ta.wikipedia.org/wiki/தேசிய": 9571,
  "భారతదేశ": 859,
  "Harle1994": 3025,
  "\\_template": 3449,
  "▁2013": 3525,
  "\"))": 1574,
  "अंग्रेज़ी": 7610,
  "▁था": 2915,
  "్ర": 488,
  "ப்படுகிற": 4495,
  "9": 26,
  "▁N.": 4854,
  "act": 2617,
  "▁[पुरालेखित": 5235,
  "note": 458,
  "▁Games": 6501,
  "▁క్రీడ": 7270,
  "ண்கள": 5707,
  "nam": 4804,
  "ாட்டில்": 8479,
  "తు": 4010,
  "▁5": 1416,
  "196": 3396,
  "▁பொருளாதார": 3087,
  "-106": 9709,
  "eg": 2682,
  "ఒడి": 7034,
  "9/": 5820,
  "%E0%": 2461,
  "▁Kumar": 8510,
  "▁जन": 1906,
  "व्यवस्था": 4914,
  "IUCN.UK": 9234,
  "resident": 4095,
  "▁[978": 820,
  "harmaceutical": 8629,
  "th": 378,
  "▁ஆண்டு": 1767,
  "ர்க": 1270,
  "archive.org/details/": 4400,
  "ள": 239,
  "](https://d": 6578,
  "▁sty": 8933,
  "TY": 8755,
  "ளவில்": 5710,
  "ைப்ப": 4823,
  "_ప్రదేశ్": 7605,
  "\")": 371,
  "తెలుగు": 8850,
  "▁[Central": 8519,
  "_மற்றும்": 6232,
  "0/0": 7340,
  "arendra": 6454,
  "lose": 8954,
  "▁நாடாளுமன்ற": 7548,
  "ారి": 3400,
  "▁मान": 3113,
  "s-": 2026,
  "దక్షిణ_": 8280,
  "outh": 825,
  "397": 8517,
  ".gov.in/": 3402,
  "ென்ன": 3201,
  "హు": 8859,
  "▁விளையாட்டு": 3765,
  "லானது": 9549,
  "▁முறை": 3440,
  "ాలలో": 8986,
  "▁T": 593,
  "एं": 3169,
  "pe": 356,
  "▁घाट": 4971,
  "मी": 1499,
  "मुख": 3306,
  "सभा": 5112,
  "▁([": 1104,
  "chnology": 3099,
  "▁\"సి": 6302,
  "⁡": 336,
  "](https://ta.wikipedia.org/wiki/தெ": 7518,
  "▁क": 414,
  "बेट": 7005,
  "Union": 2550,
  "ger": 3859,
  "urton": 3434,
  "_6": 9519,
  "6-0)": 2634,
  "ह": 184,
  "க்கிந்திய": 9118,
  "ையான": 8470,
  "14.": 9028,
  "▁\"R": 1629,
  "திக": 1975,
  "థ": 285,
  "raval": 9586,
  "▁(identifier)\")": 982,
  "\").": 874,
  "▁billion": 6394,
  "स्त्र": 4949,
  "mal": 4989,
  "மையை": 9748,
  "▁உற்ப": 2775,
  "ईरा": 5874,
  "▁[1](https://en.wikipedia.org/wiki/India#cite_ref-FOOTNOTE": 4080,
  "▁చెంద": 7245,
  "_आ": 5860,
  "09": 5246,
  "▁१९": 3062,
  "▁ag": 2498,
  "](https://hi.wikipedia.org/wiki/विशेष:पुस्तक_स्रोत/978": 3257,
  "▁நூற்றாண்டு": 6074,
  "PP": 2112,
  "య": 294,
  "Davidson": 5099,
  "▁though": 7488,
  "*](https://books.google.com/books?id=": 1021,
  "▁2020.": 6902,
  "▁संविधान": 4774,
  "्रिट": 3050,
  "/http://": 1568,
  "దీవ": 5669,
  "akistani": 7967,
  "▁தொடங்க": 5776,
  "ాలు?action=edit&redlink=1": 7684,
  "ी_स": 1817,
  "abour": 7943,
  ".com/books": 777,
  "▁(India)\")": 6271,
  "ountry": 4530,
  "்": 256,
  "uman": 2446,
  "▁no": 1348,
  "▁data": 9416,
  "▁4": 1573,
  "▁[S": 879,
  "DikshitSchwartzberg2023": 3126,
  "](https://hi.wikipedia.org/wiki/भारत#cite_ref-langoff_128": 8351,
  "Singh": 1588,
  "%28": 2034,
  "ించ": 2913,
  "](Category:": 6187,
  "▁२०१": 7214,
  "to": 516,
  "▁[ISBN](https://hi.wikipedia.org/wiki/ISBN_(identifier)": 3244,
  "▁அன்": 8957,
  "▁साल": 7082,
  "▁\"V": 4241,
  "சுக": 5752,
  "erg": 5624,
  "_B": 1360,
  "ht": 1192,
  "▁पुरा": 6348,
  "8)": 2493,
  "RICS": 2017,
  "▁national": 3603,
  "ండో": 5183,
  ".శ": 868,
  "யி": 5888,
  "_प्र": 2539,
  "-882905-8": 4885,
  "द्र": 2210,
  "nimal": 8486,
  "शिया": 2238,
  "urrent": 6152,
  "ேபாள": 6081,
  "roadcasting": 4503,
  "ficial": 2855,
  "▁\"महाराष्ट्र": 9095,
  "dustry": 3707,
  "ayback": 6782,
  "ice": 3554,
  "▁చె": 3564,
  "श्रेणी:Harv": 1387,
  "க்கித்தான்": 8541,
  "ட்ஜ்": 3628,
  "](https://en.wikipedia.org/wiki/En": 9123,
  "த்து": 940,
  "పు": 1924,
  "ரங்க": 8833,
  "▁2021": 1747,
  "15": 816,
  "▁agriculture": 7995,
  "Asia": 4538,
  "](https://hi.wikipedia.org/wiki/द": 8155,
  "डिया": 5606,
  "_Pradesh": 9024,
  "ிலுள்ள": 7485,
  "9).": 5599,
  "handigarh": 7974,
  "akshadweep": 8027,
  "ड़ी": 3839,
  "ɾ": 120,
  "तंत्रता": 4044,
  "▁मेला](https://hi.wikipedia.org/wiki/": 5663,
  "tu": 736,
  "నాడు": 6658,
  "▁Vedic": 6233,
  "ிலான": 4596,
  "▁Per": 3823,
  "▁\"N": 1692,
  "ருக்கு": 8936,
  "▁[doi](https://ta.wikipedia.org/wiki/": 5570,
  "GDP": 2839,
  "yer": 4677,
  "_அமை": 9110,
  "24)": 5967,
  "▁Dictionary": 6894,
  "aldi": 5917,
  "409": 6508,
  "ow": 1039,
  "ईस्ट": 9920,
  "▁இந்தியாவை": 6513,
  "](https://ta.wikipedia.org/wiki/பன்னாட்டுத்_தர": 1249,
  "ी](https://hi.wikipedia.org/wiki/म": 8229,
  "ell": 4256,
  "chi": 582,
  "in_": 743,
  "arath": 7872,
  "Asher": 1382,
  "▁இந்தியா](https://ta.wikipedia.org/wiki/தி_": 9027,
  "ఔ": 270,
  "st": 611,
  "वन": 2572,
  "](https://hi.wikipedia.org/wiki/भारत#CITEREF": 2874,
  "அ": 212,
  "the-world": 9459,
  "AAAQBAJ": 9666,
  "](https://hi.wikipedia.org/wiki/भारत_में_": 2881,
  "emocracy": 4632,
  "வெ": 1871,
  "▁Indian": 992,
  "▁ए": 1095,
  "Jha": 5587,
  "BN": 558,
  "▁मह": 7659,
  "aksh": 5176,
  "ல்லை": 5005,
  "owever,": 7258,
  "most": 4108,
  "▁[Robb": 7428,
  "3]](https://ta.wikipedia.org/wiki/இந்தியா#cite_note-": 8738,
  "▁most": 3372,
  "ate_": 1804,
  "▁மேற்க": 7979,
  "=": 30,
  ");": 8081,
  "ஒக்ஸ்போர்ட்": 2150,
  "](https://en.wikipedia.org/wiki/E": 1605,
  "▁భారతదేశం": 2871,
  "भार": 435,
  "▁\"వి": 8150,
  "_व": 5862,
  "﻿": 341,
  "त्पत्ति": 9208,
  "▁द": 716,
  "ள்ள": 686,
  "also": 2686,
  "olk": 4483,
  "ale": 2998,
  "▁దేశ": 2063,
  "ources": 3319,
  "ாட்டு": 666,
  "*.": 1284,
  "று": 822,
  "-107-1": 4184,
  "ताजमह": 7734,
  "ेष": 1531,
  "4)": 1641,
  "](https://hi.wikipedia.org/wiki/महाराष्ट्र": 9115,
  "shis": 8386,
  "11": 707,
  "म": 175,
  "ility": 5159,
  "Craven": 2957,
  "/authorities/": 9437,
  "▁often": 9582,
  "](http://www.": 2373,
  "ोड़": 3804,
  "யில்": 5889,
  "bhasha": 7256,
  "సియా": 2420,
  "ts": 797,
  "_9": 5699,
  "▁दक्षिण": 3468,
  "9-6": 6967,
  "JP": 2792,
  "gic": 9524,
  "-glance/": 5239,
  "▁सीमा": 8920,
  "_the": 1920,
  "hai": 8490,
  "!": 2,
  "ండి": 2546,
  "▁main": 4704,
  "omo": 7433,
  "▁பல்கலைக்கழ": 2088,
  "पालिका": 4970,
  "ilbert": 6941,
  "▁செ": 1526,
  "▁[वि": 6299,
  "ற்கா": 3629,
  "▁\"मध्य": 8240,
  "▁அரச": 7975,
  "india.gov.in/": 2116,
  "▁\"சி": 7061,
  "PetragliaAllchin": 8079,
  "error": 2505,
  "▁लेख": 5622,
  "india": 627,
  "odern": 2068,
  "_M": 1196,
  "mar": 2734,
  "_உற்பத்தி": 8576,
  "▁பெ": 1069,
  "](https://hi.wikipedia.org/wiki/विशेष:पुस्तक_स्रोत/978-1": 5676,
  "site": 3752,
  "_म": 1135,
  "cropped": 6431,
  "ime": 6387,
  "▁இவ்": 6207,
  "யநகர": 8831,
  "ండు": 4773,
  "चल": 2650,
  "▁*B": 8460,
  "డే": 8125,
  "ௌ": 255,
  "ఢిల్లీ": 3392,
  "வெளிய": 9754,
  "▁trib": 7950,
  "Kul": 1689,
  "తమిళ": 4418,
  "CE": 2838,
  "”": 330,
  "▁vill": 8551,
  "सत": 9935,
  "rishna": 7224,
  "ecu": 6515,
  "ovement": 3517,
  "mund": 1673,
  "ాళుక్య": 8339,
  "_Economic": 6536,
  "▁Hindi": 3736,
  "estival": 7572,
  "డిన": 9950,
  "ாடாளுமன்ற": 6033,
  "_इ": 7601,
  "utt": 3028,
  "edit&red": 642,
  "posed": 4450,
  "▁தடு": 7448,
  "langoff": 4048,
  "ங்கிரசு": 4702,
  "ொத்த": 2472,
  "తాబ్ద": 7304,
  "tain": 1780,
  "हिमालय": 9074,
  "ष्ठ": 9172,
  "▁sta": 3512,
  "2-6": 5475,
  "ஒடிசி": 9857,
  "313": 4050,
  "/cb": 5040,
  "▁...": 3439,
  "उप": 7611,
  "▁Languages": 7942,
  "▁[![](https://upload.wikimedia.org/wikipedia/commons/thumb/": 4960,
  "▁addition": 7207,
  "ॉग": 8819,
  "▁Asher": 7892,
  "olitics": 3701,
  "வண்": 6440,
  "▁poli": 9599,
  "న్న": 1752,
  "▁कार्य": 5456,
  "▁India:": 2395,
  "ritory": 2488,
  "ரிக்கும்": 7524,
  "▁years": 3164,
  "-W": 8356,
  "▁[↑](https://ta.wikipedia.org/wiki/இந்தியா#cite_ref-": 1120,
  "\">": 8729,
  "▁April": 2194,
  "_2009": 7392,
  "ார்.": 3902,
  "ars": 8062,
  "▁Court": 8064,
  "MC": 7386,
  "▁வெளி": 9136,
  "सं": 1260,
  "Ro": 1255,
  "மு": 1957,
  "రిహ": 8208,
  "▁[![": 1358,
  "str": 3624,
  "ourn": 2605,
  "ँ": 135,
  "gra": 1298,
  "NCL": 7597,
  "ஒடி": 6177,
  "▁article:": 5795,
  "▁[archived": 7060,
  "▁வா": 2285,
  "\\_with\\_": 1566,
  "road": 3967,
  "▁மண்டல": 7083,
  "](https://en.wikipedia.org/wiki/B": 1425,
  "▁(199": 8428,
  "ருவ": 7090,
  "/).": 6591,
  "▁Ved": 5194,
  "हर": 1946,
  "▁\"दक्षिण": 7063,
  "](https://web.archive.org/web/201": 3521,
  "ahal": 6037,
  "క్నాల": 8211,
  "▁---": 948,
  "क्षेत्र": 3182,
  "▁work": 8485,
  "▁பொருட்கள": 7571,
  "](https://te": 497,
  "ంశ": 7031,
  "लाई": 3243,
  "▁கீழ்": 6865,
  "▁2009](https://hi.wikipedia.org/wiki/भारत#CITEREF": 8257,
  "ural_": 9628,
  "▁York:": 8606,
  "▁பிரித்தானிய": 8911,
  "ஸ": 243,
  "▁event": 8495,
  "ండర్": 9065,
  "](https://ta.wikipedia.org/wiki/பி": 8496,
  "radition": 2487,
  "AGE": 5815,
  "ளர்ச்சி": 3505,
  "8+": 8367,
  "gory": 785,
  ".శ.": 869,
  "_(identifier)": 981,
  "inis": 2656,
  "▁[International": 8716,
  "िबंधीय": 8338,
  "रस": 8807,
  "](https://hi.wikipedia.org/wiki/साँच": 8908,
  "umber": 2358,
  "జన": 3543,
  "%E0%A4%A": 9222,
  "urope": 2167,
  "ంగ్లీ": 7719,
  "▁ஓவிய": 5215,
  "ும்": 500,
  "zb": 9455,
  "ner": 3750,
  ".p": 1030,
  "eph": 7326,
  "eral_": 5320,
  "▁ஆறு\")": 6849,
  "/https://": 1070,
  "pre": 2908,
  "▁[இ": 2283,
  "2007": 1317,
  "ilgrim": 6261,
  "▁ऑ": 5619,
  "Dg": 6972,
  "6)": 1812,
  "▁అధిక": 4315,
  "telligence_Agency": 7252,
  "▁உள்ளிட்ட": 8522,
  "_and_N": 9682,
  "overnment_of_India": 6949,
  "-report": 8265,
  "विशेष:EditPage/साँचा:": 5688,
  "3TRtDwAAQBAJ&pg=PA": 4326,
  "▁language": 1478,
  "▁சார்": 9634,
  "-0": 434,
  "▁caus": 7463,
  ".jpg/330px-": 2580,
  "க்கை": 8435,
  "earch": 1786,
  "alakrishnan": 6875,
  "ौ": 197,
  "षय": 6608,
  "ainting": 4374,
  "▁trans": 5026,
  "ोर्": 3391,
  "வியியல்": 7973,
  "▁वार": 5649,
  "▁सा": 1354,
  "▁[\"The": 4116,
  "overeign": 6866,
  "2,": 3719,
  "-in": 1709,
  "ाय": 5613,
  "encies_by": 9490,
  "▁காரண": 4273,
  "ும்பை": 6551,
  "▁[t](https://en.wikipedia.org/wiki/Template_": 9810,
  "▁\"அமெரிக்க": 5562,
  "pib.nic.in/": 9210,
  "क्": 6994,
  "Tarlo": 5501,
  "लयाल": 5880,
  "ures": 4133,
  "ம்மு": 7875,
  "_Co-operation_and_Development": 7584,
  "_சு": 5101,
  "we": 510,
  "▁·": 6183,
  "राज्य": 898,
  "ः": 137,
  "abad": 3789,
  "ZvaGuaJIJgo": 4887,
  "▁வரைய": 8577,
  "apan": 4602,
  "_பல்கலைக்கழகப்_பதிப்பகம்": 3585,
  "▁जाता": 4040,
  "grawal": 9477,
  "ou": 420,
  "▁प्रमुख": 5174,
  "▁थे": 8282,
  "_history": 7604,
  "ா": 245,
  "▁ஏ": 2767,
  "▁State": 7453,
  "own": 5285,
  "▁இந்தியாவில்": 2647,
  "▁(2003": 8914,
  "भु": 7006,
  "▁வாழ்": 6839,
  "ైన": 2818,
  "%,": 8679,
  "▁\"ம": 1373,
  "ental": 5136,
  "](https://en.wikipedia.org/wiki/British": 7965,
  "வேத": 7529,
  "ந்தே": 7071,
  "माण": 3183,
  "த்திர": 4475,
  "AAQBAJ&pg=PA": 1353,
  "tool": 7836,
  "▁மதிப்ப": 8440,
  "ism": 1361,
  "▁நிலையில்": 5366,
  "y=": 6724,
  "ase": 1839,
  "alayalam": 8628,
  "▁would": 6497,
  "tici": 6745,
  "తర": 2573,
  "ैदान": 4042,
  "▁change": 7191,
  "▁போது": 2812,
  "स्कृति": 4784,
  "%20A": 7690,
  "En": 3594,
  "दार": 7002,
  "books.google.com/books?id=": 782,
  "_School": 6790,
  "ోల్": 8867,
  "ப்பின": 7996,
  "्रांति": 9256,
  "న్": 724,
  "laci": 8544,
  "రాజ్య": 6327,
  "▁about": 7553,
  "▁States": 3989,
  "Sources/": 609,
  "▁began": 5353,
  "AsherTalbot2008),": 6126,
  "ेर": 3043,
  "ोलन": 6669,
  "▁இடையில்": 6051,
  "हाँ": 8243,
  "ணையர்": 6264,
  "books.google.com/books": 778,
  "▁2004": 3141,
  "V": 54,
  "onk": 9408,
  "_அமைப்பு": 8539,
  "](https://en.wikipedia.org/wiki/India#cite_ref-FOOTNOTE": 2205,
  "brary": 2522,
  "म्भ": 7691,
  "கித": 8561,
  "▁[ச": 1897,
  "cient": 2805,
  "urry": 5531,
  "▁\"சிறப்பு": 1936,
  "EX": 3909,
  "வர்": 2496,
  "▁Nadu": 5536,
  ".jpg/250px-S": 8075,
  "ard": 1318,
  "ini": 3509,
  "web.archive.org/web/201": 1025,
  "ச்சி": 1594,
  "onald": 9878,
  "code": 4966,
  "_ter": 3478,
  "](https://ta.wikipedia.org/wiki/க": 1728,
  "ల్ల": 4953,
  "▁వచ్చ": 5996,
  "](Special:BookSources/978-0-521": 9147,
  "ల్": 1013,
  "ases": 9583,
  "1994),": 9156,
  "▁భారతదేశ": 6629,
  "▁See": 9605,
  "vatsyayan-lord_43": 8608,
  "▁హిందూ": 9971,
  "▁Britannica": 8068,
  "mb": 2343,
  "్రమ": 6638,
  "வாக": 1667,
  "3-8": 5476,
  "abhad": 9676,
  "▁are": 1418,
  "▁अमेर": 8179,
  "emoc": 3435,
  "மிழ்நாடு": 5378,
  "76": 2783,
  "UT": 5800,
  "▁மூடப்பட்ட": 7980,
  "▁\"य": 7644,
  "-138": 8168,
  "▁and": 468,
  "ర్చ": 7677,
  "fr": 3448,
  "డు": 2271,
  "▁across": 7365,
  "ISBN": 564,
  "nclm.nic.in/": 4637,
  "ाना": 1547,
  "known": 5061,
  "▁[In": 2367,
  "▁பெற்ற": 4178,
  "▁BCE": 3321,
  "▁நி": 1483,
  "ond": 2640,
  "▁**": 694,
  "ambridge_University_Press": 8554,
  "cent": 3533,
  "–సా.శ.పూ.": 3569,
  "ा_वार": 9152,
  "ారం": 4938,
  "ని": 957,
  "▁domin": 9641,
  "▁ब": 758,
  "Ojha": 6565,
  "lowing": 5335,
  "▁sub": 1986,
  "](https://ta.wikipedia.org/wiki/உலக": 6458,
  "ats": 2740,
  "%2C_S": 7151,
  "▁स्थाप": 7738,
  "ఖండ": 8122,
  "िव": 2103,
  "avid": 2631,
  "ofker": 8899,
  "शक": 5110,
  "_இந்திய": 3874,
  "தமி": 7842,
  "AsherTalbot": 1727,
  "▁a": 594,
  "▁१": 1659,
  "▁\"K": 2215,
  "ourt": 3354,
  ",": 13,
  "ater": 1866,
  "र्व": 1310,
  "त्पाद": 4324,
  "▁SAARC": 5742,
  "ुंबई": 4917,
  "▁நவீன": 8967,
  "Dw": 1504,
  "1).": 9444,
  "மிழ்": 3162,
  "▁185": 6938,
  "▁டாலர்\")": 6852,
  "European": 4352,
  "_": 63,
  "▁[ஆ": 4359,
  "umb": 890,
  "p;": 8384,
  "awaharl": 6272,
  "पाकिस्तान": 2939,
  "Wikipedia\\_articles": 8675,
  "ward": 5871,
  "▁பூர்வ": 7878,
  "▁உற்பத்தியில்": 9782,
  "ummits": 3901,
  "▁Press](https://en.wikipedia.org/wiki/Oxford_University_Press": 6090,
  "cies": 2517,
  "\\_क": 8169,
  "வார்": 2230,
  "జా": 1420,
  "ताब्": 4947,
  "ంత": 1882,
  "था": 1043,
  "%7c%7c": 8015,
  "கம்": 1105,
  "▁2014](https://en.wikipedia.org/wiki/India#CITEREF": 9742,
  "ோகி": 9553,
  "वर्": 3170,
  "▁women": 5534,
  "ंगाना": 7121,
  "▁கட்டுரை": 6555,
  "▁Fund": 6897,
  "ృ": 308,
  "▁तट": 3654,
  "▁ख": 1851,
  "1,": 2482,
  "tals": 2849,
  "▁2024.": 6903,
  "▁ind": 8446,
  "స్కృతి": 4634,
  "▁து": 1775,
  "லைவர்": 9645,
  "▁Metcalf": 2325,
  "ence": 1056,
  "other": 7397,
  "▁Survey": 7896,
  "▁(eds.).": 4870,
  "ிருத": 6004,
  "▁ल": 1347,
  "ிரைப்படத்துறை": 3581,
  "δ": 128,
  "ensus": 1212,
  "arth": 6450,
  "शास": 3171,
  "ata": 939,
  "9,": 5250,
  "पर": 1476,
  "ma": 841,
  "रि": 7619,
  "ன.[[": 2027,
  "▁\"H": 2040,
  "▁పు": 6319,
  "Talbot": 1726,
  "417": 9394,
  "भग": 7617,
  "issing": 5028,
  "0": 17,
  "▁\"தேசிய": 8411,
  "▁எண்ணிக்கைய": 9830,
  "ष्ण": 4449,
  "▁[ஒக்ஸ்போர்ட்": 4686,
  "டிமம்:": 1847,
  "al_": 1266,
  "1.": 1125,
  "iz": 6599,
  "▁चु": 4319,
  "▁பெண்கள்": 7951,
  "▁term": 4119,
  "▁\"ISBN": 1150,
  "78)": 8451,
  "▁முக": 6226,
  "-01/DDW": 8341,
  "▁हो": 2660,
  "Ṛ": 318,
  "▁இரண்டாவது": 8028,
  "0)": 4796,
  "ఋ": 264,
  "ிலும்": 9663,
  "▁विक": 3563,
  "commons": 967,
  "ume": 7318,
  "மையான": 3334,
  "opal": 7354,
  "ட்ச": 3832,
  "ண்": 617,
  "-81": 1718,
  "▁official": 4024,
  ".org/wiki/": 364,
  "இந்து": 3489,
  "▁வரலாற்று": 9826,
  "led": 1445,
  "_of_N": 8975,
  "भो": 5395,
  "mritsar": 7338,
  "▁घ": 2382,
  "ార": 524,
  "▁r": 1471,
  "a,": 2280,
  "leav": 5932,
  "85": 1494,
  "జాబి": 4963,
  "ராச": 3763,
  "▁இற": 6206,
  "_O": 3519,
  "குதி": 5535,
  "हाराष्ट्र": 3408,
  "ाला": 4170,
  "றிவு": 7175,
  "▁Empire": 2753,
  "pub": 9529,
  ".org/wikipedia/": 977,
  "fier": 658,
  "णिपुरी": 9248,
  "](https://ta.wikipedia.org/wiki/இந்திய_ரூபாய்": 6552,
  "▁\"చ": 4929,
  "ளாதார": 2625,
  "n_": 901,
  "_உலக": 6426,
  "லையாள": 9320,
  "oyal": 9827,
  "▁మా": 6332,
  "▁[Routledge](https://en.wikipedia.org/wiki/Routledge": 9835,
  "IND": 8076,
  "▁GDP": 5487,
  "‘": 327,
  "▁இரு": 1258,
  "తమిళనాడు": 7260,
  "407": 5647,
  "▁[மாநில": 9726,
  "▁வங்காள": 5945,
  "](https://hi.wikipedia.org/wiki/उ": 2999,
  "या": 605,
  "गत": 6602,
  "8": 25,
  "▁பு": 1343,
  "▁பங்கு": 7074,
  "▁Political": 9611,
  "9)": 2220,
  "▁अर्थव्यवस्था": 8181,
  "▁their": 2636,
  "ால": 925,
  "రో": 6295,
  "rowing": 8471,
  "cyc": 3289,
  "के": 1636,
  "84": 3456,
  "▁इंडिया": 7155,
  "orld": 832,
  "संधान": 7694,
  "▁Veda": 9842,
  "ః": 258,
  "ந்தது.[[": 8895,
  "சே": 6178,
  "ற்பத்தி": 8526,
  "சு": 671,
  "118": 3786,
  "ल्ल": 8808,
  "9–": 4640,
  "▁[न": 3731,
  "▁వాతావరణ": 9266,
  "hattisgarh": 9500,
  "kimages/": 6070,
  "▁ref": 3686,
  "▁बहु": 3829,
  "Book": 596,
  "▁మత": 6653,
  "▁which": 1633,
  "▁on": 750,
  "ीगढ़": 6288,
  "கனாமி": 8822,
  "▁September": 2257,
  "10.": 1459,
  "ehru": 3773,
  "▁\"ప": 4298,
  "लेख": 1638,
  "▁Policy": 5806,
  "▁News": 4195,
  "▁dance": 3824,
  "ंह": 5603,
  "#": 4,
  "ोट": 8120,
  "▁[दक्षिण": 7058,
  "olper": 3288,
  "ட்டியல்": 1670,
  "/C": 4667,
  "_and_For": 8512,
  ")[[4": 7497,
  "2]](https://ta.wikipedia.org/wiki/இந்தியா#cite_note-": 5293,
  "फ़": 2211,
  "1970": 3018,
  "ப்_பொது": 6012,
  "జో": 8848,
  "▁కలి": 8205,
  "चेंज": 8336,
  "▁general": 4489,
  "identifier)": 682,
  "ऍ": 145,
  "▁ge": 7047,
  "గా": 1837,
  "olpert": 3290,
  "క్క": 5178,
  "िक्": 4585,
  "₹": 337,
  "_m": 2098,
  "2010": 1160,
  "789": 7088,
  "]](https://en.wikipedia.org/wiki/India": 674,
  "▁Sabha": 8945,
  "year": 2203,
  "▁మార్గ": 6101,
  "Ś": 113,
  "\\_parameters#": 3411,
  "ummit\")": 3086,
  "div": 6147,
  "▁ப.": 1037,
  "▁not": 3030,
  "/A": 2424,
  "/ark": 5385,
  "ँच": 1833,
  "ంది.\n": 8214,
  "1–": 2515,
  "▁रह": 5191,
  "%E0%A4%B": 6363,
  "▁ஒன்ற": 2974,
  "माज": 4312,
  "▁र": 1279,
  "ality": 5523,
  "\\_with\\_deprecated\\_parameters#%20இந்தியா\n": 4277,
  "ிழ": 2452,
  "ூர்வ": 4270,
  "arh": 3688,
  "िरपे": 5443,
  "▁K": 971,
  "ப்படு": 1647,
  "-ஆ": 4348,
  "ZvaGuaJIJgoC&pg=PA": 5242,
  ",_": 1389,
  "]](https://en.wikipedia.org/wiki/India#cite_note-4": 8506,
  "aten": 8461,
  "bridge": 1980,
  "](https://ta.wikipedia.org/wiki/அ": 2087,
  "alley": 3416,
  "120px-": 3717,
  "ISO": 5259,
  "national-symbols": 7712,
  "ூட்ட": 2355,
  "ப்_பேரரசு": 4491,
  "ம்](https://ta.wikipedia.org/wiki/": 2532,
  "icat": 5082,
  "िल": 1193,
  "ாடு": 1073,
  "310": 8736,
  "_11": 4522,
  "▁\"స": 4300,
  "வெப்ப": 7523,
  "▁இப்ப": 7904,
  "சியா\")": 5035,
  "▁உருவா": 3576,
  "angladesh": 3708,
  "lection": 2011,
  "▁आधार": 2934,
  "}}": 9406,
  "Template:": 3721,
  "ly": 699,
  "lothing": 8627,
  "ash": 1454,
  "रालेखित": 2139,
  "गुजरा": 3337,
  "▁ta": 4997,
  "_Re": 7958,
  "books.google": 775,
  "Comb": 2303,
  "▁\"Special": 1275,
  "_19": 2886,
  "_Broadcasting": 7166,
  "▁[Sharma": 7490,
  "నా": 1211,
  "_India": 1142,
  "దక్షి": 2514,
  "▁सित": 7654,
  "धु": 4286,
  "sia": 733,
  "▁ancient": 9099,
  "తి": 1214,
  "lig": 1195,
  "▁హ": 6627,
  "-India": 3166,
  "auto\\_scaled\\_images\n": 5690,
  "▁Prospec": 8583,
  "5%": 5585,
  "rishnan": 5460,
  "thehindu.com/news/national": 7336,
  "cat": 4801,
  "▁[↑](https://en.wikipedia.org/wiki/India#cite_ref-FOOTNOTEStein2010": 8528,
  "▁[Indian": 3547,
  "▁இருந்தது.[[": 8557,
  "160": 3738,
  "-78074": 6071,
  "।": 199,
  "▁[ஐஅ$](https://ta.wikipedia.org/wiki/அமெரிக்க_டாலர்": 6881,
  "ters#": 3407,
  "‹": 334,
  "మ్": 3310,
  "](https://ta.wikipedia.org/wiki/The": 9569,
  "▁sector": 5830,
  "udden": 2403,
  "तु": 4412,
  "ffairs": 3032,
  "_धर्म": 7603,
  "▁\"Economy": 4381,
  "-4020": 5568,
  "b/": 6111,
  "▁(India)": 9580,
  "▁தர": 1155,
  "ய": 235,
  "गु": 2081,
  "ikhism": 7512,
  "eptember": 2126,
  "वाद": 3388,
  "▁1200": 8463,
  "्ता:": 5157,
  "▁వా": 4771,
  "▁\"विशेष:EditPage/साँचा:": 9979,
  "ount": 1054,
  "मरी": 7618,
  "](https://ta.wikipedia.org/wiki/இ": 3426,
  "▁Pe": 3777,
  "\").[[": 2615,
  "ंबई": 4451,
  "-107-02649-0": 8051,
  "▁एशिया": 3928,
  "tical_": 5634,
  "▁economy": 6503,
  "ோதி": 6737,
  "oy": 4512,
  "147": 8501,
  "▁(भारत": 8158,
  "చ్చ": 2991,
  "56": 1324,
  "ya": 2586,
  "▁(సా.శ.": 1302,
  "CS1\\_": 5814,
  "bnf.fr/ark:/12148/cb": 5473,
  "urvey": 4504,
  "्रीका": 4620,
  "countries": 3098,
  "ஏ": 219,
  "క్": 927,
  "orther": 3462,
  "-30": 4309,
  "▁தேர்ந்தெடு": 9377,
  "▁\"ह": 8149,
  "▁S.": 3890,
  "नाडु": 4942,
  "2-0": 6416,
  "ిన్న": 5407,
  "▁(J": 7649,
  "▁स्थित": 6365,
  "Harv": 1219,
  "asht": 7651,
  "pati": 5590,
  "▁मध्य": 6310,
  "70": 899,
  "topic": 9610,
  "37.": 7783,
  "_இ": 2885,
  "+": 12,
  "ற்றல்": 6490,
  "_University": 2907,
  "र": 177,
  "▁పట్ట": 7112,
  "/978": 1824,
  "शत": 8810,
  "▁विज्ञान": 9096,
  "30": 745,
  "ீதிய": 6182,
  "vision": 9454,
  "thumb": 987,
  "▁स्था": 6680,
  "போர": 1994,
  "भारत)": 7080,
  "▁Journal": 5343,
  "ian": 1457,
  "runei": 9353,
  "▁மா": 1757,
  "▁த": 469,
  "▁By": 7923,
  "▁National": 3325,
  "ratic": 7885,
  "-f": 2449,
  "MetcalfMetcalf2006": 1380,
  "ee": 2703,
  "ɦ": 118,
  "2018),": 2372,
  ").\n": 1263,
  "_10": 6277,
  "▁धर्म": 2916,
  "Young": 8371,
  "ृ": 191,
  "ి.\n": 3727,
  "வகர்லால்": 9881,
  "-in-": 7328,
  "](https://ta.wikipedia.org/wiki/தி": 4065,
  "▁Con": 3513,
  "▁கால": 1793,
  "▁river": 9170,
  "▁includ": 5376,
  "ంప": 4921,
  "▁India,": 2400,
  "eu": 9401,
  "ren": 6720,
  "age": 665,
  "▁become": 7952,
  "▁सूच": 8919,
  "్రా": 1085,
  "%20%20%20%20": 7248,
  "bert": 4941,
  "-of-india": 8000,
  "india.gov.in": 4265,
  "▁కేంద్రపాలిత": 6328,
  "QAAQBAJ&pg=PA": 4641,
  "ocke": 5766,
  "▁[Dikshit": 7172,
  "▁चार": 9145,
  "](https://en.wikipedia.org/wiki/United": 6752,
  "ervation": 4445,
  "रेलू": 5683,
  "पातकाल": 9267,
  "▁வள": 8947,
  "▁சு": 1916,
  "ல்கலைக்கழ": 1550,
  "ணக்கெடு": 3447,
  "▁प्रा": 2826,
  "](https://te.wikipedia.org/wiki/భారతదేశం": 1443,
  "िट": 2191,
  "war": 4054,
  "EO": 3998,
  "▁history": 4334,
  "_38": 5271,
  "\".": 3026,
  "_(": 689,
  "▁घाटी": 9273,
  "Rediff_2008": 9352,
  "வைச்": 9687,
  "▁இர": 2534,
  "▁movement": 5745,
  "రియా": 5650,
  "ట్ర": 8849,
  "violence": 7575,
  "-k": 7587,
  "how": 2404,
  "_in_South_Asia": 5345,
  "eptem": 2125,
  "-2)": 2545,
  ".wikimedia": 964,
  "UN": 3381,
  "athak": 3700,
  "லைக்காட்சி": 9086,
  "మాఖ్య": 7705,
  "_R": 1342,
  "](https://doi.org/": 3508,
  "223": 5292,
  "times": 1388,
  "](https://hi.wikipedia.org/wiki/भारत_क": 2620,
  "india-glance/": 5963,
  "राजस्थान": 4595,
  "▁கிராமப்புற": 9839,
  "perCollin": 8343,
  "ऍथनोल": 9355,
  "o-daro": 9747,
  "పాకిస్తాన్": 5213,
  "रब": 2494,
  "no": 437,
  "di": 903,
  "The": 799,
  "ஞ்சி": 9116,
  "▁R.;": 9627,
  "\\_with\\_deprecated\\_parameters#": 4275,
  "ాలా": 8985,
  "ెద్ద": 6297,
  "hatt": 5169,
  "▁\"[": 4826,
  "▁°": 6626,
  "_Informatics": 5094,
  "மை": 759,
  "rakash": 7286,
  "203": 4396,
  "IUCN.UK.": 9380,
  "_में": 2110,
  ";\n": 3518,
  "▁War": 4226,
  "ving": 4109,
  "garh": 7346,
  "ப்பி": 2592,
  "tic": 590,
  "undarb": 9692,
  "▁திட்ட": 7449,
  "fence": 6132,
  "ree": 1707,
  "यर": 7009,
  "हरा": 6609,
  "age/": 2015,
  "భు": 7040,
  "data": 1979,
  "-e": 5290,
  "▁\"The": 1755,
  "ீபக": 7266,
  "ed,": 6461,
  "ez": 6172,
  "ंतर": 8102,
  "ather": 6427,
  "2649": 7921,
  "▁Development": 3658,
  "पे": 4136,
  "ten": 1749,
  "ட்டி": 1632,
  "▁దేశం": 7711,
  "ams": 4643,
  "ncl": 4543,
  "▁tex": 4194,
  "▁London:": 9861,
  "श्री": 3914,
  "▁her": 7941,
  "▁occ": 4883,
  "ப்படுத்த": 9131,
  "டுத்து": 5961,
  "m2": 7607,
  "W": 55,
  "▁பெரும்பான்": 9228,
  "lock": 8462,
  "00)": 5154,
  "क्ति": 2780,
  "](https://en.wikipedia.org/wiki/": 390,
  "oci": 3034,
  "ivil": 4188,
  "Women": 8757,
  "ैंड": 4748,
  ":BookSources/978-81": 2287,
  "ujar": 3380,
  "India)": 3293,
  "ஷ்": 4681,
  "Singh2009),": 5093,
  "ish": 818,
  "त्रिपुरा": 7263,
  "1200": 9898,
  "▁region": 2701,
  "▁భా": 7639,
  "esh": 1490,
  "-10": 1186,
  "1.\n": 6161,
  "▁[ந": 3015,
  "ij": 3877,
  "BA": 1158,
  "-population": 9425,
  "alore": 4467,
  "reme": 6137,
  "cl": 1482,
  "16.": 8666,
  "uled": 6774,
  "▁member": 5953,
  "_भाषा": 3226,
  "avidson": 4387,
  "▁प्रौद्योगिक": 6645,
  "ople": 2252,
  "▁మొ": 4438,
  "▁நுட்ப": 8602,
  "స్త్రం:": 3577,
  "▁विश्व": 2995,
  "▁संग": 4932,
  "வகர்": 9552,
  "బా": 4751,
  "▁*[தி": 4710,
  "uslim": 4112,
  "எண்ணிம_ஆவணச்": 9286,
  "▁Hinduism": 4718,
  "ra": 450,
  "▁दि": 5977,
  "▁ప్ర": 1355,
  "](https://ta.wikipedia.org/wiki/கு": 5918,
  "20)": 5001,
  "_24": 5389,
  "ूच": 2314,
  "▁Asia": 1071,
  "கத": 9538,
  "indian": 8993,
  "tempor": 7492,
  "▁\"ड": 8148,
  "Wolpert2003": 7259,
  "சிதா": 9616,
  "▁[இந்திய": 2086,
  "Dey": 9906,
  "anguage": 887,
  "![](https://upload.wikimedia.org/wikipedia/commons/thumb/": 1760,
  "த்திற்கு": 4615,
  "van": 2909,
  "▁different": 7364,
  "rish": 2787,
  "▁[T": 1736,
  "▁Barb": 8663,
  "▁ரூபாய்": 6257,
  "మె": 4291,
  "मन": 1375,
  "](https://hi.wikipedia.org/wiki/ल": 6306,
  "ஞ": 227,
  "il": 566,
  "_and_depend": 9483,
  "▁Cooperation": 7450,
  "ens": 973,
  "](https://ta.wikipedia.org/wiki/ஐ": 9568,
  "▁शु": 6655,
  "irth": 7929,
  "ு": 248,
  "யண": 8829,
  "▁early": 8494,
  "if": 3534,
  "arliest": 6700,
  "_in_India": 1079,
  "](https://ta.wikipedia.org/wiki/R": 6753,
  "▁Ram": 6395,
  "దిన": 4924,
  "धिक": 1881,
  "1]](https://ta.wikipedia.org/wiki/இந்தியா#cite_note-FOOTNOTE": 4668,
  "mentin-": 6498,
  "](https://te.wikipedia.org/wiki/చ": 5944,
  "_Performance": 9322,
  "▁\"E": 1458,
  "e/e": 9789,
  "](https://en.wikipedia.org/wiki/In": 2261,
  "fa": 5589,
  "▁ज": 690,
  "Kashmir": 8370,
  "tro": 2114,
  "▁दोन": 8192,
  "ogri": 9182,
  "63": 5249,
  "▁Public": 4225,
  "ken": 8769,
  "▁ర": 1583,
  "artition": 5728,
  "லைக்க": 1350,
  "_Fund": 6674,
  "▁rule": 5030,
  "uj": 2326,
  "acter": 9603,
  "मुख्य": 6362,
  "ut": 1117,
  "▁ग": 1068,
  "ylee": 9231,
  "ர்ஹ": 9584,
  "ణి": 4417,
  "meric": 3659,
  "1996": 3224,
  "d/": 3794,
  "](https://te.wikipedia.org/wiki/బ": 4430,
  "wing": 2918,
  "▁Le": 9471,
  "jpg": 5253,
  "దీ": 2542,
  "_8": 7754,
  "pt": 2683,
  "](https://en.wikipedia.org/wiki/Economy_of_": 5054,
  ".\n": 526,
  "▁Greek": 9653,
  "▁o": 2304,
  "_இந்தியப்_பொதுத்_தேர்தல்": 7557,
  "▁left": 5451,
  "▁మ": 1060,
  "Ludden": 3667,
  "▁న": 1950,
  "ழந்தை": 8837,
  "Har": 908,
  "▁இசை": 6772,
  "▁number": 3674,
  "ednekar": 9360,
  "▁Sfn": 2659,
  "▁such": 4368,
  "riy": 8926,
  "▁పరి": 5973,
  "etra": 3760,
  "వే": 3173,
  "▁जनवरी": 7195,
  "ளர்": 2223,
  "ongress": 2306,
  "▁web": 7762,
  "](https://cata": 8144,
  "िका": 1988,
  "வங்காள": 3614,
  "हाब": 9102,
  "▁पर्वत": 5946,
  "▁மொழி\")": 5771,
  "▁భాష": 2917,
  "▁Pradesh\")": 9196,
  "▁Environment": 5219,
  "एन": 7612,
  "ிட்ட": 3362,
  "ంజాబ్": 9317,
  "lite": 6208,
  "ोलकाता": 7174,
  "usin": 1892,
  "▁2020": 2834,
  "ஞ்சா": 4612,
  "போர்ட்": 2149,
  "▁by": 968,
  "ారు.": 6360,
  "ிரா": 2246,
  "rak": 5936,
  "ற்றும்": 819,
  "43": 1811,
  "angam": 8469,
  "ː": 125,
  "లకు": 8130,
  "_सा": 9022,
  "uk": 2188,
  "120": 2186,
  "▁[महाराष्ट्र": 9067,
  "ो": 196,
  ":BookSources/978-9": 5532,
  "तिक": 3911,
  "ாண்டு": 5510,
  "hola": 8005,
  "▁[E": 1691,
  "98": 2350,
  "्रय": 7650,
  "treet": 5787,
  "▁\"P": 1331,
  "_Delhi": 4118,
  "्लेट": 8121,
  "▁शताब्दी": 6378,
  "De": 6275,
  "ation": 490,
  "▁राज्यों": 2622,
  "ed/": 8904,
  "னஸ்": 7412,
  "208": 4896,
  "ஞ்": 1544,
  "reen": 5725,
  "info": 7764,
  "igved": 6495,
  "ఢ్": 7628,
  "ece": 3668,
  "_మ": 4124,
  "\"](https://books.google.com/books?id=": 3181,
  "ability": 7944,
  "னைத்துலக": 8596,
  "i,": 4331,
  "7)[[": 8365,
  "பெ": 4554,
  ".com": 570,
  "ள்ளன.": 6783,
  "மானது": 2141,
  "▁பதிப்பகம்](https://ta.wikipedia.org/wiki/ஒக்ஸ்போர்ட்_பல்கலைக்கழகப்_பதிப்பகம்": 4734,
  "▁(ed.).": 7267,
  "of": 397,
  "_BRICS_summit": 7268,
  "](https://ta.wikipedia.org/wiki/உ": 5729,
  "॰": 210,
  "ொருளாதார": 9812,
  "▁பாறை": 9718,
  "ित": 909,
  "308": 8665,
  "▁नव": 7680,
  "](https://ta.wikipedia.org/wiki/உலக_வ": 9311,
  "]](https://ta.wikipedia.org/wiki/இந்தியா": 645,
  "force": 5985,
  "ப்த": 3613,
  "கா": 1063,
  "ரி": 918,
  "range": 7833,
  "-symbols": 7693,
  "▁si": 6933,
  "uls": 8960,
  "9-0)": 2745,
  "](https://hi.wikipedia.org/wiki/च": 5920,
  "▁[தேசிய": 8405,
  "ternational": 2022,
  "▁ప్రాంత": 3578,
  "o-o": 5036,
  "](https://en.wikipedia.org/wiki/H": 2301,
  "టెక్నాలజీ": 8350,
  "▁पार्टी": 9265,
  "4–": 2755,
  "using\\_": 3399,
  "-a": 3932,
  "Library_of_Congress2004": 5497,
  "▁கூ": 3889,
  ".nic": 1831,
  "ynasty": 7272,
  "pani": 7399,
  "▁हिन्दी": 4787,
  "▁[doi](https://ta.wikipedia.org/wiki/எண்ணிம_ஆவணச்": 9295,
  "](https://te.wikipedia.org/wiki/అ": 5628,
  "data.worldbank.org/": 6410,
  "भाषा": 1029,
  "தலை": 6179,
  "tection": 7858,
  "_13": 4523,
  "కీయ": 7035,
  "Uni": 747,
  "fir": 4850,
  "▁ఉప": 8249,
  "▁शुरू": 9319,
  "-39": 6944,
  "Vu": 4889,
  "tw": 9533,
  "ியம்": 4689,
  "▁l": 726,
  "Oj": 6422,
  "▁called": 7913,
  "तेल": 3538,
  "ఠ": 280,
  "ZvaGuaJIJ": 4881,
  "text": 8304,
  "#cite_ref-1": 3178,
  "_50": 5701,
  "outledge?action=edit&redlink=1": 7977,
  "_(இந்தியா)": 4486,
  "telligence": 3906,
  "ā": 110,
  "ிருஷ்ணா": 9892,
  "]](https://en.wikipedia.org/wiki/India#cite_note-FOOTNOTEMetcalfMetcalf2006": 6522,
  "12": 1538,
  "▁relations": 5172,
  "Chand": 8368,
  "▁ஆயு": 5960,
  "ेघालय": 8328,
  "రాజస్థాన్": 9261,
  "▁सं": 1147,
  "ड": 163,
  "உலக": 2008,
  "▁[978-0-": 1178,
  "▁[Routledge](https://ta.wikipedia.org/wiki/Routledge?action=edit&redlink=1": 8050,
  "ज्य": 3037,
  "▁Trade": 7108,
  "फोर्ड": 7003,
  "▁மூல": 4084,
  "ంటి": 7708,
  "▁[Singh": 4661,
  "▁\"Y": 8882,
  "289": 5087,
  "க்கிப்பீடியா": 8636,
  "▁ro": 3755,
  "uttaphrynus": 8048,
  "१८": 7019,
  "▁రాజకీయ": 9205,
  "ப்படுகிறது.[[": 8019,
  "▁21": 2274,
  "ix": 4222,
  "▁குழு": 9690,
  ":EditPage/": 2860,
  "_Pl": 6512,
  "டா": 4235,
  "லிப": 9706,
  "F)": 7385,
  "C-01%20MDD": 8334,
  "னித": 4081,
  "ful": 7394,
  "देव": 5394,
  "▁(%": 8657,
  "2-8": 6162,
  "▁including": 7275,
  "▁ஆகியவற்ற": 7988,
  "raditional": 8571,
  "जपुरी": 8791,
  "content": 3990,
  "▁*[": 994,
  "s.\"\n": 7508,
  "ise": 3073,
  "மல்": 7843,
  "3]](https://en.wikipedia.org/wiki/India#cite_note-FOOTNOTE": 5697,
  "_घ": 6979,
  "%E0%A4%": 3660,
  "ார": 855,
  "](https://id.": 8688,
  "मिल": 2291,
  "ate": 503,
  "ற்று": 1758,
  "ரூபாய்": 6180,
  "श": 181,
  "ళ్": 8131,
  "थ": 167,
  "pril_20": 9139,
  "▁Gu": 5979,
  "४": 204,
  "▁में,": 7671,
  "▁कार": 3177,
  "▁இத": 3154,
  "द्योगिक": 4047,
  "news/": 1748,
  "▁Press\").": 3270,
  "100": 2374,
  "mittances": 9853,
  "▁காட்டு": 7085,
  "▁[the": 1514,
  "books": 553,
  "▁பி": 4470,
  "eneral": 2318,
  "▁Archived": 2206,
  "▁[↑](https://en.wikipedia.org/wiki/India#cite_ref-FOOTNOTE": 1276,
  "▁முசுலி": 6800,
  "TO": 6573,
  "ocial": 2735,
  "म्ब": 3186,
  "▁,": 8137,
  "ாளு": 3328,
  "por": 1122,
  "rab": 2925,
  "gether": 9662,
  "ord": 1341,
  "ο": 131,
  "harm": 5262,
  "oi": 2046,
  "▁பிரி": 3553,
  "_s": 1304,
  "ிரித்தான": 2506,
  "aw": 1993,
  "ந்தை": 3267,
  "றிய": 3879,
  "287,26": 7928,
  "oss": 7132,
  "#cite_note-": 465,
  "▁(1):": 6308,
  "AsherAsher2006": 5660,
  "▁திரைப்படத்துறை": 5940,
  "यालय": 4203,
  "ज्ज": 6682,
  ".jp": 1119,
  "▁உள்ளன.": 6005,
  "▁p": 482,
  "▁rural": 9105,
  "ecutive": 9313,
  "_ta": 9520,
  "auto": 4959,
  "ś": 114,
  "_राजवंश": 9316,
  "▁शिक्षा": 6335,
  "cis": 3550,
  "-no": 9391,
  "arl": 6190,
  "वत": 8809,
  "_स": 836,
  "ய்ய": 5199,
  "्यों": 6637,
  "ाट": 3229,
  "oseph": 9675,
  "▁प्राप्त": 5672,
  "geohack": 8342,
  "▁राजधान": 7710,
  "280": 7674,
  "கு": 730,
  "ually": 6054,
  "cal": 650,
  "Xavi": 6712,
  "](https://ta.wikipedia.org/wiki/இந்திய": 1217,
  "_H": 2279,
  "▁University": 1299,
  "mental": 5492,
  "“": 329,
  "style": 7918,
  "ourism": 9615,
  "-language": 2709,
  "▁भारतीय": 1867,
  "டது": 9542,
  "▁दिस": 4592,
  "▁చి": 8225,
  "*](https://": 863,
  "▁मंदिर": 3465,
  "ட்டி\")": 7183,
  "les": 1075,
  "ீபகற்ப": 7581,
  "முதன்மைக்": 6541,
  "ின்": 502,
  "▁among": 4733,
  "री](https://hi.wikipedia.org/wiki/": 9056,
  "▁फ": 4013,
  "▁శతాబ్ద": 9180,
  "worldcat.org/issn": 8676,
  "२": 202,
  "ς": 133,
  "▁[म": 1131,
  "pact": 8101,
  "induism": 4492,
  "▁1998](https://hi.wikipedia.org/wiki/भारत#CITEREFStein1998),": 8285,
  "▁80": 6927,
  "▁Category:": 1197,
  "...": 4898,
  "7]](https://en.wikipedia.org/wiki/India#cite_note-FOOTNOTE": 8366,
  "puri": 7707,
  "▁US": 6826,
  "▁சட்ட": 4250,
  "-le": 3298,
  "▁lite": 8546,
  "-78": 3530,
  "▁அரசியல்": 5047,
  "▁நீர்": 7532,
  "Ar": 2179,
  "தர": 8390,
  "ीत": 3915,
  "▁கிட்ட": 8445,
  "▁./பகுப்பு:Pages\\_using\\_multiple\\_image\\_with\\_auto\\_scaled\\_images\n": 6091,
  "▁•": 838,
  "▁கலைக்களஞ்சியம்": 7886,
  "▁व": 896,
  "ார்க்க": 6799,
  "▁२": 2383,
  "-world": 5074,
  "2-7": 6912,
  "ఞ": 278,
  "▁வாழ": 7990,
  "▁கணக்கெடு": 4158,
  "▁Centre": 5484,
  "ī": 111,
  "▁Books": 7051,
  "ఆ": 260,
  "ilm": 9629,
  "EF": 591,
  "▁அல்ல": 2892,
  "▁United": 6186,
  "லைய": 6734,
  "_पर": 3382,
  "हार": 2007,
  "1950": 3922,
  "/D": 5598,
  "▁2017": 2952,
  "awahar": 6245,
  "▁Affairs": 4700,
  "தாகும்.": 5370,
  "-107-0": 6814,
  "though": 7866,
  "िन": 2711,
  "భూ": 4290,
  "దేశ్": 2165,
  "49": 1096,
  "ृष्ण": 8119,
  "க்கலை": 5140,
  "ுள்ளது.[[": 6239,
  "adakh": 9607,
  "tures": 5022,
  "t,": 7759,
  "duc": 1589,
  "el": 813,
  "074": 5372,
  "दाख": 9194,
  "▁அறிய": 6482,
  "/g": 4535,
  "महाद्वीप": 6692,
  "AG": 4507,
  "स्तक": 1967,
  "▁cont": 4862,
  "८": 208,
  "హిందీ": 6060,
  "माणु": 4630,
  "ஒன்ற": 6727,
  "−": 339,
  "ప్రదాయ": 8245,
  "▁संस्थान": 8224,
  "](https://ta.wikipedia.org/wiki/இந்தியாவில்": 2392,
  "▁संसद": 6656,
  "s_of_India": 5870,
  "▁இருந்த": 2033,
  "att": 2222,
  "containing\\_": 3279,
  "▁சி": 2009,
  "యో": 8854,
  "ी](https://hi.wikipedia.org/wiki/": 1240,
  "prec": 4087,
  "விட": 9703,
  "[[": 461,
  "adweep": 7903,
  "igarh": 7925,
  "isl": 8424,
  "indust": 2416,
  "▁மொழியாக": 9845,
  "æ": 101,
  "ூ": 249,
  "అ": 259,
  "▁Te": 8699,
  "ல்கள்": 6530,
  "estic": 6930,
  "్యం": 8995,
  "▁नेतृत": 7181,
  "▁In": 928,
  "▁\"हिन्द": 4153,
  "ees": 7825,
  "श्य": 6607,
  "ियन": 8228,
  "▁நீதிமன்ற": 9301,
  "_East_Asia_Summit": 6238,
  "▁[\"P": 5593,
  "னாமி": 5790,
  "▁ஒ": 860,
  "6_": 3780,
  "हैद": 5399,
  "बाद": 3386,
  "▁language\")": 3145,
  "_28": 6916,
  "▁Dance": 8996,
  "▁ஆனால்": 6214,
  "▁regions": 6538,
  "नाग": 3561,
  "ised": 3712,
  "]](https://hi.wikipedia.org/wiki/भारत#cite_note-pib": 7702,
  "िक": 607,
  "tt": 348,
  "7]](https://ta.wikipedia.org/wiki/இந்தியா#cite_note-FOOTNOTE": 6168,
  "ilar": 9466,
  "ambridge": 1998,
  "te": 368,
  "125": 6415,
  "llchin": 4502,
  "त्तरी": 7695,
  "Books": 5162,
  "4-0)": 2298,
  "▁உறுப்பின": 9851,
  "_V": 2948,
  "_Day": 9062,
  "cia": 7824,
  "ealth": 4094,
  "nown": 3593,
  "్యవస్థ": 3747,
  "▁பகுதியில்": 9798,
  "](https://en.wikipedia.org/wiki/South_Asian_": 8022,
  "](https://ta.wikipedia.org/wiki/தில்லி": 9732,
  "ins": 3221,
  "▁को": 1042,
  "_మతము": 7727,
  "07": 2527,
  "](https://hi.wikipedia.org/wiki/न": 7072,
  "lion": 6639,
  "▁[उ": 2820,
  "டும்": 7408,
  "azett": 9792,
  "1]](https://en.wikipedia.org/wiki/India#cite_note-FOOTNOTE": 4536,
  "▁எண்ணிக்க": 4604,
  "वैद": 8115,
  "▁ஐக்கிய": 7852,
  "AsherTalbot200853": 8258,
  "wo": 3091,
  "்கள": 2967,
  "_பே": 9665,
  "▁(a)": 5064,
  "ிலை": 4057,
  "](https://ta.wikipedia.org/wiki/இந்தியா#CITEREF": 894,
  "▁Act": 3352,
  "▁தய": 9591,
  "நாட": 4821,
  "338": 4901,
  "ங்கா": 3318,
  "286": 5166,
  "రికత": 8209,
  "ex": 1372,
  "▁trade": 9057,
  "▁भूम": 5679,
  "▁पाकिस्तान": 8283,
  "formation": 4976,
  "](https://hi.wikipedia.org/wiki/भारत": 546,
  "ியது.[[": 7870,
  "मा": 1040,
  "Aitchison": 6970,
  "सून": 5882,
  "▁E": 711,
  "history": 2599,
  "ட்ப": 3695,
  "▁2004](https://ta.wikipedia.org/wiki/இந்தியா#CITEREF": 6550,
  "▁Min": 4516,
  "4).": 6913,
  "ானது": 966,
  "▁[உ": 3958,
  "ैंक": 7013,
  "_का": 5975,
  "గ్": 8845,
  "▁பொது": 2264,
  "ொரு": 3882,
  "▁with": 1267,
  "iland": 8477,
  "▁[\"India's": 9190,
  "▁ஒன்றிய": 6548,
  "▁\"భారతదేశంలో": 5462,
  "87": 4393,
  "कांक": 9069,
  "▁[హ": 8878,
  "ingle": 8925,
  "ஞ்ச": 2781,
  "riod": 3940,
  "technology": 5723,
  "களின்": 1464,
  "▁9": 2142,
  "opland": 6142,
  "क्स": 4547,
  "▁रक्षा": 8233,
  "लोकसभा": 9249,
  "▁ध": 5127,
  "ine": 1466,
  "க்கான": 6197,
  "indi": 1551,
  "anskrit": 2053,
  "ாரி": 6514,
  "ories": 2591,
  "astr": 8504,
  "▁[ल": 7056,
  "▁Ocean": 6649,
  "▁కాశ్మీ": 7235,
  "ख़": 8787,
  "55": 3414,
  "त्रि": 4766,
  "▁first": 2846,
  "ந்": 6730,
  "eth": 7344,
  "](https://hi.wikipedia.org/wiki/प": 2467,
  "ks": 3284,
  "▁பிற": 2922,
  "மன்ற": 2689,
  "▁मशीन": 7661,
  "ke": 1153,
  "35": 961,
  "▁की": 765,
  "s/": 864,
  "tou": 8775,
  "▁([help](https://hi.wikipedia.org/wiki/श्रेणी:Harv_and_Sfn_template_errors?action=edit&redlink=1": 2945,
  "ests": 4155,
  "Schwartzberg": 2958,
  "▁மலைத்தொடர்": 9786,
  "▁உண": 4251,
  "ிரஸ்": 8976,
  "oro": 7424,
  "वे": 3041,
  "tal": 991,
  "▁Har": 9418,
  "▁பே": 3552,
  "க்கும்": 2330,
  "वित": 5972,
  "गंगा": 5393,
  "ारम्भ": 8153,
  "nold": 7439,
  "▁अभिगमन": 1891,
  "न्": 734,
  "2016": 2737,
  "▁अग": 4433,
  "000": 1543,
  "▁.": 861,
  "ीप": 1771,
  "▁8": 1913,
  "जिस्ट": 8792,
  ";": 28,
  "28)": 4308,
  "வ": 241,
  "hel": 2020,
  "▁[य": 7641,
  "life": 3524,
  "▁పాల": 8187,
  "▁(2007).": 9362,
  "▁./Category:": 2975,
  "ீப": 4822,
  "▁ass": 5718,
  "▁రె": 8251,
  "க்தி": 4732,
  "▁எண்\")": 1252,
  "2)\n": 5247,
  "tered": 5079,
  "Col": 6383,
  "▁found": 4842,
  "పతి": 4011,
  "anat": 7864,
  "▁topics": 9646,
  "▁Ex": 4807,
  "aria": 7871,
  "த்தியில்": 5556,
  "2": 19,
  "al": 387,
  "భారతదేశ_": 6647,
  "▁O": 885,
  "-ar": 5692,
  "குடா": 9006,
  "▁(இந்தியா)": 6464,
  "multiple\\_image\\_with\\_": 5687,
  "-உ": 9507,
  "_Per": 6797,
  "▁(b)": 5072,
  "ூக": 4557,
  "▁100": 8659,
  "lo": 507,
  "▁\"J": 2804,
  "ought": 9579,
  "▁किया": 2499,
  "▁\"భారతదేశం": 4021,
  "ammu": 4657,
  "ரசிய": 5122,
  "త్మా": 9075,
  "டி": 740,
  "िवस": 9153,
  "ंगा": 3469,
  "▁రాజ్య": 6342,
  "2022": 6303,
  "मीरात": 9111,
  "కో": 4922,
  "](https://ta.wikipedia.org/wiki/படிமம்:": 1874,
  "adhya": 7731,
  "ison": 8425,
  "ப்": 396,
  "▁up": 3756,
  "](https://hi.wikipedia.org/wiki/सं": 4754,
  "▁many": 4073,
  "–10": 8136,
  "1980": 8063,
  "▁300": 8712,
  "Xavier": 8037,
  "▁known": 7539,
  "▁அர": 1845,
  "▁है।\n": 2878,
  "elhi": 1868,
  "tions": 3986,
  "க்": 545,
  "report": 7069,
  "-01/": 8163,
  "▁were": 2078,
  "6": 23,
  "्ड": 2405,
  "रण": 5106,
  "▁./பகுப்பு:Pages\\_using\\_": 4725,
  "ము": 1205,
  "8–": 5295,
  "tex": 4296,
  "india.gov.in/india-glance/": 6044,
  "_Cropped": 9046,
  "-of": 2857,
  "ly,": 5168,
  "reat": 4063,
  "▁बने": 9013,
  "జ్": 5404,
  "▁ऐ": 9966,
  "मृत": 8805,
  "neworld": 7157,
  "▁dis": 2646,
  "_Comm": 6804,
  "\\_with": 1562,
  "ய்வு": 4860,
  "india.gov": 1527,
  "ource": 4937,
  "▁பங்களி": 8044,
  "_Temple": 4373,
  "ical_": 7443,
  "52": 4230,
  "_and_": 2436,
  "నాగ": 4439,
  "al_P": 3425,
  "बसे": 2608,
  "வான": 3808,
  "4]](https://en.wikipedia.org/wiki/India#cite_note-FOOTNOTE": 7381,
  "▁been": 2877,
  "காதார": 9696,
  "▁Reg": 3743,
  "▁தொடர்ச்சி": 5351,
  "ட்சிய": 3896,
  "33": 1259,
  "िस्ट": 6018,
  "▁தலைமை": 8575,
  "త్": 1250,
  "ிரி": 1126,
  "ther": 970,
  "ax": 8762,
  "{": 91,
  "▁సామ్రాజ్య": 9126,
  "▁मा": 4304,
  "స్క": 3180,
  "vert": 8966,
  "34": 1409,
  "▁Conservation": 7570,
  "▁[Re": 8548,
  "லும்": 5709,
  "మ్రాజ్యం": 2138,
  "▁एवं": 3657,
  "eers": 6986,
  "ரோ": 2406,
  "प्त": 2815,
  "Pandit": 7820,
  "▁55": 9427,
  "ர்ந்த": 2970,
  "amp": 6769,
  ")": 10,
  "▁छ": 4294,
  "aman": 2468,
  "wi": 342,
  "▁(2018),": 5417,
  "▁ஊ": 2224,
  "जाति": 4611,
  "ृषि": 9343,
  "▁Republic": 4515,
  "-de": 4349,
  "▁18": 1695,
  "istic": 8901,
  "▁Sh": 3316,
  "ాష్ట్ర": 8862,
  "▁\"List": 1586,
  "நாத்": 7997,
  "irz": 9650,
  "_v": 9398,
  "agement": 9651,
  "](https://ta.wikipedia.org/wiki/இந்தியப்_ப": 7507,
  "▁आर्थिक": 7136,
  "த்தக்க": 6199,
  "-विज्ञान": 5848,
  "](https://en.wikipedia.org/wiki/D": 1712,
  "▁కాల": 4174,
  "country": 2980,
  "ளையாட்டு": 2896,
  "▁2010](https://en.wikipedia.org/wiki/India#CITEREFStein2010),": 6086,
  "इ": 140,
  "ूनिव": 5209,
  "ayanagar": 9178,
  "జీ": 2992,
  "122": 5498,
  "▁जब": 7676,
  "on,": 5080,
  "▁துணை": 4714,
  "_and_T": 7357,
  "arlia": 3672,
  "▁Research": 4482,
  "etry": 8927,
  "ूल": 1677,
  "india.com/": 5750,
  "ின": 5894,
  "▁मेला": 2064,
  "राष्ट्रीय": 1990,
  "▁\"Chin": 9061,
  "aland": 7432,
  "ain": 1152,
  "లస": 7043,
  "▁[*The": 2638,
  "वीं": 5109,
  "▁inte": 8447,
  "~": 94,
  "ాలీ": 7670,
  "▁பேர": 5733,
  "ghts": 7945,
  "▁நடன": 7211,
  "మీ": 3046,
  "mber": 1651,
  "▁Nicobar": 8492,
  "thermund": 1674,
  "రా": 826,
  "▁India.[[": 8441,
  "](https://ta.wikipedia.org/wiki/இந்தியா#cite_ref-FOOTNOTE": 1739,
  "டிமம்": 1846,
  "▁2011,": 6523,
  "nclm.nic.in/shared/lin": 6088,
  "ఖ్య": 3645,
  "-and": 5693,
  "ci": 395,
  "▁Global": 8704,
  "orship": 6807,
  "▁केंद्र": 3733,
  "ड़ा": 3184,
  "ield": 9278,
  "pic": 2202,
  "ffice": 4783,
  "▁Cons": 4701,
  "illion-": 9760,
  "▁of": 428,
  "ीक": 9937,
  "▁\"Special:BookSources/978-0-": 1978,
  "ohan": 9736,
  "do-Pakistani": 8619,
  "७": 207,
  "▁territories": 4101,
  "सा": 1261,
  "க்கள்": 1951,
  "Ge": 7814,
  "]](https://hi.wikipedia.org/wiki/भारत#cite_note-FOOTNOTE": 2470,
  "धि": 4911,
  "e,": 6985,
  "▁రై": 4191,
  "▁అతి": 9084,
  "j": 74,
  "మిజో": 9146,
  "](Special:BookSources/978-0-": 1977,
  "education": 6380,
  "பா": 2099,
  "Ludden2014),": 8634,
  "▁இதற்கு": 8584,
  "Wolpert": 4405,
  "▁\"జ": 4567,
  "limate": 4385,
  "ton": 2802,
  "னி": 1652,
  "ेड": 7012,
  "-135": 4697,
  "Singh2009": 1685,
  "ab": 919,
  "▁ఏ": 5908,
  "ists": 6489,
  "ोम": 4415,
  "▁शहर": 7688,
  "_t": 6978,
  "](https://ta.wikipedia.org/wiki/B": 6192,
  "MetcalfMetcalf2012-26": 8316,
  "Articles\\_with\\_": 3445,
  "hak": 7933,
  "-to": 2308,
  "ovember": 2851,
  "ணிப்பு": 7502,
  "ृत्य": 5208,
  "▁வட": 3368,
  "Oxford": 2235,
  "](https://hi.wikipedia.org/wiki/भारत_में": 2243,
  "ముద్ర": 6011,
  "▁N": 732,
  "_G": 1417,
  "U": 53,
  "usiness/": 4268,
  "come": 3600,
  "-203": 6542,
  "-27": 4666,
  "indicator": 5845,
  "ide": 2331,
  "▁பரணிடப்பட்டது..": 6879,
  "riculture": 4261,
  "[![](https://upload.wikimedia.org/wikipedia/commons/thumb/7/": 9480,
  "imes": 2423,
  "▁al": 2819,
  "C&pg=PA": 1826,
  "▁International": 5545,
  "base": 8685,
  "lc": 8099,
  "▁subcontinent": 2687,
  "219": 5386,
  "ప్రధానమంత్రి": 7264,
  "▁Budd": 3894,
  "▁ईसा": 7049,
  ".jpg)](https://ta.wikipedia.org/wiki/படிமம்:": 2072,
  "ennai": 9822,
  "द": 168,
  "aid": 7393,
  "ाली": 3001,
  "bh": 4128,
  "map": 2931,
  "-India.pdf)": 9488,
  "est_Bengal": 9889,
  "न्द": 913,
  "த்தொடர்": 6471,
  "▁கீ": 5330,
  "లీ": 2037,
  "inistry": 2153,
  "](https://hi.wikipedia.org/wiki/": 412,
  "▁ఉంది.": 6671,
  "ʊ": 121,
  "ollingham": 4868,
  "ER": 589,
  "ce": 555,
  "▁[↑](https://en.wikipedia.org/wiki/India": 805,
  "ய்": 1352,
  "▁பேரரசு\")": 4631,
  "▁errors": 2484,
  "](https://ta.wikipedia.org/wiki/சி": 8897,
  "-345": 7475,
  "ख्य": 8104,
  "▁என்பது": 9253,
  "▁அரசிய": 3274,
  "-78074-108-6": 6107,
  "▁2000": 6641,
  "adras": 7902,
  "_ब": 4406,
  "थान": 2189,
  "▁స్థాన": 7255,
  "ministered": 8335,
  "பதி": 6437,
  "▁वृद्धि": 9367,
  "▁like": 6031,
  "ீவு": 2736,
  "▁రాష్ట్ర": 3842,
  "-85168": 9276,
  "artment": 3656,
  "ధించ": 9953,
  "ரில்": 7414,
  "andoor": 9578,
  "வர்கள": 5315,
  ")\"),": 6156,
  "▁वर्": 2109,
  "ళ": 297,
  "▁கட்டு": 3820,
  "ispu": 9983,
  "tates_and_union_territories": 9498,
  "▁school": 8934,
  "्रेणी": 1132,
  "▁do": 8701,
  "சிறப்பு:BookSources/978-0-": 1223,
  "cial": 720,
  "-100": 5829,
  "rit": 881,
  "గుజరా": 7213,
  "இந்தோனே": 7578,
  "▁Indians": 9681,
  "▁தொடக்க": 6249,
  "▁([help](https://hi.wikipedia.org/wiki/श्रेणी:Harv": 2941,
  "▁[*An": 7331,
  "మూస": 3409,
  "aylor": 3970,
  "endra": 5092,
  "▁2006](https://en.wikipedia.org/wiki/India#CITEREF": 4196,
  "▁(2019).": 9479,
  "gu": 6598,
  "ాయ": 2084,
  "ையில்": 1338,
  "inance": 4688,
  "uries": 8387,
  "ూర్": 5126,
  "வது": 2407,
  "పాల": 2036,
  "▁1990": 8247,
  "†": 331,
  "▁अपने": 9217,
  "›": 335,
  "केन्द्र": 7184,
  "censusindia.gov.in/2011-prov-results/p": 9503,
  "ry": 696,
  "elangana": 8620,
  "நில": 1844,
  "का": 1146,
  "_Ram": 7959,
  "ాన": 1965,
  "ாநில": 4994,
  "_P": 844,
  "]](https://ta.wikipedia.org/wiki/இந்தியா#cite_note-Combined": 9047,
  "af": 4817,
  "_ச": 2160,
  "భాష": 1991,
  "हि": 1239,
  "▁1994": 4493,
  "உ": 216,
  "Garg": 6973,
  "-w": 7376,
  ".UK": 8733,
  "hy": 1763,
  "ess": 1396,
  "ude": 5506,
  "ச்சு:": 6558,
  "ర్ణాటక": 9365,
  "_के_अन": 7692,
  "▁areas": 9098,
  "டல்": 4991,
  "7080": 9470,
  "తీ": 9951,
  "ind": 679,
  "earning": 9052,
  "](https://hi.wikipedia.org/wiki/य": 9984,
  "▁Jan": 2579,
  "த்": 536,
  "द्वीप": 4742,
  "ong": 1087,
  "லமைப்பு": 5509,
  "करण": 6050,
  "▁जून": 4590,
  "▁rights": 9776,
  "லைவன": 5965,
  "_An": 7937,
  ":**": 8741,
  "▁భారత": 3918,
  "▁2014": 1724,
  "ழி": 2765,
  "archi": 717,
  "▁V": 1295,
  "-107-11162-2": 4886,
  "▁species": 8597,
  "हैदराबाद": 5467,
  "▁area": 5263,
  "](https://ta.wikipedia.org/wiki/A": 9567,
  "▁H.": 5068,
  "ல்ப": 8429,
  "istorical": 8678,
  "▁[R": 1697,
  "స్తు": 6356,
  "Ministry_of_Home_Affairs": 9282,
  "▁2021.\n": 3190,
  "/p": 2178,
  "230-345": 8009,
  "lémentin-": 6566,
  "▁23": 2614,
  "](https://ta.wikipedia.org/wiki/இந்தியா": 445,
  "ிரு": 1103,
  "बा": 8111,
  "Ministry_of_Home_Affairs_1960": 9382,
  "](https://ta.wikipedia.org/wiki/சிறப்பு:BookSources/978-1": 3276,
  "usiness": 2480,
  "pura": 5069,
  "▁men": 8696,
  "stan": 1559,
  "](https://en.wikipedia.org/wiki/R": 1886,
  "rchived": 1288,
  "_of_South_Asia": 9632,
  "31": 2255,
  "▁देश": 1890,
  "ார்.[[": 9081,
  "_45": 6918,
  "ே": 251,
  "ately": 7456,
  "--": 914,
  "-D": 5056,
  "ण": 165,
  "▁மூன்று": 7527,
  "▁[\"C": 3715,
  "2017": 2969,
  "-sign": 9476,
  "ib": 2019,
  "IS": 551,
  "cms)": 8078,
  "46": 1092,
  "மிச": 9100,
  "▁A.": 5145,
  "ace": 2048,
  "entr": 5144,
  "▁सूचना": 6309,
  "▁ఒరిజ": 5227,
  "ர்": 440,
  "mpire": 1944,
  "प्रा": 6010,
  ".as": 3198,
  "\\_country": 7769,
  "ற்கை": 9671,
  "Edit": 2267,
  "न्तर": 8799,
  "gy": 3128,
  "▁तटीय": 9221,
  "upload.wikimedia.org/wikipedia/": 979,
  "_e/": 8760,
  "ஐக்கிய": 2762,
  "ప్": 3108,
  ".sv": 2003,
  "times.com/": 2334,
  "kingdom": 6248,
  "▁[இல": 8564,
  "mbol": 3930,
  "_ஆறு": 6036,
  "olicy": 2942,
  "_வி": 6170,
  "ொடர்": 741,
  "ెలు": 5618,
  "ంలో": 2239,
  "_University_Press": 3124,
  "os": 916,
  "educ": 6305,
  "/m": 6414,
  "IA": 3586,
  "किस्तान": 2387,
  "ro": 539,
  "कट": 5392,
  "▁F": 829,
  "िस": 1325,
  "वं": 1963,
  "`": 64,
  "▁ஆசியா": 7471,
  "ancy": 4930,
  "india-b": 8994,
  "](https://te.wikipedia.org/wiki/స": 4578,
  "370": 8360,
  "▁வில": 8948,
  "▁ము": 5181,
  "▁January": 2836,
  "18": 788,
  "ling": 5802,
  "Ex": 5854,
  "्यट": 3000,
  "తూర్పు": 7039,
  "యునై": 7720,
  "180": 9019,
  "गढ़": 3036,
  "_Pro": 7325,
  "ily": 8176,
  "▁use": 6957,
  "హిందూ": 4202,
  "०": 200,
  "uary": 1731,
  "ாலி": 4077,
  "▁Publishing\"),": 9209,
  "iation": 3365,
  "▁नहीं": 5645,
  "क्षर": 6330,
  "%": 6,
  "▁\"பி": 8500,
  "ting": 2887,
  "▁later,": 9806,
  "▁we": 1609,
  "▁2025.\n": 9864,
  "மி": 1428,
  "-18": 6634,
  "லி": 1154,
  "▁led": 7481,
  "ద్ధం": 8276,
  "▁cons": 2596,
  "फ्रीका": 5878,
  "ெய": 4996,
  "▁also": 2793,
  "களி": 7479,
  "चे": 3800,
  "▁ओ": 6298,
  "జ్య": 1172,
  "censusindia.gov.in/2011census/C-01/DDW00C-01%20MDDS.XLS": 9502,
  "2]](https://en.wikipedia.org/wiki/India#cite_note-FOOTNOTE": 5097,
  "sher": 1168,
  "](https://ta.wikipedia.org/wiki/சிறப்பு": 1938,
  "▁क्षेत्रीय": 6345,
  "Clémentin-Ojha2014": 8043,
  "ஆக": 5304,
  "-80904-7": 4386,
  "▁[अंग्रेज़ी](https://hi.wikipedia.org/wiki/अ": 6106,
  "▁முதன்மையான": 7296,
  "▁சிற": 6184,
  "_2007": 6171,
  "రాజ": 4597,
  "▁\"பு": 5990,
  "▁\"T": 1407,
  "▁प्राचीन": 6685,
  "▁Portal": 9996,
  "▁மிக": 3573,
  "ό": 134,
  "ి.": 1340,
  "kel": 8770,
  "▁L.": 7131,
  "హిమాలయ": 8295,
  "జ": 277,
  "ப்பான்": 8431,
  "business": 6429,
  "archive": 769,
  "omason": 9814,
  "▁और": 809,
  "Mar": 5856,
  "action=": 634,
  "rele": 9410,
  "तर": 3228,
  "▁[ग": 6630,
  "ung": 3096,
  "▁भाषा\")": 2581,
  "▁[978-1-4": 9734,
  "3%": 4049,
  "ర్మే": 9004,
  "ंध": 1530,
  "▁उन": 7145,
  "arnata": 4877,
  "ru": 3135,
  "oon": 3681,
  "ுள்ள": 1653,
  "▁வணிக": 4874,
  "ah": 1848,
  "▁தொழ": 3556,
  "ft": 3067,
  "దక్షిణాసియా": 7716,
  "▁செய்த": 8595,
  "ia/A": 8875,
  "ू": 190,
  "▁खाना\")": 4623,
  "onom": 6743,
  "▁art": 4824,
  "arg": 1744,
  "PK:": 4815,
  "ல்தான": 6270,
  "▁(2006).": 8727,
  "Spear1990": 5578,
  "▁\"Indian": 2115,
  "லைக்களஞ்சிய": 5765,
  "▁[భారతీయ": 5133,
  "தேசிய": 3631,
  "ूर्वी": 7198,
  "Pos": 7341,
  "▁October": 1803,
  "John": 6572,
  "PO": 6885,
  "oc": 1383,
  "▁[↑](https://hi.wikipedia.org/wiki/भारत#cite_ref-1": 4186,
  "▁South": 1660,
  "MetcalfMetcalf": 1242,
  "KulkeRothermund2004),": 6154,
  "i": 73,
  "సభ": 6296,
  "39": 1084,
  "ஓ": 222,
  "hibia/A": 9257,
  "▁க.": 8444,
  "Hindu": 9516,
  "MetcalfMetcalf2006),": 3118,
  "బ్": 3045,
  "\")\n": 680,
  "14": 865,
  "et": 467,
  "▁இருக்க": 9078,
  "▁नद": 5644,
  "?id=": 776,
  "etcalf": 705,
  "ையா": 7914,
  "▁minister": 5954,
  "▁భాషలు": 6359,
  "6),": 7593,
  "▁வி": 1201,
  "▁set": 8931,
  "GQ": 9907,
  "Environment_and_Forests": 8642,
  "ல்வ": 6196,
  "క": 271,
  "णी": 1050,
  "ुरा": 8815,
  "▁[భారత": 5132,
  "▁\"అ": 4152,
  "WEO.IN": 4791,
  "యన్": 5124,
  "▁ஆயுத": 6562,
  "ili": 2841,
  "▁2025.": 9011,
  "]](https://hi.wikipedia.org/wiki/भारत#cite_note-FOOTNOTEStein1998": 6355,
  "log": 1012,
  "-3": 670,
  "need": 6543,
  "स\")": 5881,
  "ढ": 164,
  "west": 4546,
  "ritannica": 2856,
  "ico": 8439,
  "C-01%20MDDS.XLS": 8353,
  "urton199": 5788,
  "=\"": 6420,
  "▁CITEREFSingh2009": 8273,
  "▁40": 6628,
  "▁பூர்வீ": 9339,
  "▁\"బ": 4299,
  "थम": 8794,
  "खन": 6995,
  "astern": 4156,
  "▁em": 2356,
  "ிலிருந்து": 3437,
  "्रोत": 1904,
  "8-0)": 3260,
  "oin": 5867,
  "த்தரப்": 8018,
  "India": 385,
  "p.": 1107,
  "▁\"ஜ": 8407,
  "▁[Stein": 2719,
  "ac": 487,
  "ుల": 8865,
  "aranth": 4534,
  "▁பதிப்பகம்](https://ta.wikipedia.org/wiki/கேம்பிறிட்ஜ்_பல்கலைக்கழகப்_பதிப்பகம்": 8637,
  "_వ": 6276,
  "ख": 152,
  "fault": 7278,
  "is": 407,
  "ras": 4463,
  "र्वत": 4777,
  "▁[n": 9458,
  "KulkeRothermund2004": 3191,
  "ofindia": 2456,
  "8+5": 9349,
  "లతో": 9959,
  "▁भाषाओं": 5440,
  "ar": 384,
  "333": 6662,
  ".IN": 4735,
  "ञ": 160,
  "▁third": 8499,
  "Pan": 8751,
  "no-": 2486,
  "hra": 6920,
  "](https://te.wikipedia.org/wiki/భారతదేశంలో": 5441,
  "230-34549-2": 8049,
  "▁[வி": 7427,
  "ingdom": 5011,
  "2001),": 4322,
  "Ch": 8055,
  "Collingham": 5098,
  "26.": 5261,
  "fghanistan": 5381,
  "urity": 6940,
  "▁\"ஒக்ஸ்போர்ட்": 4687,
  "ற்போ": 6017,
  "hi": 386,
  "▁especially": 6847,
  "countries/": 5768,
  "ஸ்ட்": 5893,
  "rial": 6389,
  "ऊ": 143,
  "▁வீத": 6069,
  ".org": 4336,
  "▁दिसंबर": 8322,
  "▁\"D": 1506,
  "JPG": 3446,
  "16": 806,
  "▁[![A": 7165,
  "calf": 700,
  "க்த": 3682,
  "<s": 8743,
  "ads": 5336,
  "rove": 8965,
  "co": 1529,
  "ला": 780,
  "Tarlo1996": 5579,
  "▁மக்கள்": 2971,
  "ig": 648,
  "sian": 3495,
  "▁Prospects": 8638,
  "వ](https://te.wikipedia.org/wiki/": 8132,
  "శ్రీ": 5905,
  "▁con": 1584,
  "సిన": 5189,
  "ution": 2627,
  "Environment": 6553,
  "▁पर": 1086,
  "rup": 7400,
  "▁(2006": 8694,
  "ாளுமன்ற": 3771,
  "▁युद्ध": 5229,
  "▁ही": 5632,
  "ள்ளது.": 2229,
  "8]](https://ta.wikipedia.org/wiki/இந்தியா#cite_note-FOOTNOTE": 7383,
  "▁[doi": 3016,
  "rowth": 4082,
  "டன": 5306,
  "இந்தியாவின்": 7077,
  "ुम्ब": 8816,
  "air": 2097,
  "MDD": 8092,
  "▁(2007": 8913,
  "ப்படுகிறது.": 4617,
  "ालय": 2718,
  "கிழக்கு": 7983,
  "களாக": 4853,
  "_न्या": 9269,
  "वा": 1570,
  "olden": 5447,
  "ॉल": 7015,
  "▁target:": 2673,
  "anglad": 3690,
  "](https://www": 8402,
  "▁\"எண்ணிம": 8888,
  "5_": 2859,
  "harkhand": 8502,
  "▁వి": 2418,
  "▁जलवायु": 9272,
  "▁[ड": 7055,
  "ணிக்க": 4258,
  "ced": 4407,
  "uture": 9453,
  "pur": 3610,
  "वेब": 4045,
  "ங்": 5305,
  "tle": 6924,
  "ूरो": 5216,
  "1)": 1351,
  ":[": 2335,
  "languages": 5302,
  "वास": 7011,
  "onit": 6744,
  "ంగా": 2319,
  "oh": 1664,
  "](https://ta.wikipedia.org/wiki/ஒக்ஸ்போர்ட்": 4692,
  "old": 2014,
  "फ़रवरी": 4448,
  "▁Day": 7673,
  "tecture": 4090,
  "▁தகவல்": 8930,
  "▁To": 8981,
  "1991": 7777,
  "काल": 3385,
  "▁आक": 8212,
  "▁\"म": 1392,
  "og": 2786,
  "र्नाटक": 5469,
  "▁इतिहास": 4958,
  "▁[19": 3092,
  "▁अनु": 6028,
  "ुसार": 2828,
  "’": 328,
  "chool": 3431,
  "ब्ल": 7004,
  "▁रा": 8872,
  "ांधी": 8313,
  "iotechnology": 8569,
  "▁आन्द": 9043,
  "10.23": 6023,
  "▁पुरालेखित": 2726,
  "rar": 3951,
  "▁[చ": 5131,
  "▁ను": 3729,
  "▁\"Government": 7789,
  "▁2.": 4059,
  "▁வேறுபட்ட": 9325,
  "-factbook": 9484,
  "\")**": 3204,
  "▁2013.": 8959,
  "श्रेणी": 1139,
  "▁சமூக": 5553,
  "21)": 5153,
  "▁eaten": 9658,
  "▁క్రీ": 4948,
  "▁कई": 5921,
  "रेल": 4913,
  "ñ": 107,
  "▁ఉన్నాయి.": 7271,
  "లం": 9958,
  "▁world's": 4626,
  "ैन": 2761,
  "hmedabad": 8329,
  "theast": 4067,
  "▁நடு": 5016,
  "](https://ta.wikipedia.org/wiki/ஜ": 8422,
  "▁[இந்தியாவின்": 9828,
  "_in_the": 6791,
  "भा": 783,
  "_L": 2044,
  "▁Buddhist": 7251,
  "emplate:": 2955,
  "షా": 8858,
  "ணை": 1822,
  "www": 687,
  "்த்த": 2558,
  "▁तक": 2385,
  "ool": 2616,
  "express": 8530,
  "▁முடி": 4858,
  "குடியரசு": 4633,
  "ம்பு": 5547,
  "ౌ": 314,
  "ठ": 162,
  "_प": 4739,
  "▁*A": 6936,
  "ore": 1202,
  "_பல்கலைக்கழ": 3438,
  "▁औ": 7635,
  "entral_Intelligence_Agency": 7299,
  "ல்கள": 9077,
  "▁दिया": 4435,
  "▁\"ఇ": 4423,
  "mitt": 5780,
  "▁प्रधानमंत्री": 8198,
  "-to-": 3253,
  "ப்பா": 4244,
  "ङ": 155,
  "ishes": 9021,
  "ss": 1264,
  "bn": 3587,
  "ta": 377,
  "ேம்பிறிட்ஜ்": 3636,
  "ना": 684,
  "_Island": 9785,
  "▁[బ": 4147,
  "),": 489,
  "▁மூலத்தில்": 6857,
  "_-": 3301,
  "न्द्र": 2663,
  "3-0)": 2288,
  "he": 528,
  "epal": 5540,
  "▁यु": 3330,
  "ove": 1465,
  "_Lanka": 8672,
  "ஃப": 6725,
  "▁குறிப்பி": 4625,
  "_ప్రాంత": 8326,
  "dom": 2733,
  "hp": 3609,
  "Library": 4328,
  "▁ஒரு": 1123,
  "▁(PDF),": 6344,
  "▁வகு": 7455,
  "▁occup": 8609,
  "इन": 8782,
  "▁சமவெளி": 9724,
  ".uk": 4350,
  "గాంధీ": 6035,
  "▁Pradesh": 3053,
  "▁लि": 3251,
  "ं": 136,
  "▁India\")\n": 3961,
  "Uttar": 4280,
  "▁v": 1766,
  "▁தேர்த": 7888,
  "red": 562,
  "arnatic": 7574,
  "▁[सा": 6300,
  "_W": 2516,
  "▁G": 725,
  "ीं": 2464,
  "/R": 7589,
  "Bas": 5852,
  "▁படை": 5004,
  "▁orig": 1024,
  "सी": 3802,
  "▁[Ar": 7358,
  "109": 5260,
  "▁pred": 9598,
  "fter": 2529,
  "ans": 1164,
  "▁உள்நாட்டு": 4252,
  "हित": 6610,
  "ந்தைய": 8894,
  "aha": 5299,
  "्त्र": 8175,
  "21.": 7102,
  "▁ago": 5778,
  "doi.org/": 2668,
  "-0-521": 5636,
  "▁स्व": 3464,
  "ave": 4987,
  "बी": 8801,
  "▁சுட்டி\"):[": 9375,
  "क": 151,
  "_(India)": 4589,
  "udd": 1436,
  "▁[978-0-19-9": 7537,
  "&pg=PT": 7138,
  "▁ஆற்றல்": 6066,
  "/M": 7377,
  "ொது": 4238,
  "धी": 3643,
  "_News": 6587,
  "[UNK]": 0,
  "tiger": 7765,
  "▁[f": 7426,
  "_in_": 798,
  "▁c": 534,
  "राबाद": 5420,
  "iew": 6388,
  "6-1": 8362,
  "▁शा": 8223,
  "ational": 824,
  "web.archive.org/web/": 854,
  "▁[भारत": 1698,
  "](https://en.wikipedia.org/wiki/Delhi": 9740,
  "ும்ப": 3427,
  "▁\"క": 2997,
  "ட": 228,
  "▁ap": 9637,
  "▁సభ": 7141,
  "म्बर": 3841,
  "auth": 3454,
  "ப்பில்": 6465,
  "ंद": 1675,
  "పద": 8852,
  "Provisional_Population_Totals": 4206,
  "బె": 3232,
  "▁உல": 8480,
  "▁Ar": 2790,
  "13)": 8668,
  "భారతీయ": 1616,
  "னா": 3807,
  "டப்பட்ட": 2962,
  "▁हैं।\n": 6039,
  "▁సి": 4955,
  "▁wi": 3009,
  "_summit": 4378,
  "ानव": 6313,
  "ம்ஸ்": 2891,
  "मार": 8113,
  "▁పేజీ": 5453,
  "▁subcontinent\")": 7538,
  "ory": 574,
  "Articles": 2563,
  "-6": 1067,
  "▁being": 9474,
  "tern": 1165,
  "ेक": 8818,
  "▁చరిత్ర\")": 3848,
  "fo": 5865,
  "tice": 4829,
  "▁2006](https://ta.wikipedia.org/wiki/இந்தியா#CITEREF": 3847,
  "▁have": 2460,
  "ultures": 7910,
  "फ्रां": 8800,
  "chol": 6583,
  "कि": 1498,
  "19)": 8161,
  "காராட்ட": 9819,
  "फाएं": 9342,
  "ripura": 6890,
  "ఆసియా": 4288,
  "▁[I": 3366,
  "/articles/": 8713,
  "▁ஆண்டின்": 8603,
  "तट": 5607,
  "_Bank": 9090,
  "वार": 5108,
  "లే": 7631,
  "ynast": 5220,
  "तंत्र": 2989,
  "्स": 2495,
  "pringer": 4809,
  "ading": 6116,
  "Rowland": 4051,
  "*,": 2127,
  "ions": 1585,
  "t-": 6279,
  "த்தான": 2059,
  "ods": 9704,
  "▁us": 2870,
  "र्दू": 4431,
  "▁\"Ministry": 9710,
  "127": 4221,
  "vil": 7403,
  ".aspx": 3746,
  "umm": 1224,
  "ரும்": 6202,
  "onstituent": 4648,
  "port": 1875,
  "▁மொழ": 5327,
  "19-8": 7882,
  "istory": 1303,
  "नगर": 4413,
  "▁जनगणना": 6038,
  "யும்,": 9548,
  "ண": 229,
  "▁சிற்ப": 7199,
  "https": 354,
  "conom": 944,
  "▁eng": 8401,
  "ootb": 5924,
  "िक्किम": 4981,
  "▁துற": 4863,
  "-li": 8730,
  "தே": 1424,
  "eration": 3266,
  "ighth": 7540,
  "daro": 9522,
  "श्": 1582,
  "521": 1715,
  "253": 4849,
  "▁East": 3515,
  "▁கல": 4575,
  "es/": 549,
  "पुरम": 7200,
  "▁Games\")": 9860,
  "CH": 7595,
  "ोर्ट": 7723,
  "▁[சி": 8403,
  "enn": 4339,
  "▁ఒరిజినల్": 5245,
  "▁पह": 4759,
  "▁29": 3616,
  "](https://ta.wikipedia.org/wiki/கா": 8898,
  "▁rate": 6052,
  "y-": 3537,
  "d/d": 6409,
  "ews": 5281,
  ".jpg)](https://hi.wikipedia.org/wiki/चित्र:": 3840,
  "▁மே": 1974,
  "its": 1330,
  "tar": 2635,
  "▁நிறுவன": 4089,
  "▁[पाकिस्तान](https://hi.wikipedia.org/wiki/पाकिस्तान": 7739,
  "ెనీ": 9964,
  "chedule": 9244,
  "amil_Nadu": 6834,
  "லங்கா": 8836,
  "எண்": 1145,
  "▁வென்று": 9746,
  "ultural": 4497,
  "▁हि": 2276,
  "EM": 8369,
  "िज़": 4139,
  "ेय": 9941,
  "ेश्वर": 3324,
  "all": 1118,
  "_Affairs": 5836,
  "](https://en.wikipedia.org/wiki/Re": 7193,
  "वली": 9933,
  "▁he": 3615,
  "RI": 1655,
  "-06": 4302,
  "▁groups": 6265,
  "urban": 6213,
  "lack": 5104,
  "▁\"கு": 5316,
  "ண்ண": 3374,
  "ंबर": 9918,
  "थल": 8795,
  "asia": 2789,
  "ominion": 9238,
  "न्न": 2578,
  "·**": 834,
  "▁மின்": 7444,
  "मु": 7007,
  "vatsyayan-lord": 4882,
  "க்குப்": 5175,
  "ைய": 538,
  "minist": 4803,
  "▁As": 6477,
  "s,": 1204,
  "rynus": 7932,
  "▁రాజవంశం": 7236,
  "olden_Temple": 9293,
  "city": 3853,
  "UCN": 3477,
  "](https://ta.wikipedia.org/wiki/ஆ": 4691,
  "▁Registrar": 6263,
  "ता": 845,
  "22.": 6788,
  "-23": 2601,
  "ரோப்பிய": 6252,
  "தல்": 2843,
  "▁\"இ": 2770,
  "ies": 1516,
  "▁centuries": 8562,
  "ங்கு": 2031,
  "ेंगल": 7664,
  "cid": 7874,
  "19-5": 4246,
  "▁जिन": 8188,
  "_से": 7681,
  "bo": 983,
  "▁religion": 7119,
  "▁वि": 1406,
  "▁2009](https://ta.wikipedia.org/wiki/இந்தியா#CITEREFSingh2009),": 9859,
  "నిమా": 8216,
  "ேரரசு": 2248,
  "▁\"Doi": 3702,
  "6/": 4738,
  "▁an": 1422,
  "▁democracy": 8990,
  "ustralia": 6691,
  "▁Linguistic": 5809,
  "▁'": 2994,
  "▁since": 4756,
  "ishers": 6793,
  "ल](https://hi.wikipedia.org/wiki/": 5397,
  "mentary": 4498,
  "pec": 4999,
  "▁Minorities": 6369,
  "▁पुरालेखित।,": 7222,
  "श्मीरी": 9192,
  "-219": 6124,
  "▁adopted": 9501,
  "रक्षा": 7239,
  "](https://en.wikipedia.org/wiki/National": 7192,
  "சிறப்பு": 821,
  "AS": 4798,
  "కు": 1432,
  "tem": 883,
  "▁\"प्र": 9977,
  "▁भा": 7637,
  "omen": 2806,
  "ௌத்த": 4465,
  "▁பதிவாளர்": 9576,
  "architecture": 6787,
  "results": 6942,
  "ति": 956,
  "_டாலர்": 6864,
  "▁\"வ": 8408,
  "_के_आधार_पर_भारत_के_राज्य": 3475,
  "C": 35,
  "](https://": 357,
  "](https://en.wikipedia.org/wiki/China": 9713,
  "ள்க": 3955,
  "ura": 3263,
  "arty": 5350,
  "लग": 5879,
  "ஜ": 226,
  "omas": 4022,
  "नेपाल": 4607,
  "65": 1999,
  "▁nation": 7355,
  "తాబ్": 7154,
  "களை": 3080,
  "ichael": 4207,
  "_30": 6595,
  "-24": 4211,
  "▁கொண்ட": 2699,
  "hol": 3480,
  "थी": 9929,
  "akar": 9031,
  "களும்": 4852,
  "aceu": 7201,
  "▁along": 6405,
  "▁rit": 7419,
  "-gl": 4616,
  "த்துறை": 2742,
  "क्षिण": 1785,
  ".g": 604,
  "tail": 2641,
  "_For": 4083,
  "ंडिया": 4778,
  "Pages": 2209,
  "लयालम": 9302,
  "caled\\_im": 5637,
  "ూరు": 9963,
  "▁regard": 9143,
  "▁வளர்": 7898,
  "_(भारत)": 7675,
  "33-7": 5190,
  "में": 3104,
  "c.": 3949,
  "ணிய": 2842,
  "▁பிரதி": 9103,
  "▁(b": 4755,
  "ेघ": 6614,
  "ாகக்": 9635,
  "கர்": 2688,
  "onstitu": 1511,
  "50th": 6895,
  "hutes": 9854,
  "redi": 8476,
  "330px-": 2364,
  "CAAJ": 9514,
  "2nd": 5499,
  "anges": 2692,
  "▁रूप": 3568,
  "▁\"Sanskrit": 9419,
  "ui": 3954,
  "](https://te.wikipedia.org/wiki/సి": 8946,
  "_भारतीय_": 9157,
  "ayan": 2695,
  "▁இவை": 3430,
  "▁(*": 3987,
  "▁whi": 1536,
  "▁Studies": 6862,
  "▁உற்பத்தி": 3905,
  "aut": 8059,
  "▁pl": 2414,
  "ப்_பொதுத்_தேர்தல்": 6563,
  "▁during": 3079,
  "▁2015": 3223,
  "beral": 7476,
  "industry": 5045,
  "-981": 9669,
  "▁form": 3355,
  "रकार": 2006,
  "-0-": 649,
  "ாள": 1170,
  "ago": 7094,
  "▁sur": 8932,
  "వ](https://te.wikipedia.org/wiki/List_of_": 9344,
  "▁சூ": 7469,
  "ோ": 254,
  "49.": 9475,
  "▁வரும்": 9795,
  "]](https://en.wikipedia.org/wiki/India#cite_note-": 935,
  "స్సా": 5968,
  "▁தொடர்ந்து": 6808,
  "ड़े": 4179,
  "న్నడ": 8252,
  "▁लोक": 6664,
  "▁करने": 5442,
  "-गंगा": 9897,
  "ட்டிகள்": 9128,
  "▁சம": 1433,
  "▁का": 823,
  "Kuiper": 7817,
  "ణ": 283,
  "மிழ": 9723,
  "டுதலை": 7919,
  "▁78": 7636,
  "ssam": 6586,
  "▁చూసిన": 5463,
  "%2C5": 7504,
  "▁தேர்தல்\")": 6868,
  "inister": 3791,
  "पाल": 2376,
  "▁விரிவ": 7566,
  "duct": 8671,
  "_value": 6873,
  "201": 418,
  "▁Asher,": 8045,
  "logical": 4529,
  "ivaper": 9093,
  "most_recent": 8598,
  "IN": 1870,
  "▁వ్యాస": 9318,
  "ాల": 603,
  "▁[ఢిల్లీ": 9976,
  "▁(2013),": 9429,
  "ர்\")": 1915,
  "ीय_": 1662,
  "▁2015.": 6939,
  "िन्": 4746,
  "countries_by": 4729,
  "_సామ్రాజ్యం": 6699,
  "per": 952,
  "form": 3057,
  "via": 7837,
  "oral": 4560,
  "▁sh": 5143,
  "அ$](https://ta.wikipedia.org/wiki/அமெரிக்க": 6726,
  "ID": 3007,
  "l": 76,
  "-45": 7322,
  "ా": 303,
  "osi": 6585,
  "'": 8,
  "hat": 5103,
  "▁2009](https://ta.wikipedia.org/wiki/இந்தியா#CITEREF": 6247,
  "Th": 6384,
  "▁Com": 8939,
  "ీస్": 9961,
  "▁1998](https://ta.wikipedia.org/wiki/இந்தியா#CITEREF": 6065,
  "br": 1090,
  ".html).": 5841,
  "▁புற": 6821,
  "ிலாளர்": 9664,
  ".nih": 6374,
  "▁[2](https://ta.wikipedia.org/wiki/இந்தியா#cite_ref-": 5195,
  "ப்படும்": 2978,
  "ublishers": 6812,
  "ॉंग्रेस": 7016,
  "cover": 6430,
  "▁[![The": 9088,
  "ury": 2062,
  "▁es": 2966,
  "first": 6094,
  "169": 7486,
  "ெருக்க": 9225,
  "▁Flood": 9668,
  "ethnologue.com/": 7801,
  "-ag": 9392,
  "1)\n": 7748,
  "](https://en.wikipedia.org/wiki/K": 2391,
  "▁ఉన్న": 5203,
  "▁பரணிடப்பட்டது.": 6840,
  "ற்றும": 6243,
  "వర్గం:": 2548,
  "ముంబ": 5187,
  "n": 78,
  "▁No": 9656,
  "doi": 1725,
  "yn": 2375,
  "_ஒ": 8758,
  "icon": 5007,
  "णा": 2988,
  "Brown": 8745,
  "▁status": 5287,
  "पर्यटन": 4964,
  "▁ப": 417,
  "e": 69,
  "2014": 1542,
  "ம்\"),": 5919,
  "்ட்": 1639,
  "ல்": 425,
  "75": 3933,
  "வர்கள்": 5714,
  "uisine": 7225,
  ".php?": 6858,
  "ில்லிய": 6205,
  "_files/": 8266,
  "▁\"National": 5769,
  "▁लेख:": 6377,
  "▁[स": 1800,
  "▁பரவல": 7535,
  "logue.bnf.fr/ark:/12148/cb": 9486,
  "राष्ट्रपति": 4442,
  "om": 406,
  "ashi": 7438,
  "ovt": 9472,
  "ट": 161,
  "](https://en.wikipedia.org/wiki/South": 3160,
  "చ్చే": 8279,
  "़": 185,
  "▁\"Routledge\"),": 8611,
  "గిన": 8846,
  "▁\"पाकिस्तान": 7064,
  "▁poll": 8170,
  "வையாக": 3880,
  "रो": 4008,
  "स](https://hi.wikipedia.org/wiki/": 5111,
  "3,": 6273,
  "aus": 4893,
  "ష": 300,
  "र्": 542,
  "ல": 238,
  "▁है": 706,
  "▁500": 8711,
  "ண்டும்": 8483,
  "▁second": 6046,
  "▁இலட்ச": 8581,
  "ப்பானது": 5926,
  "ravi": 6759,
  "▁commun": 6904,
  "arliamentary": 6854,
  "\\_im": 3398,
  "▁control": 7327,
  "ंब": 3035,
  "olitical_": 6149,
  "LO": 8057,
  "aries": 6452,
  "-29": 3851,
  "பார்": 7026,
  ":BookSources/": 610,
  "Roy": 7360,
  "J": 42,
  "ப்புற": 3208,
  "aite": 9097,
  "-d": 2349,
  "ంగ్రె": 7140,
  "▁[पु": 4149,
  "▁முற": 7130,
  "](https://hi.wikipedia.org/wiki/भारतीय": 4763,
  "▁हथियार": 8969,
  "திய": 1395,
  "▁milk": 8972,
  "ఛ": 276,
  "डु": 4283,
  "▁[தெ": 9120,
  "▁రాజ్యం": 2510,
  "news": 6948,
  "▁[ह": 7642,
  "](https://hi.wikipedia.org/wiki/पंजाब": 8262,
  "pear": 3486,
  "▁1": 508,
  "g)": 9451,
  "లో": 871,
  "▁లో": 3814,
  "22)": 4171,
  "శ్": 3311,
  "ல்வகை": 7292,
  "now": 2329,
  "▁हाला": 8968,
  "கால": 8821,
  "▁ద": 9967,
  "-i": 5816,
  "\"](https://": 795,
  "rid": 4212,
  "Empire": 4539,
  "▁Plateau": 6696,
  "వరణ": 6622,
  "▁கரு": 4366,
  "article": 2724,
  "▁இறு": 9608,
  "ने": 1171,
  "▁[O": 3687,
  "▁கணக்கெடுப்பு": 6859,
  "stitu": 4408,
  "415": 2852,
  "▁सभ्यता": 8166,
  "rim": 4698,
  "&red": 639,
  "ridget": 9245,
  "▁2018": 2195,
  "](https://hi.wikipedia.org/wiki/श्रेणी:Harv": 2921,
  "భి": 8853,
  "▁இருந்து](https://www.": 9794,
  "ిల్": 2339,
  "▁Valley": 5811,
  "rov": 1730,
  "▁வீ": 3428,
  "धर्म": 1902,
  "cto": 1796,
  "▁Singh": 7452,
  "▁Press](https://en.wikipedia.org/wiki/": 4712,
  "7-1": 2365,
  "▁सैन्य": 6703,
  "loy": 3893,
  "▁இதுவாகும்.": 8614,
  "ర్యా": 9957,
  "ுகலாயப்": 7559,
  "▁வரை": 6479,
  "▁dispu": 5373,
  "▁Be": 4586,
  "eng": 1510,
  "ोला": 7622,
  "eries": 5137,
  "▁Ac": 4215,
  "ed.": 1943,
  "మా": 1611,
  "-ve": 8357,
  "▁ஆக": 1434,
  "00C-01%20MDDS.XLS": 9465,
  "vidence": 7582,
  "களில்": 1997,
  "▁Ret": 1109,
  "▁अभि": 1889,
  "42": 4104,
  "do": 1011,
  "नी": 1816,
  "க": 223,
  "0.": 1607,
  "im": 803,
  "](https://en.wikipedia.org/wiki/Mugh": 7956,
  "र्थिक": 4197,
  "astal": 5931,
  "ర్య": 4293,
  "olle": 4706,
  "▁அரு": 5948,
  "ns": 6278,
  "ास": 962,
  "▁இந்தியப்": 3161,
  "▁music": 3761,
  "ece)": 8674,
  "ாட்ட": 583,
  "NGDP": 3607,
  "तृत": 6604,
  "2008": 1339,
  "_Summit": 5344,
  "गणना": 4621,
  "indiab": 7922,
  "27)": 6145,
  "](https://ta.wikipedia.org/wiki/இந்தியக்_": 8524,
  "சிசி": 6773,
  "_தொடர்": 1209,
  "▁படி": 3152,
  "](https://ta.wikipedia.org/wiki/வி": 6457,
  "In": 382,
  "_அடிப்படையில்": 5362,
  "▁J": 738,
  "▁கொண்டு": 2032,
  "श्चिम": 3255,
  ".php": 4117,
  "05": 1864,
  "▁features": 9870,
  "tinent": 1960,
  "ౌక": 9965,
  "▁[*F": 8203,
  "▁दे": 4591,
  "7,26": 7368,
  "ूनिवर्सिट": 6098,
  "▁இராணுவ": 5228,
  "vel": 5419,
  "tates_and_": 7361,
  "precated\\_parameters#": 4274,
  "ంట": 1849,
  "á": 99,
  "▁[Routledge": 5033,
  "mirates": 9171,
  "क्षा": 5992,
  "गान": 6996,
  "▁fam": 6481,
  "-7mar2011": 8344,
  ".jpg)](https://te.wikipedia.org/wiki/దస్త్రం:": 4182,
  "्य": 484,
  "▁H": 721,
  "▁2020.\n": 9432,
  "▁க": 452,
  "ద్దు": 9112,
  "▁2026": 5756,
  "anipur": 6899,
  "earson": 9051,
  "கள்\n": 7935,
  "au": 1357,
  "గణతంత్ర": 7269,
  "ంధ": 2497,
  "hind": 6716,
  "tis": 3222,
  "ட்ட": 443,
  "▁independ": 6392,
  "23": 585,
  "▁Li": 9035,
  "_46": 6596,
  "](https://en.wikipedia.org/wiki/C": 1208,
  "హిమాచల్": 9219,
  "tten": 7348,
  "▁पुरालेखित।": 2730,
  "▁article": 5129,
  "270": 6146,
  "RLTS.": 9239,
  "Clémentin-Ojha": 7812,
  "ंग्रे": 1479,
  "_I": 2884,
  "indhi": 9000,
  "xpress": 9537,
  "_ப": 804,
  "_Monetary": 8227,
  "▁even": 8493,
  "▁[SAARC": 9469,
  "क्षद्वीप": 9034,
  "▁\"India": 4568,
  "cond": 3527,
  "ral": 1590,
  "▁India](https://en.wikipedia.org/wiki/Government_of_India": 9867,
  "orities/": 9430,
  "ular": 4703,
  "arlo": 4569,
  "ing,": 7350,
  "▁[Dyson": 4713,
  "978": 494,
  "ategory:": 802,
  "Economic": 6914,
  "harat": 3787,
  "▁Francis": 5988,
  "र्ना": 5422,
  "DDW": 8299,
  "र्क": 9999,
  "](http://": 1307,
  "▁జాతీయ": 3730,
  "▁Ass": 3295,
  "Stein2010": 2363,
  "जन": 1879,
  "▁சீ": 9633,
  "lam": 3457,
  "AAJ": 3972,
  "▁direct": 7541,
  "பாய்": 3504,
  "▁[கேம்பிறிட்ஜ்": 8547,
  "equality": 8650,
  "cri": 3219,
  "▁them": 5325,
  "జాత": 2297,
  "▁k": 2704,
  "\\*": 7598,
  "వర్": 2083,
  "▁[China](https://en.wikipedia.org/wiki/China": 9891,
  "loped": 7772,
  "uropean": 2782,
  "स्थ": 5997,
  "ched": 4162,
  "KulkeRothermund200": 5450,
  "ிரே": 6491,
  ":BookSources/978": 614,
  "ok": 2986,
  "oor": 3304,
  "905": 8669,
  "Sfn": 2602,
  "_मेला": 3403,
  "ritish": 1625,
  "ள்ளது.[[": 3826,
  "▁భాష\")": 4974,
  "ிற": 1004,
  "_న": 8095,
  "fghan": 5055,
  "28": 654,
  "ritories": 2932,
  "▁pp.": 1169,
  "▁[*M": 7324,
  "duction": 3869,
  "do-": 2067,
  "ैद": 2379,
  "▁[2](https://en.wikipedia.org/wiki/India#cite_ref-": 4260,
  "id=": 763,
  "/India": 3710,
  "IF": 7815,
  "షన్": 5616,
  "▁can": 7774,
  "▁प्रदेश\")": 3744,
  "▁report": 6504,
  "▁निर्माण": 7262,
  "▁(identifier)\"):[10.10": 6064,
  "▁அலுவல்": 7909,
  "▁": 340,
  "▁திரு": 5333,
  "ர்த": 5508,
  "గ": 273,
  "_J": 3608,
  "man": 1470,
  "▁அதன்": 4845,
  "▁தேர்தல்": 5741,
  "](https://hi.wikipedia.org/wiki/भारतीय_": 2415,
  "▁उत्पाद": 6001,
  "▁**[": 2904,
  "▁2023": 2428,
  "▁\"South": 2929,
  "క్‌సభ": 8309,
  "g/": 358,
  "రణ": 3813,
  "73": 2956,
  "71": 3781,
  "▁prime": 6078,
  "▁பயன்ப": 5052,
  "▁மலை": 2924,
  "▁तथा": 1907,
  "पुर": 2016,
  "कालीन": 8287,
  "ves": 2803,
  "ం](https://te.wikipedia.org/wiki/": 2193,
  "File:": 2096,
  "è": 103,
  "▁வடி": 3965,
  ".jpe": 8067,
  "▁नेतृत्व": 8331,
  "రుణాచల్": 9374,
  "▁नाम": 3546,
  "well": 7098,
  "eds.": 2951,
  "lled": 7142,
  "2]](https://ta.wikipedia.org/wiki/இந்தியா#cite_note-FOOTNOTE": 4458,
  "ional": 6502,
  "ingh": 1157,
  "றாக": 8834,
  "ணிப்புரி": 9336,
  "-g": 1580,
  "▁ఇది": 9149,
  "▁सूची": 2295,
  "ப்புரு": 2693,
  "astronom": 9039,
  "्त": 560,
  "మన్": 7041,
  "ద": 286,
  "/st": 8734,
  "வற்றின்": 9216,
  "పూ": 1453,
  "62": 1841,
  "5]](https://en.wikipedia.org/wiki/India#cite_note-": 9509,
  "நாடு": 9546,
  "லின்": 6438,
  "▁ஒன்றாக": 5375,
  "▁துணைக்கண்ட": 9263,
  "9]](https://ta.wikipedia.org/wiki/இந்தியா#cite_note-FOOTNOTE": 9512,
  "ations/": 7662,
  "ligi": 3329,
  "▁मार्च": 4757,
  "ऊर्जा": 9921,
  "▁2019": 2396,
  "](https://en.wikipedia.org/wiki/V": 4363,
  "▁முன்ன": 3835,
  "▁ప": 683,
  "iss": 1312,
  "ाप": 5114,
  "▁पुरालेखित।.": 3472,
  "li": 515,
  "वादी": 7240,
  "trol": 5368,
  "नाव": 4310,
  "▁मूल": 3822,
  "document": 5789,
  "जय": 4003,
  "534": 5799,
  "itzel": 5595,
  "rime": 7447,
  "▁மாநில": 3273,
  "दान": 8797,
  "web.archive.org/web/200": 9670,
  "స్త్ర": 2384,
  "imach": 6397,
  "▁Increase": 6898,
  "▁ति": 1680,
  "▁ha": 2058,
  "](https://hi.wikipedia.org/wiki/स": 2010,
  "ம்பி": 4257,
  "119–120": 8016,
  "ியான்": 7431,
  "▁తేదీ": 5241,
  "▁கே": 6762,
  "నై": 4925,
  "्वीप": 2544,
  "les/": 4511,
  "/news/": 5291,
  "फल": 5877,
  "▁பெரும்ப": 3768,
  "▁W.": 6520,
  "Curry": 8746,
  "htm": 1346,
  "_for_Economic_Co-operation_and_Development": 7585,
  "](https://hi.wikipedia.org/wiki/ISBN_(identifier)": 3236,
  "హా": 3726,
  "దేశ": 668,
  "▁\"अ": 1679,
  "-26": 2254,
  "बार": 8803,
  "▁\"विशेष:पुस्तक": 3234,
  "emplate_": 6120,
  "C).": 4404,
  "unknown": 8697,
  "ష్": 3174,
  "ானவை": 3968,
  "▁அணு": 5950,
  "▁సామ్రాజ్యం\")": 7218,
  "नागालैंड": 8292,
  "డి": 2466,
  "raven": 2262,
  "*](https://www.": 6224,
  "▁India*](https://books.google.com/books?id=": 3417,
  "▁सैन": 5935,
  "▁गई": 7686,
  "TR": 3199,
  "_Air_Force": 9327,
  "^": 62,
  "a)": 4093,
  "caste": 9521,
  "CollinghamCollingham2007": 9281,
  "266": 5067,
  "ंग्रेजी": 7173,
  "▁பொரு": 1976,
  "Ali": 6969,
  "_in": 6131,
  "▁बाद": 3114,
  "ரம்": 5121,
  "▁[A": 1014,
  "ిన": 1401,
  "▁low": 7421,
  "Report": 4903,
  "IT": 580,
  "▁[978-0-521": 3991,
  "7).": 5819,
  "லை": 637,
  "▁ने": 1600,
  "லைக்களஞ்சியம்": 5797,
  "commons/": 988,
  "▁ர": 3150,
  "▁கல்வி": 7569,
  "ம்பட்டியல்": 9059,
  "த்தக": 8442,
  "ia": 345,
  "▁நூற்றாண்டில்": 9856,
  "ல்ல": 1738,
  "truc": 6062,
  "रत": 7010,
  "▁நூ": 2848,
  "-0-19-882905-8": 8182,
  "▁6.": 5719,
  "_by": 2347,
  "fric": 3479,
  "67733-7": 6557,
  "अ": 138,
  "▁विस्त": 7168,
  "रवरी": 4138,
  "people": 5274,
  "▁மொழிய": 9844,
  "ாலர்\")": 6803,
  "hindu": 3723,
  "▁19": 771,
  "low": 2637,
  "▁Raj": 4306,
  "ा_": 2102,
  "विशेष:पुस्तक": 1969,
  "onal": 8689,
  "▁out": 4805,
  "artzberg": 2263,
  "उ": 142,
  "ify": 9799,
  "ுள்ளது.": 5032,
  "▁[ஐக்கிய": 8880,
  "▁[த": 1592,
  "▁జనాభా": 7715,
  "ర్ణా": 9003,
  "6–": 3258,
  "▁en": 3202,
  "EB": 7384,
  "▁[University": 7857,
  "▁च": 1925,
  "ands": 8912,
  "Official": 9448,
  "५०": 9943,
  "▁यूनिवर्सिटी": 7745,
  "ticles": 2501,
  "_చరిత్ర": 3341,
  "lob": 2479,
  "4,": 5270,
  "lima": 9609,
  "▁so": 8455,
  "▁मु": 4160,
  "ீவுகள்": 4726,
  "ற்க": 878,
  "glia": 4509,
  "uccess": 8217,
  "_River": 7509,
  "_in_New_Delhi": 6792,
  "/https://www.": 1481,
  "comm": 867,
  "இந்திய": 401,
  "mp": 4001,
  "चीन": 2723,
  "ैल": 4747,
  "\"),[[": 6483,
  "வட": 4237,
  "गुप्त": 8256,
  "▁Pro": 3139,
  "க்கம்": 4473,
  "119": 4103,
  "ैक": 3803,
  "_भारत": 2187,
  "గర": 6290,
  "](https://hi.wikipedia.org/wiki/दक्षिण": 7645,
  "▁மற்றும்": 848,
  "▁விளையாட்டுப்": 8594,
  "▁Retrieved": 1116,
  "ara": 7315,
  "களால்": 6785,
  "िर": 1486,
  "▁[\"": 760,
  "disha": 6855,
  "श्चिमी": 5667,
  "DwAAQBAJ&pg=PA": 1942,
  "51–": 7185,
  "ிருஷ்": 9702,
  "▁\"Official": 6958,
  "▁<https://www.": 9224,
  "ji": 6717,
  "▁சுல்தான": 7978,
  "▁(2nd": 6757,
  "ீனா": 4269,
  "▁P": 517,
  "ेला": 1451,
  "▁చెయ్యబడింది.": 7735,
  "▁[3](https://ta.wikipedia.org/wiki/இந்தியா#cite_ref-FOOTNOTE": 8574,
  "▁country": 5494,
  "ద్య": 8126,
  "▁[\"In": 8497,
  "नाथ": 3924,
  "▁5.": 9407,
  "ంతి": 9944,
  "fi": 619,
  "దార": 6293,
  "AQBAJ": 9513,
  "ీక": 8863,
  "w": 87,
  "tre": 3361,
  "erman": 5916,
  "577": 5294,
  "டுத்த": 3625,
  "Rediff": 8754,
  "▁கொண்டிருந்த": 5781,
  "▁\"अंग्रेज़ी": 7186,
  "▁2023.": 8568,
  "▁south": 4576,
  "ṇ": 317,
  "▁கடற்க": 6057,
  "iw": 8378,
  "த்தட்ட": 9587,
  "ar,": 5804,
  "▁न": 794,
  "α": 127,
  "19": 429,
  "▁ఇతర": 6676,
  "ity": 688,
  "censusindia.gov.in/2011census/C": 8302,
  "ran": 1962,
  "enter": 9561,
  "लेट": 6009,
  "-A": 6157,
  "/india": 3639,
  "▁(20": 4427,
  "▁बीच": 5982,
  "▁उ": 1089,
  "poration": 7148,
  "గఢ్": 8847,
  ",[[": 3778,
  "▁சோ": 5746,
  "▁201": 521,
  "▁30": 3095,
  "ीपी": 5446,
  "200": 433,
  "▁காற்று": 9133,
  "id=1": 8922,
  "து": 441,
  "▁16": 2401,
  "र्जा": 4762,
  "▁स्": 2090,
  "](https://ta.wikipedia.org/wiki/S": 6456,
  "▁[archived](https://web.archive.org/web/201": 7580,
  "PK:14": 7265,
  "00": 552,
  "▁Fe": 2947,
  "26": 625,
  "▁\"Central": 9697,
  "जरा": 2759,
  "index": 5167,
  "ie": 5075,
  "_Development": 4452,
  "जयपुर": 9240,
  "ge": 793,
  "तम": 8107,
  "▁अभ": 7672,
  ".jpg/": 1144,
  "\n": 1,
  "ண்வெளி": 7920,
  "म्म": 4036,
  "co.uk": 6901,
  "ౌర్య": 8869,
  "भ": 174,
  "ull": 5084,
  "ారు": 3240,
  "▁John": 5282,
  "▁Oxford": 3212,
  "vention": 8533,
  "యా": 1309,
  "▁\"In": 1927,
  "न\")": 2437,
  "▁Chinese": 5813,
  "ప": 289,
  "stre": 8700,
  "▁March": 3004,
  "राष्ट्र": 1334,
  "ad": 511,
  "▁Comp": 6766,
  "ాల్": 2927,
  "கிறி": 7517,
  "▁who": 4253,
  "▁குறிப்பாக": 9183,
  "▁மக்கள்தொகை": 8014,
  "▁பெரும்பாலான": 6266,
  "వంశ": 4043,
  "ம்\")": 1185,
  "▁கொ": 1198,
  "ेशन": 6323,
  "और": 752,
  "▁अन्य": 3929,
  "fication": 5812,
  "▁वर्षा": 9154,
  "த்தில்": 1519,
  "rof": 5255,
  "asscom": 9066,
  "yana": 5591,
  "logo": 3591,
  "multiple\\_image\\_with\\_auto\\_scaled\\_images\n": 5691,
  "எண்ணிம": 5185,
  "याधी": 8987,
  "▁सिनेमा\"),": 8311,
  "rel": 5415,
  "ட்": 877,
  "▁(P": 1329,
  "ices": 7767,
  "▁அல்லது": 2897,
  "लंका": 5398,
  "மீர்": 6845,
  "▁2018](https://en.wikipedia.org/wiki/India#CITEREF": 5038,
  "3)[[": 9900,
  "udget": 6125,
  "ிரதேசம்": 8478,
  "▁\"University": 7860,
  "-prov": 6234,
  "ett": 4673,
  ".html)": 4786,
  "red/lin": 5955,
  "iodiversity": 5777,
  "▁మధ్య": 5433,
  "ரசின்": 4728,
  "hand": 1821,
  "worldcat": 5264,
  "▁द्वार": 4311,
  "archive.org/": 810,
  "www.": 702,
  "▁\"Ge": 9124,
  "▁आ": 936,
  "முறை": 6540,
  "](https://en.wikipedia.org/wiki/S": 1113,
  "ుల్": 8866,
  "కా": 2408,
  ">": 31,
  "1050": 8984,
  "tab": 3235,
  "urch": 6317,
  "N": 46,
  "ravidian": 9321,
  "_தர": 1237,
  "கிறது.": 2623,
  "riti": 1491,
  "த்தை": 2807,
  "istan": 3526,
  "धुनिक": 7728,
  "ளை": 5310,
  "à": 98,
  "▁स्वतंत्रता": 7241,
  "५": 205,
  "itchison": 6105,
  "ంబ": 2213,
  "at": 548,
  "▁स": 444,
  "ungabhadra": 9895,
  "▁ri": 2526,
  "जपा": 8790,
  "▁तिथि:": 1854,
  "hutan": 8041,
  "ఇ": 261,
  "▁கூட": 7558,
  "ிருந்த": 2698,
  "ాలు\n": 5430,
  "59": 1643,
  "▁என்ப": 4371,
  "ங்கள": 1034,
  "धिकारिक": 5233,
  "ண்ப": 3375,
  "▁\"History": 5367,
  "ंट": 4907,
  "ligious": 3772,
  "தேச": 2265,
  "tion": 410,
  "sha": 4232,
  "](https://te.wikipedia.org/wiki/భారత_": 6312,
  "_g": 4521,
  "imf": 4098,
  "20": 375,
  "▁50": 4333,
  "unjabi": 8582,
  "▁स्थान": 6681,
  "ీర్": 8135,
  "ot": 6923,
  "tence": 9132,
  "లి": 2381,
  "दल": 8796,
  "ondon": 4867,
  "▁కొ": 6650,
  "le": 438,
  "హార": 4420,
  "ors": 1023,
  "யில": 8830,
  "ang": 530,
  "sci": 8385,
  "▁முதல்": 3764,
  "ama": 3963,
  "▁[श": 8877,
  "▁\"Economic": 8536,
  "న": 288,
  "1-0)": 2324,
  "volution": 6077,
  "peration": 2473,
  "▁Nuclear": 7118,
  "▁between": 2902,
  "ட்டு": 1792,
  "▁समाज": 7655,
  "_ம": 1289,
  "ான்": 1220,
  "pts": 9530,
  "537": 9446,
  "ungabhad": 9791,
  "_साम्राज्य": 7743,
  "](https://hi.wikipedia.org/wiki/भारत_के": 7103,
  "மைய": 1836,
  "▁தீவு": 8452,
  "पान": 5609,
  "▁|": 402,
  "–24": 5513,
  "▁सक": 6633,
  "్": 315,
  "▁Law": 6518,
  "Organisation": 7388,
  "5-4": 8085,
  "10": 598,
  "▁[978-0-19-5": 9169,
  "ema": 5970,
  "ే": 310,
  "-h": 3995,
  "ंत": 6992,
  "\"](https://web.archive.org/web/20160": 4532,
  "india/": 2049,
  "▁\"எ": 8406,
  "్రె": 5418,
  "edieval": 5493,
  "▁बन": 5641,
  "et/": 7887,
  "▁\"இல": 9181,
  "eral": 1399,
  "நிலை": 7022,
  "▁leg": 9159,
  "250px-": 1572,
  "▁[↑](https://hi.wikipedia.org/wiki/भारत#cite_ref-FOOTNOTE": 3567,
  "yayan": 4678,
  "்டு": 4693,
  ".wikipedia.org/wiki/": 366,
  "▁Data": 4307,
  "▁நபர்": 8473,
  "geoh": 8200,
  "▁[इ": 4146,
  "ताल": 8793,
  "శ్చి": 5468,
  "▁[National": 6401,
  "▁right": 6684,
  "▁Science": 4897,
  "arliament": 5678,
  "](https://hi.wikipedia.org/wiki/भारत_का_": 5224,
  ".jpg)](File:": 2507,
  "aint": 8523,
  "▁Century": 8065,
  "ండ్": 4605,
  "▁Routledge": 6488,
  "2-10": 8681,
  "ண்டு": 1010,
  "4.\n": 8361,
  "▁[अ": 1645,
  "▁[L": 2076,
  "ంద్ర": 2778,
  "▁காடு": 6763,
  "▁ना": 8874,
  "_மொழி": 3630,
  "▁[K": 2143,
  "ண்ட்": 4168,
  "முக": 9758,
  "विशेष:": 1706,
  "▁உ": 592,
  "ந்தமான்": 4468,
  "▁zone": 9496,
  "▁summits\")": 7303,
  "్చ": 2273,
  "tical": 2128,
  "▁Rothermund": 4810,
  "▁<https://": 3678,
  "-India-": 6960,
  "qui": 9478,
  "க்கி": 1553,
  "ப்பின்": 5006,
  "மேற்கு": 8393,
  "▁tr": 9694,
  "_Indian_general_election": 6880,
  "▁குகை": 8513,
  "ingapore": 7583,
  "▁./பகுப்பு:Pages\\_containing\\_cite\\_templates\\_with\\_deprecated\\_parameters#%20இந்தியா\n": 4278,
  "count": 1541,
  "▁போட்டி": 4376,
  "▁நகர்": 6776,
  "alit": 8893,
  "verage": 8174,
  "து.\n": 7442,
  "మూస:": 4455,
  "vironmental": 6151,
  "2-1)": 8359,
  "1-1)": 9899,
  "ains": 6231,
  "_Totals": 4181,
  "ிழக்கா": 8570,
  "akers": 9674,
  "_சுட்டி": 9283,
  "▁దేశంలో": 8255,
  "▁பூ": 5732,
  "देश": 1066,
  "on-Aligned": 6590,
  "டும்ப": 5307,
  "omb": 1952,
  "▁Talbot": 2854,
  "▁राष्ट्रीय": 3313,
  "rchitecture": 7153,
  "▁se": 2155,
  "ిత": 2613,
  "î": 106,
  "_श": 7602,
  "pan": 5505,
  "AAMAAJ": 5346,
  "ंडोन": 7161,
  "▁6": 2477,
  "▁2014.\n": 3252,
  "కాశ్మీ": 8261,
  "eneration": 6742,
  "](https://en.wikipedia.org/wiki/O": 4571,
  "_की_स": 2108,
  "▁kingdom": 7853,
  "ouse": 4695,
  "न्दिर": 5993,
  "टना": 7613,
  "▁pro": 2134,
  "](https://doi.org/10.10": 5458,
  "uring": 2145,
  "_संघ": 5225,
  "-level": 9434,
  "▁(in": 6195,
  "out": 1370,
  "ashtra": 7741,
  "L.": 6975,
  "a.": 3348,
  "హ": 302,
  "▁Wile": 9040,
  "/f": 2492,
  "type": 6670,
  "▁இந்தியா](https://ta.wikipedia.org/wiki/தி_டைம்ஸ்_ஆஃப்": 9366,
  "▁ला": 8141,
  "217": 5066,
  "MetcalfMetcalf2012": 5286,
  "▁India](https://en.wikipedia.org/wiki/G": 7084,
  "्रे": 843,
  "दू": 3912,
  "ternal": 5354,
  "▁के": 544,
  "▁India\"](https://web.archive.org/web/201": 5737,
  "▁ஆகிய": 2231,
  "சினஸ்": 7460,
  "▁2002": 6121,
  "/artic": 1687,
  "orne": 7053,
  "EditPage/": 2278,
  "भाष": 9018,
  "ictionary": 4656,
  "ç": 102,
  "▁2001](https://ta.wikipedia.org/wiki/இந்தியா#CITEREF": 8010,
  "▁Report": 7319,
  "US": 6711,
  "▁contin": 7788,
  "▁ஜ": 4239,
  "गू": 6603,
  "415-3": 7543,
  "/articleshow/5": 8001,
  "▁modern": 4248,
  "500": 2633,
  "arn": 4154,
  "%ஆக": 7375,
  "ाने": 5421,
  "-53": 5024,
  "Copland": 8747,
  "▁ச": 575,
  "economictimes.indiatimes.com/": 6693,
  "स्": 1009,
  "ాళు": 8134,
  "ஷ": 242,
  "▁For": 3143,
  "▁play": 5371,
  "ार्च": 4573,
  "Gua": 4812,
  "▁देख": 8307,
  "▁राज्यक्षेत्र": 7167,
  "](https://hi.wikipedia.org/wiki/भारत#cite_ref-FOOTNOTE": 4939,
  "भ्यता": 6282,
  "fferent": 6371,
  "File": 2004,
  "ultanate": 6087,
  "baki": 8374,
  "OTNOT": 475,
  "ం\")": 2652,
  "▁भाषा": 1397,
  "ார்": 1305,
  "ided": 8167,
  "oman": 8900,
  "▁స్థ": 4015,
  "▁நாடு": 2286,
  "श्मी": 3002,
  "▁From": 4857,
  ")[[13": 8707,
  "ள்கை": 5051,
  "ेंद्र": 2619,
  "प्र": 1188,
  "ियां": 5640,
  "▁\"पाकिस्तान\")": 8330,
  "▁northern": 3866,
  "ால்": 1446,
  "களுக்கு": 4708,
  "▁कि": 3651,
  "Robb": 2936,
  "worldbank": 3528,
  "inema": 7065,
  "మ": 293,
  "▁நேர": 5952,
  "lear": 2593,
  "une": 1828,
  "ங்களும்": 5998,
  "b": 66,
  "ளைய": 2430,
  "வடகிழக்கு": 9246,
  "ையாக": 2561,
  "_of_C": 3602,
  "UK": 6425,
  "6]](https://ta.wikipedia.org/wiki/இந்தியா#cite_note-": 8363,
  "our": 519,
  "cha": 8955,
  "▁Programme": 8281,
  "58": 1876,
  "▁Man": 5158,
  "lim": 2312,
  "కై": 5899,
  "்தொகை": 4828,
  "ண்மை": 5533,
  "ृति": 4553,
  "ண்.": 4370,
  "▁2015.\n": 9793,
  "ujarat": 3980,
  "very": 5530,
  "▁bre": 7101,
  "7-0": 4327,
  "▁అయ": 8236,
  "oreign": 4859,
  "स": 183,
  "ohn": 3120,
  "▁Di": 4115,
  "off": 3551,
  "▁[ओ": 5411,
  "து.": 827,
  "▁करोड़": 6024,
  "_के": 1112,
  "▁జాబితా": 7050,
  "#ci": 403,
  "विशेष:EditPage/": 5662,
  "న్‌": 5978,
  "▁பொதுத்": 5043,
  "](https://en.wikipedia.org/wiki/Economy": 4494,
  "media": 932,
  "b/b": 7371,
  "▁\"पंजाब": 6043,
  "▁[↑](https://hi.wikipedia.org/wiki/भारत": 1256,
  "▁2016": 2847,
  "arayan": 6748,
  "టి": 2214,
  "ொகை": 4358,
  "exis": 7700,
  "த்_த": 2535,
  "जम्मू": 6280,
  "ற்பட்ட": 5027,
  "/india/": 6570,
  "▁di": 2823,
  "▁ओर": 7294,
  "▁கட்சி": 5331,
  "▁संबंध": 5434,
  "▁dependencies": 9494,
  "F": 38,
  "▁bu": 8467,
  "▁सुरक्षा": 9255,
  "▁क्षेत्र\")": 4613,
  "▁\"இந்து": 8887,
  "Blurton199": 5791,
  "]](https://en.wikipedia.org/wiki/India#cite_note-vatsyayan-lord": 8507,
  "संबर": 8230,
  "దాయ": 5901,
  "▁என்று": 3376,
  "-re": 2481,
  "](https://te.wikipedia.org/wiki/ఇ": 4577,
  "los": 5528,
  "స్లా": 8184,
  "_in_India?action=edit&redlink=1": 5090,
  "re": 380,
  "வர்\")": 8838,
  "▁सेना": 3830,
  "▁அள": 9612,
  "▁\"En": 7968,
  "▁అధికార": 6368,
  "raj": 3818,
  "▁February": 3066,
  ".jpg/250px-": 1761,
  "asing": 6579,
  "▁[Archived](https://web.archive.org/web/20190": 9193,
  "1)[[": 7807,
  "திவாளர்": 6269,
  "ெ": 250,
  "\\_articles": 6891,
  "▁மாற்ற": 7188,
  "](https://en.wikipedia.org/wiki/I": 5002,
  "Press": 8752,
  "▁\"O": 2950,
  "క్‌": 4950,
  "▁நடனம்": 8563,
  "றவு": 4357,
  "pril": 1809,
  "](https://hi.wikipedia.org/wiki/ओ": 5626,
  "డా": 3809,
  "▁[↑](https://ta.wikipedia.org/wiki/இந்தியா#cite_ref-FOOTNOTEMetcalfMetcalf2006": 6526,
  "_summits": 7159,
  "▁David": 6119,
  "கப்_ப": 3482,
  "विश्व": 2042,
  "PPP": 7531,
  "▁இக்கால": 7099,
  "47": 1022,
  "](https://ta": 393,
  "2–": 2858,
  "ember": 3140,
  "க்_கா": 8591,
  "aph": 6806,
  "కత": 5898,
  "New_Delhi": 6408,
  "िल्ल": 3116,
  "iger": 6494,
  "▁[हिन्दी](https://hi.wikipedia.org/wiki/हिन्दी": 6701,
  "CS1": 3766,
  "ளவு": 3308,
  "▁range": 6534,
  "ck": 2528,
  "▁Empire\")": 6056,
  "▁கண்ட": 6201,
  "back": 4524,
  "తం": 1377,
  "▁हैं।": 1928,
  "histor": 5034,
  "2025": 8690,
  "zer": 9404,
  "sland": 1973,
  "▁கோயில": 9763,
  "_தேசிய": 9351,
  "నాల": 7630,
  "ం": 257,
  "pace": 7831,
  "ற": 237,
  "f/f": 6575,
  "dd": 9400,
  "▁far": 6480,
  "▁2018](https://ta.wikipedia.org/wiki/இந்தியா#CITEREFFisher2018),": 9848,
  "ட்டிடக்கலை": 7520,
  "ala": 8892,
  "_18": 4125,
  "த்_திரைப்படத்துறை": 6844,
  "press": 3227,
  "av": 933,
  "4-010": 9230,
  "406]](https://en.wikipedia.org/wiki/India#cite_note-vatsyayan-lord-4": 8641,
  "▁ప్రదేశ్\")": 9250,
  "aves": 7135,
  "దక్ష": 2410,
  "थि": 1798,
  "ंग्रेज़ी": 3471,
  "▁தொழில்": 4389,
  "mall": 6433,
  "te_": 400,
  "▁classical": 4628,
  "hanghai": 9823,
  "▁हुए": 5449,
  "ashmiri": 6832,
  "Pakistan": 7752,
  "துரு": 8437,
  "ऍथनोलॉग": 9386,
  "64": 3748,
  "▁York": 4622,
  "em": 675,
  "▁contrib": 8607,
  "](https://te.wikipedia.org/wiki/ద": 3051,
  "▁&": 1036,
  "्रार": 8915,
  "सद": 3725,
  "uborne": 7934,
  "பி": 2963,
  "▁ముఖ్య": 9285,
  "ys": 1093,
  "▁([₹": 6811,
  "வில்": 937,
  "-107-02649": 8039,
  "diversity": 5347,
  "Page/": 2268,
  "பு": 1949,
  "-85": 5019,
  "parame": 3031,
  "ारो": 8152,
  "▁உயிரின": 9838,
  "pa": 3984,
  "&pg=PA": 999,
  "ob": 3200,
  "yria": 8388,
  "▁sim": 6934,
  "unjab": 3078,
  "▁से": 796,
  "శ్చిమ": 6099,
  "▁14.": 6937,
  "ులు](https://te.wikipedia.org/wiki/": 4187,
  "న్ని": 4033,
  "ild": 4432,
  "7-9": 9511,
  ".j": 626,
  "ंक": 3641,
  "யோன்": 6560,
  "▁Civil": 6767,
  "▁य": 1405,
  "▁உறவு": 7916,
  "களானவை": 5976,
  "▁reg": 1898,
  "யு": 4356,
  "▁long": 4487,
  "](https://doi.org/10.": 9215,
  "_उ": 5861,
  "ఆఫ్": 5897,
  "्वर": 2930,
  "ளி": 1774,
  "▁[Metcalf": 2557,
  "▁2009](https://hi.wikipedia.org/wiki/भारत#CITEREFSingh2009),": 8348,
  "▁—": 7851,
  "ென்னிந்தியா": 9832,
  "▁tea": 9757,
  "ughal": 4201,
  "ஊ": 217,
  "▁14": 3419,
  "கள்": 768,
  "▁ne": 9029,
  "ऑ": 148,
  "bb": 1921,
  "onstitution_of_India": 8714,
  "avalli": 9042,
  "dy": 4906,
  "राठ": 5149,
  "ோக்": 8840,
  "arkar": 8534,
  "▁./பகுப்பு:Pages\\_": 2700,
  "▁[द": 4018,
  "ū": 115,
  "▁நூற்றாண்ட": 6073,
  "▁ஐந்தா": 9817,
  "raf": 9412,
  "▁3,287,26": 8017,
  "▁[*India": 3157,
  "tation": 2290,
  "▁Central": 6636,
  "_0": 5588,
  "▁\"கேம்பிறிட்ஜ்": 8545,
  "ற்ப": 1271,
  "க்கு": 815,
  "First": 8684,
  "_अ": 5387,
  "▁R.": 3590,
  "2013": 5827,
  "pos": 2864,
  "▁அடைய": 9613,
  "gen": 2025,
  "▁P.": 4028,
  "ற்றி": 4583,
  "▁/": 4927,
  "ots": 7828,
  "गर": 1430,
  "adi": 4305,
  "my": 5303,
  "▁பயன்படுத்த": 6267,
  "ది": 2574,
  "cord": 3415,
  "ఆగ": 8842,
  "|": 92,
  "▁error": 2628,
  "▁similar": 9497,
  "▁1962": 6643,
  "ṭ": 320,
  "▁emerg": 6841,
  "▁estim": 5454,
  "▁सूची\")": 2728,
  "cember": 2577,
  "ri": 463,
  "▁கிழ": 6474,
  "▁[↑](https://en.wikipedia.org/wiki/India#cite_ref-": 1143,
  "_இய": 6846,
  "2000": 2368,
  "DF": 1394,
  "ities": 5060,
  "▁US$": 9324,
  "க்கப்பட்ட": 1873,
  "திப்பகம்": 1554,
  "vens": 8778,
  "लों": 6284,
  "alled": 7147,
  "ue": 1335,
  "gam": 8376,
  "னால்": 4679,
  "▁सबसे": 2715,
  "CS": 1480,
  ".edu": 5596,
  "▁[பு": 6016,
  "5)": 1918,
  "▁वर्ग": 6352,
  "25.": 4342,
  "0-0)": 6707,
  "ovember_17": 9184,
  "–119": 9755,
  "1162": 4434,
  "▁\"ఢిల్లీ": 8886,
  "▁\"Routledge\").": 9277,
  "▁air": 7776,
  "వా": 1621,
  "▁\"உலக": 5724,
  "berg": 2124,
  "book": 540,
  "1-3": 5818,
  "t": 84,
  "▁వ్యా": 6652,
  "ources\\_(": 7335,
  "▁Minorities,": 8677,
  "_class": 8373,
  "▁2018](https://ta.wikipedia.org/wiki/இந்தியா#CITEREF": 5566,
  "4]](https://ta.wikipedia.org/wiki/இந்தியா#cite_note-FOOTNOTE": 4121,
  "दा": 3039,
  "▁వ్యవస్థ": 5179,
  "uth": 5824,
  "Stein": 1206,
  "कणी": 8786,
  "AAAAMAAJ": 6220,
  "ood": 1713,
  "।\n": 4416,
  "▁[ప": 4020,
  ".com/news/national": 7333,
  "▁remain": 9010,
  "▁(c)": 8325,
  "टान": 7000,
  "एशिया": 3459,
  "▁உருவாக்கப்பட்ட": 8589,
  "loth": 7097,
  "link": 624,
  "டைய": 1895,
  "▁over": 3136,
  "▁பிர": 1463,
  "ங்காள": 2500,
  "engu": 7515,
  "623": 7749,
  "ப்பிரி": 7079,
  "ప్రపంచ": 5661,
  "▁ch": 1884,
  "reater": 7869,
  "▁1998](https://ta.wikipedia.org/wiki/இந்தியா#CITEREFStein1998),": 6869,
  "్య": 632,
  ":\\_": 8087,
  "▁ac": 2900,
  "chw": 2163,
  "கள்\")": 2696,
  "ட்சி": 1521,
  "▁செய": 3767,
  "ग": 153,
  "76.": 8052,
  "துகா": 2302,
  "▁இந்தியாவின்": 1654,
  "▁या": 4928,
  "▁ఆర్ధిక": 7246,
  "0–": 5583,
  "స్కృ": 3662,
  "కొ": 7625,
  "▁\"சிறப்பு:BookSources/978-0-521": 9750,
  "த்துவ": 4078,
  "vol": 3670,
  "▁पहु": 9994,
  "ttar": 3775,
  "ோகினியாட்ட": 9882,
  "CCN": 8648,
  "Kathak": 7816,
  "ica": 6580,
  "குடிய": 3562,
  "யிர": 4993,
  "நா": 2763,
  "▁[Cambridge": 8518,
  "▁K.": 3029,
  "र्वो": 5439,
  "](https://en.wikipedia.org/wiki/T": 1631,
  "▁Nations": 4399,
  "த்தா": 5938,
  "ूप": 2465,
  "m": 77,
  "ें": 532,
  "ultiple": 5049,
  "▁ret": 1703,
  "▁उत्तर": 4180,
  "▁Co": 7770,
  "▁[भारतीय": 3189,
  "lop": 1525,
  "_பல்கலைக்கழகப்_ப": 3584,
  "aldives": 6103,
  "▁[B": 1231,
  "220": 5696,
  "ोक": 2380,
  "rategic": 9846,
  "argest": 2669,
  "_N": 1410,
  "டன்": 2912,
  "viol": 5554,
  "▁సామ్రాజ్యం": 2511,
  "c/c": 6112,
  "ध": 169,
  "ूचना": 3339,
  "▁लग": 5198,
  "](https://ta.wikipedia.org/wiki/இந்தியாவில்_ப": 9770,
  "▁சொ": 8977,
  "atch": 5631,
  "▁\"M": 1187,
  "RA": 8058,
  "-21": 2564,
  "▁3,": 4216,
  "voy": 7608,
  ":BookSources/978-0-": 840,
  "▁E.": 5754,
  "ఫ": 290,
  "దే": 661,
  "ology": 3103,
  "▁கி": 6200,
  "▁உட": 7915,
  "ைச்": 8839,
  "▁prin": 8940,
  "-th": 7805,
  "▁1947": 3453,
  ".\"\n": 2197,
  "▁மறை": 8921,
  "கம்\")": 7146,
  "▁जिसमें": 6059,
  "▁be": 1088,
  "अभिज्ञापक": 7308,
  "ainism": 5550,
  "ழு": 2589,
  "https://": 355,
  "्तु": 7667,
  "ం\"),": 5895,
  ".svg.png": 3993,
  "\"](http://": 7374,
  "_का_": 5426,
  "-107-11162": 4878,
  "▁\"F": 2485,
  "-0)\n": 6775,
  "▁ve": 8400,
  "▁\"சிறப்பு:BookSources/978-0-": 1856,
  "▁सद": 5934,
  "ito": 8916,
  "న్నాయ": 4172,
  "மான": 1561,
  "tices": 9636,
  "akistan": 1956,
  "गल": 5604,
  "▁tree": 5761,
  "overnment": 1367,
  "_और": 3168,
  "ஸ்தான்": 4200,
  "emic": 6500,
  "teenth": 4876,
  "▁[3": 2565,
  "▁రహదార": 9119,
  "ழை": 5312,
  "▁பெரும்": 7209,
  "ूस": 9940,
  "ी": 188,
  "▁policy": 9463,
  "566": 5763,
  "hic": 5322,
  "tage": 7068,
  "▁engineering": 9874,
  "7_": 3283,
  "religion": 4340,
  "చే": 4750,
  "C)": 6382,
  "▁./பகுப்பு:Articles\\_with\\_": 3903,
  "▁நீடி": 9155,
  "▁[सं": 3394,
  "troduction": 5664,
  "ொட": 685,
  "Ministry_of_": 5100,
  "ுடைய": 5511,
  "ritannic": 2706,
  "▁2007.": 8703,
  "ford": 1467,
  "▁[\"A": 5173,
  "▁Kashmir": 4646,
  "_Publishing": 5539,
  "▁W": 924,
  "88": 2899,
  "cording": 5496,
  "▁Census": 3287,
  "▁ஓ": 2225,
  "வும்,": 5314,
  "▁[En": 9738,
  "నిక": 7139,
  "11.": 8069,
  "multiple": 5601,
  "PA": 923,
  "▁\"International": 8715,
  "6]](https://ta.wikipedia.org/wiki/இந்தியா#cite_note-FOOTNOTE": 6166,
  "▁system": 3074,
  "ineering": 5360,
  "rain": 4025,
  "rum": 7758,
  "ంది.": 3326,
  "erritory": 5321,
  "▁[प्र": 8145,
  "டிப்படையில்": 2983,
  "](https://hi.wikipedia.org/wiki/साँचा_वार्ता:": 9387,
  "▁था।": 6686,
  "வானது": 5713,
  "°": 95,
  "[[14": 7087,
  "arna": 5522,
  "▁2008](https://ta.wikipedia.org/wiki/இந்தியா#CITEREF": 6843,
  "ned": 3507,
  "Michell2000": 9310,
  "ைத்": 7030,
  "336": 8083,
  "WEO": 4105,
  "ண்டை": 9644,
  "▁ఆసియా": 7179,
  "edi": 2323,
  "▁[ए": 9973,
  "ज्ञान": 3194,
  "▁2007](https://ta.wikipedia.org/wiki/இந்தியா#CITEREF": 6828,
  "▁very": 9557,
  "ign": 1794,
  "ed": 408,
  "▁language\"),": 7514,
  "Stein1998": 1537,
  "गध": 8788,
  "▁fl": 8953,
  "jec": 4510,
  "-national-language": 9442,
  "angu": 744,
  "▁[मध्य": 7689,
  "▁பெரும்பால": 5050,
  "ையின்": 2694,
  "शासित": 4323,
  "](https://te.wikipedia.org/wiki/ప": 5147,
  ":/121": 5410,
  "\"](https://web.archive.org/web/20150": 7176,
  "▁year": 2590,
  "तमान": 9928,
  "▁நாட்டுப்புற": 9868,
  "view": 2606,
  "-882905": 4872,
  "ation,": 8459,
  "2021": 8151,
  "▁உள்ளது.": 3215,
  "_on": 4394,
  "▁Press\"),": 5356,
  "▁శా": 4973,
  "▁राज": 2038,
  "hist": 1737,
  "हिन्दी": 4443,
  "▁[Archived": 1829,
  "BS": 6884,
  "law": 6535,
  "-01": 6758,
  "conomy": 1618,
  "வால்": 7946,
  "▁June": 2427,
  "வோ": 6735,
  "ज़": 1243,
  "▁शास": 3185,
  "ibetan": 9855,
  "டைந்த": 5180,
  "_2004": 8759,
  "▁சா": 4584,
  "ले": 1163,
  "zation": 3611,
  "▁Arab": 4838,
  "ril": 1700,
  "००": 3540,
  "▁अरब": 4940,
  "▁wh": 3494,
  "▁மைய": 5525,
  "bot": 1313,
  "agar": 3619,
  "en": 372,
  "union_ter": 5681,
  "स्थान": 2827,
  "orm": 7854,
  "▁பாதுகாப்பு": 3570,
  "ffer": 4772,
  "▁majority": 8025,
  "_GDP": 8241,
  "च्छ": 7302,
  "-19": 2798,
  "ethnologue": 7757,
  "ird": 3420,
  "ians": 9101,
  "▁near": 6648,
  "నీ": 6294,
  "▁Desert": 7927,
  "ன்று": 1791,
  "/e": 6160,
  "▁இராச்சிய": 7547,
  "ram": 3819,
  "SAARC": 6423,
  "E%": 8748,
  "▁([₹](https://ta.wikipedia.org/wiki/இந்திய_ரூபாய்": 7298,
  "–11": 8870,
  "ట": 279,
  "ంగ్": 2876,
  "లంక": 5903,
  "▁கால்": 7086,
  "ாதுகாப்பு": 5715,
  "▁\"19": 5481,
  "ளா": 1995,
  "_Asia": 1671,
  "-4": 676,
  "▁ప్రభు": 7164,
  "னை": 1717,
  "▁largest": 5020,
  "[[Category:": 8924,
  "ங்கி": 2739,
  "_Force": 6856,
  "prof": 6954,
  "ियार": 6660,
  "_en": 4891,
  "radesh": 2348,
  "_c": 2959,
  "▁[China": 9701,
  "x.": 7838,
  "▁[↑](https://en.wikipedia.org/wiki/India#cite_ref-FOOTNOTEMetcalfMetcalf2006": 6818,
  "▁<https://web.archive.org/web/201": 7247,
  "itar": 8768,
  "▁mathematics": 9268,
  "ene": 6447,
  "▁उप": 3327,
  "ஹ": 244,
  "▁शक्ति": 6334,
  "_for_Economic_Co-operation_and_Development_2007": 8042,
  "ese": 2120,
  "▁1960": 5758,
  "ல்டு": 7415,
  "ப்பட்டது.": 7134,
  "inal": 942,
  "](https://en": 389,
  "ेव": 2760,
  "குப்பு:": 1620,
  "▁Muslim": 7669,
  "▁2011](https://ta.wikipedia.org/wiki/இந்தியா#CITEREF": 8514,
  "ிரித்தானியாவின்": 9775,
  "ediff": 5217,
  "_தே": 8489,
  "▁[వి": 7643,
  "music": 9452,
  "ering": 3522,
  "contain": 3197,
  "▁Modern": 3784,
  "▁\"साँचा": 9358,
  "censusindia.gov.in/2011-prov-results": 8728,
  "டு": 613,
  "▁[\"Indian": 9660,
  "லே": 6733,
  "धानमंत्री": 5238,
  "-36": 8702,
  "stitute": 8721,
  "களின்_பட்டியல்": 4382,
  "▁target": 2653,
  "erence": 5915,
  "logy": 1623,
  "▁produc": 5037,
  "PT": 5698,
  "ṣ": 319,
  "bs": 4329,
  "/countries/": 7590,
  "abha": 5544,
  "▁बहुत": 7250,
  "▁[సి": 5910,
  "ீதி": 7417,
  "upta": 4030,
  "](https://ta.wikipedia.org/wiki/ப": 748,
  "in": 370,
  "](https://te.wikipedia.org/wiki/భారతదేశం#cite_ref-": 3470,
  "ची": 1065,
  "orthern": 3529,
  "छत्तीस": 5875,
  "SN": 6710,
  "विश": 1148,
  "▁जो": 3827,
  "▁நான்க": 8630,
  "](https://ta.wikipedia.org/wiki/முகலாய": 8535,
  "tock": 6209,
  "13.": 9422,
  "వాతంత్ర": 6346,
  "International": 6114,
  "▁This": 5339,
  "सैन": 9936,
  "▁विदेश": 7169,
  "actbook": 5452,
  "ట్": 2612,
  "eri": 5521,
  "html": 1705,
  "_h": 9910,
  "▁இருந்தது.": 7981,
  "శా": 4558,
  "_a": 6977,
  "మిళ": 4039,
  "▁होती": 8319,
  "▁குடும்ப": 6228,
  "குப்பு": 1606,
  "82": 8740,
  "opulation_Totals": 4185,
  "లలో": 8129,
  "▁*The": 3346,
  "]](https://hi.wikipedia.org/wiki/भारत#cite_note-10": 9055,
  "▁குறிப்பிடத்தக்க": 8625,
  "ळ": 179,
  "/": 16,
  "89": 3259,
  "](https://hi.wikipedia.org/wiki/साँचा_वार": 9361,
  "ऍथ": 8784,
  "āra": 7761,
  "▁(ed.": 4831,
  "plate": 1274,
  "ేక": 7045,
  "▁लिये": 7699,
  "adhy": 5065,
  "▁Islands\")": 7555,
  "57": 2080,
  "शीन": 4915,
  "ఏ": 266,
  "ங்கள்": 1385,
  "omp": 2242,
  "▁Tim": 8982,
  "Uttarakhand": 6908,
  "వాణా": 7706,
  "britannica": 4460,
  "▁உள்ளன.[[": 9068,
  "▁பெரு": 2207,
  "–70": 6625,
  "ேற்குத்": 6850,
  "anion": 7865,
  "मेर": 5396,
  "▁de": 1363,
  "▁பல்கலைக்கழகப்": 2168,
  "-m": 1596,
  "▁Social": 7316,
  "▁ab": 3623,
  "go": 4330,
  "val": 1933,
  "▁eastern": 5537,
  "ector": 3790,
  "▁రా": 1316,
  ".bnf.fr/ark:/12148/cb": 9443,
  "ृत": 1598,
  "ड़": 1080,
  "ன்க": 6731,
  "ற்ற": 569,
  "hicle": 9843,
  "2003": 1777,
  "ైనా": 4559,
  "▁d": 612,
  "#cite_note-FOOTNOTE": 621,
  "▁நான": 7465,
  "न्ध": 8195,
  "under": 3604,
  "▁அதிகரி": 3444,
  "நகர": 5308,
  "2002),": 5828,
  "्ट": 849,
  "▁பங்கள": 7877,
  "wa": 8686,
  "▁భ": 8140,
  "▁चुनावों": 6702,
  "](https://te.wikipedia.org/wiki/మ": 2822,
  "-language\\_sources\\_(en": 7800,
  "FOOTNOTE": 477,
  "-y": 9506,
  "IL": 8649,
  "▁[Craven": 6230,
  "▁பத": 6463,
  "ी](https://hi.wikipedia.org/wiki/अ": 4313,
  "▁சந்தை": 5957,
  "டிப்பட": 2434,
  "ர்கள்": 2148,
  "Organisation_for_Economic_Co-operation_and_Development_2007": 9335,
  "–సా.శ.18": 7697,
  "onstitution": 1901,
  "राष्ट्रीय_स": 9150,
  "asthan": 5734,
  "▁प्लेट": 8952,
  "gions": 8377,
  "्यव": 3466,
  "ुरु": 4916,
  "dit": 1972,
  "_Centre": 4437,
  "5-3": 5851,
  "tter": 8653,
  "▁Agency": 8937,
  "](https://en.wikipedia.org/wiki/G": 1857,
  "जल": 8789,
  "ింద": 1501,
  "opulation": 1235,
  "_के_": 1216,
  "4-3": 4649,
  "म्": 1189,
  "▁என": 5755,
  "▁[↑](https://hi.wikipedia.org/wiki/भारत#cite_ref-": 1802,
  "▁\"Cambridge": 8516,
  "ए": 146,
  "hal": 4675,
  "dition": 2021,
  "7)\n": 9903,
  "டியின": 9720,
  "▁அறி": 4844,
  "/h": 4639,
  "ducation": 5207,
  "▁రాజ": 3250,
  "ూర్పు": 6373,
  "ber": 673,
  "▁பய": 4364,
  "றி": 1509,
  "▁राज्य": 1378,
  "_number": 7726,
  "చ": 275,
  "▁समय": 4198,
  "சிந்து": 4581,
  "வட்ட": 7847,
  "ப்பீ": 4832,
  "▁2006](https://ta.wikipedia.org/wiki/இந்தியா#CITEREFMetcalfMetcalf2006),": 5377,
  "▁[b": 8876,
  "ola": 9638,
  "▁after": 3493,
  "▁[Ludden": 6402,
  "19.": 8162,
  "ओं": 2462,
  "MAAJ": 5297,
  ".[[": 568,
  "8/8": 4969,
  "▁It": 3565,
  "gypt": 7232,
  "द्ध": 1992,
  "िज": 4745,
  "్రూ": 8943,
  "ஆம்": 1576,
  "▁Aug": 2156,
  "gni": 5478,
  "मो": 6283,
  "data.worldbank.org/indicator/S": 7372,
  "▁జ": 2340,
  "ί": 126,
  "▁மிகப்": 3503,
  "▁[Wolpert": 9485,
  "oundation": 9140,
  "outheast": 7435,
  "▁வெற்றி": 9137,
  "ஜி": 4141,
  "ன்ற": 1081,
  "inancial": 8635,
  "wiki": 344,
  "▁maj": 5156,
  "ரிய": 1326,
  "▁ఉ": 1523,
  "3.\n": 4537,
  "FOOTNOT": 476,
  "▁Economy": 6642,
  "▁சேர்ந்த": 4501,
  "லுவல்": 6260,
  "▁शासन": 4788,
  "ath": 1484,
  "2003),": 4496,
  "_at": 2366,
  "ear": 1026,
  "ug": 1711,
  "nclm.nic.in/shared/linkimages/NCL": 7736,
  "ேர": 1141,
  "▁வெ": 1778,
  "ఆర్": 7032,
  "overty": 4490,
  "ties": 1722,
  "శ": 299,
  "▁நில": 1888,
  "mand": 8382,
  "▁what": 9214,
  "ாண்ட": 3484,
  "]](https://en.wikipedia.org/wiki/India#cite_note-Combined": 7496,
  "▁தொ": 2013,
  "ிரித்தானிய": 4199,
  "1": 18,
  "▁உயர்": 5218,
  "_16": 6917,
  "▁am": 4058,
  "தி": 616,
  "am": 485,
  "674": 9089,
  "ाल": 701,
  "hib": 4466,
  "](https://hi.wikipedia.org/wiki/ग": 8154,
  "ந்தா": 4570,
  "ustral": 3696,
  "▁பகுதி": 2743,
  "ॉ": 194,
  "▁[ம": 1472,
  "ilgir": 9213,
  "టిక": 8124,
  "త్త": 4314,
  "న్‌ఫర్మేషన్": 9385,
  "▁Press,": 4663,
  "▁அரசா": 5560,
  "க்_க": 3433,
  "_page": 6025,
  "ச்": 695,
  "हास": 2190,
  "ेंगलुरु": 7742,
  "மீ": 2764,
  "▁India\"](https://": 9990,
  "apa": 9688,
  "ven": 1411,
  "▁[↑](https://te.wikipedia.org/wiki/భారతదేశం#cite_ref-": 4579,
  "ast_Asia": 5177,
  "▁group": 4518,
  "▁Catherine": 9885,
  "▁En": 2369,
  "▁मिल": 7660,
  "yle": 3795,
  "Stein1998),": 4346,
  "▁விரி": 4478,
  "C-01": 8089,
  "odern_": 8521,
  "పాలిత": 3575,
  "▁into": 2642,
  "▁प्रति": 4946,
  ".india": 2388,
  "▁[doi](https://en.wikipedia.org/wiki/Doi_(identifier)": 4627,
  "ographic": 4218,
  "work": 4055,
  "urd": 7668,
  "](https://ta.wikipedia.org/wiki/சிறப்பு:BookSources/978-81": 5211,
  "▁Thomas": 6406,
  "▁\"ப": 856,
  "▁ప్రపంచ": 7163,
  "par": 1769,
  "ளிய": 5311,
  "▁शताब्": 5657,
  "qy": 9916,
  "ouncil": 7799,
  "▁[C": 1091,
  "ు": 306,
  "ன்ப": 2284,
  "▁\"श्रेणी:Harv": 2920,
  "*](http://": 8354,
  "dia": 346,
  "▁मई": 7657,
  "/http://www.": 2791,
  "▁12.": 8066,
  "▁[e](Special:EditPage/Template:": 9816,
  "ార్ట": 5152,
  "ango": 8468,
  "&": 7,
  "pectancy": 6155,
  "2)": 1634,
  "ன": 232,
  ".com/article": 7107,
  "_क्षेत्र": 3925,
  "ప్ర": 1489,
  "Library_of_Congress": 5288,
  "नत": 9931,
  "](https://books.google.com/books?id=": 2101,
  "प्राचीन": 8324,
  "ரச": 2964,
  "ాలు,": 3836,
  "ंच": 5873,
  ":IN": 8088,
  "▁Dyson,": 8046,
  "_Data": 7359,
  "न्नड़": 9174,
  "_C": 959,
  "▁இயற்க": 7223,
  "▁व्य": 6651,
  "வி": 1106,
  "or": 347,
  "ఉప": 7624,
  "api": 3248,
  "▁\"வங்காள": 8410,
  "▁ம": 446,
  "ச்சிய": 3692,
  "▁நாடுகள்": 5774,
  "-r": 5383,
  "tandard": 4395,
  ".org/wiki": 363,
  "-s": 1232,
  "](https://hi.wikipedia.org/wiki/विशेष:EditPage/साँचा:": 9985,
  "त्तीस": 5438,
  "}": 93,
  "ics": 5736,
  "▁स्तर": 8165,
  "]](https://ta.wikipedia.org/wiki/இந்தியா#cite_note-": 972,
  "ag": 496,
  "28.": 5425,
  "ria": 3751,
  "र्ज": 6315,
  "-526": 7129,
  "▁2016.": 8466,
  "த்தது.[[": 5009,
  "वरी": 2867,
  "ल्त": 9932,
  "ங்கம்": 4479,
  "18)": 7780,
  "min": 4131,
  "▁குறு": 9053,
  "▁మార్": 5653,
  "हन": 5611,
  "एँ": 3796,
  "_recent": 8565,
  "&#": 6412,
  "ook": 448,
  "வதற்கு": 7416,
  "ani": 1281,
  "▁\"भारतीय": 1908,
  "achine": 8032,
  "▁De": 1461,
  "ast_Asia_Summit": 5382,
  "gi": 5801,
  "▁mar": 6487,
  "_and_Sfn_template_errors": 2677,
  "ous": 1642,
  "p)": 9915,
  "▁\"அ": 1958,
  "nclm.nic.in/shared/linkimages/NCLM50thReport.pdf)": 7747,
  "ல்த": 5890,
  ".png": 3356,
  "order": 5197,
  "](https://te.wikipedia.org/wiki/భారతీయ": 5148,
  "ual": 2684,
  ".ni": 5269,
  "त्तरा": 4608,
  "50": 714,
  "రువా": 9129,
  "324": 6110,
  "▁Publishing": 3353,
  "ost": 1719,
  "_&": 4985,
  "ం:": 1532,
  "2014-p": 5205,
  "இந்தியா": 424,
  "ம்ப": 1064,
  "▁India": 449,
  "▁[H": 2294,
  "ight": 5424,
  "▁प्र": 779,
  "మ్రా": 1865,
  ".jpg)": 1134,
  "▁జరి": 9160,
  "idd": 2845,
  "istor": 6892,
  "▁[1](https://ta.wikipedia.org/wiki/இந்தியா#cite_ref-": 5196,
  "▁spe": 4026,
  "identifiers": 3155,
  "rad": 1878,
  "त्तर": 2277,
  "▁2018](https://en.wikipedia.org/wiki/India#CITEREFDyson2018),": 8024,
  "భార": 656,
  "](https://en.wikipedia.org/wiki/History": 5775,
  "बंध": 2651,
  "_b": 1456,
  "national-language": 6835,
  "▁A": 479,
  "2010).\n": 9707,
  "http://": 929,
  "▁popular": 8457,
  "emon": 8999,
  "avi": 3897,
  "/P": 4392,
  "39.": 8071,
  "ேற்ற": 7848,
  "▁ప్రాంతాలు": 8293,
  "iki": 1672,
  "టెక్నాల": 8289,
  "_के_आ": 3249,
  "cott": 7970,
  "the": 409,
  "లను": 6620,
  "▁శ": 2769,
  "▁[கா": 6188,
  "▁\"இந்தியப்": 6815,
  "यत": 7008,
  "मह": 4007,
  "ंग्रेज़": 2137,
  "▁May": 2234,
  "\"](http://www.": 9389,
  "rie": 862,
  ":BookSources/978-0": 8991,
  "66": 4459,
  "▁z": 6926,
  "51": 1650,
  "▁క": 889,
  "▁[क": 2039,
  "▁(2018": 8159,
  "acher": 8549,
  "▁\"Template": 9721,
  "▁ஈ": 7850,
  "p": 80,
  "](https://ta.wikipedia.org/wiki/ச": 1872,
  "வார்ப்புரு:": 3634,
  "கி": 2118,
  "▁-": 430,
  "BC": 3100,
  "భారత": 657,
  "▁traditional": 9802,
  "रुणाचल": 8333,
  "▁தேசிய": 3904,
  "सम": 2438,
  "काता": 7150,
  "anka": 6340,
  "ून": 1835,
  "Indian_": 5826,
  "[": 59,
  "▁[1](https://ta.wikipedia.org/wiki/இந்தியா#cite_ref-FOOTNOTE": 3217,
  "▁பேரரசு": 3205,
  "▁def": 8238,
  "▁*2011": 9464,
  "uff": 6434,
  "▁Wikidata": 7370,
  "▁ఎ": 2712,
  "AACAAJ": 9667,
  "▁2012.": 7317,
  "▁Europe": 6218,
  "Dyson2018": 3338,
  "परेशन": 9106,
  "▁im": 2949,
  "ref": 454,
  "RL": 3983,
  "more": 8383,
  "▁ऊ": 4422,
  "mer": 1743,
  "ub": 766,
  "्टॉक": 9025,
  "▁राजवंश": 6678,
  "▁capita": 8660,
  "ort": 1953,
  "o": 79,
  "rahmaputra": 6259,
  "ted": 897,
  "பூ": 7025,
  "odi": 3950,
  "अभि": 6993,
  "▁histor": 7422,
  "▁கல்": 4696,
  "http": 351,
  "▁ड": 4012,
  "▁2011\n": 2795,
  "க்கில்": 8918,
  "_and_Sfn_template_errors?action=edit&redlink=1": 2943,
  "ந்த": 388,
  "arly": 4361,
  "▁\"தில்லி": 9117,
  "1967": 5927,
  "▁[F": 2788,
  "योग": 4549,
  "ages": 1061,
  "▁Monetary": 9415,
  "కేంద్రపాలిత": 7626,
  "ंका": 5391,
  "lag": 5254,
  "▁(1,": 5257,
  "▁co": 3179,
  "▁दोनों": 9345,
  "aper": 1971,
  "ockey": 9852,
  "ेली": 6673,
  "▁பௌத்த": 8427,
  "▁Government": 4527,
  "धानमंत्र": 4614,
  "லா": 1099,
  "▁துறை": 6827,
  "istribution": 8177,
  "लिंग": 9232,
  "ourc": 578,
  "क्षण": 9033,
  ")\")": 1441,
  "▁Qu": 4655,
  "▁pres": 9414,
  "▁pri": 3776,
  "lor": 3303,
  "▁हिन्द": 3065,
  "ार्ट": 3816,
  "▁colle": 7462,
  "ந்தியா": 6455,
  "ई": 141,
  ".gov/": 4662,
  "data.bnf.fr/ark:/12148/cb": 9491,
  "▁India\")": 790,
  "Provisional_Population_Totals_Paper_1_of_2011": 4209,
  "▁நீண்ட": 7533,
  "1-1": 5474,
  "లాదేశ్": 6353,
  "▁దక్షిణ": 9970,
  "gan": 3876,
  "](https://books.google.com/books?id=ZvaGuaJIJgoC&pg=PA": 7204,
  "▁growth": 7491,
  "erves": 8560,
  "கள": 713,
  ".JPG": 4457,
  "▁2003](https://ta.wikipedia.org/wiki/இந்தியா#CITEREF": 9804,
  "पा": 1384,
  "▁\"World": 7862,
  "iri": 4129,
  "ompany": 3379,
  "▁குடி": 9689,
  "60110-3": 9370,
  "cise": 5730,
  "\\_containing\\_": 7891,
  "216": 6314,
  "ச்சினை": 9122,
  "▁[Harle": 6446,
  "mu": 3423,
  "ஃ": 211,
  "▁கா": 1751,
  "வற்ற": 3541,
  "-16": 4933,
  "▁large": 4488,
  "razil": 9312,
  "ilg": 3492,
  "s": 83,
  "▁தொக": 6246,
  "dr": 5059,
  "120]](https://hi.wikipedia.org/wiki/भारत#cite_note-langoff-128)": 8349,
  "FO": 472,
  "_साम": 7682,
  "త్య": 3044,
  "er,": 2426,
  "rgani": 4606,
  "O": 47,
  "న్‌ఫ": 7288,
  "▁\"Oxford": 5317,
  "ite": 1789,
  "uducherry": 6877,
  "▁करता": 9108,
  "time": 2901,
  "▁இவர்": 7905,
  "ay": 672,
  "-108": 4183,
  "्री": 1903,
  "]](https://te.wikipedia.org/wiki/భారతదేశం#cite_note-": 3473,
  "யக": 7844,
  "▁Commission": 2882,
  "*](https://web.archive.org/web/201": 5428,
  "▁cultural": 9619,
  "▁ज़": 9001,
  "DP": 1688,
  "](https://en.wikipedia.org/wiki/List_of_": 1937,
  "▁இதுவாகும்.[[": 9841,
  "G": 39,
  "▁Plate": 4217,
  "▁part": 3019,
  "▁மாவட்ட": 9744,
  "तिब्बत": 9044,
  "▁गु": 5999,
  "india.gov.in_": 6900,
  "▁V.": 5193,
  "▁History": 1772,
  "_1960": 8578,
  "96": 7594,
  "ulture": 1939,
  "u": 85,
  "केर": 6030,
  "िस्तान": 5614,
  "தன்மைக்": 6537,
  "lid": 7395,
  "rature": 4397,
  "nia": 5705,
  "ters": 1940,
  "ficient": 9467,
  "▁Organization": 7128,
  "▁नौसेना": 9020,
  "ां": 5113,
  "▁अलग": 8180,
  "భారత_": 4588,
  "▁kingdoms": 9873,
  "_Games": 7964,
  "க்கிற": 7441,
  "166": 4517,
  "्च": 2131,
  "▁व्या": 7683,
  "▁वर्षों": 8301,
  "खंड": 4908,
  "ud": 996,
  "▁அளவு": 7908,
  "ार": 405,
  "titu": 1328,
  "▁independence": 8622,
  "](https://en.wikipedia.org/wiki/World": 8421,
  "\\_identifiers": 3345,
  "மாக": 1577,
  "rief": 4645,
  "ological": 6718,
  "▁Hindu": 2050,
  "▁Nehru": 5980,
  "17": 839,
  "](https://ta.wikipedia.org/wiki/சிறப்பு:BookSources/978-0-": 1858,
  "▁\"Special:BookSources/978-1": 2938,
  "ty": 1505,
  "५७": 8820,
  "▁வங்கி": 5527,
  "003": 5155,
  ".n": 3606,
  "த்_": 6484,
  "▁लिया": 9085,
  "ties/": 8416,
  "3).": 6417,
  "▁(2014": 4830,
  "▁India.": 3861,
  "_f": 2483,
  "olonial": 6863,
  "-22)": 7588,
  "▁வழி": 7095,
  "_த": 708,
  "▁किन": 8157,
  "▁Press](https://en.wikipedia.org/wiki/C": 7505,
  "ர்த்த": 3754,
  "İ": 112,
  "▁[पुरालेखित](https://web.archive.org/web/201": 5685,
  "2).": 3996,
  "them": 5275,
  "rince": 6251,
  "லில்": 5708,
  "one": 2216,
  "lang": 3860,
  "ాయి": 6679,
  "▁[हिन्दी](https://hi.wikipedia.org/wiki/": 5461,
  "▁(identifier)\"):[": 3213,
  "▁ఫ": 9968,
  "lad": 3422,
  "%3": 5289,
  "tec": 3130,
  "▁கொண்டுள்ளது.": 3443,
  "रात": 8950,
  "undam": 5352,
  "px": 915,
  "స్తా": 2066,
  "oi_(identifier)": 3704,
  "ंध्र": 7177,
  "▁The": 1048,
  "\"\n": 1512,
  "्षेत्र": 1356,
  "▁68": 6577,
  "லிய": 4142,
  "ற்கால": 7939,
  "opul": 1138,
  "हारजिस्ट": 9151,
  "her": 2863,
  "126": 8082,
  "▁తే": 4782,
  "_to_the": 7550,
  "ొ": 312,
  "acmill": 4840,
  "\",": 5096,
  "నేపాల": 6048,
  "ज्ञाप": 7219,
  "athe": 2960,
  "వర": 8856,
  "2007),": 5091,
  "University_of_C": 9683,
  "▁M.": 4113,
  ".wiki": 362,
  "ann": 3671,
  "MID": 7387,
  "tl": 3937,
  "donesia": 6559,
  "గి": 6616,
  "documents/": 9440,
  "ones": 3618,
  "](https://en.wikipedia.org/wiki/Doi_(identifier)": 4618,
  "aran": 3596,
  "rieved": 893,
  "table": 7234,
  "झ": 159,
  "▁\"L": 2305,
  "க்கோ": 3689,
  "हिमाचल": 6376,
  "ச": 225,
  "▁\"ब": 2041,
  "▁./श्रेणी:Harv\\_and\\_Sfn\\_no-target\\_errors\n": 2944,
  "yth": 7839,
  "ा": 186,
  "raw": 7445,
  "▁பெரிய": 3497,
  "nominal": 7312,
  "ைப்": 2100,
  "_14": 4892,
  "▁\"భారతదేశ": 5413,
  "h": 72,
  "_Paper_1_of_2011": 4208,
  "घर": 8105,
  "British": 4902,
  "▁உரு": 2123,
  "▁கட": 2808,
  "బెంగ": 4977,
  "▁సంగీతం": 8220,
  "210": 2747,
  "▁|\n": 678,
  "120]](https://hi.wikipedia.org/wiki/भारत#cite_note-langoff-1": 8260,
  "<": 29,
  "=1": 615,
  "▁2003": 3691,
  "पार": 7616,
  "ron": 2451,
  "ion": 727,
  "3_": 3413,
  "un": 565,
  "ould": 3939,
  "300": 3359,
  "005": 9623,
  "/s": 3291,
  "###": 2095,
  "\\_templates": 3908,
  "dies": 4599,
  "World": 1931,
  "▁विकास": 4456,
  "▁बड़े": 8197,
  "స": 301,
  "_Indian_subcontinent": 9167,
  "Special:S": 5552,
  "rand": 8773,
  "_20": 3008,
  "als": 1617,
  "▁\"ल": 5912,
  "iron": 2258,
  "த்தைக்": 6761,
  "ick": 5735,
  "ers": 1345,
  "ते": 2337,
  "DwAAQBAJ": 5555,
  "▁వంశ": 9045,
  "_27": 9450,
  "▁when": 7243,
  "bbc.co.uk": 8080,
  "ட்டம்": 5008,
  "hristian": 6372,
  "pg": 588,
  "khand": 8380,
  "▁New": 2051,
  "Qu": 3347,
  "_and_S": 2475,
  "Un": 5859,
  "▁2005": 4097,
  "ाद्वीप": 6002,
  "ड़िया": 7687,
  "ir": 662,
  "स्व": 7620,
  "▁2025": 6789,
  "que": 6113,
  "▁\"இந்தியக்": 5358,
  "▁sc": 8454,
  "▁उपमहाद्वीप": 8286,
  "▁CITEREFStein1998": 8272,
  "sus": 9532,
  "▁2017.": 7773,
  "-8069": 9165,
  "target\\_errors": 2667,
  "_with": 4052,
  "till": 9564,
  "709": 5429,
  "த்தி": 1579,
  "grap": 1909,
  "▁खाना": 2582,
  "கர": 3106,
  "-00": 5326,
  "▁2019.": 4071,
  "rou": 1690,
  "ori": 2549,
  "ublishing": 2448,
  "tionary": 3783,
  "▁வடக்கு": 6853,
  "/S": 2491,
  "▁Schwartzberg": 6204,
  "#cite_ref": 459,
  "iscover": 8902,
  "▁[च": 5623,
  "▁பகுதியாக": 8588,
  "ES": 5296,
  "60": 1179,
  "pib": 3358,
  "arli": 5081,
  "_for": 3935,
  "ambodia": 9363,
  "▁had": 3788,
  "▁होता": 6053,
  "langoff-1": 6907,
  "cience": 2567,
  "sv": 1810,
  "3/": 3792,
  "forcement": 8034,
  "ங்கள்,": 8532,
  "78.": 6635,
  "adu": 3467,
  "े": 192,
  "मंत्र": 4137,
  "ush": 6770,
  "quality": 6240,
  "గుజరాత్": 9331,
  "▁சே": 3211,
  "entral_In": 6871,
  "▁जु": 3322,
  "▁[J": 2890,
  "த்தைச்": 9784,
  "▁पा": 3239,
  "illia": 9630,
  "▁expectancy": 8710,
  "-the": 6962,
  "▁\"": 369,
  "ும்.": 1729,
  "ंप": 3305,
  "मर": 8112,
  "_5": 4800,
  "thnic": 5520,
  "inguis": 3855,
  "imalay": 4344,
  "orama": 9558,
  "▁longer": 9259,
  "ौसेना": 7018,
  "▁எண்": 1078,
  "ள்வன": 9589,
  "▁ले": 7638,
  "ட்டிய": 5933,
  "▁भाग": 7640,
  "eval": 5477,
  "igh": 2717,
  "▁![](https://upload.wikimedia.org/wikipedia/commons/thumb/": 9556,
  "ரே": 5120,
  "ern_": 6747,
  "olon": 5017,
  "▁(1,269,": 9290,
  "▁2018](https://ta.wikipedia.org/wiki/இந்தியா#CITEREFDyson2018),": 9847,
  "economic": 4107,
  "ஒக்ஸ்": 2140,
  "லிருந்து": 8835,
  "నాభా": 4957,
  "\"):": 4223,
  "▁\"சிறப்பு:BookSources/978-1": 3275,
  "omin": 3960,
  "on-Alig": 6588,
  "cyclopaedia": 9441,
  "ూచ": 6624,
  "chwartzberg": 2266,
  "மசுக": 8394,
  "do-P": 6042,
  "ing\\_": 1905,
  "▁धर्म\")": 6687,
  "_Paper": 4173,
  "cheduled": 8600,
  "410": 6164,
  "ance/": 5186,
  "267": 4658,
  "uran": 8973,
  "▁அரசியலமைப்பு": 8003,
  "దా": 3810,
  "NA": 4799,
  "டைம்ஸ்": 2976,
  "26)": 4485,
  "y;": 9403,
  "ம்\")\n": 6754,
  "▁इन": 6013,
  "0000": 5278,
  "जी": 2571,
  "▁2010](https://ta.wikipedia.org/wiki/இந்தியா#CITEREF": 6241,
  "business/": 6984,
  "–120": 6953,
  "Petraglia": 5858,
  "con": 692,
  "▁four": 6771,
  "▁அடிப்படையில்": 4580,
  "▁\"ஐ": 7859,
  "शील": 9934,
  "ன்ஸ்": 6193,
  "▁north": 4660,
  "](https://upload.wikimedia.org/wikipedia/commons/": 993,
  "ets": 6393,
  "Rowland1970),": 9815,
  "123": 4888,
  "▁17": 1862,
  "याधीश": 9364,
  "ec": 872,
  "▁election": 3971,
  "Central_Intelligence_Agency": 7813,
  "ங்கிலம்": 6075,
  "uttaph": 8002,
  "லால்": 6003,
  "▁\"साँचा:": 8885,
  "na": 1782,
  "த்த": 451,
  "–18": 6738,
  "olic": 2502,
  "M": 45,
  "_Publishing?action=edit&redlink=1": 9294,
  "पुरा": 5651,
  "urve": 4165,
  "▁दृश्य": 8314,
  "oint": 4642,
  "]](https://hi.wikipedia.org/wiki/भारत#cite_note-FOOTNOTESingh2009": 8264,
  "▁Afric": 4839,
  "itz": 3588,
  "40px-": 6509,
  "_Indian_general_": 6842,
  "▁Cather": 9596,
  "ன்றா": 6525,
  "%2C_": 3357,
  "▁[M": 1137,
  "ாகி": 5160,
  "டுப்பாட்ட": 5340,
  "RLTS.T": 9381,
  "in-": 5318,
  "▁வேறுப": 6829,
  "▁new": 3865,
  "துடுப்பாட்ட": 8438,
  "ஒன்றிய": 9862,
  "ष्": 2541,
  "ct": 1136,
  "▁Pakistan": 3558,
  "onstitutional": 6150,
  "phere": 6719,
  "வினை": 8520,
  "ays": 7930,
  "ోత్స": 8868,
  "Oxford_University_Press": 6047,
  "Indian": 1251,
  "](https://en.wikipedia.org/wiki/N": 1885,
  "issn": 8670,
  "197": 2152,
  "`:": 9912,
  "-R": 7804,
  "திர": 8825,
  "झार": 5605,
  "கள்,": 9015,
  "wAAQBAJ&pg=PA": 7404,
  "ूर्": 4552,
  "10)": 5807,
  "▁मौ": 7092,
  "▁[↑](https://ta.wikipedia.org/wiki/இந்தியா#cite_ref-FOOTNOTEStein1998": 9699,
  "వు": 3461,
  "flu": 5374,
  "ंपन": 9206,
  "▁இவ்வா": 9858,
  "▁நடத்த": 5041,
  "சுலா": 6781,
  "rop": 2562,
  "am/": 9600,
  "slam": 4545,
  "▁Society": 5832,
  "▁दृ": 5170,
  "▁அமைப்பு": 3332,
  "हु": 2377,
  "▁[N": 1721,
  "hut": 7347,
  "▁may": 8474,
  "▁1500": 7986,
  "](https://ta.wikipedia.org/wiki/இந்தியாவில்_ச": 9771,
  "▁பின்": 4574,
  "93": 3300,
  "▁பிராந்திய": 8537,
  "▁./श्रेणी:Harv": 2933,
  "ஸ்த": 2611,
  "_to": 3532,
  "ளம்": 6439,
  "isaria": 8903,
  "bbc.": 8077,
  "gh": 954,
  "▁le": 2289,
  "वायु": 5444,
  "▁2024": 3012,
  "ச்_ச": 6217,
  "खण्ड": 4909,
  "](https://hi.wikipedia.org/wiki/चित्र:": 2771,
  "ై": 311,
  "rovision": 3441,
  "▁million": 4074,
  "▁Chand": 5083,
  "ul": 525,
  "ளஞ்சிய": 5711,
  "▁देशों": 3574,
  "▁century,": 9218,
  "ள்வனவு": 9884,
  "ksai": 7367,
  "-an": 5057,
  "'s": 1001,
  "மைப்பு": 2777,
  "5-0)": 2626,
  "ానికి": 8133,
  "त्य": 4285,
  "త": 284,
  "னம்": 3612,
  "▁कम": 8156,
  "▁అ": 1333,
  "्या": 1225,
  "▁mathe": 4847,
  "ரால்": 7940,
  "▁pur": 9597,
  "_2008": 5702,
  "ணுவ": 3976,
  "do-Aryan": 5380,
  "37": 1167,
  "s.[[": 4544,
  "▁రైలు": 6695,
  "▁[Government": 6825,
  "Wikipedia": 3716,
  "▁हुई": 4321,
  "ा:": 2378,
  "url": 6117,
  "hell": 4163,
  "_Press?action=edit&redlink=1": 7991,
  "▁अव": 6640,
  "▁Press](https://ta.wikipedia.org/wiki/": 5355,
  "400": 6381,
  "269,": 8992,
  ":/": 349,
  "▁Environmental": 7792,
  "Kumar": 5855,
  "-70": 7309,
  "▁இந்தியத்": 7957,
  "रे": 3105,
  "ubcontinent": 4768,
  "▁house": 8706,
  "](https://hi.wikipedia.org/wiki/पाकिस्तान": 7073,
  ")[[": 955,
  "anda": 6755,
  "ender": 7182,
  "धिराज्य": 9270,
  "▁वृद्ध": 9032,
  "ikshi": 2454,
  "ataraja": 9328,
  ".svg.png)": 4635,
  "மான்": 3753,
  "्": 198,
  "-B": 3981,
  "South": 2074,
  "ாத": 7027,
  "▁డ": 7046,
  "aith": 7784,
  "**\n": 7473,
  "▁அமெரிக்க": 6211,
  "परमाणु": 6668,
  "வர": 2390,
  "ayana": 7110,
  "ंग्रेज़ी_भाषा": 7206,
  "भीमबेट": 7276,
  "▁subject": 9759,
  "vers": 811,
  "í": 105,
  "auto\\_scaled\\_im": 5684,
  "-5": 900,
  "ाष्ट्र": 3389,
  "▁([help": 2489,
  "ేంద్రపాలిత": 3582,
  "/c": 2218,
  "indus": 5280,
  "se": 1390,
  "ducational": 9730,
  "matics": 2435,
  "2001": 2357,
  "▁\"ஐக்கிய": 8409,
  "nglish": 2748,
  "▁இந்து": 3335,
  "igenous": 7474,
  "▁है।": 1100,
  "▁ஊ.": 3088,
  "▁2,": 4664,
  "ोल": 1488,
  "ey": 2750,
  "०१": 5117,
  "▁\"C": 1072,
  "▁காட்ட": 5010,
  "iam": 5515,
  "esti": 5003,
  "▁पहले": 6698,
  "▁[இந்தியா": 4564,
  "ency": 5319,
  "▁ad": 2181,
  "▁[प": 2317,
  "icobar": 6872,
  "धीरे": 8294,
  "]": 61,
  "पु": 949,
  "மா": 2300,
  "rown": 3677,
  "▁[W": 2566,
  "▁न्यायालय": 5232,
  "Zva": 4816,
  "fgh": 4988,
  "▁வழ": 3891,
  "ె": 309,
  "Wiki": 2113,
  "ेत्र": 1181,
  "bi": 3852,
  "▁Bharat": 7924,
  "-for": 4794,
  "லு": 3483,
  "▁मेला\"),": 7202,
  "▁ed.).": 6153,
  "ிக்கா": 5716,
  "▁India](https://en.wikipedia.org/wiki/C": 7884,
  "▁कुछ": 7295,
  "545": 3720,
  "▁**·**": 835,
  "ght": 2362,
  "684": 7363,
  "rest": 6318,
  "▁(": 421,
  "▁[v](Template:": 9821,
  "▁काम": 8202,
  "▁ட": 3312,
  "27.": 7936,
  "▁[Ministry": 4956,
  "depend": 3452,
  "▁दर": 4944,
  "थियार": 8109,
  "](https://hi.wikipedia.org/wiki/पूर्व": 9166,
  "from": 8765,
  "9.": 1280,
  "▁\"தெ": 7516,
  "ந்த்": 5323,
  "▁km2": 8673,
  "▁प": 505,
  "▁व्यवस्था": 8206,
  "தில்": 7021,
  "▁காரணமாக": 7563,
  "0/": 8735,
  "Kulke": 1764,
  "▁इस": 2043,
  "ɪ": 119,
  "கப்": 1518,
  "ms": 1710,
  "\\_parame": 3344,
  "▁Americ": 9413,
  "▁ఆర్": 3572,
  "▁[భారతదేశం": 9975,
  "▁[Asher": 3516,
  "தான": 8824,
  "టా": 6292,
  "errors": 1226,
  "E": 37,
  "-3)": 5279,
  "-C": 3709,
  "▁आधिकारिक": 5994,
  "▁जी": 6320,
  "%20இந்தியா\n": 4259,
  "–": 325,
  "▁సా": 1613,
  "▁अन्त": 7178,
  "tification": 8061,
  "▁government": 2720,
  "th_BRICS_summit": 7430,
  "ப்பிய": 5524,
  "▁அரசு](https://ta.wikipedia.org/wiki/இந்திய_அரசு": 9790,
  "iving": 8531,
  "ியாக": 3959,
  ".edu/": 9296,
  "ालदीव": 6321,
  "cite\\_templates": 4272,
  "ேர்த": 2779,
  "▁பாதுகாப்புச்": 7552,
  "ష్ట్ర": 1869,
  "/hindi": 7568,
  "▁Z": 8138,
  "पुस्तक": 1968,
  "ணக்க": 3307,
  "ohenj": 9737,
  "▁வே": 1859,
  "ris": 3952,
  "##": 1044,
  "▁ந": 550,
  "▁மத்தியில்": 9585,
  "िहार": 5615,
  "▁ஆற்ற": 3373,
  "स्ट": 4551,
  "▁within": 6817,
  "▁original](https://": 1768,
  "jee": 9526,
  "IMFWEO.IN": 4793,
  "ய்க": 8395,
  "ண்பாடு": 9796,
  "ము\")": 6338,
  "ust": 934,
  "▁[2](https://hi.wikipedia.org/wiki/भारत#cite_ref-FOOTNOTE": 9080,
  "▁\"க": 1604,
  "▁குடிய": 2850,
  "▁तिथि": 1819,
  "▁करना": 9107,
  "](https://en.wikipedia.org/wiki/F": 2821,
  "ildlife": 5843,
  "araj": 6451,
  "*)": 5846,
  "umeration": 7911,
  "▁original](http://www.": 8515,
  "▁0.": 2603,
  "](https://ta.wikipedia.org/wiki/பன்னாட்டுத்": 1247,
  "eck": 6225,
  "ographi": 2670,
  "▁only": 5488,
  "748": 6965,
  "▁उद्यान": 5655,
  "▁both": 4731,
  "▁Asian": 2320,
  "ियाँ": 2776,
  "idge": 1861,
  "साँचा:": 3254,
  "▁Times": 3785,
  "्रह": 8160,
  "▁\"Delhi": 9728,
  ").": 493,
  "merican": 6262,
  "ortal": 3520,
  "ாந்திய": 8398,
  "னைத்து": 3844,
  "▁[*A": 2597,
  "36": 989,
  "ियान": 9073,
  "ature": 6486,
  "](": 353,
  "बंधन": 7221,
  "లక్ష": 8855,
  "ీ": 305,
  "_के_आधार_पर_भारत": 3412,
  "▁साम्राज्य\")": 7725,
  "2023": 2119,
  "ुस्तान": 9939,
  "சா": 1400,
  "jan": 4130,
  "acred": 9602,
  "ீக்கிய": 6181,
  "IJ": 4540,
  "▁e": 735,
  "Pages\\_using\\_": 7330,
  "68": 1773,
  "ach": 1723,
  "ol": 602,
  "आ": 139,
  "मान": 1982,
  "ning": 5706,
  "lling": 9695,
  "యు": 3109,
  "ess/": 4243,
  "ధ": 287,
  "வாய": 4709,
  "ంటు": 8254,
  "48": 1033,
  "ியான": 5726,
  "க்காண": 9772,
  "uch": 2607,
  "▁[आ": 4561,
  "embly": 3506,
  "▁ஆகும்.[[": 7966,
  "ேரு": 6736,
  "்க்க": 3017,
  "த்_தலைவர்": 9777,
  "hip": 3548,
  "▁east": 7482,
  "ுக": 3363,
  "த்தீ": 8443,
  "கை": 1517,
  "▁से](http://www.": 5987,
  "ame": 1371,
  "ப்க": 8826,
  "வூ": 9551,
  "ஃப்": 3805,
  "1]](https://ta.wikipedia.org/wiki/இந்தியா#cite_note-": 7808,
  "_அ": 1493,
  "temporary": 8632,
  "_K": 2233,
  "ముంబై": 6097,
  "AsherTalbot2006),": 7187,
  "▁[978-0-8": 9070,
  "செ": 7406,
  "▁அதிகரித்து": 5230,
  "uri": 8776,
  "238": 6893,
  "▁its": 1805,
  "బ": 291,
  "▁பீ": 9575,
  "rancis": 4384,
  "3–": 4403,
  "ries/": 5739,
  "▁St": 7895,
  "▁[United": 4513,
  "வார்ப்புரு": 2744,
  "ligion": 2185,
  ".jpg)\n": 1893,
  "ww": 509,
  "ng": 1003,
  "▁\"భారతీయ": 3463,
  "▁శాస్త్ర": 8310,
  "ile": 1419,
  "▁தோ": 4159,
  "template_": 2662,
  "illion": 2538,
  "ப்பாடு": 7078,
  "_स्रोत/978": 3245,
  "](https://ta.wikipedia.org/wiki/இல": 9212,
  "_Gu": 9722,
  "த்திய": 1546,
  ".com/": 577,
  "▁தனி": 5740,
  "த்தால்": 6472,
  "▁technology": 6539,
  "▁வெளிய": 9138,
  "%2F": 2568,
  "53": 2799,
  "528": 7310,
  "520": 4737,
  "னர்.": 3163,
  "தன்": 1716,
  "130": 4736,
  "unleav": 8974,
  ".aspx?": 4665,
  "hailand": 9005,
  "भि": 1581,
  "▁te": 1935,
  "▁क्षेत्रों": 7180,
  "39-4": 7501,
  "Stein2010),": 5567,
  "ent": 471,
  "_D": 1082,
  "▁முக்கியமான": 8615,
  "631": 8739,
  "▁or": 831,
  "▁After": 9595,
  "ள்நாட்டு": 3315,
  "39)": 8708,
  "▁బ": 2576,
  "ymbol": 4281,
  "▁இரண்டா": 5222,
  "▁లే": 8303,
  "▁ste": 9592,
  "hin": 1364,
  "ymbols": 5379,
  "▁சுட்டி\")": 9144,
  "மெரிக்க": 2232,
  "](https://upload.wikimedia.org/wikipedia/commons/thumb/8/8": 9686,
  "▁దేశాల": 6351,
  "S.": 3857,
  "▁[v": 4338,
  ".gov.": 9685,
  "श्चि": 2444,
  "▁(7": 9411,
  "▁जुलाई": 3474,
  "க்கள": 2533,
  "▁अप्र": 5423,
  "▁Ste": 6935,
  "▁स्थ": 3745,
  "_ప్రా": 6364,
  "▁1,": 3418,
  "change": 3966,
  "▁முன்னர்": 9811,
  "yd": 5872,
  "▁[க": 1646,
  "▁ఉన్నాయ": 5204,
  "ిక": 1365,
  "z": 90,
  "can": 3875,
  "▁\"महाराष्ट्र\")": 9372,
  "▁bo": 3241,
  "ver": 547,
  "agari": 7454,
  "](https://ta.wikipedia.org/wiki/கேம்பிறிட்ஜ்": 8550,
  "velopment": 1863,
  "▁Dyson": 7926,
  "िया\")": 4034,
  "lémentin-Ojha": 6567,
  "▁Tamil": 5635,
  "ment": 660,
  "▁Amb": 8456,
  "1999),": 9813,
  "துகாப்பு": 2600,
  "raman": 5329,
  "▁ஆண்டில்": 9258,
  "ेर-": 9195,
  "▁name:": 9279,
  "ropped": 3977,
  "wat": 9536,
  "_Sh": 4769,
  "Se": 6130,
  "entre": 2774,
  "do-G": 8558,
  "2006),": 3898,
  "-प": 5384,
  "ांति": 8312,
  "కారం": 9946,
  "round": 5063,
  "▁कर्ज": 9986,
  "जं": 6999,
  "▁இந்தியா\")": 7938,
  "▁2007](https://en.wikipedia.org/wiki/India#CITEREF": 7976,
  "research": 8979,
  "PetragliaA": 6102,
  "बू": 8802,
  "mil": 6922,
  "ोली": 8244,
  "▁12": 3429,
  "्रम": 4931,
  "▁\"ந": 3071,
  "त्ति": 8232,
  "▁[ஐஅ$](https://ta.wikipedia.org/wiki/அமெரிக்க": 6860,
  "hosh": 9767,
  "▁13": 2873,
  "d": 68,
  "0%": 1832,
  "-b": 1515,
  ".org/": 360,
  "asha": 5930,
  "entury": 5258,
  "pecially": 6506,
  "\"](https://web.archive.org/web/201": 1513,
  "–1": 1883,
  "_De": 3097,
  "▁ஐ": 4144,
  "ளாண்மை": 6831,
  "pro": 5868,
  "perCol": 8215,
  "झारखंड": 7279,
  "vi": 1450,
  "▁[எ": 7856,
  "▁end": 4684,
  "105": 5086,
  "mon": 8060,
  "ेद": 7621,
  "▁[978-0-19": 2508,
  "ப்படுகின்றன.[[": 9291,
  "▁प्रस": 9017,
  "orities": 5071,
  "#cite_note-10": 8450,
  "న్నో": 9134,
  "▁Constitution": 3599,
  "rame": 7349,
  "/auth": 4092,
  "ances": 5000,
  "६": 206,
  "जवा": 9925,
  "पुरी": 4951,
  "గో": 3646,
  "rganisation": 3500,
  "und": 1053,
  "▁London": 6519,
  "5-0": 8644,
  "la": 1567,
  "▁பிரதேச": 3085,
  "ப்பட்ட": 931,
  "](https://hi.wikipedia.org/wiki/भारत#cite_ref-langoff": 8291,
  "▁அரசு": 3075,
  "ज": 158,
  "L": 44,
  "▁மக்கள": 3887,
  "▁[ISBN](https://en.wikipedia.org/wiki/ISBN_(identifier)": 1322,
  "_के_राज्य": 2509,
  "=20": 8647,
  "▁Des": 9649,
  "48)": 7949,
  "_Raj": 6820,
  "ेश": 731,
  "cean": 4582,
  "chae": 8464,
  "▁non-": 5541,
  "ப்புடி": 9618,
  "र्ष": 5629,
  "an,": 6189,
  "▁People": 7556,
  "ంజా": 6615,
  "▁CITEREF": 2716,
  "हें": 8813,
  "ade": 3052,
  "త్యేక": 7226,
  "urs": 6778,
  "er-": 5727,
  "](https://en.wikipedia.org/wiki/The": 4469,
  "द्वार": 7615,
  "ప్రదేశ్": 4317,
  "ece).": 9435,
  "ुक": 9938,
  "தாக": 2353,
  "வன": 1619,
  "ill": 2245,
  "दक्षिण": 2540,
  "ploy": 6175,
  "_Islands": 6547,
  "క్య": 5900,
  "▁दिसम्बर": 4638,
  "▁Persian": 5573,
  "](https://en.wikipedia.org/wiki/South_Asia": 4869,
  "▁th": 842,
  "▁from": 828,
  "▁1970": 6505,
  "-8": 704,
  "्ल": 1948,
  "edit": 630,
  "थाईल": 9054,
  "#cite_ref-": 464,
  "arket": 3571,
  "ीमा": 5401,
  "1):": 5594,
  "மண": 5887,
  "ांग्लादेश": 6688,
  "भू": 3913,
  "சியா": 1795,
  "25)": 4705,
  "▁2017.\n": 9787,
  "▁h": 891,
  "igration": 6496,
  "▁ed.": 3137,
  "ரிக்க": 1941,
  "Hindi": 3934,
  "2.\n": 6129,
  "ricket": 3979,
  "ncbi.nlm": 6910,
  "டக்": 7409,
  "_స": 3167,
  "LA": 3910,
  "44": 1492,
  "iv": 1379,
  "भाग": 3737,
  "_A": 850,
  "னர்.[[": 4192,
  "spec": 7401,
  "icob": 6466,
  "తము": 3172,
  "_in_T": 7484,
  "शोक": 8811,
  "way": 4233,
  "](https://ta.wikipedia.org/wiki/": 394,
  "▁गणराज्य": 5680,
  "ignific": 9888,
  "lobal": 3005,
  "▁[New": 9741,
  "_F": 1741,
  "▁*C": 7771,
  "▁निभा": 8271,
  "▁Food": 7125,
  "வு": 857,
  "▁July": 1693,
  "Fisher": 2170,
  "रु": 2313,
  "ources/": 601,
  "▁religious": 6325,
  "3),": 3476,
  "ంక": 3107,
  "లమె": 9960,
  "▁ని": 4014,
  "314": 7591,
  "_DS": 7500,
  "▁India's": 1694,
  "5)\n": 7311,
  "10.2305": 9304,
  "vanagari": 7544,
  "జె": 7627,
  "54": 3779,
  "_A7C": 9026,
  "ivision": 9426,
  "inghamYoung": 8587,
  "▁evidence": 9657,
  "ులు\"),": 8234,
  "▁నుండి": 4325,
  "ோர": 1669,
  "lief": 5744,
  "plate_": 2199,
  "ibcode": 5563,
  "ழ்": 1790,
  ".com/s": 8698,
  "%3D": 8317,
  "\"](https://web.archive.org/web/20": 6896,
  "yam": 5105,
  "strument": 8007,
  "irst": 2146,
  "టాన్": 6618,
  "ph": 3350,
  "▁(19": 7436,
  "edora": 8906,
  "_25": 7389,
  "▁estimate": 7369,
  "▁[ज": 4562,
  "▁exp": 6235,
  "▁காண": 6242,
  "समूह": 9164,
  "▁\"तमिल": 6631,
  "](https://upload.wikimedia.org/wikipedia/commons/thumb/": 1016,
  "▁under": 3938,
  "▁ci": 5128,
  "▁[Tamil": 9743,
  "web.archive.org/web/20": 2521,
  "formatics": 3895,
  "▁கட்ட": 3759,
  "▁போ": 1227,
  "వర్గ": 2513,
  "ast": 911,
  "▁(PDF).": 2552,
  "bbc.com/news/": 8723,
  "va": 2961,
  "ic": 442,
  "ture": 1222,
  "6]](https://en.wikipedia.org/wiki/India#cite_note-FOOTNOTE": 8364,
  "94": 4811,
  "ZVu": 4890,
  "-1)": 1337,
  "_p": 1495,
  "?action=edit&redlink=1": 644,
  "▁\"W": 3343,
  "भारतीय": 7652,
  "க்கண்ட": 7440,
  "▁தற்போது": 9340,
  "Business": 6708,
  "p?": 6134,
  "andy": 7075,
  "▁28": 2853,
  "_36": 6886,
  "lass": 2352,
  "▁\"இந்தியா": 1630,
  "estern": 3048,
  "29": 751,
  "ि": 187,
  "H": 40,
  "](https://ta.wikipedia.org/wiki/ந": 3549,
  "ென்னி": 4730,
  "▁now": 7960,
  "ti": 379,
  "▁[*": 837,
  "ृद्ध": 6613,
  "▁Home": 7778,
  "வும்": 2844,
  "alaysia": 7989,
  "htt": 350,
  "://": 352,
  "▁தொகைக்": 8021,
  "▁B": 646,
  "archived": 3081,
  "▁ஆறு": 3022,
  "ist": 567,
  "qu": 1665,
  "▁g": 882,
  "▁शासित": 9203,
  "ुम्बई": 9356,
  "శ్చ": 5406,
  "▁qu": 7048,
  "agen": 7663,
  "్రిటి": 6367,
  "विधान": 3825,
  "ी](https://hi.wikipedia.org/wiki/द": 7156,
  "otals": 3536,
  "#cite_note-1": 3131,
  "1-4": 3944,
  "ன்னாட்டு": 789,
  "▁இல": 3020,
  "oll": 2685,
  "ose": 4528,
  "_3": 2299,
  "ameez": 9092,
  "▁all": 3010,
  "_மக்கள": 9079,
  "வணச்": 5240,
  "ikh": 4531,
  "ु": 189,
  "▁these": 6221,
  "aos": 8763,
  "▁இந்தியா](https://ta.wikipedia.org/wiki/தி_டைம்ஸ்_ஆஃப்_இந்தியா": 9388,
  "/files/": 4972,
  "▁\"Special:BookSources/978-0-521": 9148,
  "crease": 6127,
  "onwe": 3265,
  "▁இ": 513,
  "oli": 1497,
  "▁[Archived](https://web.archive.org/web/20210": 8590,
  "సి": 1244,
  "San": 6976,
  "▁historical": 9869,
  "வுக்கு": 7127,
  "ef": 2075,
  "▁நகர": 9622,
  "ாளர்": 5551,
  "akh": 4401,
  "क्षरता": 7737,
  "▁வெப்ப": 9135,
  "is-": 8656,
  "निक": 5608,
  "2-0)": 2201,
  "_ஆ": 1843,
  "template": 1740,
  "▁L": 907,
  "▁Indus": 5283,
  "97": 9395,
  "▁ఈ": 3917,
  "▁பழ": 5138,
  "Taj": 6424,
  "గు": 2270,
  "ाक": 8814,
  "▁painting": 6768,
  "](https://en.wikipedia.org/wiki/P": 1449,
  "▁ప్రదేశ్": 4316,
  "_of_2011": 4166,
  "226": 4506,
  "rick": 3084,
  ".svg/": 3992,
  "lé": 6432,
  "-on-": 4795,
  "కి": 1850,
  "ాలో": 8178,
  "5).": 6165,
  ".indiatimes.com/": 2476,
  "▁Companion": 8624,
  "dustrial": 7796,
  "_GDP_(": 8346,
  "ls": 3220,
  "ையானது": 3076,
  "▁Short": 7334,
  "▁R": 559,
  "▁feat": 7457,
  "▁குடியரசுத்": 8612,
  "▁வரு": 3369,
  "ुस": 2292,
  "▁1980": 6326,
  "▁1998": 3285,
  "official": 9982,
  "्रां": 4444,
  ".html),": 9431,
  "▁total": 5834,
  "Rothermund": 2024,
  "dex": 5808,
  "ociety": 4120,
  "தார": 1934,
  "-1": 455,
  "Report.pdf)": 6909,
  "industani": 7216,
  "ింది.": 2666,
  "ldlife": 8488,
  "றுப": 6794,
  "▁dispute": 9439,
  "धान": 1569,
  "1998": 1191,
  "லமை": 8396,
  "च्": 6998,
  "▁\"இந்தியாவின்": 3703,
  "▁199": 1496,
  "▁इसके": 4968,
  "tin": 1522,
  "ांध": 5115,
  "_सं": 2875,
  ":EditPage/Template:": 5569,
  "வெளி": 3442,
  "त्तराखण्ड": 6370,
  "▁political": 7894,
  "ఆఫ్ఘనిస్తాన్": 9332,
  "Y": 57,
  "emale": 4254,
  "xim": 8780,
  "▁India\"),": 3597,
  "▁millennium": 9626,
  "கோ": 8389,
  "ர்ச்சி": 7081,
  "▁సామ్రాజ్యం](https://te.wikipedia.org/wiki/": 6357,
  "ounci": 6144,
  "epartment_of_": 8720,
  "350": 5798,
  "emocratic": 8004,
  "▁through": 6511,
  "▁2021.": 4227,
  "Provisional_Population_Totals_Paper_1_of_2011_India16": 7257,
  "ிர்": 4995,
  "_Valley": 9189,
  "▁mo": 8970,
  "మ్మూ": 5457,
  "2011),": 5810,
  "जापान": 8239,
  "▁ஆஃப்": 5164,
  "Census2011religion": 8031,
  "▁\"हिन्दी\")": 6694,
  "age\\_with\\_": 5638,
  "▁बंगाल": 8196,
  "▁9.": 6185,
  "csm": 9399,
  "गणराज्य": 5668,
  "–సా.శ.": 1327,
  "▁n": 870,
  "▁depend": 6148,
  "▁பாலைவன": 7961,
  "ந்திர": 3884,
  "▁caste": 4164,
  "pecial": 801,
  "ों_की_सूची": 2583,
  "](https://dx.doi.org/": 9384,
  "हम": 8812,
  "प": 171,
  "சார்": 8823,
  "m.nic.in/": 4542,
  "arrow": 6453,
  "శ్మీ": 4454,
  "ல்வே": 8430,
  "தம்": 4354,
  "▁2016.\n": 8718,
  "ights": 7794,
  "613": 9901,
  "↑": 338,
  "▁[ISBN](https://ta.wikipedia.org/wiki/பன்னாட்டுத்_தர_தொடர்_எண்": 1283,
  "ख्या": 2570,
  "ष्ट्र": 1140,
  "ंपरा": 9207,
  "D": 36,
  "▁[பா": 6529,
  "ote:": 5792,
  "▁\"கா": 7861,
  "லுங்கு": 9797,
  "▁பகுதிய": 3502,
  "▁(identifier)": 980,
  "bnf.fr/ark:/121": 5472,
  "B0%": 9905,
  "▁uni": 9481,
  "షి": 5906,
  "▁बना": 4767,
  "-l": 2399,
  "](https://ta.wikipedia.org/wiki/தி_": 4875,
  "▁द्वारा": 4792,
  "▁தொடர்": 1038,
  "ew": 719,
  "▁\"హ": 8883,
  "రాష్ట్రపతి": 7227,
  "▁\"B": 1262,
  "ல்லா": 7881,
  "▁தற்போ": 7889,
  "-2": 921,
  "aro": 7070,
  "ooperation": 4471,
  "4.": 1238,
  "ov": 910,
  "2019": 2457,
  "டைம்ஸ்_ஆஃப்": 9191,
  "▁parlia": 9176,
  "▁1988": 9016,
  "19-9": 4365,
  "▁General": 4594,
  "ureau": 6956,
  "▁கிராம": 5053,
  "ையுடைய": 8964,
  "జ్యం": 1403,
  "ந்து": 950,
  "Asher2006": 5659,
  "](https://hi.wikipedia.org/wiki/मध्य": 8250,
  "▁मुख्य": 7287,
  "99": 3033,
  "liefs": 9850,
  "ం,": 7623,
  "hyan": 9745,
  "place": 7781,
  "ऑक्सफोर्ड": 8785,
  "_43": 6982,
  "గం": 8123,
  "ேற்கு": 3070,
  "ிய": 381,
  "நி": 9544,
  "ంద": 938,
  "aul": 5821,
  "Dyson2018),": 5042,
  "▁\"सं": 4301,
  "reed": 5482,
  "స్": 669,
  "ota": 9528,
  "▁పార్టీ": 5974,
  "load": 953,
  "▁bec": 3491,
  "விய": 1807,
  "▁Assembly": 4899,
  "fied": 9643,
  "6)\n": 4671,
  "erv": 2105,
  "80": 1291,
  "rin": 2389,
  "▁ஆகியவை": 4721,
  "y,": 3458,
  "ன்": 413,
  "cript": 6407,
  "M50thReport.pdf)": 7740,
  "ada": 5150,
  "▁[இம்": 6838,
  "ased": 3854,
  "ames": 1842,
  "ஆ": 213,
  "క్ష": 1681,
  "िनेमा": 6611,
  "खाना": 4411,
  "mc": 8771,
  "నే": 2272,
  "రి": 922,
  "▁चुनाव": 5682,
  "▁Quote:": 5794,
  "ussia": 3964,
  "bank": 3349,
  "yanmar": 6089,
  "319": 6163,
  "Jha2018": 7732,
  "तमिल": 3038,
  "dus": 2905,
  "श्रीलंका": 6082,
  ".](https://upload.wikimedia.org/wikipedia/commons/thumb/": 6159,
  "▁[Oxford": 5480,
  "hu": 5866,
  "▁देव": 8191,
  "?": 32,
  ":S": 4351,
  "▁(2018).": 8340,
  "▁\"சிறப்பு:BookSources/978-81": 5210,
  "census": 1813,
  "ின்ற": 2091,
  "ces": 2180,
  "‌": 322,
  "▁2006](https://en.wikipedia.org/wiki/India#CITEREFMetcalfMetcalf2006),": 5793,
  "▁\"Re": 6029,
  "df": 1285,
  "లా": 2316,
  "logue": 2722,
  "es.[[": 9566,
  "X": 56,
  "198": 2172,
  "▁கணக்கெடுப்பின்": 9818,
  "](https://hi": 411,
  "row": 1708,
  "_Act": 6584,
  "JIJ": 4813,
  "▁मुख": 5941,
  "▁மேற்கு": 5212,
  "ff": 1057,
  "ணைய": 3806,
  "](https://en.wikipedia.org/wiki/History_of_": 7576,
  "▁உயிரி": 5044,
  "గణ": 4923,
  "வரலா": 8566,
  "▁[கு": 5722,
  "rade": 3112,
  "-90": 3864,
  "az": 3147,
  "▁1971": 9661,
  "eser": 3110,
  "resent": 4398,
  "ance": 1173,
  "▁sup": 4068,
  "\\_and\\_Sfn\\_no-target\\_errors\n": 2679,
  "▁village": 9876,
  "](https://www.": 3264,
  "orig": 8687,
  "िशा": 7208,
  "ागर": 3390,
  "-asia": 5268,
  "▁கிழக்கு": 9588,
  "20011": 8434,
  "▁Buddha": 9236,
  "asp?": 9988,
  "▁சமய": 2537,
  "ep": 866,
  "91": 3093,
  "▁original](https://www.": 2796,
  "170": 5489,
  "tatis": 5414,
  "]](https://hi.wikipedia.org/wiki/भारत": 1045,
  "▁\"இந்திய": 1213,
  "हीं": 4744,
  "_val": 6713,
  "र्थ": 2135,
  "tile": 7868,
  "8%": 6966,
  "▁जा": 1989,
  "▁[पंजाब": 6049,
  "emb": 2973,
  "ote": 4132,
  "▁वर्ष": 4041,
  "▁காங்கிரசு": 6034,
  "ze": 4135,
  "489": 6946,
  "rganization": 4879,
  "%20MDD": 8226,
  "ference": 9523,
  "ngineering": 9050,
  "onetary": 5039,
  "ोस": 7017,
  "र्स": 4761,
  "▁1994](https://ta.wikipedia.org/wiki/இந்தியா#CITEREF": 8604,
  "hiv": 9565,
  "▁भी": 2166,
  "యి": 7042,
  "▁செய்ய": 6027,
  "-lead": 5572,
  "ummary": 6659,
  "](https://en.wikipedia.org/wiki/India#CITEREF": 965,
  "-5196": 6398,
  "ம்,": 4066,
  "–17": 9457,
  "lobe": 9774,
  "▁పే": 2824,
  "▁ट": 5409,
  "/we": 6592,
  "&pg=": 945,
  "_के_अनुसार": 7744,
  "▁urban": 7052,
  "श्मीर": 3661,
  "க்கிண்ணம்": 9288,
  "4/": 3282,
  "ority": 2629,
  "मालय": 5610,
  "a": 65,
  "Chang": 9515,
  "ந்தி": 4362,
  "▁[अंग्रेज़": 6032,
  "](https://ta.wikipedia.org/wiki/இந்திய_அரசு": 7565,
  "▁C.": 3598,
  "culpture": 8029,
  "_industry": 8372,
  "▁చెయ్య": 6072,
  "ారస": 9998,
  "CL": 6274,
  "\\": 60,
  "▁pan": 9462,
  "▁high": 4873,
  "earch/India": 5559,
  "▁[तमिल": 8146,
  "ताज": 5989,
  "చల్": 5123,
  "भारत": 436,
  "urn": 4764,
  "](https://ta.wikipedia.org/wiki/இந்திய_அ": 4375,
  "१९": 5885,
  "▁ஆட்சி": 6779,
  "\").\n": 1587,
  "्यूरो": 8941,
  "alysis": 8038,
  "హ్": 5617,
  "▁\"பன்னாட்டுத்": 1248,
  "urr": 3054,
  "▁यह": 3188,
  "▁prom": 7351,
  "har": 873,
  "ages/": 5526,
  "याल": 2928,
  "▁15": 2173,
  "।[[": 2817,
  "Sharma2007": 3770,
  "▁Congress": 3514,
  "iteracy": 6952,
  "▁un": 2056,
  "▁record": 9008,
  "cyclop": 6128,
  ".htm)": 6554,
  "▁பொருட": 4715,
  "arnataka": 6095,
  "chus": 8956,
  "▁central": 9765,
  "▁composed": 5665,
  "](https://ta.wikipedia.org/wiki/இந்தியா#cite_ref-": 2594,
  "▁[வங்காள": 8404,
  "ூர்": 2431,
  "q9": 7832,
  "▁அக": 4070,
  "టీ": 6617,
  "ாட்டின்": 5747,
  "versity": 902,
  "▁Population": 2746,
  "1997": 2645,
  "Ἰ": 321,
  "क्ष": 905,
  "]](https://hi.wikipedia.org/wiki/भारत#cite_note-": 1444,
  "హదార": 6623,
  "lue": 9527,
  "க்கிண்ண": 5206,
  "▁Mar": 2174,
  "त्": 1922,
  "ருநாட": 6476,
  "upreme": 7353,
  "ధి": 9952,
  "▁re": 739,
  "ban": 3262,
  "f/": 6919,
  "ंग्रेस": 4780,
  "▁Review": 7522,
  "ॊ": 195,
  "ndhra": 8221,
  "rishn": 3718,
  "ப்படுகின்ற": 5363,
  "ொழ": 1190,
  "199": 599,
  "uclear": 2598,
  "▁hum": 5542,
  "ign_": 9648,
  "kZVu": 4894,
  "▁10": 2106,
  "▁सदस": 9303,
  "](Special": 1269,
  "▁संस्कृति": 6007,
  "censusindia.gov.in/": 3146,
  "tary": 1776,
  "వీ": 5904,
  "யோ": 5119,
  "ambo": 8942,
  "लिस": 5107,
  "7C": 7811,
  "ణాసియా": 6683,
  "rajbhasha": 8296,
  "▁(eds.),": 6361,
  "ర్\")": 7115,
  "#CITEREF": 623,
  "Special:Search/India": 5580,
  "ది.": 7629,
  "_చరిత్ర?action=edit&redlink=1": 7722,
  "T": 52,
  "•": 332,
  "ountries": 6524,
  "tig": 5914,
  "▁होत": 5633,
  "B": 34,
  "_மொழிகள்": 8008,
  "▁நாடாக": 8585,
  "▁साम": 3187,
  "s/default": 7573,
  "நாட்டு": 2888,
  "enti": 628,
  "thumb/": 998,
  "_39": 7756,
  "34)": 6021,
  "?action=edit&red": 643,
  "2012": 2872,
  "▁केन्द्र": 5630,
  "alak": 6750,
  "_E": 1626,
  "▁தொலை": 7525,
  "▁same": 9593,
  "-ex": 6569,
  "indu": 1265,
  "▁பொ": 1102,
  "▁ఇ": 1984,
  "▁Temple": 8983,
  "ll": 1062,
  "▁Gujarat": 9468,
  "ough": 3206,
  "▁spre": 9594,
  "us": 486,
  "▁வை": 4477,
  "](https://en.wikipedia.org/wiki/Indian": 8448,
  "ibet": 6040,
  "▁\"வி": 7062,
  "▁j": 3685,
  "ode": 6133,
  "▁உறு": 5748,
  "doc": 3676,
  "▁வளர்ச்சி": 4841,
  "imachal": 9495,
  "▁చూ": 4775,
  "ated\\_parameters#": 4264,
  "▁\"साँच": 8884,
  "alys": 6751,
  "ార్": 1661,
  "_2019": 7823,
  "id.": 6138,
  "_citation": 9299,
  "వరి": 5405,
  "HarperCollin": 9037,
  "ndaman": 3838,
  "kb": 7606,
  "ोर": 2816,
  "கவல்": 6435,
  "ధిక": 2411,
  "infobox": 7802,
  "ublic": 1528,
  "▁century": 3632,
  "லைமை": 4851,
  ".;": 1628,
  "ప్రధాన": 4781,
  "▁உள்ளது.[[": 5548,
  "_U": 7600,
  "▁m": 556,
  "iance": 7703,
  "racy": 2752,
  "ार्कट": 9220,
  "▁\"Template:": 7963,
  "grave": 7158,
  "▁35": 5514,
  "](https://hi.wikipedia.org/wiki/अ": 2133,
  "andard": 3351,
  "▁*": 495,
  "▁Bengal": 5751,
  "tel": 2829,
  "ம்": 399,
  "க்சி": 8472,
  "tition": 3595,
  "ग्व": 6997,
  "ச்சிப்புடி": 9733,
  "-17": 2630,
  "ల": 296,
  "ley": 2433,
  "▁ஆணையர்": 9640,
  "cia.gov/": 9499,
  "டைகள்": 9693,
  "74": 4650,
  "▁power": 5831,
  "v": 86,
  "orn": 4998,
  "சரா": 7840,
  "5/": 5248,
  "▁f": 506,
  "ోర్": 4421,
  "▁some": 4341,
  "ultan": 4619,
  "கிய": 7405,
  "ंगाल": 3653,
  "▁\"A": 1290,
  "_of_Congress": 4980,
  "3.": 1300,
  "▁ల": 4295,
  "▁वार्ता:": 9297,
  "▁కాంగ్రె": 8284,
  "▁Publications": 7562,
  "▁கார": 3555,
  "thehindu": 4806,
  "](https://en.wikipedia.org/wiki/Mughal_": 8047,
  "▁Wiki": 5491,
  "ourbaki": 8465,
  "▁cre": 7461,
  "हारजिस्ट्रार": 9376,
  "మూ": 2293,
  "ர்த்தா": 9807,
  "ilies": 7542,
  "Tritsch": 4672,
  "ிருந்து": 2419,
  "▁(15": 8693,
  "_के_आधार_पर": 3410,
  "▁\"क": 1926,
  "athematics": 8579,
  "▁आद": 8213,
  "▁गठ": 9060,
  "pBq9": 9338,
  "alth": 1852,
  "end": 1608,
  "▁பதிப்பகம்": 2069,
  "க்கால": 4834,
  "touch": 9354,
  "\\_(": 6581,
  "eport": 3378,
  "_from": 5495,
  "▁<": 3129,
  "▁rise": 9725,
  "Z": 58,
  "மலை": 4992,
  "rely": 8418,
  "ारी": 4572,
  "▁2011.": 5837,
  "▁ஓர்": 3769,
  "औ": 150,
  "ब्ब": 6055,
  "▁include": 9233,
  "▁1965": 6219,
  "_at_the": 4722,
  "template_errors": 2676,
  "्यता": 4758,
  "aj": 1110,
  "▁போன்ற": 6015,
  "కైవు": 6379,
  "jo": 9914,
  "on-": 1914,
  "%7C": 5782,
  "here": 3011,
  "▁Al": 3988,
  "▁देश\")": 7194,
  "CD": 9397,
  "▁37": 8142,
  "▁அட": 5947,
  "alli": 4242,
  "ங்களில்": 3082,
  "ब्": 2710,
  "▁बा": 5642,
  "த்தது.": 6760,
  "oln": 8481,
  "ʼ": 123,
  "1947": 3923,
  "nominal)": 8724,
  "ronom": 7993,
  "▁புலி": 7511,
  "as": 432,
  "cre": 2732,
  "▁अ": 636,
  "ined": 1959,
  "archive.org/web/": 853,
  "rector": 6959,
  "ial_": 7470,
  "ș": 116,
  "s:": 9531,
  "మంత్రి": 6619,
  "▁incre": 4303,
  "▁உய": 2333,
  "▁for": 906,
  "द्य": 1815,
  "line": 2227,
  "ணி": 1130,
  "Bl": 3871,
  "cms).": 5670,
  "▁[4": 5077,
  "formance": 7545,
  "धार_पर": 3405,
  ".jpg/250px-M": 9428,
  "▁Vol": 7696,
  "▁December": 2754,
  "▁Ch": 3863,
  "▁కా": 3246,
  "ext": 6020,
  "க்கோபார்": 8592,
  "35.": 9423,
  "ds": 5252,
  "ashm": 2023,
  "_and": 995,
  "▁English": 3652,
  "_அடிப்படையில்_நாடு": 5577,
  "leg": 5139,
  "▁made": 5085,
  "▁\"இந்தியாவில்": 2321,
  "him": 8419,
  "ங்கள்\")": 6533,
  "▁கடற்கரை": 7577,
  "\\_s": 2794,
  "మన": 9955,
  "raz": 6470,
  "కళ": 8843,
  "_S": 786,
  "asian": 8433,
  "ples": 7493,
  "ेशिया": 6324,
  "angalore": 4480,
  "जा": 1391,
  "Tarlo1996-26": 6561,
  "britannica.com/": 4505,
  "ண்கள்": 4820,
  "1_": 1820,
  "thnologue": 3278,
  "7": 24,
  "fn": 1297,
  "ऋतु": 9922,
  "▁ఒక": 5226,
  "class": 5361,
  "णि": 4284,
  "CN": 2784,
  "▁*[ப": 8511,
  "▁2022.\n": 6404,
  "தம": 4056,
  "४.": 9942,
  ",000": 2322,
  "சை": 2587,
  "ांग्ला": 3256,
  "▁upper": 8593,
  "▁நிலை": 4383,
  "mrits": 6174,
  "$](https://ta.wikipedia.org/wiki/அமெரிக்க": 6705,
  "స్థాన్": 5445,
  "\";\n": 5581,
  "▁பிரப": 6823,
  "▁द्वीप": 7678,
  "▁வில்லி": 8949,
  "_मेला?action=edit&redlink=1": 6068,
  "stani": 7917,
  "ఉత్తర": 7033,
  "▁[*P": 6796,
  "ंग्रेज": 9109,
  "_ஆற்றல்": 9749,
  "atsyayan": 4727,
  "▁*India": 6478,
  "▁[2](https://en.wikipedia.org/wiki/India#cite_ref-FOOTNOTE": 4079,
  "ournal": 2837,
  "ईद": 8783,
  "verse": 5023,
  "▁सम": 2275,
  "छत्तीसगढ़": 7281,
  "▁हु": 2107,
  "orea": 9712,
  "vent": 4895,
  "ार्": 3650,
  "cess": 5272,
  ".nic.in/": 1929,
  "–29": 9456,
  "vest": 8777,
  "ాలు](https://te.wikipedia.org/wiki/": 3927,
  "ప్ప": 7228,
  "ில்லியன்": 9308,
  "uro": 2055,
  "▁அணி": 7907,
  "▁பண்பாடு": 9262,
  "ென்": 5512,
  "_द": 6980,
  "32-1": 8572,
  "त्व": 5876,
  "▁[అ": 4019,
  "io": 2450,
  "than": 3314,
  "1857": 8705,
  "-20": 1961,
  "ేంద్ర": 2993,
  "_Ass": 6945,
  "▁सि": 2923,
  "▁कु": 6307,
  "▁./వర్గం:": 3060,
  "तग": 9926,
  "कु": 9924,
  "ர்கள": 2249,
  "संख्या": 3741,
  "న్\")": 8194,
  "దు": 3309,
  "ible": 8555,
  "హారాష్ట్ర": 9254,
  "former": 9420,
  "▁राजनी": 6041,
  "Special": 1183,
  "தா": 3069,
  "త్తరా": 8305,
  "Nav": 3261,
  "yan": 4654,
  "\"))\n": 2345,
  "_a_": 7391,
  "250": 1321,
  "రు": 1637,
  "](https://hi.wikipedia.org/wiki/हिन्द": 8907,
  "4": 21,
  "ministrative": 6093,
  "%2C_India": 5435,
  "▁மேற்பட்ட": 8553,
  "्ष": 693,
  "▁./": 920,
  "leshow/": 2702,
  "maputra": 6256,
  "entral": 2831,
  "—": 326,
  "▁பகு": 1838,
  "_Agency": 6223,
  "do-European": 7203,
  "oram": 5721,
  "-316": 8487,
  "▁\"उ": 2996,
  "rew": 6449,
  "द्": 1555,
  "गोल": 4910,
  "Balakrishnan": 9396,
  "ive": 2785,
  "ती": 1945,
  "▁oc": 4825,
  "▁errors\"))\n": 2490,
  "\"](https://www.": 1595,
  "ब्बत": 7290,
  "▁(201": 1911,
  "ua": 3953,
  "ులు": 1315,
  "ष": 182,
  "matic": 7487,
  "countries_and_dependencies_by": 9505,
  "_न": 4904,
  "க்கிய": 1332,
  "amily": 7982,
  "▁பல": 3885,
  "um": 531,
  "ஜ்": 2588,
  "â": 100,
  "45": 1128,
  "Category:": 1233,
  "](https://ta.wikipedia.org/wiki/எ": 8896,
  "▁culture": 5486,
  "▁இணை": 7458,
  "▁புதிய": 7162,
  "ियों": 2665,
  "_ए": 5388,
  "oo": 423,
  "election": 5703,
  "▁மு": 904,
  "ichell": 4835,
  "▁కార": 8204,
  "ில்லி": 2618,
  "orest": 5909,
  "्र": 422,
  "டிய": 1398,
  "inated": 8654,
  "▁நீ": 2164,
  "तन": 7614,
  "inistry_of_": 3975,
  "పూ.": 1663,
  "▁ரீதிய": 6258,
  "▁World": 2200,
  "ovic": 9038,
  "▁\"Ar": 9717,
  "o-operation": 5576,
  "action": 629,
  ".or": 359,
  "](Special:EditPage/Template:": 9715,
  "and\\_": 2518,
  "ान": 535,
  "▁[2](https://ta.wikipedia.org/wiki/இந்தியா#cite_ref-FOOTNOTE": 3216,
  "भी": 3040,
  "தேசம்": 7212,
  "#C": 618,
  "ालैंड": 8190,
  "गो": 3799,
  "நாயக": 7998,
  "▁fig": 8171,
  "▁[हिन्द": 3815,
  "went": 7760,
  "த்தியப்": 7971,
  "res": 586,
  "undamental": 5796,
  "▁1.": 3138,
  "ச்சகம்": 5561,
  "▁India\").": 5643,
  "▁state": 3523,
  "a-": 6714,
  "▁भ": 1414,
  "యునైటెడ్": 7746,
  "_in_B": 7124,
  "f": 70,
  "▁Th": 3196,
  "-15": 6475,
  "▁har": 9969,
  "pedia/": 976,
  "మైన": 4419,
  "link=1": 641,
  "_கா": 6981,
  "▁Bank": 4659,
  "3)": 1575,
  "गुजरात": 3931,
  "81": 2813,
  "a_": 1159,
  "rofile": 8315,
  "49-2": 6810,
  "▁மர": 6467,
  "pect": 4335,
  "yy": 6176,
  "ों": 664,
  "y\")": 4134,
  "-H": 6882,
  "ంగ": 1032,
  "र्ट": 8173,
  "_Mahal": 9711,
  "▁27": 3047,
  "▁2011": 1046,
  "▁सूर": 9989,
  "id": 447,
  "\\_no-": 2658,
  "60110": 9071,
  "ally": 4690,
  "inist": 1756,
  "angetic": 7969,
  "_128": 6950,
  "2006": 1006,
  "ணிடப்பட்டது.": 6813,
  "िला": 5400,
  "23)": 4848,
  "ప్రత్యేక": 8246,
  "his": 1614,
  "ம்](https://ta.wikipedia.org/wiki/ம": 9573,
  "aranasi": 9801,
  "_एशिया": 8098,
  "po": 5062,
  "ी\")": 1487,
  "7.\n": 5058,
  "sehl": 8072,
  "2905": 4855,
  "_d": 2018,
  "17.": 6510,
  "▁[↑](https://ta.wikipedia.org/wiki/இந்தியா": 742,
  "हरियाणा": 9330,
  "▁(identifier)\"):[10.": 9204,
  "க்சு": 7464,
  "▁प्रेस": 6644,
  "▁పా": 4765,
  "ल्": 4414,
  "▁అత్య": 7698,
  "dian": 4685,
  "▁குறி": 2811,
  "िये": 5188,
  "इल": 9919,
  "AliAitchison": 7300,
  "हासागर": 4447,
  "umbia": 9673,
  "▁2019.\n": 5840,
  "enni": 6741,
  "ped": 2440,
  "चित्र": 2196,
  ".in": 880,
  "க்குக்": 5760,
  "▁பதிப்பகம்](https://ta.wikipedia.org/wiki/கேம்பிறிட்ஜ்": 8559,
  "Combined": 2307,
  "▁பிரபல": 9323,
  "డ్": 2338,
  "▁republic": 9659,
  "Navbox": 4388,
  "pr": 1932,
  "▁\"प": 2104,
  "▁[2": 1301,
  "oogle": 762,
  "EN": 7751,
  "டை": 1058,
  "achin": 5942,
  "hrist": 5070,
  "day": 5273,
  "king": 2282,
  "ில": 800,
  "Dwyer2014": 9373,
  "ినల్": 5200,
  "ोत": 1571,
  "I": 41,
  "cienti": 9572,
  "▁sfn": 2773,
  "ikshit": 2455,
  "्ला": 2990,
  "▁China": 6253,
  "▁[Archived](https://web.archive.org/web/20": 3592,
  "](Special:BookSources/978-1": 2937,
  "fficial": 2708,
  "▁ரூபாய்\")": 6564,
  "▁texts": 6556,
  "▁ex": 1412,
  "rative": 4836,
  "ईसा": 4409,
  "ழக்கு": 7846,
  "भोजपुरी": 9292,
  "స్త": 2503,
  "தற்கு": 4355,
  "టెడ్": 6689,
  "▁கொள்கை": 7152,
  "nc": 5803,
  "్రి": 4027,
  "urk": 7466,
  "27": 807,
  "▁Michael": 5956,
  "ी.": 6612,
  "लोक": 4287,
  "▁भूमिका": 8320,
  "art": 986,
  "](File:": 2162,
  "▁Sanskrit": 3601,
  ".htm": 3638,
  "bbc": 6830,
  "▁[South": 4076,
  "्रोत/978": 1970,
  "హాత్మా": 9226,
  "ed\\_im": 5625,
  "Alig": 6571,
  "han": 2751,
  "மார்": 9547,
  "eserve": 7229,
  "ఎ": 265,
  "ரதநாட்ட": 9872,
  "4),": 8084,
  "-40": 2833,
  "டுக": 9642,
  "▁பாரம்பரிய": 3633,
  "மல": 8391,
  "](https://hi.wikipedia.org/wiki/इ": 4426,
  "218": 6212,
  "ర్చ:": 8332,
  "▁చెయ్యబడ": 6108,
  "स्ला": 5652,
  "மிருந்து": 8392,
  "ज्ञ": 2547,
  "com": 483,
  "target": 1601,
  "dust": 2862,
  "▁தலை": 2643,
  "▁app": 5959,
  "▁Rec": 8661,
  "▁है।[[": 5656,
  "இல்": 1894,
  "2010),": 6008,
  "web.": 847,
  "்ட": 416,
  "▁st": 4837,
  "ట్ట": 2868,
  "ैथिल": 7014,
  "▁[P": 1336,
  "title": 8692,
  "uck": 8509,
  "ூபாய்": 3683,
  "](https://en.wikipedia.org/wiki/List_of_SAARC": 7196,
  "▁[\"G": 5983,
  "](https://en.wikipedia.org/wiki/India#cite_ref-vatsyayan-lord_43": 9764,
  "स्त": 895,
  "हिन्द": 1524,
  "▁[[": 3617,
  "ியா": 2144,
  "▁around": 7793,
  "pics": 4085,
  "ö": 108,
  "fornia": 5757,
  "hism": 3333,
  "pee": 5130,
  "िश": 2192,
  "▁நிர்": 6236,
  "▁prov": 6140,
  "ha": 715,
  "धार": 1597,
  "-80": 2447,
  "ribution": 6403,
  "iated": 6739,
  "_T": 1121,
  "orth": 1910,
  "_language": 2425,
  "arden": 6819,
  "ద్వీ": 8248,
  "384": 9684,
  "▁increased": 7564,
  "▁2007\n": 7189,
  "हाय": 6667,
  "▁2018](https://en.wikipedia.org/wiki/India#CITEREFFisher2018),": 9836,
  "్ట": 1215,
  "जयनगर": 9241,
  "▁அ": 518,
  "రీ": 4926,
  "ையும்,": 9621,
  "ड़ियाँ": 7144,
  "ों_की_सूची?action=edit&redlink=1": 8270,
  "ற்கு": 1306,
  "ITEREF": 597,
  "र्ध": 7665,
  "்த": 376,
  "](https://ta.wikipedia.org/wiki/இந்தியாவின்_ப": 9808,
  "▁கோடி": 4716,
  "▁मैदान": 4934,
  "vara": 9211,
  "...]": 9438,
  "▁mark": 9624,
  "ఫ్": 4143,
  "२००": 7020,
  "ption": 5823,
  "a\")": 2045,
  "Harle1994),": 6549,
  "▁des": 6118,
  "రే": 5902,
  "▁[ISBN": 814,
  "org": 6740,
  "▁வடிவ": 4391,
  "லாய": 3498,
  "_உள்நாட்டு_உற்பத்தி": 9894,
  "▁कुल": 5627,
  "ोष": 5116,
  "மெ": 1912,
  "கிறது.[[": 8543,
  "ated": 1502,
  "கமாக": 4990,
  "318": 4900,
  "2-4": 4669,
  "Articles\\_containing\\_": 8573,
  "▁\"Category:": 6229,
  "_Nations": 7170,
  "▁நு": 4481,
  "Schwartzberg2023": 3125,
  "డ": 281,
  "rune": 8774,
  "▁[t": 3782,
  "ihar": 4525,
  "▁com": 2344,
  "406]](https://en.wikipedia.org/wiki/India#cite_note-vatsyayan-lord": 8616,
  "-se": 9714,
  "erala": 4961,
  "ration": 1827,
  "ப்பு": 533,
  "ेस": 4009,
  "ंत्र": 1676,
  "_the_": 7329,
  "तुल": 8108,
  "A": 33,
  "▁பார": 2559,
  "పంచ": 3393,
  "िख": 6286,
  "s/de": 5490,
  "▁इ": 1221,
  "ootball": 6104,
  "ummit": 1714,
  "ाले": 8189,
  "ంధీ": 5221,
  "ல்க": 1257,
  "HarperCollins": 9368,
  "ure": 2555,
  "-88": 3627,
  "_and_C": 9048,
  "▁स्रोत/978": 3238,
  "▁குறை": 3837,
  "▁Chin": 2459,
  "▁[राज्य": 8879,
  "▁[World": 6929,
  "_क": 703,
  "ள்": 456,
  "ங": 224,
  "india.com/india/": 9493,
  "▁நிறு": 2979,
  "ான": 543,
  "▁कश्मीर": 5922,
  "நாட்ட": 9545,
  "▁ఒ": 2914,
  "amanuj": 7994,
  "](https://en.wikipedia.org/wiki/Template_": 9735,
  "sey": 9094,
  "rough": 5364,
  "40": 808,
  "pture": 7398,
  "ண்டா": 2972,
  "icha": 4157,
  ":EditPage/మూస:": 8274,
  "రాష్ట్ర": 3058,
  "andhi": 3294,
  "al_Population_Totals": 4205,
  "harma": 1899,
  "‎": 324,
  "१": 201,
  "ments": 4029,
  "abaddi": 9229,
  "-largest": 4785,
  "साँच": 2386,
  "240": 7321,
  "minis": 8100,
  "2024": 3920,
  "-news/": 8731,
  "▁महासागर": 6311,
  "▁dec": 4343,
  "हरी": 5612,
  "▁क्षेत्र": 1558,
  "cific": 7766,
  "श्रेणी:": 1149,
  "ీహార్": 8864,
  "_ஆவணச்": 9142,
  "एस": 3797,
  "▁கிட்டத்தட்ட": 9875,
  "targ": 1599,
  "▁than": 3739,
  "न्स": 9007,
  "▁न्या": 3655,
  "Special:Search/India\")": 9849,
  "▁सागर": 9087,
  "general_": 6833,
  "▁Official": 5089,
  "▁people": 3973,
  "▁60": 7763,
  "8.": 1462,
  "▁मन्दिर": 8938,
  "ograp": 2061,
  "g": 71,
  "ிரை": 2228,
  "ெற்காசிய": 5237,
  "▁cour": 7912,
  "▁Union": 4016,
  "▁\"Mughal": 7955,
  "%20": 1180,
  "](Special:BookSources/978-81": 8525,
  "की": 2987,
  "lood": 4676,
  "▁[↑": 512,
  "ni": 663,
  "ka": 4053,
  "-india": 1762,
  "నిస్తాన్": 5431,
  "▁பாணிய": 9719,
  "டப்பட்டது.": 6061,
  "▁थी": 4789,
  "IAF": 9800,
  "திவா": 5165,
  "ன்ன": 691,
  "ae": 3679,
  "▁class": 3021,
  "mill": 4818,
  "omm": 1440,
  "121–1": 8268,
  "ern": 1533,
  "வீன": 5892,
  "emi": 7477,
  "▁தி": 5332,
  "kata": 8379,
  "▁C": 481,
  "o-": 1814,
  "med": 4653,
  "Ag": 4508,
  "▁கிரா": 4367,
  "▁பதிப்பகம்](https://ta.wikipedia.org/wiki/ஒக்ஸ்போர்ட்": 4720,
  "वि": 681,
  "▁पै": 9993,
  "▁was": 1404,
  "pire": 1781,
  "](https://ta.wikipedia.org/wiki/இந்திய_": 3501,
  "சுவ": 6499,
  "andit": 5324,
  "_Informatics_Centre": 5095,
  "రుణా": 9130,
  "த்தர": 4474,
  "భ": 292,
  "ீன": 2281,
  "हिमा": 5437,
  "▁2007": 1853,
  "▁Ro": 2360,
  "▁[978-1-317": 9127,
  "\")*,": 2094,
  "1999": 3969,
  "किम": 4965,
  "▁Press](https://en.wikipedia.org/wiki/Cambridge_University_Press": 8633,
  "▁prac": 7451,
  "▁hi": 3883,
  "िंधु": 7282,
  "rust": 5869,
  "▁अनुसार": 3742,
  "▁Asia:": 6333,
  "▁summit\")": 4476,
  "▁An": 2070,
  "▁వచ్చింది.": 8323,
  "▁வல": 7897,
  "▁par": 2604,
  "](https://hi.wikipedia.org/wiki/भारत#cite_ref-": 3559,
  "▁ஆ": 606,
  "sh": 753,
  "ack": 1825,
  "ंड": 1314,
  "▁ஏற்பட்ட": 9179,
  "worldcat.org/": 5844,
  "तुल्य": 9341,
  "10.10": 2553,
  "umbai": 3675,
  "_2024": 8580,
  "हरिया": 7197,
  "சுலி": 5969,
  "ission": 2175,
  "lated": 8381,
  "Tritsch20011": 9831,
  "vid": 7402,
  "land": 1230,
  "▁[ఇ": 4563,
  "Environment_and_For": 8623,
  "▁at": 2047,
  "▁Sharma": 8944,
  "Sharma": 2756,
  "மைக்": 4856,
  "▁contribu": 9877,
  "tate": 1954,
  "ி": 246,
  "▁இரா": 3207,
  "_%28": 2251,
  "Urdu": 7821,
  "சர்": 7407,
  "க்கிப்பீ": 8542,
  "ியூ": 8890,
  "▁[doi](https://ta.wikipedia.org/wiki/எண்ணிம_ஆவணச்_சுட்டி": 9383,
  "viron": 2309,
  ".org/s": 6889,
  "′": 333,
  "களைக்": 6786,
  "▁one": 3694,
  "asi": 5929,
  "0&s": 7806,
  "▁எடுத்து": 9654,
  "riage": 9227,
  "ch": 514,
  "67": 1359,
  "▁मील": 9991,
  "ai": 1413,
  "భారతదేశం": 1019,
  "](https://hi.wikipedia.org/wiki/भारत#CITEREFStein1998),": 8275,
  "illenni": 6837,
  "nergy": 8011,
  "▁\"राष्ट्रीय": 9978,
  "ுக்கு": 2354,
  "ऐ": 147,
  "▁Press.": 3899,
  "▁Cambridge": 3132,
  "▁empire": 9161,
  "▁[पाकिस्तान": 7059,
  "_ci": 5700,
  "▁21.": 9482,
  "▁error:": 2632,
  "olice": 9168,
  "▁निभाई": 9347,
  "enous": 7429,
  "angra": 9617,
  "ी_": 1376,
  "▁that": 1439,
  "▁–": 1612,
  "க்கா": 2412,
  "-st": 5847,
  "ule": 3481,
  "-a-b": 7798,
  "க்க": 439,
  "320": 8643,
  "▁p.": 941,
  "men": 2000,
  "86": 2731,
  "_languages": 7342,
  "▁market": 8971,
  "▁3": 1473,
  "கார": 4234,
  "Spear199024": 6100,
  "ia\")": 4017,
  "றை": 1077,
  "_he": 6574,
  "National_Informatics_Centre": 5673,
  "▁\"न": 4297,
  "▁தெ": 2413,
  "वैदिक": 8337,
  "▁சன்ஸ்": 8978,
  "▁pe": 1877,
  "జరా": 7038,
  "शासित_प्रदेश": 9251,
  "▁நாட்டு": 7104,
  "](https://hi.wikipedia.org/wiki/भारत#cite_ref-pib": 8290,
  "டுவண்": 8482,
  "▁Delhi": 5018,
  "upload": 963,
  "▁ఆర్కైవు": 6690,
  "hattis": 8026,
  "▁యు": 8143,
  "ढ़": 1880,
  "124": 3711,
  "▁Asia\")": 2977,
  "ports": 2894,
  "language": 1437,
  "29)": 7120,
  "तेलु": 5231,
  "▁as": 1268,
  "க்_": 3621,
  "sa": 7835,
  "▁अन": 1548,
  "Provisional_Population_Totals_Paper_1_of_2011_India": 4210,
  "▁दो": 5171,
  "▁S": 491,
  "ద్ధి": 8277,
  "ary": 946,
  "](https://te.wikipedia.org/wiki/క": 3317,
  "சார": 9541,
  "மர்": 7413,
  "overn": 1287,
  "public": 5602,
  "bser": 9820,
  "द्यालय": 8253,
  "worldbank.org/": 4533,
  "48.": 9473,
  "union_territories": 9492,
  "వంశం": 5234,
  "artic": 1101,
  "▁முதன்": 6517,
  "ṅ": 316,
  "▁பிரதேசத்தின்": 6851,
  "▁Emer": 7478,
  "_के_आधार_पर_भारत_के_राज्यों_की_सूची": 7242,
  "7/": 3127,
  "▁(c": 6115,
  "త్రి": 3926,
  "](Template:": 7855,
  "search": 6989,
  "▁ra": 2531,
  "24": 652,
  "▁[978-81": 3762,
  "▁\"इ": 4151,
  "चित्र:": 2727,
  "tates": 1507,
  "Main": 4814,
  "अभिज्ञाप": 7301,
  "Peers": 8753,
  "ikkim": 5764,
  "ப்பந்த": 7437,
  "▁मो": 7091,
  "win": 6928,
  "▁G.": 7480,
  "▁में": 622,
  "ront": 4866,
  "वंश": 4038,
  "▁Ag": 6765,
  "▁अगस्त": 5236,
  "tlas": 6366,
  "म्प": 5436,
  "ம": 234,
  "▁திற": 6764,
  "dones": 5102,
  "▁Health": 7323,
  "#cite_ref-FOOTNOTE": 620,
  "టె": 3545,
  "x": 88,
  "hief": 5805,
  "▁மீ": 5141,
  "issions": 7160,
  "स्तान": 1733,
  "38": 1007,
  "anada": 9562,
  "म्मू": 4636,
  "main": 5538,
  "▁Y": 2575,
  "_des": 7526,
  "ter": 581,
  "షు": 5125,
  "1994": 2184,
  "_அடிப்படையில்_நாடுகளின்_பட்டியல்": 8030,
  "रू": 4912,
  "lia": 1742,
  "cite": 3510,
  "ृष": 8118,
  "iet": 6386,
  "▁employ": 6250,
  "▁Language": 4345,
  "ader": 8695,
  "ాలు": 917,
  "्राज्य": 3119,
  "क्त": 1485,
  "7)": 1930,
  "_राज्य": 8097,
  "भाजन": 8199,
  "OLA": 9908,
  "418": 5584,
  "isted": 9574,
  "ஈ": 215,
  "RC": 2221,
  "▁அமைச்சகம்": 9114,
  "TS.": 8756,
  "tected": 9199,
  "▁his": 5720,
  "ேப": 3881,
  "▁\"G": 1610,
  "9)\n": 8086,
  "▁मन": 7658,
  "▁[↑](https://ta.wikipedia.org/wiki/இந்தியா#cite_ref-FOOTNOTEM": 9063,
  "ora": 7423,
  "▁2008": 2520,
  "19-882905-8": 6632,
  "▁ar": 2525,
  "▁పేరు": 6058,
  "ortheast": 6444,
  "M50th": 7596,
  "ार्कटिका": 9379,
  "R": 50,
  "emple": 3436,
  "uiper": 6083,
  "வல்": 2610,
  "▁46": 5592,
  "▁[D": 1469,
  "பர்": 5118,
  "ఆఫ్ఘ": 7283,
  "ాలు\")": 4176,
  "▁sq": 8658,
  "gf": 8766,
  "identi": 655,
  "outledge": 1900,
  "lish": 2237,
  "బెంగాలీ": 9274,
  "▁தொகை": 4717,
  "k": 75,
  ")\n": 667,
  "▁s": 470,
  "▁(2004": 6932,
  "சிந்துவெளி": 9829,
  "_की_": 7114,
  "యన్మార్": 9284,
  "ffair": 2707,
  "▁வரலாறு": 9825,
  ",_India": 8355,
  "uchi": 9534,
  "f.fr": 5390,
  "pat": 7830,
  "ाद": 1098,
  "▁श": 1111,
  "ations": 1362,
  "ணிம": 5184,
  "/article": 3121,
  "పా": 1983,
  "ˈ": 124,
  "udson": 9049,
  "ap": 1020,
  "ర్వ": 4031,
  "undarbans": 9890,
  "Pl": 9517,
  "▁थ": 3233,
  "6.\n": 7382,
  "▁Before": 8020,
  "](https://ta.wikipedia.org/wiki/சிறப்பு:BookSources/978-0-521": 9751,
  "▁बढ़": 4436,
  "er": 383,
  "sur": 6988,
  "inguistic": 4220,
  "▁period": 4228,
  "▁Territory": 7320,
  "–సా.శ.13": 8235,
  "-க": 6706,
  "beralisation": 8631,
  "omestic": 6931,
  "▁$": 3728,
  "‍": 323,
  "▁(2011": 9987,
  "ிறிட்ஜ்": 3635,
  "78": 466,
  "▁[உலக": 5517,
  "2.": 1035,
  "S.XLS": 8297,
  "details/": 4219,
  "▁territory": 4808,
  "▁there": 4833,
  "గలు": 7036,
  "ఖ్": 9947,
  "mj": 9402,
  "िक्ष": 3401,
  "टे": 3642,
  "iddle": 3123,
  "आई": 2910,
  "▁partition": 8717,
  "&pg": 943,
  "2020": 9409,
  "▁இந்த": 1896,
  "▁[e": 4110,
  "ोंकणी": 8997,
  "▁flow": 9606,
  "ao": 4740,
  "Spear": 5500,
  "DR": 8056,
  "गोआ": 6079,
  "▁[India](https://en.wikipedia.org/wiki/India": 8601,
  "▁நாணய": 9275,
  "ंदिर": 2512,
  "a/a": 6589,
  "til": 7867,
  ".ed": 5582,
  "द्यान": 4193,
  "fn_": 2649,
  "hild": 6749,
  "నేపాల్": 7289,
  "▁:": 7634,
  "arge": 4064,
  "-n": 3664,
  "err": 1005,
  ";[[": 7750,
  "నాగరికత": 8306,
  "ாட": 1668,
  "4]](https://ta.wikipedia.org/wiki/இந்தியா#cite_note-": 7809,
  "▁(2009": 9460,
  "rdu": 4499,
  "content/": 8298,
  "leshow": 2697,
  "?action=": 635,
  "ps": 6600,
  "int": 2543,
  "ym": 5507,
  "▁2019,": 6354,
  "ina": 8412,
  "▁அவை": 5949,
  "▁மூ": 2029,
  "▁यूनिवर्सिट": 7701,
  "▁Ad": 6139,
  "మే": 3812,
  "▁two": 3698,
  "etwe": 2657,
  "reek": 5558,
  "ఖండ్": 8844,
  "షియా": 7285,
  "▁in": 453,
  "▁2001": 3735,
  "▁Gandhi": 5342,
  "–13": 8652,
  "_Nadu": 6822,
  "ரை": 2028,
  "राम": 7096,
  "ूरोप": 9289,
  "ardian": 7873,
  "ilitary": 5783,
  "data.": 4320,
  "oung": 6143,
  "_con": 7755,
  "▁development": 6019,
  "▁(2008": 7880,
  "▁22": 2478,
  "ంగ్లాదేశ్": 6358,
  "ேய": 8399,
  "](https://en.wikipedia.org/wiki/A": 1578,
  "ंग": 761,
  "conomic": 1386,
  "ural": 2644,
  "▁సంస్కృతి": 5666,
  "ConinghamYoung2015": 8640,
  "Ö": 97,
  "ohenjo-daro": 9893,
  "es": 391,
  "▁டைம்ஸ்": 3956,
  "48/cb": 5432,
  "▁இயக்க": 6546,
  "▁Sub": 9604,
  "Home": 6915,
  "मत": 8804,
  "▁చ": 1177,
  "மய": 3424,
  "5–": 3665,
  "▁गण": 4035,
  "ப்ப": 426,
  "\\_of\\_": 8726,
  "hr": 2073,
  "र्वोच्च": 5686,
  ".html": 2554,
  "▁(2006),": 7076,
  "▁என்ற": 7117,
  "uly": 1508,
  "akes": 6329,
  "ulti": 3296,
  "▁Black": 8484,
  "23.": 6492,
  "OT": 415,
  "406": 5759,
  "▁[1": 1323,
  "▁பள்ள": 6194,
  "िय": 1229,
  "▁off": 8432,
  "జాబితా": 4982,
  "anguages": 1563,
  "\")[[": 5135,
  "IUCN": 3872,
  "▁[978-1": 1627,
  "](https://en.wikipedia.org/wiki/Routledge": 9756,
  "ominal": 6304,
  "onitor": 6874,
  "ingham": 3421,
  "్యవ": 3320,
  "ईल": 8103,
  "रोहर": 8300,
  "904-7": 4377,
  ".svg": 2835,
  "▁काल": 7647,
  "_இந்தியா": 4986,
  "ower": 2536,
  "%2": 1000,
  "▁2011.\n": 3856,
  "_Cor": 5349,
  "▁స": 1041,
  "▁त": 781,
  "72": 3945,
  "కిస్తాన్": 3845,
  "తో": 3647,
  "▁West": 8210,
  "ँची": 7609,
  "▁தொட": 2332,
  "▁பொ.": 3083,
  "▁மனித": 6469,
  "union": 4114,
  "▁[ब": 2132,
  "▁1999": 9727,
  "▁me": 3077,
  "▁कॉंग्रेस": 7648,
  "ants": 5519,
  "atter": 6955,
  "च": 156,
  "_வ": 3302,
  "हा": 1460,
  "\"](https://www.britannica.com/": 8074,
  "_and_Development": 6227,
  "3": 20,
  "ूह": 5402,
  "వాతంత్ర్య": 6704,
  "epend": 6987,
  "மாயண": 9769,
  "\\_image\\_with\\_": 5677,
  "जनसंख्या": 6349,
  "ப்பட": 1182,
  "ாக": 576,
  "िंध": 5883,
  "](https://en.wikipedia.org/wiki/India": 457,
  "-T": 6568,
  "tes": 1094,
  "gle": 754,
  "வார்ப்புரு:Navbox": 6076,
  "अरब": 8781,
  "ange": 1474,
  "25": 587,
  "..": 1686,
  "▁7.": 7313,
  "▁has": 1753,
  "र्थव्यवस्था": 6045,
  "_2": 3774,
  "▁राज्य\")": 6665,
  "டம்": 6728,
  "ीस": 3539,
  "▁D.": 4096,
  "▁(India": 5923,
  "_pro": 6400,
  "rits": 2741,
  "1988": 6544,
  "ఐ": 267,
  "త్ర": 912,
  "▁Himalay": 5639,
  "2),": 3455,
  "▁भू": 3843,
  "](https://en.wikipedia.org/wiki/M": 1296,
  "த்தான்": 3962,
  "uters": 6721,
  "ongman": 9700,
  "▁1997": 6026,
  "feb": 6672,
  "24.": 7109,
  "▁Islands": 3699,
  "िज़ोर": 9243,
  "்கள்": 2182,
  "oa": 5076,
  "ியாவின்": 9766,
  "_21": 7822,
  "i>": 8767,
  "Provision": 3947,
  "for": 767,
  "▁பா": 1368,
  "ज्": 2161,
  "Ethnologue": 5586,
  "web.archive.org/web/2009": 6798,
  "▁\"United": 5134,
  "lym": 9652,
  "▁சிலை": 9762,
  "2_": 2151,
  "్యా": 3055,
  "ஜி-20": 8599,
  "▁[\"M": 5984,
  "▁இன": 5743,
  "_प्रदेश": 3340,
  "रुणा": 7713,
  "rah": 3269,
  "வா": 974,
  "ஸ்": 1047,
  "▁enti": 8873,
  "ரியா": 4609,
  "య్య": 4292,
  "ండ": 1124,
  "5),": 8683,
  "ராட்சி": 7494,
  "ர": 236,
  "-7mar": 8219,
  ".gov.in": 5284,
  "aking": 5201,
  "–4": 4683,
  "_work": 8761,
  "_Co-operation": 7498,
  "ఖ": 272,
  "anding": 9577,
  "శాస్త్ర": 9260,
  "ఢ": 282,
  "\")*": 990,
  "ॉक": 6289,
  "List_of_": 1666,
  "#cite_note": 460,
  "पी": 4005,
  "&ss": 6413,
  "▁70": 6390,
  "ன.": 1591,
  "Craven1997": 2984,
  "▁Economic": 4032,
  "-22": 6963,
  "र्म": 1564,
  "▁BRICS": 4587,
  "timesofindia.indiatimes.com/india/": 4978,
  "K:": 3873,
  "▁[Routledge](https://ta.wikipedia.org/wiki/R": 8023,
  "ै": 193,
  "censusindia.gov.in/2011census": 4204,
  "aki": 1435,
  "▁நாடுகளின்": 4864,
  "_17": 5503,
  "▁हैं": 1402,
  "▁\"మ": 2655,
  "▁this": 2397,
  "▁but": 2893,
  "ை": 252,
  "2015": 3757,
  "▁200": 677,
  "▁union": 5265,
  "ర": 295,
  "ंजा": 2569,
  "సా": 698,
  "casting": 4461,
  "9]](https://ta.wikipedia.org/wiki/இந்தியா#cite_note-": 6169,
  "National_Informatics_Centre2005": 5689,
  "को": 6601,
  "ical": 1448,
  "ati": 2236,
  "्वार": 3115,
  "iary": 6443,
  "egistrar": 9177,
  "2–38": 9185,
  "ident": 3511,
  "▁பண்ப": 4694,
  "ues": 6888,
  "▁స్": 4145,
  "\")*.": 1917,
  "▁[தில்லி": 9731,
  "C),": 3531,
  "_மக்கள்தொகை": 9880,
  "▁உருவாக": 7984,
  "bruary": 2954,
  "▁[India": 4240,
  "▁அண்.": 7100,
  "2)[[": 5850,
  "భా": 1468,
  "▁கு": 1027,
  "angered": 8538,
  "ver,": 5951,
  "iterature": 7791,
  "▁is": 975,
  "](https://hi.wikipedia.org/wiki/तमिल": 7646,
  "ategory": 791,
  "LS": 8091,
  "data.worldbank.org/indicator": 6411,
  "_4": 2445,
  "emographic": 7111,
  "overe": 5359,
  "rac": 3888,
  "700": 9902,
  "▁count": 2359,
  "▁உள்ள": 1133,
  "ద్": 1500,
  "▁social": 5334,
  "▁राजनीतिक": 9305,
  "detail": 3377,
  "▁August": 2159,
  "ोन": 3644,
  "స్వ": 8183,
  "▁ter": 1799,
  "आईएस": 9187,
  "ோள": 7418,
  "View": 8093,
  "▁जनजाति": 7709,
  "](https://hi.wikipedia.org/wiki/भारत_के_राज्य": 7666,
  "K": 43,
  "தார்": 7411,
  "ியும்": 8891,
  "ఒ": 268,
  "8/": 2219,
  "▁\"British": 6399,
  "2011religion": 7948,
  "▁(eds.": 3286,
  "man,": 9104,
  "మాచల్": 9125,
  "வாய்": 7947,
  "Dyson": 2259,
  "bove": 7685,
  "entral_": 6268,
  "IM": 3946,
  "](https://ta.wikipedia.org/wiki/த": 1593,
  "_राज": 6594,
  "zberg": 2260,
  ".\")\n": 6158,
  "षाण": 6331,
  "apita": 5842,
  "य": 176,
  "illennium": 6878,
  "ing": 462,
  "ங்களின்": 4603,
  "இந்த": 398,
  "4-7": 3225,
  "Harle": 2247,
  "ingap": 7446,
  "▁Africa": 9833,
  "▁1994](https://en.wikipedia.org/wiki/India#CITEREF": 8605,
  "▁Sec": 6141,
  "▁கொண்டுள்ளது.[[": 7528,
  "▁మొద": 7729,
  "isation": 1955,
  "107": 5833,
  "TRI": 9909,
  "▁அடிப்பட": 9614,
  "क्सफोर्ड": 7261,
  "pi": 1203,
  "olitical": 3331,
  "களு": 6784,
  "லக": 1207,
  "▁பொருட்கள்": 9264,
  "77": 1602,
  "▁B.;": 5966,
  "ும்,": 2183,
  "▁நட": 2244,
  "ynth": 7992,
  "ü": 109,
  "▁common": 9202,
  "त्र": 722,
  "▁b": 529,
  "talk": 5546,
  "▁புவி": 7510,
  "-0)": 537,
  "ravalli": 9883,
  "jab": 2801,
  "டக்கலை": 5886,
  "\\_": 478,
  "▁plain": 8567,
  "▁2011ஆம்": 6809,
  "त्या": 9927,
  "िबंध": 8117,
  "ritsch": 3706,
  "of_": 571,
  "तेलुगू": 7273,
  "1-0": 3299,
  "ummer": 6014,
  "/articleshow/": 3013,
  "▁बड़ा": 9014,
  "mi": 2530,
  "tives": 8691,
  "teen": 4150,
  "ట్టు": 9186,
  "గంగా": 9948,
  "ேல": 7029,
  "னே": 7023,
  "ంధు": 8267,
  "▁[*H": 6795,
  "▁அழி": 8958,
  "115": 5753,
  "19-967733-7": 9252,
  ".svg/40px-": 7253,
  "world": 1427,
  "-9": 830,
  "anc": 4827,
  "fun": 8375,
  "ect": 2371,
  "onwealth": 3280,
  "▁గాంధీ": 9972,
  "வை": 1017,
  "ఉ": 263,
  "algrave": 8420,
  "सेना": 4318,
  "ோர்": 3542,
  "_எண்": 1236,
  "ப்பை": 4472,
  "315": 8737,
  "न": 170,
  "_value_des": 8626,
  "स्क": 2136,
  "శో": 8857,
  "▁[தொ": 9121,
  "ந்துள்ளது.": 5025,
  "▁था,": 9188,
  "alay": 2241,
  "▁tradition": 3605,
  "2-3": 7378,
  "▁भाषा\")[[": 9175,
  "▁ஆண்ட": 4484,
  "](https://ta.wikipedia.org/wiki/பு": 5981,
  "▁సం": 2442,
  "_க": 1535,
  "▁वा": 4770,
  "▁languages\")": 7536,
  "▁மு.": 5543,
  "▁oldest": 8621,
  "▁per": 2889,
  "/28": 9393,
  "रक्ष": 3387,
  "▁म": 480,
  "est_B": 9678,
  "▁Talbot,": 7999,
  "and": 419,
  "_22": 8096,
  "ele": 3383,
  "enguin": 9871,
  "inan": 8413,
  "129": 5695,
  "fe": 1649,
  "330": 2079,
  "వె": 6621,
  "▁చే": 6337,
  "web/": 852,
  "▁archived": 4060,
  "▁தலைவர்": 9779,
  "▁நீதி": 5773,
  "illi": 1987,
  "బడ": 3811,
  "isions": 4425,
  "_பட்டியல்": 3156,
  "▁2010": 1746,
  "▁[1](https://hi.wikipedia.org/wiki/भारत#cite_ref-FOOTNOTE": 9083,
  "lative": 7362,
  "ociation": 6532,
  "gion": 7345,
  "ీయ": 1108,
  "▁பரி": 7434,
  "▁கலை": 6473,
  "వర్గం:Harv": 8269,
  "\\_scaled\\_im": 5671,
  "▁अप्रैल": 6375,
  "▁வந்த": 4069,
  "ொழி": 1503,
  "त्त": 1278,
  "[![](https://upload.wikimedia.org/wikipedia/commons/thumb/": 1981,
  "](https://books.google.com/books?id=kZVuDwAAQBAJ&pg=PA": 7205,
  "8)[[": 8645,
  "ியல்": 1241,
  "भीम": 5455,
  "-25": 3006,
  "ழல்": 5891,
  "▁\"ஆ": 4061,
  "issile": 6663,
  "/lin": 5849,
  "ாகரி": 5958,
  "து.[[": 1114,
  "▁it": 2713,
  "3TR": 3982,
  "रालेख": 2092,
  "op": 772,
  "▁சில": 9761,
  "Harvard": 6528,
  "▁\"स": 1783,
  "▁வேளாண்மை": 9753,
  "ौद्योगिक": 4920,
  "காதமி": 9058,
  "help": 2398,
  "ో": 313,
  "यपुर": 8806,
  "40.": 8498,
  "&s": 3165,
  "▁mi": 6316,
  "20034": 8917,
  "▁இசையின்": 9840,
  "ress": 757,
  "▁அடி": 5014,
  "हित्य": 8327,
  "▁मानसून": 7230,
  "▁பரப்ப": 7534,
  "ystem": 2551,
  "ुल": 2609,
  "_ட": 5298,
  "had": 6173,
  "ncient": 7396,
  "▁original": 1049,
  "ாலர்": 6802,
  "q": 81,
  "మి": 1964,
  "తావరణ": 6657,
  "#cite_": 404,
  "2004": 1381,
  "ந்திய": 3367,
  "Ludden2014": 7554,
  "தக்": 7841,
  "▁பிறகு": 5784,
  "Re": 3999,
  "enj": 6448,
  "चि": 1369,
  "மயமலை": 7549,
  "ult": 1788,
  "pB": 7829,
  "660": 9510,
  "2005),": 6675,
  "మర": 9956,
  "▁\"BBC": 8709,
  "ahar": 4127,
  "forest": 7483,
  "స్తాన్": 2250,
  "ேம்ப": 3364,
  "ountain": 5986,
  "pu": 1806,
  "acmillan": 4884,
  "कर": 2336,
  "arak": 9981,
  "▁w": 653,
  "ankar": 4647,
  "இந்தியா)": 3111,
  "▁रहा": 5658,
  "-459": 5971,
  "छ": 157,
  "179": 9023,
  "ऋ": 144,
  "cend": 8764,
  "rib": 2169,
  "ரசு": 1194,
  ":": 27,
  ";<": 8742,
  "▁war": 3626,
  "▁இந்தியா": 851,
  "तिहास": 3061,
  "a/": 2861,
  "▁./பகுப்பு:": 1684,
  "_క": 4000,
  "▁[अंग्रेज़ी](https://hi.wikipedia.org/wiki/अंग्रेज़ी_भाषा": 7291,
  "ino-": 7863,
  "-lord": 4865,
  "ௌரிய": 9554,
  "▁fol": 7900,
  "timesofindia": 3272,
  "▁states": 3589,
  "▁Kingdom": 6521,
  "▁நாட": 3209,
  "ilk": 4075,
  "_देश": 5863,
  "]](https://te.wikipedia.org/wiki/భారతదేశం": 2985,
  "enkataraman": 9359,
  "5]](https://ta.wikipedia.org/wiki/இந்தியா#cite_note-": 6418,
  "ukesh": 9158,
  "खनऊ": 9326,
  "ौर": 4918,
  "epublic": 3059,
  "▁[1](https://en.wikipedia.org/wiki/India#cite_ref-": 4262,
  "-50": 3637,
  "▁இந்திய": 1319,
  "ank": 1277,
  "▁retrieved": 1779,
  "%20%20": 3740,
  "ல்கலைக்க": 1549,
  "-7": 1031,
  "etween": 2674,
  "▁2012": 2469,
  "यु": 1834,
  "ages\n": 5654,
  "ome": 1808,
  "ఘ": 274,
  "शन": 8116,
  "ʻ": 122,
  "▁முக்கிய": 5348,
  "▁पश्चिम": 9995,
  "_ad": 9911,
  "स्लाम": 9298,
  "वियत": 8186,
  "ధాన": 3231,
  "GuaJIJ": 4880,
  "-with": 5073,
  "attle": 6836,
  "bnf.fr": 5459,
  "▁\"S": 755,
  "▁दशक": 6322,
  "ramouli": 8013,
  "](https://upload.wikimedia.org/wikipedia/": 985,
  "▁போட்டிகளில்": 9824,
  "्रिटिश": 3342,
  "சன": 9540,
  "वेश": 8114,
  "page": 4462,
  "▁மூலம்": 9242,
  "ound": 1840,
  ">.\n": 4123,
  "म\")": 6605,
  "do-A": 4347,
  "री": 1055,
  "Craven1997),": 6848,
  "{{": 9405,
  "times.indiatimes.com/": 6666,
  "कार": 1475,
  "னியாட்ட": 9866,
  "சிற": 787,
  "box": 3144,
  "▁Se": 3941,
  "ों_की_स": 2441,
  "▁[": 367,
  "47.": 8218,
  "▁Hindus": 8193,
  "▁Force": 9200,
  "var": 3384,
  "s.": 1294,
  "ஒ": 221,
  "retary": 9980,
  "ncbi.nlm.nih": 6911,
  "ర్": 710,
  "▁மொத்த": 3817,
  "]](https://hi.wikipedia.org/wiki/भारत#cite_note-langoff-1": 8242,
  "kim": 3485,
  "ansk": 2002,
  "ங்கில": 3620,
  "-c": 2680,
  "lopedia": 5013,
  ".fr": 4279,
  "as,": 4214,
  "2%29": 9445,
  "usic": 2157,
  "emplate": 2346,
  "णिपुर": 9247,
  "ative": 5864,
  "ும்.[[": 2691,
  "9-5": 8646,
  "▁Stu": 4935,
  "▁./பகுப்பு:Pages\\_containing\\_": 4271,
  "web.archive.org/web/20090": 8722,
  "ety": 3862,
  "ve": 499,
  "cyclopedia": 5048,
  "](https://hi.wikipedia.org/wiki/भारत_की_": 5223,
  "▁தே": 2560,
  "வியல்": 5313,
  "మ్రాజ్య": 7190,
  "·": 96,
  "▁இதுவாக": 5192,
  "▁చరిత్ర": 2443,
  "on": 374,
  "]](https://hi.wikipedia.org/wiki/भारत#cite_note-1": 4177,
  "▁(இந்தியா)\")": 6876,
  "युक्त": 3063,
  "ूबर": 8817,
  "स्था": 2721,
  "घ": 154,
  "చు": 7037,
  "கின்றன.[[": 9778,
  "्यवस्था": 3663,
  "▁நிர்வாக": 7293,
  "▁\"च": 5911,
  "టక": 6291,
  "3]](https://ta.wikipedia.org/wiki/இந்தியா#cite_note-FOOTNOTE": 4670,
  "eat": 4674,
  "shi": 2171,
  "pedia": 361,
  "క్కు": 4601,
  "8,": 8053,
  "me": 712,
  "ులు\")": 4441,
  "-language\\_sources\\_(": 7339,
  "▁British": 3714,
  "▁இலக்கிய": 5785,
  "_और_संघ": 7233,
  "hang": 4353,
  "▁से](http://": 5646,
  "▁**జాతీయ": 7113,
  "nclm.nic.in/shared/linkimages/": 6109,
  "fic": 1656,
  "ீர்": 6442,
  "िल्ली\")": 9198,
  "ə": 117,
  "▁கோ": 2012,
  "▁அமை": 1520,
  "▁2009": 2147,
  "▁human": 5648,
  "-14": 3397,
  "ிழக்கு": 4086,
  "▁On": 7356,
  "01": 3943,
  "्व": 784,
  "θ": 129,
  "2]](https://en.wikipedia.org/wiki/India#cite_note-": 7379,
  "ப்பிரிக்கா": 8040,
  "Metcalf": 756,
  "▁ప్రా": 2417,
  "amed": 9601,
  "isher": 1823,
  "ँकि": 9917,
  "▁[ப": 1246,
  "bi.nlm": 6906,
  "nus": 7826,
  "शा": 6285,
  "▁(2014).": 7337,
  "AAQBAJ": 1210,
  "ாலும்": 8505,
  "லைமைப்": 9834,
  "▁அதிக": 2093,
  "▁(2017).": 8552,
  "\\_with\\_de": 4190,
  "இந்தோ": 6459,
  "ద్ధ": 2880,
  "▁M": 563,
  "எ": 218,
  "దినోత్స": 9271,
  "▁[\"H": 6396,
  "ण्ड": 2866,
  "](https://hi.wikipedia.org/wiki/आ": 5416,
  "_Gandhi": 7785,
  "ச்சு": 4707,
  "▁man": 6777,
  "_1": 1421,
  "पात": 4779,
  "సా.శ.": 876,
  "▁வர": 2809,
  "▁\"ग": 6301,
  "▁rock": 8012,
  "](https://hi.wikipedia.org/wiki/पश्चिम": 8263,
  "்க": 392,
  "each": 6715,
  "३": 203,
  "\"": 3,
  "ीय": 631,
  "epartment": 3831,
  "](https://ta.wikipedia.org/wiki/இந்து": 9570,
  "ప్రత్యేక:EditPage/మూస:": 8347,
  "టు": 3544,
  "▁எண்ண": 7143,
  "rd": 2422,
  "▁இய": 2738,
  "atna": 6485,
  "▁Island": 7506,
  "iles/": 2810,
  "son": 1765,
  "engali": 5767,
  ".nlm": 6905,
  "लि": 3801,
  "aste": 2089,
  "▁B.": 5341,
  "ிரசு": 3622,
  "vatsyayan": 4819,
  "वल": 6606,
  "lations": 3535,
  "edne": 8905,
  "tr": 3090,
  "▁இது": 1282,
  "च्च": 2865,
  "రిజ": 4600,
  "▁J.": 3673,
  "ాల్దీవ": 8278,
  "_ந": 1415,
  "▁2010\n": 7790,
  "61": 7592,
  "▁அனைத்து": 5337,
  "▁sha": 7890,
  "_देशों_की_सूची": 7733,
  "லாம்": 4711,
  "-results": 8680,
  "▁பர": 2328,
  "▁\"Climate": 9698,
  "rg": 1161,
  "ioge": 9773,
  "Fisher2018),": 5565,
  "மிழ்ந": 3850,
  "▁அன்று.": 6870,
  "lm": 6887,
  "2000),": 6545,
  "tent": 3003,
  "ரா": 886,
  "new": 1286,
  "ehr": 3749,
  "శ్రీలంక": 7284,
  "िकी": 8989,
  "கத்தின்": 9539,
  "-108-6": 6084,
  "வ்": 2965,
  "▁பட்டியல்": 2968,
  "tus": 3985,
  "पीठ": 7254,
  "ल": 178,
  "ौद्ध": 4919,
  "ोर्ड": 6067,
  "University": 1002,
  "ద్ర": 4289,
  "ederal": 6462,
  "-p": 1311,
  "any": 1919,
  "▁gen": 8503,
  "டியா": 5029,
  "Fisher2018": 3870,
  "▁Re": 1770,
  "/0": 2117,
  "ल\")": 3724,
  "ana": 1273,
  "](https://en.wikipedia.org/wiki/List_of_countries_by": 6244,
  "ப்பாக": 5925,
  "கின்ற": 2556,
  "దక్షిణ": 3122,
  "சி": 520,
  "\\_and\\_": 2519,
  "వ": 298,
  "](https://te.wikipedia.org/wiki/జ": 4936,
  "onsoon": 4167,
  "▁Company": 5012,
  "ங்களை": 3697,
  "▁These": 7546,
  "▁மூன்றா": 8556,
  "▁५": 8139,
  "oz": 8772,
  "ali": 1699,
  "▁நூற்ற": 3580,
  "▁உடைய": 5161,
  "ன்\")": 7876,
  "▁emerged": 9865,
  "ument": 3370,
  "ి": 304,
  "-S": 5267,
  "s/default/files/": 7586,
  "od": 1115,
  "\\_of": 7768,
  "ையை": 4072,
  "ved": 640,
  "▁li": 1640,
  "▁25": 2057,
  "▁இட": 2393,
  "gency": 2981,
  "uc": 969,
  "▁இரண்டு": 6254,
  "tah": 8415,
  "ovember_17_2019c": 9378,
  "నికి": 4952,
  "▁time": 4213,
  "्वतंत्रता": 6646,
  "thno": 2906,
  "eas": 9913,
  "▁सरकार": 2341,
  "Con": 4984,
  "▁ரா": 7420,
  "క్కువ": 8308,
  "avin": 9041,
  "ஸ்ட": 6441,
  "_సా": 4905,
  "▁2006": 2129,
  "_Commission": 7297,
  "ूची": 1426,
  "జి": 3230,
  "▁later": 3693,
  "▁Punjab": 5529,
  "ial": 600,
  "गण": 2463,
  "▁Act,": 4871,
  "rect": 3072,
  "गमन": 1797,
  "e/": 3027,
  "▁தங்கள": 8929,
  "ెల": 5408,
  "▁Cha": 9461,
  "▁सु": 4429,
  "ूर्ण": 7730,
  "▁அரசாங்க": 6867,
  "న్‌ఫర్మే": 9333,
  "4]](https://en.wikipedia.org/wiki/India#cite_note-": 7380,
  "](https://ta.wikipedia.org/wiki/இந்தியாவின்": 3758,
  "it": 431,
  "articles": 3499,
  "_of_": 572,
  "ple": 1603,
  "EXT": 5574,
  "azette": 9896,
  "▁before": 6000,
  "6.": 1374,
  "ne": 2054,
  "ீடு": 5717,
  "Language": 6709,
  "harmaceu": 7274,
  "anipuri": 9424,
  "rig": 5738,
  "▁[↑](https://hi.wikipedia.org/wiki/भारत#cite_ref-10": 9076,
  "_2019c": 9337,
  "ham": 3102,
  "▁గల": 7717,
  "c=": 3134,
  "eccan": 6516,
  "స్థ": 1702,
  "censusindia.gov.in/2011": 3297,
  "Karanth": 6974,
  "are": 3089,
  "83": 6419,
  "ंडमान": 9082,
  "*](https://archive.org/details/": 7489,
  "▁வணி": 3892,
  "osa": 7495,
  "▁influ": 5939,
  "ences": 7066,
  "▁Pl": 2595,
  "दु": 9930,
  "▁साथ": 2879,
  "whi": 6722,
  "కాల": 9945,
  "▁Sharma,": 9879,
  "rban": 7834,
  "_நாடு": 3218,
  "▁\"Special:EditPage/Template:": 9716,
  "▁adop": 8259,
  "न्नई": 7220,
  "ीन": 2269,
  "\"[[": 5597,
  "erved": 5825,
  "▁2014.": 4846,
  "wal": 3878,
  "▁[↑](https://ta.wikipedia.org/wiki/இந்தியா#cite_ref-Combined": 9064,
  "▁मेला\")": 5448,
  "Sharma2007),": 9809,
  "▁பதிப்பகம்\"),": 3705,
  "▁[Rowland": 9739,
  "డ్డ": 7714,
  "▁உலக": 2060,
  "gramme": 5762,
  "▁Ge": 4593,
  "ील": 3916,
  "▁लगभग": 9287,
  "](https://en.wikipedia.org/wiki/J": 3151,
  "▁Art": 7795,
  "ాన్": 3175,
  "xford": 1539,
  "ణా": 2409,
  "est": 926,
  "டராச": 9543,
  "7.": 1234,
  "िल्ली": 5674,
  "ishing": 2001,
  "▁உலகின்": 3974,
  "_Times": 6947,
  "ணு": 2327,
  "anisation": 2830,
  "టో": 9949,
  "ழ": 240,
  "_15": 6385,
  "रा": 504,
  "▁\"द": 3732,
  "ౌద్ధ": 7633,
  "iver": 3068,
  "ன்கிழக்கா": 9863,
  "ki": 343,
  "▁summits": 7089,
  "rchi": 1199,
  "-49": 8185,
  "conomist": 5995,
  "▁[Archived](https://": 1830,
  "Fl": 8749,
  "▁appro": 8618,
  "ுகலாய": 3907,
  "▁[Kulke": 5078,
  "லங்காணா": 9357,
  "-28": 2749,
  "atel": 7899,
  "▁కూ": 3833,
  "![": 984,
  "P": 48,
  "▁பாதுகாப்புப்": 7551,
  "]](https://en.wikipedia.org/wiki/India#cite_note-FOOTNOTE": 1028,
  "ross": 3450,
  "ம்பரிய": 3214,
  "ryan": 4255,
  "1.html": 5838,
  "▁[స": 4148,
  "▁அமெரிக்கா": 8035,
  "CO": 3360,
  "annic": 2705,
  "ूर्व": 1947,
  "-language\\_s": 7332,
  "ிறி": 3158,
  "மிய": 5309,
  "QBA": 1175,
  "etraglia": 4519,
  "\"),": 522,
  "ines": 5913,
  "](https://en.wikipedia.org/wiki/ISBN_(identifier)": 1320,
  "రిహద్దు": 9346,
  "limate_": 9886,
  "ommonwealth": 4263,
  "Sanskrit": 7753,
  "_Trade": 9705,
  "्यटन": 3849,
  "▁\"தி": 4062,
  "▁`": 7849,
  "DD": 3997,
  "hl": 5600,
  "హాయ": 8861,
  "▁ca.": 8962,
  "ince": 3203,
  "▁I": 1184,
  "▁உணவு": 5575,
  "](https://hi.wikipedia.org/wiki/क": 1966,
  "▁widely": 8725,
  ".in/": 1051,
  "▁ஆகும்.": 4380,
  "1990": 4526,
  "countries_and_depend": 9487,
  "திப்ப": 1429,
  "px-": 1018,
  "▁[28": 9974,
  "▁వ": 958,
  "_நாடுகள்": 8586,
  "over": 951,
  "esert": 4629,
  "ண்ட": 633,
  "ங்க": 523,
  "ష్ట": 1658,
  "](https://en.wikipedia.org/wiki/Indian_": 2772,
  "asting": 4175,
  "▁త": 1985,
  "▁குறிப்பிட": 6861,
  ":BookSources/978-1": 1228,
  "kar": 3148,
  "79": 3292,
  "lin": 557,
  "▁\"I": 3487,
  "వి": 1657,
  "िण": 1732,
  "த்ரியா": 9620,
  "5.": 1293,
  "▁where": 6780,
  "से": 1556,
  "Pages\\_": 2253,
  "owland": 3159,
  "ographical": 4724,
  "umar": 3432,
  "▁மி": 1887,
  "ester": 6191,
  "tein": 1008,
  "janta": 7561,
  "_for_Economic": 7560,
  "_Union": 6983,
  "6).": 4797,
  "](https://en.wikipedia.org/wiki/List_of_SAARC_summits": 7305,
  "▁cent": 2122,
  "िक्षा": 4979,
  "IAEXT": 8006,
  "a_Empire": 7503,
  "–19": 9555,
  "ork": 2204,
  "\\_no-target\\_errors": 2675,
  "ெற்கா": 4464,
  "▁भारत\")": 7122,
  "▁पार्ट": 4760,
  "▁கட்டுரை:": 9314,
  "▁மரு": 7883,
  "▁ஏற்றும": 9781,
  "टी": 4741,
  "pl": 884,
  "▁உள்ளட": 7149,
  "दी": 2005,
  "▁military": 8475,
  "ிருந்தது.": 9780,
  "▁[↑](https://en.wikipedia.org/wiki/India#cite_ref-4": 7954,
  "-349": 6216,
  "25-1": 8980,
  "New": 3640,
  "ికి": 9091,
  "Collingham2007": 9280,
  "▁div": 5749,
  "▁பெருங்க": 7987,
  "▁pre": 5146,
  "ject": 5301,
  "▁used": 5266,
  "▁हैं,": 4962,
  "▁है,": 3323,
  "illiam": 9887,
  "▁*[The": 4099,
  "QBAJ": 1176,
  "மே": 4555,
  "ன்சு": 8910,
  "▁November": 3828,
  "▁[British": 6661,
  "ాలయ": 5163,
  "▁26": 2085,
  ").jpg": 7093,
  "_In": 2681,
  "é": 104,
  "▁భారతదేశంలో": 7718,
  "सां": 8231,
  "acts": 9992,
  "\\_and\\_Sfn": 2672,
  "వేద": 9201,
  "_Air": 7126
}