{
  "[UNK]": 0,
  "[CLS]": 1,
  "[SEP]": 2,
  "[PAD]": 3,
  "[MASK]": 4,
  "Ġ": 5,
  "\"": 6,
  "$": 7,
  "%": 8,
  "&": 9,
  "'": 10,
  "(": 11,
  ")": 12,
  "+": 13,
  ",": 14,
  "-": 15,
  ".": 16,
  "/": 17,
  "0": 18,
  "1": 19,
  "2": 20,
  "3": 21,
  "4": 22,
  "5": 23,
  "6": 24,
  "7": 25,
  "8": 26,
  "9": 27,
  ":": 28,
  ";": 29,
  "=": 30,
  "A": 31,
  "B": 32,
  "C": 33,
  "D": 34,
  "E": 35,
  "F": 36,
  "G": 37,
  "H": 38,
  "I": 39,
  "J": 40,
  "K": 41,
  "L": 42,
  "M": 43,
  "N": 44,
  "O": 45,
  "P": 46,
  "R": 47,
  "S": 48,
  "T": 49,
  "U": 50,
  "V": 51,
  "W": 52,
  "Y": 53,
  "Z": 54,
  "[": 55,
  "]": 56,
  "^": 57,
  "a": 58,
  "b": 59,
  "c": 60,
  "d": 61,
  "e": 62,
  "f": 63,
  "g": 64,
  "h": 65,
  "i": 66,
  "j": 67,
  "k": 68,
  "l": 69,
  "m": 70,
  "n": 71,
  "o": 72,
  "p": 73,
  "q": 74,
  "r": 75,
  "s": 76,
  "t": 77,
  "u": 78,
  "v": 79,
  "w": 80,
  "x": 81,
  "y": 82,
  "z": 83,
  "|": 84,
  "°": 85,
  "Ö": 86,
  "á": 87,
  "â": 88,
  "í": 89,
  "ā": 90,
  "ī": 91,
  "Ś": 92,
  "ū": 93,
  "ə": 94,
  "ɦ": 95,
  "ɪ": 96,
  "ɾ": 97,
  "ʊ": 98,
  "ʱ": 99,
  "ˈ": 100,
  "ː": 101,
  "ί": 102,
  "α": 103,
  "δ": 104,
  "ν": 105,
  "ο": 106,
  "ς": 107,
  "ό": 108,
  "ँ": 109,
  "ं": 110,
  "ः": 111,
  "अ": 112,
  "आ": 113,
  "इ": 114,
  "ई": 115,
  "उ": 116,
  "ऊ": 117,
  "ऋ": 118,
  "ए": 119,
  "ऐ": 120,
  "ऑ": 121,
  "ओ": 122,
  "औ": 123,
  "क": 124,
  "ख": 125,
  "ग": 126,
  "घ": 127,
  "च": 128,
  "छ": 129,
  "ज": 130,
  "झ": 131,
  "ञ": 132,
  "ट": 133,
  "ठ": 134,
  "ड": 135,
  "ढ": 136,
  "ण": 137,
  "त": 138,
  "थ": 139,
  "द": 140,
  "ध": 141,
  "न": 142,
  "प": 143,
  "फ": 144,
  "ब": 145,
  "भ": 146,
  "म": 147,
  "य": 148,
  "र": 149,
  "ल": 150,
  "व": 151,
  "श": 152,
  "ष": 153,
  "स": 154,
  "ह": 155,
  "़": 156,
  "ा": 157,
  "ि": 158,
  "ी": 159,
  "ु": 160,
  "ू": 161,
  "ृ": 162,
  "े": 163,
  "ै": 164,
  "ॉ": 165,
  "ो": 166,
  "ौ": 167,
  "्": 168,
  "।": 169,
  "०": 170,
  "१": 171,
  "२": 172,
  "३": 173,
  "४": 174,
  "५": 175,
  "६": 176,
  "७": 177,
  "८": 178,
  "९": 179,
  "॰": 180,
  "ஃ": 181,
  "அ": 182,
  "ஆ": 183,
  "இ": 184,
  "ஈ": 185,
  "உ": 186,
  "ஊ": 187,
  "எ": 188,
  "ஏ": 189,
  "ஐ": 190,
  "ஒ": 191,
  "ஓ": 192,
  "க": 193,
  "ங": 194,
  "ச": 195,
  "ஜ": 196,
  "ஞ": 197,
  "ட": 198,
  "ண": 199,
  "த": 200,
  "ந": 201,
  "ன": 202,
  "ப": 203,
  "ம": 204,
  "ய": 205,
  "ர": 206,
  "ற": 207,
  "ல": 208,
  "ள": 209,
  "ழ": 210,
  "வ": 211,
  "ஷ": 212,
  "ஸ": 213,
  "ஹ": 214,
  "ா": 215,
  "ி": 216,
  "ீ": 217,
  "ு": 218,
  "ூ": 219,
  "ெ": 220,
  "ே": 221,
  "ை": 222,
  "ொ": 223,
  "ோ": 224,
  "ௌ": 225,
  "்": 226,
  "ం": 227,
  "ః": 228,
  "అ": 229,
  "ఆ": 230,
  "ఇ": 231,
  "ఈ": 232,
  "ఉ": 233,
  "ఋ": 234,
  "ఎ": 235,
  "ఏ": 236,
  "ఐ": 237,
  "ఒ": 238,
  "ఓ": 239,
  "ఔ": 240,
  "క": 241,
  "ఖ": 242,
  "గ": 243,
  "ఘ": 244,
  "చ": 245,
  "ఛ": 246,
  "జ": 247,
  "ఞ": 248,
  "ట": 249,
  "ఠ": 250,
  "డ": 251,
  "ఢ": 252,
  "ణ": 253,
  "త": 254,
  "థ": 255,
  "ద": 256,
  "ధ": 257,
  "న": 258,
  "ప": 259,
  "ఫ": 260,
  "బ": 261,
  "భ": 262,
  "మ": 263,
  "య": 264,
  "ర": 265,
  "ల": 266,
  "ళ": 267,
  "వ": 268,
  "శ": 269,
  "ష": 270,
  "స": 271,
  "హ": 272,
  "ా": 273,
  "ి": 274,
  "ీ": 275,
  "ు": 276,
  "ూ": 277,
  "ృ": 278,
  "ె": 279,
  "ే": 280,
  "ై": 281,
  "ొ": 282,
  "ో": 283,
  "ౌ": 284,
  "్": 285,
  "ṅ": 286,
  "ṇ": 287,
  "ṣ": 288,
  "ṭ": 289,
  "Ἰ": 290,
  "‌": 291,
  "‍": 292,
  "–": 293,
  "—": 294,
  "‘": 295,
  "’": 296,
  "“": 297,
  "”": 298,
  "†": 299,
  "′": 300,
  "₹": 301,
  "th": 302,
  "he": 303,
  "in": 304,
  "er": 305,
  "re": 306,
  "on": 307,
  "an": 308,
  "en": 309,
  "at": 310,
  "or": 311,
  "్ర": 312,
  "ార": 313,
  "ాల": 314,
  "లు": 315,
  "ర్": 316,
  "లో": 317,
  "స్": 318,
  "్య": 319,
  "భా": 320,
  "రా": 321,
  "்த": 322,
  "்க": 323,
  "ிய": 324,
  "ம்": 325,
  "ப்": 326,
  "து": 327,
  "ன்": 328,
  "ல்": 329,
  "ந்த": 330,
  "்ட": 331,
  "க்க": 332,
  "ப்ப": 333,
  "ும்": 334,
  "த்த": 335,
  "ள்": 336,
  "the": 337,
  "ரு": 338,
  "ற்": 339,
  "ட்ட": 340,
  "ான": 341,
  "ைய": 342,
  "ின்": 343,
  "ில்": 344,
  "ற்ற": 345,
  "ாக": 346,
  "ர்": 347,
  "al": 348,
  "st": 349,
  "து.": 350,
  "ங்க": 351,
  "இந்த": 352,
  "di": 353,
  "==": 354,
  "ar": 355,
  "ுக": 356,
  "ண்ட": 357,
  "and": 358,
  "இந்திய": 359,
  "ed": 360,
  "In": 361,
  "of": 362,
  "ிக": 363,
  "ार": 364,
  "ள்ள": 365,
  "्र": 366,
  "Indi": 367,
  "ion": 368,
  "as": 369,
  "के": 370,
  "மற்ற": 371,
  "es": 372,
  "it": 373,
  "மற்றும்": 374,
  "கு": 375,
  "ic": 376,
  "ிர": 377,
  "ாவ": 378,
  "மு": 379,
  "ें": 380,
  "க்": 381,
  "is": 382,
  "ing": 383,
  "கா": 384,
  "19": 385,
  "பா": 386,
  "న్": 387,
  "ில": 388,
  "20": 389,
  "में": 390,
  "ది": 391,
  "దే": 392,
  "ప్ర": 393,
  "ిం": 394,
  "దేశ": 395,
  "க்கு": 396,
  "ent": 397,
  "India": 398,
  "ిక": 399,
  "om": 400,
  "்ச": 401,
  "భార": 402,
  "to": 403,
  "ிற": 404,
  "ானது": 405,
  "है": 406,
  "டு": 407,
  "భారత": 408,
  "ப்பட்ட": 409,
  "ou": 410,
  "्य": 411,
  "న్న": 412,
  "ాలు": 413,
  "டி": 414,
  "த்": 415,
  "ருந்த": 416,
  "பெ": 417,
  "ன்ற": 418,
  "ங்கள": 419,
  "தொ": 420,
  "வை": 421,
  "ec": 422,
  "ன.": 423,
  "மை": 424,
  "ுள்ள": 425,
  "भार": 426,
  "भारत": 427,
  "का": 428,
  "பொ": 429,
  "र्": 430,
  "ly": 431,
  "గా": 432,
  "இந்தியாவ": 433,
  "ர்க": 434,
  "வா": 435,
  "ది.": 436,
  "ur": 437,
  "கொ": 438,
  "போ": 439,
  "வி": 440,
  "===": 441,
  "या": 442,
  "ों": 443,
  "కు": 444,
  "ுகள": 445,
  "ని": 446,
  "தி": 447,
  "le": 448,
  "லை": 449,
  "ப்பட": 450,
  "వి": 451,
  "ரச": 452,
  "की": 453,
  "ற்க": 454,
  "ాయ": 455,
  "உள்ள": 456,
  "और": 457,
  "00": 458,
  "క్": 459,
  "से": 460,
  "स्": 461,
  "ాత": 462,
  "தா": 463,
  "நா": 464,
  "li": 465,
  "த்து": 466,
  "प्र": 467,
  "ஆக": 468,
  "ண்": 469,
  "దేశం": 470,
  "ver": 471,
  "ने": 472,
  "am": 473,
  "ரி": 474,
  "ను": 475,
  "கொண்ட": 476,
  "திக": 477,
  "ும்.": 478,
  "The": 479,
  "ad": 480,
  "ப்பு": 481,
  "रा": 482,
  "il": 483,
  "இது": 484,
  "్ట": 485,
  "ுள்ளது.": 486,
  "ஒரு": 487,
  "நில": 488,
  "ాన": 489,
  "இந்தியா": 490,
  "ना": 491,
  "சம": 492,
  "िक": 493,
  "ol": 494,
  "ri": 495,
  "பு": 496,
  "திய": 497,
  "மா": 498,
  "ul": 499,
  "ation": 500,
  "ండ": 501,
  "ము": 502,
  "ీయ": 503,
  "வே": 504,
  "ுக்கு": 505,
  "em": 506,
  "ద్": 507,
  "ిన": 508,
  "சு": 509,
  "ro": 510,
  "क्": 511,
  "செ": 512,
  "பிர": 513,
  "ரா": 514,
  "ता": 515,
  "ra": 516,
  "ஆண்ட": 517,
  "ைக்": 518,
  "తి": 519,
  "త్": 520,
  "மைய": 521,
  "தொட": 522,
  "है।": 523,
  "वि": 524,
  "கள": 525,
  "ల్": 526,
  "స్త": 527,
  "ించ": 528,
  "ச்": 529,
  "se": 530,
  "ch": 531,
  "றை": 532,
  "ிருந்த": 533,
  "ce": 534,
  "வெ": 535,
  "s,": 536,
  "tion": 537,
  "by": 538,
  "ஆம்": 539,
  "மே": 540,
  "கால": 541,
  "था": 542,
  "मा": 543,
  "ve": 544,
  "Indian": 545,
  "டைய": 546,
  "று": 547,
  "201": 548,
  "be": 549,
  "இருந்த": 550,
  "ச்ச": 551,
  "ர்.": 552,
  "மாக": 553,
  "லா": 554,
  "இந்தியாவின்": 555,
  "for": 556,
  "ist": 557,
  "ast": 558,
  "ட்ச": 559,
  "ంత": 560,
  "ीय": 561,
  "ங்கள்": 562,
  "िया": 563,
  "lo": 564,
  "con": 565,
  "est": 566,
  "రి": 567,
  "றி": 568,
  "ட்டு": 569,
  "ால்": 570,
  "பெர": 571,
  "సం": 572,
  "அமை": 573,
  "அரச": 574,
  "தன்": 575,
  "த்தின்": 576,
  "सा": 577,
  "ag": 578,
  "ter": 579,
  "வர": 580,
  "ற்ப": 581,
  "பொரு": 582,
  "res": 583,
  "su": 584,
  "மான": 585,
  "வு": 586,
  "க்கிய": 587,
  "రు": 588,
  "न्": 589,
  "க்கப்பட்ட": 590,
  "wi": 591,
  "पर": 592,
  "పు": 593,
  "பர": 594,
  "200": 595,
  "de": 596,
  "सं": 597,
  "அதிக": 598,
  "స్థ": 599,
  "சா": 600,
  "'s": 601,
  "कर": 602,
  "ந்து": 603,
  "ులు": 604,
  "உல": 605,
  "ின": 606,
  "un": 607,
  "ति": 608,
  "இல்": 609,
  "வாக": 610,
  "டுத்த": 611,
  "ir": 612,
  "s.": 613,
  "ంట": 614,
  "ింది.": 615,
  "ాయి": 616,
  "क्ष": 617,
  "உரு": 618,
  "ேர": 619,
  "ிறது.": 620,
  "பகு": 621,
  "ல்ல": 622,
  "భారతదేశం": 623,
  "ர்கள": 624,
  "ஆகிய": 625,
  "du": 626,
  "gh": 627,
  "விய": 628,
  "त्र": 629,
  "mo": 630,
  "ంలో": 631,
  "ైన": 632,
  "with": 633,
  "im": 634,
  "கி": 635,
  "சிய": 636,
  "ate": 637,
  "को": 638,
  "ex": 639,
  "சி": 640,
  "was": 641,
  "ంగ": 642,
  "ாள": 643,
  "ுவ": 644,
  "ற்கு": 645,
  "டை": 646,
  "மானது": 647,
  "wh": 648,
  "ూడ": 649,
  "भा": 650,
  "தெ": 651,
  "மிக": 652,
  "ைப்": 653,
  "ன்ன": 654,
  "ர்கள்": 655,
  "ப்படுக": 656,
  "हैं": 657,
  "கோ": 658,
  "த்தில்": 659,
  "உலக": 660,
  "ac": 661,
  "ాయి.": 662,
  "जा": 663,
  "rom": 664,
  "are": 665,
  "ern": 666,
  "ின்ற": 667,
  "ang": 668,
  "ment": 669,
  "ong": 670,
  "ut": 671,
  "ும்,": 672,
  "si": 673,
  "po": 674,
  "வீ": 675,
  "வைய": 676,
  "ab": 677,
  "ies": 678,
  "ంగా": 679,
  "ంది.": 680,
  "ధిక": 681,
  "వా": 682,
  "సా": 683,
  "క్ష": 684,
  "ain": 685,
  "ளா": 686,
  "நாட": 687,
  "हु": 688,
  "art": 689,
  "राज": 690,
  "மொ": 691,
  "ఉన్న": 692,
  "పా": 693,
  "ారు": 694,
  "वा": 695,
  "ிட": 696,
  "ிகள": 697,
  "over": 698,
  "et": 699,
  "wer": 700,
  "ical": 701,
  "दे": 702,
  "டிய": 703,
  "னர்.": 704,
  "టి": 705,
  "ార్": 706,
  "பல": 707,
  "ழ்": 708,
  "ுட": 709,
  "हा": 710,
  "us": 711,
  "ிக்க": 712,
  "ड़": 713,
  "has": 714,
  "கூ": 715,
  "நீ": 716,
  "மக்க": 717,
  "ுக்": 718,
  "from": 719,
  "ిత": 720,
  "్చ": 721,
  "இத": 722,
  "போது": 723,
  "தார": 724,
  "ial": 725,
  "்கள": 726,
  "த்தை": 727,
  "குறி": 728,
  "பெரும்": 729,
  "inc": 730,
  "ich": 731,
  "कार": 732,
  "ாகும்.": 733,
  "so": 734,
  "त्": 735,
  "िय": 736,
  "இரு": 737,
  "நட": 738,
  "ய்": 739,
  "ay": 740,
  "ం,": 741,
  "ష్ట": 742,
  "पा": 743,
  "ित": 744,
  "ணை": 745,
  "வள": 746,
  "ித்த": 747,
  "க்கா": 748,
  "ுகள்": 749,
  "ld": 750,
  "per": 751,
  "కూడ": 752,
  "జాత": 753,
  "రాజ": 754,
  "ప్రా": 755,
  "கொண்டுள்ளது.": 756,
  "ill": 757,
  "பொருளா": 758,
  "which": 759,
  "199": 760,
  "we": 761,
  "ரம்": 762,
  "்கள்": 763,
  "ிகள்": 764,
  "உள்ளது.": 765,
  "ண்ண": 766,
  "ला": 767,
  "కో": 768,
  "క్ర": 769,
  "அல்ல": 770,
  "என்ற": 771,
  "தல்": 772,
  "அல்லது": 773,
  "ity": 774,
  "195": 775,
  "சமய": 776,
  "com": 777,
  "rit": 778,
  "sp": 779,
  "కా": 780,
  "చ్చ": 781,
  "ట్ట": 782,
  "నే": 783,
  "మొ": 784,
  "भारतीय": 785,
  "உய": 786,
  "தே": 787,
  "படி": 788,
  "றைய": 789,
  "பொது": 790,
  "ஆண்டு": 791,
  "அதிகரி": 792,
  "பொருளாதார": 793,
  "1,": 794,
  "um": 795,
  "भी": 796,
  "ान": 797,
  "ure": 798,
  "cont": 799,
  "பிற": 800,
  "ன்ப": 801,
  "க்கும்": 802,
  "குறிப்ப": 803,
  "cent": 804,
  "ear": 805,
  "ంచ": 806,
  "దు": 807,
  "పే": 808,
  "మా": 809,
  "భారతీయ": 810,
  "ult": 811,
  "202": 812,
  "कि": 813,
  "த்திய": 814,
  "ர்ந்த": 815,
  "ர்ச்ச": 816,
  "देश": 817,
  "ak": 818,
  "id": 819,
  "me": 820,
  "ted": 821,
  "its": 822,
  "oun": 823,
  "196": 824,
  "இர": 825,
  "தன": 826,
  "வற்ற": 827,
  "ம்,": 828,
  "ங்களில்": 829,
  "ிருந்து": 830,
  "co": 831,
  "తో": 832,
  "నా": 833,
  "రై": 834,
  "లి": 835,
  "వ్య": 836,
  "సి": 837,
  "్ల": 838,
  "త్వ": 839,
  "नि": 840,
  "सम": 841,
  "्या": 842,
  "हैं।": 843,
  "द्": 844,
  "शा": 845,
  "ha": 846,
  "lu": 847,
  "India's": 848,
  "ணிய": 849,
  "லி": 850,
  "ழி": 851,
  "இந்தியாவில்": 852,
  "ig": 853,
  "तथा": 854,
  "ली": 855,
  "ts": 856,
  "యా": 857,
  "వాత": 858,
  "end": 859,
  "రాష్ట": 860,
  "ారు.": 861,
  "జాతీయ": 862,
  "రాష్ట్ర": 863,
  "),": 864,
  "இல": 865,
  "வந்த": 866,
  "வான": 867,
  "ப்பா": 868,
  "ंग": 869,
  "इस": 870,
  "तर": 871,
  "्ट": 872,
  "el": 873,
  "pro": 874,
  "wor": 875,
  "arg": 876,
  "were": 877,
  "கள்": 878,
  "ளவ": 879,
  "ளி": 880,
  "ியல்": 881,
  "அமைப்ப": 882,
  "ப்படுகிறது.": 883,
  "பெரும்பா": 884,
  "இரண்ட": 885,
  "एक": 886,
  "గు": 887,
  "వచ్చ": 888,
  "ther": 889,
  "ary": 890,
  "ికి": 891,
  "ద్ధ": 892,
  "ల్ల": 893,
  "वर्": 894,
  "हि": 895,
  "இட": 896,
  "இரா": 897,
  "ானவை": 898,
  "பெற்ற": 899,
  "ின்றன.": 900,
  "000": 901,
  "a,": 902,
  "ive": 903,
  "od": 904,
  "ated": 905,
  "form": 906,
  "ती": 907,
  "दी": 908,
  "हो": 909,
  "iv": 910,
  "மூ": 911,
  "ாண்ட": 912,
  "்கு": 913,
  "முறை": 914,
  "மையான": 915,
  "உருவா": 916,
  "राज्य": 917,
  "ap": 918,
  "larg": 919,
  "pl": 920,
  "por": 921,
  "అధిక": 922,
  "కొ": 923,
  "ఖ్య": 924,
  "డు": 925,
  "తర": 926,
  "పాల": 927,
  "మైన": 928,
  "వే": 929,
  "భారతదేశ": 930,
  "outh": 931,
  "ాలు,": 932,
  "econ": 933,
  "ంత్ర": 934,
  "बा": 935,
  "ஊ.": 936,
  "கை": 937,
  "தலை": 938,
  "நூ": 939,
  "மீ": 940,
  "ையில்": 941,
  "பொ.": 942,
  "198": 943,
  "no": 944,
  "मि": 945,
  "18": 946,
  "overn": 947,
  "जि": 948,
  "ते": 949,
  "रू": 950,
  "ஞ்ச": 951,
  "வட": 952,
  "ைத்": 953,
  "ந்திய": 954,
  "ையும்": 955,
  "ற்று": 956,
  "குடிய": 957,
  "முதல்": 958,
  "பாரம்": 959,
  "டிவ": 960,
  "பெரிய": 961,
  "பரிய": 962,
  "பாரம்பரிய": 963,
  "gen": 964,
  "gion": 965,
  "ry": 966,
  "ఒక": 967,
  "కాల": 968,
  "డి": 969,
  "ణా": 970,
  "ద్ర": 971,
  "మార్": 972,
  "ండి": 973,
  "1.": 974,
  "னை": 975,
  "ரண": 976,
  "குறை": 977,
  "முன்ன": 978,
  "விள": 979,
  "ட்சி": 980,
  "மக்கள்": 981,
  "der": 982,
  "min": 983,
  "sh": 984,
  "ism": 985,
  "पू": 986,
  "af": 987,
  "ma": 988,
  "part": 989,
  "ru": 990,
  "ఉంది.": 991,
  "చే": 992,
  "తం": 993,
  "ధ్య": 994,
  "శా": 995,
  "్‌": 996,
  "ans": 997,
  "ant": 998,
  "es,": 999,
  "ింద": 1000,
  "దేశాల": 1001,
  "ough": 1002,
  "low": 1003,
  "వ్యవ": 1004,
  "தாக": 1005,
  "நக": 1006,
  "வரு": 1007,
  "ியது.": 1008,
  "த்தது.": 1009,
  "ர்ந்து": 1010,
  "ஆகும்.": 1011,
  "செய": 1012,
  "பகுதிய": 1013,
  "கிழ": 1014,
  "என்று": 1015,
  "2011": 1016,
  "मु": 1017,
  "श्": 1018,
  "र्व": 1019,
  "overnment": 1020,
  "pe": 1021,
  "ame": 1022,
  "age": 1023,
  "நிற": 1024,
  "ியாக": 1025,
  "உலகின்": 1026,
  "hi": 1027,
  "6%": 1028,
  "197": 1029,
  "CE": 1030,
  "Hin": 1031,
  "og": 1032,
  "जन": 1033,
  "षा": 1034,
  "ంది": 1035,
  "ఎన్న": 1036,
  "కి": 1037,
  "టు": 1038,
  "తా": 1039,
  "పార": 1040,
  "పంచ": 1041,
  "ాన్": 1042,
  "ass": 1043,
  "ous": 1044,
  "న్ని": 1045,
  "భారతదేశంలో": 1046,
  "ఉన్నాయి.": 1047,
  "எண்ண": 1048,
  "சே": 1049,
  "மி": 1050,
  "ைகள": 1051,
  "க்கி": 1052,
  "ிலிருந்து": 1053,
  "ங்களை": 1054,
  "தொழ": 1055,
  "பகுதிக": 1056,
  "ுடன்": 1057,
  "किया": 1058,
  "नी": 1059,
  "सर": 1060,
  "ber": 1061,
  "bec": 1062,
  "mar": 1063,
  "all": 1064,
  "ally": 1065,
  "econom": 1066,
  "ंत्र": 1067,
  "तक": 1068,
  "ही": 1069,
  "அடி": 1070,
  "இவ": 1071,
  "என": 1072,
  "ஒன்ற": 1073,
  "கட": 1074,
  "ணி": 1075,
  "பி": 1076,
  "ார்.": 1077,
  "்ப": 1078,
  "்த்த": 1079,
  "த்திற": 1080,
  "ற்றாண்ட": 1081,
  "காரண": 1082,
  "ுள்ளன.": 1083,
  "ஆகியவை": 1084,
  "நூற்றாண்ட": 1085,
  "7,": 1086,
  "nor": 1087,
  "up": 1088,
  "y,": 1089,
  "చె": 1090,
  "డ్": 1091,
  "దా": 1092,
  "పె": 1093,
  "ిన్న": 1094,
  "ీ,": 1095,
  "ెండ": 1096,
  "any": 1097,
  "ance": 1098,
  "ర్వ": 1099,
  "our": 1100,
  "uring": 1101,
  "ులు,": 1102,
  "మార్గ": 1103,
  "వ్యవస్థ": 1104,
  "ct": 1105,
  "194": 1106,
  "தோ": 1107,
  "பய": 1108,
  "லான": 1109,
  "வன": 1110,
  "விர": 1111,
  "வடிவ": 1112,
  "ூக": 1113,
  "ிக்": 1114,
  "உள்ளன.": 1115,
  "நாட்டு": 1116,
  "சமூக": 1117,
  "ஆண்டுகள": 1118,
  "ிருந்தது.": 1119,
  "மிகப்": 1120,
  "கோடி": 1121,
  "கூட்ட": 1122,
  "अन": 1123,
  "द्र": 1124,
  "धिक": 1125,
  "ore": 1126,
  "5,": 1127,
  "mill": 1128,
  "into": 1129,
  "ish": 1130,
  "angu": 1131,
  "centur": 1132,
  "0%": 1133,
  "India,": 1134,
  "ची": 1135,
  "ले": 1136,
  "स्था": 1137,
  "ஆய": 1138,
  "இய": 1139,
  "கட்ட": 1140,
  "தில்": 1141,
  "பண்": 1142,
  "பேர": 1143,
  "ழு": 1144,
  "ாகக்": 1145,
  "ப்படும்": 1146,
  "மொழ": 1147,
  "வளர்ச்ச": 1148,
  "நிறுவ": 1149,
  "ple": 1150,
  "pul": 1151,
  "ంబ": 1152,
  "కృ": 1153,
  "కే": 1154,
  "కార": 1155,
  "తు": 1156,
  "ధాన": 1157,
  "మత": 1158,
  "హింద": 1159,
  "stit": 1160,
  "ానికి": 1161,
  "స్తు": 1162,
  "కూడా": 1163,
  "మొద": 1164,
  "అధికార": 1165,
  "ंध": 1166,
  "िण": 1167,
  "लि": 1168,
  "ष्ट": 1169,
  "१९": 1170,
  "அதன்": 1171,
  "இவை": 1172,
  "இதன்": 1173,
  "கீ": 1174,
  "டுகள": 1175,
  "முக": 1176,
  "றிய": 1177,
  "லும்": 1178,
  "ிரு": 1179,
  "ையின்": 1180,
  "ையானது": 1181,
  "ப்புற": 1182,
  "வேறு": 1183,
  "தொடங்க": 1184,
  "साथ": 1185,
  "பொருட": 1186,
  "சியாவ": 1187,
  "குறிப்பிட": 1188,
  "தொழில்": 1189,
  "bo": 1190,
  "ding": 1191,
  "fe": 1192,
  "ution": 1193,
  "ine": 1194,
  "sub": 1195,
  "north": 1196,
  "17": 1197,
  "ire": 1198,
  "Ch": 1199,
  "धान": 1200,
  "प्": 1201,
  "यु": 1202,
  "2.": 1203,
  "av": 1204,
  "lat": 1205,
  "ne": 1206,
  "sc": 1207,
  "west": 1208,
  "உண": 1209,
  "கல": 1210,
  "சீ": 1211,
  "சை": 1212,
  "திர": 1213,
  "நடு": 1214,
  "நேர": 1215,
  "பின்": 1216,
  "ట్": 1217,
  "త్ర": 1218,
  "త్య": 1219,
  "దక్ష": 1220,
  "పరి": 1221,
  "మీ": 1222,
  "మే": 1223,
  "మధ్య": 1224,
  "రో": 1225,
  "సు": 1226,
  "ి,": 1227,
  "భాష": 1228,
  "ந்திர": 1229,
  "ாவது": 1230,
  "ிலான": 1231,
  "ప్రపంచ": 1232,
  "ప్రధాన": 1233,
  "ద్ద": 1234,
  "ற்பட்ட": 1235,
  "స్థాన": 1236,
  "రాజ్య": 1237,
  "ప్రాంత": 1238,
  "పేరు": 1239,
  "రైలు": 1240,
  "பகுதிகள": 1241,
  "பண்பா": 1242,
  "பேரரச": 1243,
  "मान": 1244,
  "भाषा": 1245,
  "26": 1246,
  "3.": 1247,
  "उत्": 1248,
  "दो": 1249,
  "दक्ष": 1250,
  "ोग": 1251,
  "क्षे": 1252,
  "शास": 1253,
  "दक्षिण": 1254,
  "but": 1255,
  "fir": 1256,
  "government": 1257,
  "langu": 1258,
  "year": 1259,
  "ress": 1260,
  "inclu": 1261,
  "minist": 1262,
  "Hindu": 1263,
  "10": 1264,
  "இடைய": 1265,
  "ஓர்": 1266,
  "சட்ட": 1267,
  "ணுவ": 1268,
  "தற்கு": 1269,
  "பட்ட": 1270,
  "மய": 1271,
  "வும்": 1272,
  "ூர்": 1273,
  "ந்தது.": 1274,
  "ையா": 1275,
  "இந்து": 1276,
  "மாநில": 1277,
  "தொடக்க": 1278,
  "இருந்து": 1279,
  "ின்றனர்.": 1280,
  "வையாக": 1281,
  "இதில்": 1282,
  "இராணுவ": 1283,
  "த்திற்கு": 1284,
  "1950": 1285,
  "15": 1286,
  "री": 1287,
  "हिन्": 1288,
  "सरकार": 1289,
  "4%": 1290,
  "2%": 1291,
  "dec": 1292,
  "pri": 1293,
  "qu": 1294,
  "uc": 1295,
  "ఆర్": 1296,
  "జా": 1297,
  "దాయ": 1298,
  "ప్": 1299,
  "వర": 1300,
  "వార": 1301,
  "వర్": 1302,
  "సభ": 1303,
  "reas": 1304,
  "region": 1305,
  "్రా": 1306,
  "క్కు": 1307,
  "ాత్ర": 1308,
  "దేశంలో": 1309,
  "popul": 1310,
  "క్రీ": 1311,
  "world": 1312,
  "పార్ట": 1313,
  "దక్షి": 1314,
  "ஆன": 1315,
  "ப்த": 1316,
  "மன்ற": 1317,
  "வழ": 1318,
  "ாங்க": 1319,
  "ெடு": 1320,
  "ைச்": 1321,
  "ப்படுத்த": 1322,
  "ட்டின்": 1323,
  "மு.": 1324,
  "முக்கிய": 1325,
  "ப்பட்டது.": 1326,
  "த்துவ": 1327,
  "பிரி": 1328,
  "மேற்கு": 1329,
  "இருந்தது.": 1330,
  "அரசாங்க": 1331,
  "வீத": 1332,
  "க்கால": 1333,
  "உயிர": 1334,
  "2,": 1335,
  "ओं": 1336,
  "गया": 1337,
  "जी": 1338,
  "वी": 1339,
  "्रे": 1340,
  "र्म": 1341,
  "बाद": 1342,
  "क्षेत्र": 1343,
  "Asi": 1344,
  "i,": 1345,
  "oc": 1346,
  "ok": 1347,
  "sy": 1348,
  "ud": 1349,
  "ved": 1350,
  "eral": 1351,
  "ates": 1352,
  "ome": 1353,
  "first": 1354,
  "यह": 1355,
  "रूप": 1356,
  "அண": 1357,
  "அனை": 1358,
  "உறு": 1359,
  "கல்": 1360,
  "கிர": 1361,
  "மதி": 1362,
  "வண": 1363,
  "வங்க": 1364,
  "ுடைய": 1365,
  "ானிய": 1366,
  "இந்தியப்": 1367,
  "முறைய": 1368,
  "தொக": 1369,
  "போன்ற": 1370,
  "மாற்ற": 1371,
  "வீன": 1372,
  "ய்ய": 1373,
  "தனி": 1374,
  "பயன்ப": 1375,
  "ढ़": 1376,
  "cl": 1377,
  "land": 1378,
  "tra": 1379,
  "అయ": 1380,
  "జనా": 1381,
  "నాలు": 1382,
  "బా": 1383,
  "భు": 1384,
  "రెండ": 1385,
  "లం": 1386,
  "లా": 1387,
  "వె": 1388,
  "reli": 1389,
  "ence": 1390,
  "లు,": 1391,
  "ర్య": 1392,
  "dition": 1393,
  "ప్రభు": 1394,
  "ection": 1395,
  "ించింది.": 1396,
  "హిందూ": 1397,
  ",000": 1398,
  "50": 1399,
  "row": 1400,
  "कृ": 1401,
  "बसे": 1402,
  "सबसे": 1403,
  "प्रा": 1404,
  "जिस": 1405,
  "உடைய": 1406,
  "என்ப": 1407,
  "நி": 1408,
  "பங்க": 1409,
  "மெ": 1410,
  "வர்கள": 1411,
  "ான்": 1412,
  "ிட்ட": 1413,
  "ியான": 1414,
  "பாது": 1415,
  "பெய": 1416,
  "ர்க்க": 1417,
  "வெள": 1418,
  "ஆகியவற்ற": 1419,
  "மக்கள": 1420,
  "5.": 1421,
  "cast": 1422,
  "ational": 1423,
  "ci": 1424,
  "during": 1425,
  "fore": 1426,
  "gan": 1427,
  "had": 1428,
  "long": 1429,
  "ric": 1430,
  "stem": 1431,
  "India.": 1432,
  "ect": 1433,
  "duc": 1434,
  "ext": 1435,
  "used": 1436,
  "after": 1437,
  "became": 1438,
  "stitution": 1439,
  "system": 1440,
  "दि": 1441,
  "बहु": 1442,
  "मुख": 1443,
  "16": 1444,
  "1%": 1445,
  "அறி": 1446,
  "உற்ப": 1447,
  "கண்ட": 1448,
  "தீ": 1449,
  "லில்": 1450,
  "ித": 1451,
  "ைகள்": 1452,
  "ப்பட்டன.": 1453,
  "போட்ட": 1454,
  "செய்ய": 1455,
  "நடத்த": 1456,
  "பெரும்பாலான": 1457,
  "விளையா": 1458,
  "ஆனால்": 1459,
  "வணிக": 1460,
  "பயன்படுத்த": 1461,
  "பாதுகா": 1462,
  "30": 1463,
  "पु": 1464,
  "ष्ट्र": 1465,
  "fic": 1466,
  "ces": 1467,
  "har": 1468,
  "jor": 1469,
  "ni": 1470,
  "pre": 1471,
  "pire": 1472,
  "ser": 1473,
  "south": 1474,
  "vi": 1475,
  "ంద్ర": 1476,
  "ఇతర": 1477,
  "తరు": 1478,
  "పూ": 1479,
  "పో": 1480,
  "బ్": 1481,
  "మన": 1482,
  "మి": 1483,
  "లకు": 1484,
  "వీ": 1485,
  "వు": 1486,
  "ష్": 1487,
  "ీన": 1488,
  "reat": 1489,
  "ాల్": 1490,
  "స్కృ": 1491,
  "them": 1492,
  "also": 1493,
  "ముఖ్య": 1494,
  "స్త్ర": 1495,
  "ించిన": 1496,
  "been": 1497,
  "సాం": 1498,
  "contin": 1499,
  "have": 1500,
  "వచ్చింది.": 1501,
  "largest": 1502,
  "పెద్ద": 1503,
  "క్కువ": 1504,
  "పార్టీ": 1505,
  "జనాభా": 1506,
  "do": 1507,
  "mer": 1508,
  "ral": 1509,
  "अप": 1510,
  "सि": 1511,
  "सी": 1512,
  "ंग्रे": 1513,
  "वर्ष": 1514,
  "அ$": 1515,
  "அளவ": 1516,
  "ஐஅ$": 1517,
  "கலை": 1518,
  "சிற": 1519,
  "டன்": 1520,
  "நுட": 1521,
  "பத": 1522,
  "பல்": 1523,
  "மலை": 1524,
  "லிய": 1525,
  "வும்,": 1526,
  "ாம": 1527,
  "ுத": 1528,
  "ுக்க": 1529,
  "ப்படு": 1530,
  "த்தைக்": 1531,
  "காண": 1532,
  "ங்களின்": 1533,
  "தொலை": 1534,
  "வாழ்": 1535,
  "நிலைய": 1536,
  "தொடர்ந்து": 1537,
  "ப்படுகின்றன.": 1538,
  "நாடுகள": 1539,
  "மொத்த": 1540,
  "பிறகு": 1541,
  "அடிப்பட": 1542,
  "ஆயுத": 1543,
  "நிறுவன": 1544,
  "கீழ்": 1545,
  "நுட்ப": 1546,
  ").": 1547,
  "Cong": 1548,
  "dern": 1549,
  "pt": 1550,
  "pol": 1551,
  "wo": 1552,
  "war": 1553,
  "y.": 1554,
  "es.": 1555,
  "ural": 1556,
  "such": 1557,
  "more": 1558,
  "most": 1559,
  "port": 1560,
  "million": 1561,
  "minister": 1562,
  "bl": 1563,
  "जो": 1564,
  "बंध": 1565,
  "सार": 1566,
  "है,": 1567,
  "स्व": 1568,
  "द्ध": 1569,
  "पूर्व": 1570,
  "mon": 1571,
  "(₹": 1572,
  "धर्म": 1573,
  "அக": 1574,
  "அவை": 1575,
  "ஆற்ற": 1576,
  "இக்கால": 1577,
  "உள்": 1578,
  "கட்ச": 1579,
  "சோ": 1580,
  "தாகும்.": 1581,
  "பக": 1582,
  "ரீ": 1583,
  "ரோ": 1584,
  "வில்": 1585,
  "வழி": 1586,
  "வகை": 1587,
  "ப்பின": 1588,
  "த்தக்க": 1589,
  "ரும": 1590,
  "्रा": 1591,
  "र्थ": 1592,
  "ற்கா": 1593,
  "स्त": 1594,
  "राष्ट्र": 1595,
  "வேக": 1596,
  "ுக்குப்": 1597,
  "பிரித்த": 1598,
  "மேற்க": 1599,
  "லாம்": 1600,
  "அரசியல்": 1601,
  "பரவ": 1602,
  "வாகும்.": 1603,
  "அதிகரித்து": 1604,
  "இரண்டு": 1605,
  "குடியரச": 1606,
  "இடையில்": 1607,
  "அனைத்து": 1608,
  "ரீதிய": 1609,
  "பிரித்தானிய": 1610,
  "South": 1611,
  "ban": 1612,
  "cial": 1613,
  "dh": 1614,
  "num": 1615,
  "wn": 1616,
  "ం.": 1617,
  "అతి": 1618,
  "ఉత్": 1619,
  "ఉంట": 1620,
  "గర": 1621,
  "గి": 1622,
  "గీ": 1623,
  "జరి": 1624,
  "పర": 1625,
  "పట్ట": 1626,
  "బడ": 1627,
  "బె": 1628,
  "మహ": 1629,
  "లలో": 1630,
  "వంట": 1631,
  "శ్ర": 1632,
  "ుకు": 1633,
  "that": 1634,
  "inf": 1635,
  "atic": 1636,
  "్రె": 1637,
  "్యం": 1638,
  "భాగ": 1639,
  "విధ": 1640,
  "ade": 1641,
  "modern": 1642,
  "వాణా": 1643,
  "increas": 1644,
  "ount": 1645,
  "major": 1646,
  "మార్గాలు": 1647,
  "కేంద్ర": 1648,
  "ప్ప": 1649,
  "క్రీడ": 1650,
  "tradition": 1651,
  "అయిన": 1652,
  "ప్రభుత్వ": 1653,
  "తరువాత": 1654,
  "Congress": 1655,
  "0.": 1656,
  "अधिक": 1657,
  "थी": 1658,
  "दिया": 1659,
  "पार": 1660,
  "मी": 1661,
  "लग": 1662,
  "सद": 1663,
  "माण": 1664,
  "मिल": 1665,
  "श्व": 1666,
  "शासन": 1667,
  "3,": 1668,
  "ures": 1669,
  "Af": 1670,
  "Em": 1671,
  "cor": 1672,
  "grow": 1673,
  "par": 1674,
  "two": 1675,
  "diver": 1676,
  "lim": 1677,
  "imal": 1678,
  "ound": 1679,
  "both": 1680,
  "prime": 1681,
  "அண்": 1682,
  "இணை": 1683,
  "ஒப்ப": 1684,
  "கரு": 1685,
  "சந்த": 1686,
  "சரா": 1687,
  "தேர": 1688,
  "மன": 1689,
  "மிய": 1690,
  "ர்த்த": 1691,
  "ல்கள": 1692,
  "வது": 1693,
  "வுகள": 1694,
  "க்கம்": 1695,
  "த்தி": 1696,
  "ங்கிர": 1697,
  "இந்தியத்": 1698,
  "காங்கிர": 1699,
  "லை.": 1700,
  "உள்ளட": 1701,
  "நிலை": 1702,
  "வெளி": 1703,
  "ங்கள்,": 1704,
  "வரலா": 1705,
  "கூட": 1706,
  "தேசிய": 1707,
  "பொதுவாக": 1708,
  "பெற்றது.": 1709,
  "மூன்ற": 1710,
  "கிழக்கு": 1711,
  "இவ்": 1712,
  "வளர்ச்சி": 1713,
  "வங்காள": 1714,
  "அண்.": 1715,
  "9%": 1716,
  "ंड": 1717,
  "बी": 1718,
  "रे": 1719,
  "ल्": 1720,
  "नाम": 1721,
  "विश्व": 1722,
  "साम": 1723,
  "चीन": 1724,
  "42": 1725,
  "7%": 1726,
  "1991": 1727,
  "BCE": 1728,
  "Ma": 1729,
  "a.": 1730,
  "cult": 1731,
  "dom": 1732,
  "ff": 1733,
  "main": 1734,
  "ph": 1735,
  "rough": 1736,
  "ss": 1737,
  "ta": 1738,
  "कु": 1739,
  "बना": 1740,
  "लो": 1741,
  "అనే": 1742,
  "ఇది": 1743,
  "ఎక్కువ": 1744,
  "ఏర్": 1745,
  "కీయ": 1746,
  "కలి": 1747,
  "గో": 1748,
  "గ్": 1749,
  "గిన": 1750,
  "జన": 1751,
  "టిక": 1752,
  "ణం": 1753,
  "బహ": 1754,
  "మంత్ర": 1755,
  "రవాణా": 1756,
  "లే": 1757,
  "లను": 1758,
  "సిం": 1759,
  "సరి": 1760,
  "ిల్ల": 1761,
  "ౌక": 1762,
  "though": 1763,
  "్రి": 1764,
  "ition": 1765,
  "ప్రస్తు": 1766,
  "ప్రదాయ": 1767,
  "out": 1768,
  "urban": 1769,
  "lear": 1770,
  "క్క": 1771,
  "olog": 1772,
  "స్తాన్": 1773,
  "bet": 1774,
  "istan": 1775,
  "ages": 1776,
  "under": 1777,
  "ంగ్రె": 1778,
  "సాధ": 1779,
  "పాకి": 1780,
  "రాజకీయ": 1781,
  "ween": 1782,
  "కాంగ్రె": 1783,
  "large": 1784,
  "not": 1785,
  "కాలంలో": 1786,
  "ందిన": 1787,
  "ఎన్నో": 1788,
  "మొదటి": 1789,
  "प्त": 1790,
  "उत्तर": 1791,
  "years": 1792,
  "దక్షిణ": 1793,
  "class": 1794,
  "caste": 1795,
  "சன": 1796,
  "தர": 1797,
  "ந்": 1798,
  "பஞ்ச": 1799,
  "மர": 1800,
  "மதிய": 1801,
  "ரிய": 1802,
  "ளவு": 1803,
  "ுமன்ற": 1804,
  "ேற்ற": 1805,
  "ும்ப": 1806,
  "ுகிறது.": 1807,
  "முதன்": 1808,
  "வாய": 1809,
  "வாக்க": 1810,
  "கொண்டிருந்தது.": 1811,
  "லாய": 1812,
  "ட்சிய": 1813,
  "வரை": 1814,
  "உருவான": 1815,
  "த்தியில்": 1816,
  "நகர": 1817,
  "நகர்": 1818,
  "வருக": 1819,
  "மொழிகள": 1820,
  "முகலாய": 1821,
  "நேரத்தில்": 1822,
  "அணு": 1823,
  "உள்நாட்டு": 1824,
  "தேர்த": 1825,
  "3%": 1826,
  "चु": 1827,
  "तु": 1828,
  "बड़": 1829,
  "स्ता": 1830,
  "हुआ": 1831,
  "हुई": 1832,
  "निर्": 1833,
  "अनु": 1834,
  "Brit": 1835,
  "Bud": 1836,
  "Un": 1837,
  "ca": 1838,
  "east": 1839,
  "gr": 1840,
  "led": 1841,
  "tr": 1842,
  "this": 1843,
  "ince": 1844,
  "eng": 1845,
  "their": 1846,
  "isation": 1847,
  "life": 1848,
  "ament": 1849,
  "who": 1850,
  "election": 1851,
  "economic": 1852,
  "new": 1853,
  "language": 1854,
  "uclear": 1855,
  "population": 1856,
  "continent": 1857,
  "number": 1858,
  "Empire": 1859,
  "British": 1860,
  "அட": 1861,
  "இற": 1862,
  "கண": 1863,
  "கட்டு": 1864,
  "சில": 1865,
  "ண்கள": 1866,
  "நவீன": 1867,
  "பே": 1868,
  "பௌ": 1869,
  "பண்ட": 1870,
  "ரும்": 1871,
  "ராக": 1872,
  "ழை": 1873,
  "வதற்கு": 1874,
  "ஸ்": 1875,
  "ின.": 1876,
  "ோர்": 1877,
  "துறைய": 1878,
  "த்திர": 1879,
  "ட்டில்": 1880,
  "ங்கு": 1881,
  "ாவில்": 1882,
  "ிலும்": 1883,
  "டித்த": 1884,
  "உள்ளிட்ட": 1885,
  "புதிய": 1886,
  "செல": 1887,
  "வெற்ற": 1888,
  "டைந்த": 1889,
  "ன்னி": 1890,
  "வையாகும்.": 1891,
  "இலக்கிய": 1892,
  "எண்ணிக்க": 1893,
  "சேர்ந்த": 1894,
  "விரி": 1895,
  "கட்டட": 1896,
  "குறிப்பிடத்தக்க": 1897,
  "உறுப்பின": 1898,
  "வெளிய": 1899,
  "பாதுகாப்பு": 1900,
  "உருவானது.": 1901,
  "चि": 1902,
  "ज़": 1903,
  "ध्य": 1904,
  "भू": 1905,
  "म्": 1906,
  "मंत्र": 1907,
  "वार": 1908,
  "व्य": 1909,
  "ैन": 1910,
  "ोड़": 1911,
  "००": 1912,
  "सेना": 1913,
  "जाता": 1914,
  "हिन्दी": 1915,
  "500": 1916,
  "2001": 1917,
  "6.": 1918,
  "lop": 1919,
  "An": 1920,
  "Con": 1921,
  "Pak": 1922,
  "dance": 1923,
  "fol": 1924,
  "ll": 1925,
  "lit": 1926,
  "many": 1927,
  "sity": 1928,
  "అత్య": 1929,
  "ఇండి": 1930,
  "ఉప": 1931,
  "కర": 1932,
  "క్య": 1933,
  "గల": 1934,
  "చిన్న": 1935,
  "పై": 1936,
  "పతి": 1937,
  "భూ": 1938,
  "మై": 1939,
  "మాన": 1940,
  "యు": 1941,
  "యో": 1942,
  "రంగ": 1943,
  "లతో": 1944,
  "వల": 1945,
  "శ్": 1946,
  "షు": 1947,
  "ా,": 1948,
  "ావర": 1949,
  "ుకో": 1950,
  "ెలు": 1951,
  "్మ": 1952,
  "hed": 1953,
  "erg": 1954,
  "ాలో": 1955,
  "ాలలో": 1956,
  "ాలను": 1957,
  "ari": 1958,
  "ప్రతి": 1959,
  "విస్త": 1960,
  "ండు": 1961,
  "began": 1962,
  "సంస్కృ": 1963,
  "సంగీ": 1964,
  "sup": 1965,
  "ght": 1966,
  "ంగ్ల": 1967,
  "ically": 1968,
  "ిత్ర": 1969,
  "ప్రాచ": 1970,
  "క్రమ": 1971,
  "సిని": 1972,
  "ism,": 1973,
  "శాస్త్ర": 1974,
  "lowing": 1975,
  "western": 1976,
  "ఆర్ధిక": 1977,
  "ountry": 1978,
  "సరిహ": 1979,
  "between": 1980,
  "Pakistan": 1981,
  "అత్యధిక": 1982,
  "ंद्र": 1983,
  "दा": 1984,
  "लय": 1985,
  "काल": 1986,
  "स्कृ": 1987,
  "देशों": 1988,
  "समय": 1989,
  "pu": 1990,
  "blic": 1991,
  "public": 1992,
  "7.": 1993,
  "9.": 1994,
  "அறிய": 1995,
  "ஆசிய": 1996,
  "ஏற்பட்ட": 1997,
  "ஓவிய": 1998,
  "சொ": 1999,
  "தற்": 2000,
  "தமி": 2001,
  "நான": 2002,
  "பூ": 2003,
  "பரி": 2004,
  "வக": 2005,
  "வ்": 2006,
  "வகு": 2007,
  "ா,": 2008,
  "துணை": 2009,
  "ந்தைய": 2010,
  "ப்பின்": 2011,
  "த்தால்": 2012,
  "ையும்,": 2013,
  "ில்லிய": 2014,
  "ுகளை": 2015,
  "திர்": 2016,
  "ற்கர": 2017,
  "நாட்டின்": 2018,
  "கொண்டு": 2019,
  "களின்": 2020,
  "வென்ற": 2021,
  "இருந்தன.": 2022,
  "ாளுமன்ற": 2023,
  "நாடாளுமன்ற": 2024,
  "ிகளை": 2025,
  "நீண்ட": 2026,
  "இருக்க": 2027,
  "உயர்": 2028,
  "குறிப்பாக": 2029,
  "பெரும்பான்": 2030,
  "வடக்கு": 2031,
  "கடற்கர": 2032,
  "தோன்ற": 2033,
  "பொருட்கள": 2034,
  "பொருட்கள்": 2035,
  "முக்கியமான": 2036,
  "உயிரின": 2037,
  "கிராம": 2038,
  "மனித": 2039,
  "உள்ளடக்கிய": 2040,
  "முதன்மையான": 2041,
  "பௌத்த": 2042,
  "ில்லியன்": 2043,
  "5%": 2044,
  "गा": 2045,
  "तिक": 2046,
  "बढ़": 2047,
  "महा": 2048,
  "रि": 2049,
  "रु": 2050,
  "वं": 2051,
  "ष्": 2052,
  "केंद्र": 2053,
  "स्थ": 2054,
  "नाव": 2055,
  "राज्यों": 2056,
  "हीं": 2057,
  "ik": 2058,
  "ite": 2059,
  "velop": 2060,
  "Eur": 2061,
  "It": 2062,
  "bi": 2063,
  "ho": 2064,
  "ris": 2065,
  "rate": 2066,
  "tec": 2067,
  "tim": 2068,
  "ren": 2069,
  "on-": 2070,
  "ited": 2071,
  "leg": 2072,
  "ilit": 2073,
  "river": 2074,
  "ement": 2075,
  "set": 2076,
  "istor": 2077,
  "exp": 2078,
  "ack": 2079,
  "anges": 2080,
  "power": 2081,
  "able": 2082,
  "ies,": 2083,
  "ially": 2084,
  "peri": 2085,
  "comp": 2086,
  "spec": 2087,
  "northern": 2088,
  "later": 2089,
  "world's": 2090,
  "40": 2091,
  "late": 2092,
  "8.": 2093,
  "उप": 2094,
  "एश": 2095,
  "क्र": 2096,
  "खा": 2097,
  "टि": 2098,
  "टे": 2099,
  "दान": 2100,
  "वे": 2101,
  "प्रमुख": 2102,
  "संघ": 2103,
  "ियों": 2104,
  "अन्य": 2105,
  "लिए": 2106,
  "स्तान": 2107,
  "இப்ப": 2108,
  "உட": 2109,
  "எதிர்": 2110,
  "ஏற்று": 2111,
  "ஐக்கிய": 2112,
  "ஐரோ": 2113,
  "கங்க": 2114,
  "சூ": 2115,
  "சுக": 2116,
  "தம": 2117,
  "தூ": 2118,
  "தை": 2119,
  "தான": 2120,
  "பழ": 2121,
  "மல": 2122,
  "ரப்ப": 2123,
  "லாக": 2124,
  "லமை": 2125,
  "ள்க": 2126,
  "வின்": 2127,
  "வர்": 2128,
  "வில": 2129,
  "வர்கள்": 2130,
  "ுக்கும்": 2131,
  "ண்டும்": 2132,
  "ாவின்": 2133,
  "முடி": 2134,
  "முசு": 2135,
  "காட்ட": 2136,
  "ங்களாக": 2137,
  "விட": 2138,
  "இதுவாகும்.": 2139,
  "புவி": 2140,
  "வேளா": 2141,
  "ரால்": 2142,
  "அரசிய": 2143,
  "வரும்": 2144,
  "உருவாக": 2145,
  "பகுதி": 2146,
  "வியல்": 2147,
  "தென்": 2148,
  "தெற்கு": 2149,
  "தென்னி": 2150,
  "ிகளில்": 2151,
  "நீதி": 2152,
  "இதற்கு": 2153,
  "நடன": 2154,
  "அதிகரித்த": 2155,
  "2011ஆம்": 2156,
  "வேறுபட்ட": 2157,
  "கல்விய": 2158,
  "காங்கிரசு": 2159,
  "இவ்வா": 2160,
  "கணக்க": 2161,
  "கட்டுப்பா": 2162,
  "முசுலி": 2163,
  "வேளாண்": 2164,
  "தென்னிந்திய": 2165,
  "ef": 2166,
  ");": 2167,
  "Ne": 2168,
  "national": 2169,
  "13": 2170,
  "-d": 2171,
  "By": 2172,
  "cour": 2173,
  "ded": 2174,
  "hum": 2175,
  "other": 2176,
  "since": 2177,
  "ving": 2178,
  "ం:": 2179,
  "ంధ": 2180,
  "ఆధ": 2181,
  "కాలు": 2182,
  "గణ": 2183,
  "జ్య": 2184,
  "ట్ల": 2185,
  "ఢిల్ల": 2186,
  "ణి": 2187,
  "తిక": 2188,
  "తంత్ర": 2189,
  "దం": 2190,
  "దార": 2191,
  "ధి": 2192,
  "నె": 2193,
  "నడి": 2194,
  "పించ": 2195,
  "బ్రి": 2196,
  "భిన్న": 2197,
  "మె": 2198,
  "మూడ": 2199,
  "మాత్ర": 2200,
  "రహ": 2201,
  "వై": 2202,
  "సము": 2203,
  "సింది.": 2204,
  "సమా": 2205,
  "సౌక": 2206,
  "హార": 2207,
  "ీ;": 2208,
  "ీర్": 2209,
  "than": 2210,
  "one": 2211,
  "స్య": 2212,
  "స్వ": 2213,
  "స్వా": 2214,
  "dic": 2215,
  "ప్రజ": 2216,
  "ప్రము": 2217,
  "భారత్": 2218,
  "వివిధ": 2219,
  "among": 2220,
  "ular": 2221,
  "ations": 2222,
  "ద్దు": 2223,
  "raph": 2224,
  "ంతో": 2225,
  "సామ": 2226,
  "కోర్": 2227,
  "పేర్": 2228,
  "రాష్ట్రపతి": 2229,
  "there": 2230,
  "ద్ధి": 2231,
  "శాఖ": 2232,
  "peo": 2233,
  "డ్డ": 2234,
  "మొదల": 2235,
  "subcontinent": 2236,
  "ప్రాంతాలు": 2237,
  "including": 2238,
  "జాబ": 2239,
  "దేశంలోని": 2240,
  "రెండు": 2241,
  "ాల్లో": 2242,
  "పట్టణ": 2243,
  "బెంగ": 2244,
  "influ": 2245,
  "increased": 2246,
  "ప్పటిక": 2247,
  "After": 2248,
  "ఏర్ప": 2249,
  "బహు": 2250,
  "మంత్రి": 2251,
  "సింధ": 2252,
  "classical": 2253,
  "Buddh": 2254,
  "liter": 2255,
  "ఇండియా": 2256,
  "సరిహద్దు": 2257,
  "సౌకర్య": 2258,
  "ప్రముఖ": 2259,
  "चा": 2260,
  "त्य": 2261,
  "नों": 2262,
  "सैन": 2263,
  "ारी": 2264,
  "क्त": 2265,
  "हैं,": 2266,
  "जाति": 2267,
  "Com": 2268,
  "ust": 2269,
  "ers": 2270,
  "Indo": 2271,
  "400": 2272,
  "12": 2273,
  "2022": 2274,
  "1947": 2275,
  "185": 2276,
  "4இல்": 2277,
  "ஆட்சிய": 2278,
  "இண": 2279,
  "இன": 2280,
  "இசு": 2281,
  "எஞ்ச": 2282,
  "தங்கள": 2283,
  "தசா": 2284,
  "நப": 2285,
  "பற்ற": 2286,
  "மத்தியில்": 2287,
  "யக": 2288,
  "ரே": 2289,
  "ரின்": 2290,
  "லம்": 2291,
  "ல்கள்": 2292,
  "ாந்திய": 2293,
  "ேய": 2294,
  "துறை": 2295,
  "க்கித்த": 2296,
  "ப்பை": 2297,
  "ர்வ": 2298,
  "இந்திய-": 2299,
  "இந்தியக்": 2300,
  "குழ": 2301,
  "முத": 2302,
  "கால்": 2303,
  "பாணிய": 2304,
  "பாக்கித்த": 2305,
  "க்குப்": 2306,
  "பெற": 2307,
  "வைத்த": 2308,
  "வாய்": 2309,
  "நாயக": 2310,
  "புது": 2311,
  "பிரதம": 2312,
  "பிராந்திய": 2313,
  "ஆண்டின்": 2314,
  "வெப்ப": 2315,
  "மேற்பட்ட": 2316,
  "அமைப்பு": 2317,
  "அதிகா": 2318,
  "சார்ந்த": 2319,
  "ர்களால்": 2320,
  "சிந்து": 2321,
  "நீடித்த": 2322,
  "இலட்ச": 2323,
  "இரண்டாவது": 2324,
  "உருவாக்கப்பட்ட": 2325,
  "குறைவான": 2326,
  "முன்னர்": 2327,
  "செய்த": 2328,
  "ைகளில்": 2329,
  "தொடங்கியது.": 2330,
  "சீன": 2331,
  "அடிப்படைய": 2332,
  "குடியரசு": 2333,
  "பஞ்சா": 2334,
  "நகர்ப்புற": 2335,
  "கட்டடக்": 2336,
  "தற்போது": 2337,
  "அரசியலமை": 2338,
  "கணக்கெடு": 2339,
  "எஞ்சிய": 2340,
  "தசாப்த": 2341,
  "4.": 2342,
  "6,": 2343,
  "1947,": 2344,
  "अन्": 2345,
  "आध": 2346,
  "इन": 2347,
  "गर": 2348,
  "च्": 2349,
  "ज्य": 2350,
  "दश": 2351,
  "द्य": 2352,
  "पश्": 2353,
  "ब्": 2354,
  "रहा": 2355,
  "शु": 2356,
  "समा": 2357,
  "था।": 2358,
  "संस्कृ": 2359,
  "करने": 2360,
  "िये": 2361,
  "ंगा": 2362,
  "पश्चि": 2363,
  "Mu": 2364,
  "S$": 2365,
  "US$": 2366,
  "Wor": 2367,
  "aw": 2368,
  "bal": 2369,
  "bas": 2370,
  "ced": 2371,
  "ev": 2372,
  "histor": 2373,
  "krit": 2374,
  "mus": 2375,
  "mid": 2376,
  "milit": 2377,
  "nuclear": 2378,
  "pres": 2379,
  "ten": 2380,
  "ting": 2381,
  "her": 2382,
  "ree": 2383,
  "sty": 2384,
  "state": 2385,
  "as,": 2386,
  "ised": 2387,
  "liament": 2388,
  "cho": 2389,
  "constitution": 2390,
  "develop": 2391,
  "ghal": 2392,
  "act": 2393,
  "pos": 2394,
  "social": 2395,
  "work": 2396,
  "general": 2397,
  "rule": 2398,
  "mark": 2399,
  "Chin": 2400,
  "occ": 2401,
  "cient": 2402,
  "parliament": 2403,
  "diversity": 2404,
  "period": 2405,
  "people": 2406,
  "Mughal": 2407,
  "World": 2408,
  "inter": 2409,
  "ign": 2410,
  "अम": 2411,
  "अंग्रे": 2412,
  "कई": 2413,
  "गी": 2414,
  "णा": 2415,
  "तंत्र": 2416,
  "नहीं": 2417,
  "पह": 2418,
  "मन": 2419,
  "मै": 2420,
  "मध्य": 2421,
  "योग": 2422,
  "सू": 2423,
  "हर": 2424,
  "्री": 2425,
  "विधान": 2426,
  "हुए": 2427,
  "कारण": 2428,
  "त्व": 2429,
  "पाकि": 2430,
  "इसके": 2431,
  "होता": 2432,
  "प्राचीन": 2433,
  "चुनाव": 2434,
  "अनुसार": 2435,
  "व्यव": 2436,
  "एशिया": 2437,
  "पाकिस्तान": 2438,
  "100": 2439,
  "ஆசியாவ": 2440,
  "இமய": 2441,
  "உற": 2442,
  "க.": 2443,
  "ஜ.": 2444,
  "டுகள்": 2445,
  "ண்கள்": 2446,
  "தற்க": 2447,
  "நடை": 2448,
  "னர்": 2449,
  "பரு": 2450,
  "றாக": 2451,
  "வுகள்": 2452,
  "ாத": 2453,
  "ிணை": 2454,
  "ை,": 2455,
  "்தான": 2456,
  "ம்ப": 2457,
  "ப்பானது": 2458,
  "ையை": 2459,
  "ையுடைய": 2460,
  "ங்கில": 2461,
  "குட": 2462,
  "ாவிய": 2463,
  "பா.": 2464,
  "பால": 2465,
  "டுத்து": 2466,
  "தொகை": 2467,
  "இந்தியாவை": 2468,
  "போத": 2469,
  "திரு": 2470,
  "தாங்க": 2471,
  "கொண்டுள்ளன.": 2472,
  "புற": 2473,
  "புவிய": 2474,
  "பிரபல": 2475,
  "ஆண்டில்": 2476,
  "தொடர்ச்ச": 2477,
  "காலத்திற்கு": 2478,
  "2013": 2479,
  "சிற்ப": 2480,
  "ாளர்கள்": 2481,
  "தெற்கா": 2482,
  "நாடக": 2483,
  "ித்தது.": 2484,
  "வற்றின்": 2485,
  "அமைப்பானது": 2486,
  "இடத்த": 2487,
  "மீண்டும்": 2488,
  "விளை": 2489,
  "செயல்": 2490,
  "ஒன்றிய": 2491,
  "காரணமாக": 2492,
  "மயமா": 2493,
  "மதிப்ப": 2494,
  "என்பது": 2495,
  "பெயர": 2496,
  "போட்டிகள்": 2497,
  "ஆனால்,": 2498,
  "வில்லை.": 2499,
  "வேகமாக": 2500,
  "லாம்.": 2501,
  "சராச": 2502,
  "வாக்கில்": 2503,
  "ண்களுக்கு": 2504,
  "உள்ளிட்டவை": 2505,
  "விரிவ": 2506,
  "நான்கு": 2507,
  "வேளாண்மை": 2508,
  "இணைய": 2509,
  "இசுலா": 2510,
  "தங்களது": 2511,
  "நபர்": 2512,
  "அடிப்படையாகக்": 2513,
  "..": 2514,
  "Beng": 2515,
  "East": 2516,
  "Mus": 2517,
  "Pun": 2518,
  "St": 2519,
  "Sans": 2520,
  "West": 2521,
  "cal": 2522,
  "country": 2523,
  "e,": 2524,
  "gi": 2525,
  "gre": 2526,
  "hm": 2527,
  "jab": 2528,
  "ned": 2529,
  "non-": 2530,
  "op": 2531,
  "ope": 2532,
  "ron": 2533,
  "rat": 2534,
  "sur": 2535,
  "some": 2536,
  "ంద": 2537,
  "ందు": 2538,
  "అభ": 2539,
  "అను": 2540,
  "కళ": 2541,
  "కల్": 2542,
  "గే": 2543,
  "గలు": 2544,
  "గంగా": 2545,
  "చార": 2546,
  "చరి": 2547,
  "చైన": 2548,
  "టీ": 2549,
  "టె": 2550,
  "తన": 2551,
  "తూ": 2552,
  "తమి": 2553,
  "థిక": 2554,
  "నీ": 2555,
  "న్య": 2556,
  "నగర": 2557,
  "పత": 2558,
  "పొ": 2559,
  "పద్ధ": 2560,
  "పండు": 2561,
  "మర": 2562,
  "మ్య": 2563,
  "రూ": 2564,
  "ళ్ల": 2565,
  "వడ": 2566,
  "వహ": 2567,
  "వృ": 2568,
  "వత్": 2569,
  "శతా": 2570,
  "సర": 2571,
  "సై": 2572,
  "సార": 2573,
  "సర్వ": 2574,
  "ిమ": 2575,
  "ు.": 2576,
  "ుంది.": 2577,
  "through": 2578,
  "hen": 2579,
  "here": 2580,
  "ered": 2581,
  "enni": 2582,
  "ాలతో": 2583,
  "లు.": 2584,
  "స్వాత": 2585,
  "dis": 2586,
  "Indu": 2587,
  "offic": 2588,
  "ics": 2589,
  "ప్రజా": 2590,
  "న్నాయి.": 2591,
  "గా,": 2592,
  "నిర్వ": 2593,
  "lead": 2594,
  "నుక": 2595,
  "నుండి": 2596,
  "ation,": 2597,
  "emerg": 2598,
  "త్తం": 2599,
  "ల్వే": 2600,
  "సంఖ్య": 2601,
  "ately": 2602,
  "abl": 2603,
  "ies.": 2604,
  "ితా": 2605,
  "కూడిన": 2606,
  "మొత్తం": 2607,
  "ultan": 2608,
  "రైల్వే": 2609,
  "సియా": 2610,
  "వాతావర": 2611,
  "app": 2612,
  "పాలన": 2613,
  "భారతదేశానికి": 2614,
  "ఒకటి": 2615,
  "చేయ": 2616,
  "దేశాలలో": 2617,
  "ograph": 2618,
  "millenni": 2619,
  "తున్న": 2620,
  "అధికారిక": 2621,
  "ట్లు": 2622,
  "ప్రపంచంలో": 2623,
  "religion": 2624,
  "forest": 2625,
  "served": 2626,
  "polit": 2627,
  "జరిగిన": 2628,
  "వంటి": 2629,
  "అనేక": 2630,
  "ఎక్కువగా": 2631,
  "ప్రస్తుతం": 2632,
  "కాంగ్రెసు": 2633,
  "caused": 2634,
  "ప్రాచీన": 2635,
  "Europe": 2636,
  "tech": 2637,
  "దారులు,": 2638,
  "నడిపించ": 2639,
  "సముద్ర": 2640,
  "military": 2641,
  "Bengal": 2642,
  "Punjab": 2643,
  "Sanskrit": 2644,
  "అభి": 2645,
  "చరిత్ర": 2646,
  "తమిళ": 2647,
  "శతాబ్": 2648,
  "స్వాతంత్ర": 2649,
  "నిర్వహ": 2650,
  "వాతావరణం": 2651,
  "millennium": 2652,
  "कॉ": 2653,
  "गण": 2654,
  "गु": 2655,
  "धी": 2656,
  "न्या": 2657,
  "मो": 2658,
  "प्रति": 2659,
  "प्रधान": 2660,
  "क्ति": 2661,
  "न्ह": 2662,
  "संविधान": 2663,
  "करोड़": 2664,
  "क्षा": 2665,
  "ड़ा": 2666,
  "द्वार": 2667,
  "भाषाओं": 2668,
  "गया।": 2669,
  "्राज्य": 2670,
  "साम्राज्य": 2671,
  "लोक": 2672,
  "भूमि": 2673,
  "मंत्री": 2674,
  "दशक": 2675,
  "Th": 2676,
  "sig": 2677,
  "Indo-": 2678,
  "35": 2679,
  "8%": 2680,
  "(அண்.": 2681,
  "5ஆம்": 2682,
  "8இல்": 2683,
  "ख्या": 2684,
  "गठ": 2685,
  "चल": 2686,
  "ब्र": 2687,
  "यू": 2688,
  "रह": 2689,
  "அந்த": 2690,
  "அடைய": 2691,
  "அழி": 2692,
  "அமெ": 2693,
  "அந்": 2694,
  "ஆற": 2695,
  "ஆதர": 2696,
  "இறு": 2697,
  "எதிர": 2698,
  "கம்": 2699,
  "கவன": 2700,
  "சது": 2701,
  "சமை": 2702,
  "தள": 2703,
  "தம்": 2704,
  "திற": 2705,
  "தடு": 2706,
  "நெ": 2707,
  "பங்கள": 2708,
  "பதி": 2709,
  "பத்திய": 2710,
  "பில்லியன்": 2711,
  "மின்": 2712,
  "ல்தான": 2713,
  "வரி": 2714,
  "வலி": 2715,
  "ாலும்": 2716,
  "ிர்": 2717,
  "ீட்ட": 2718,
  "துண": 2719,
  "ந்தி": 2720,
  "க்குக்": 2721,
  "ப்பிய": 2722,
  "ப்புகள": 2723,
  "த்தின": 2724,
  "ருக்க": 2725,
  "ருங்க": 2726,
  "ட்டை": 2727,
  "ர்,": 2728,
  "ண்டிய": 2729,
  "குதிய": 2730,
  "ிலேய": 2731,
  "ப்பட்டுள்ளது.": 2732,
  "ங்களானவை": 2733,
  "கொள்க": 2734,
  "த்துக்கு": 2735,
  "ரிக்க": 2736,
  "நிலையில்": 2737,
  "சமீ": 2738,
  "தியாக": 2739,
  "மார்": 2740,
  "மாமி": 2741,
  "வேலை": 2742,
  "சுல்தான": 2743,
  "சுமார்": 2744,
  "மையை": 2745,
  "தொடர்": 2746,
  "களாவிய": 2747,
  "மேல்": 2748,
  "காலத்தின்": 2749,
  "காலத்தில்": 2750,
  "றிவு": 2751,
  "அமைந்த": 2752,
  "மானது.": 2753,
  "न्न": 2754,
  "संबंध": 2755,
  "உலகளாவிய": 2756,
  "ர்களின்": 2757,
  "உலகக்": 2758,
  "நாடாக": 2759,
  "த்தைச்": 2760,
  "இருப்ப": 2761,
  "தேச": 2762,
  "தேர்ந்த": 2763,
  "பொதுத்": 2764,
  "அதிகரித்தது.": 2765,
  "सम्": 2766,
  "ளவில்": 2767,
  "உருவாக்கிய": 2768,
  "தலைமை": 2769,
  "முன்னேற்ற": 2770,
  "पूर्": 2771,
  "வருமான": 2772,
  "கிழக்கி": 2773,
  "किया।": 2774,
  "பிந்தைய": 2775,
  "நூற்றாண்டின்": 2776,
  "நூற்றாண்டில்": 2777,
  "ஆண்டுகளில்": 2778,
  "ஆண்டுகளுக்கு": 2779,
  "கோடி)": 2780,
  "இயக்க": 2781,
  "தில்லி": 2782,
  "சைன": 2783,
  "हिन्द": 2784,
  "கல்வி": 2785,
  "உற்பத்தி": 2786,
  "விளையாட்ட": 2787,
  "விளையாட்டு": 2788,
  "ंग्रेस": 2789,
  "பல்வேறு": 2790,
  "பல்வகை": 2791,
  "स्वतंत्र": 2792,
  "राष्ट्रीय": 2793,
  "பரவலாக": 2794,
  "पार्ट": 2795,
  "बीच": 2796,
  "கிராமப்புற": 2797,
  "கல்வியறிவு": 2798,
  "முசுலிம்": 2799,
  "मैदान": 2800,
  "चुनावों": 2801,
  "व्यवस्था": 2802,
  "குடும்ப": 2803,
  "द्वारा": 2804,
  "ிலேயே": 2805,
  "தேர்ந்தெடு": 2806,
  "கிழக்கிந்திய": 2807,
  "-largest": 2808,
  "Cent": 2809,
  "Himal": 2810,
  "Is": 2811,
  "Sik": 2812,
  "bill": 2813,
  "can": 2814,
  "col": 2815,
  "ds": 2816,
  "far": 2817,
  "fam": 2818,
  "ga": 2819,
  "gl": 2820,
  "ied": 2821,
  "king": 2822,
  "nolog": 2823,
  "o,": 2824,
  "rural": 2825,
  "te": 2826,
  "ty": 2827,
  "tro": 2828,
  "ually": 2829,
  "vement": 2830,
  "theast": 2831,
  "dire": 2832,
  "disp": 2833,
  "esp": 2834,
  "ould": 2835,
  "ly,": 2836,
  "ver,": 2837,
  "wide": 2838,
  "ird": 2839,
  "ared": 2840,
  "soci": 2841,
  "wever,": 2842,
  "ritor": 2843,
  "ident": 2844,
  "cook": 2845,
  "gener": 2846,
  "mathem": 2847,
  "century": 2848,
  "Asia": 2849,
  "religi": 2850,
  "duced": 2851,
  "majority": 2852,
  "cording": 2853,
  "culture": 2854,
  "court": 2855,
  "music": 2856,
  "Muslim": 2857,
  "Indus": 2858,
  "Himalay": 2859,
  "billion": 2860,
  "1971": 2861,
  "Re": 2862,
  "8,": 2863,
  "2010": 2864,
  "2009": 2865,
  "1980": 2866,
  "Ar": 2867,
  "Plate": 2868,
  "300": 2869,
  "70%": 2870,
  "====": 2871,
  "1962": 2872,
  "आर्थ": 2873,
  "ई।": 2874,
  "उन": 2875,
  "टी": 2876,
  "ण्": 2877,
  "तृ": 2878,
  "धि": 2879,
  "पी": 2880,
  "फ़": 2881,
  "बर": 2882,
  "बे": 2883,
  "मत": 2884,
  "रो": 2885,
  "लों": 2886,
  "में,": 2887,
  "स्ट": 2888,
  "प्रदेश": 2889,
  "नेतृ": 2890,
  "विका": 2891,
  "विस्त": 2892,
  "संख्या": 2893,
  "जाती": 2894,
  "द्वी": 2895,
  "धिकार": 2896,
  "स्थान": 2897,
  "बहुत": 2898,
  "थी।": 2899,
  "निर्माण": 2900,
  "सैन्य": 2901,
  "द्योग": 2902,
  "कॉंग्रेस": 2903,
  "आर्थिक": 2904,
  "द्वीप": 2905,
  "Government": 2906,
  "28": 2907,
  "1965,": 2908,
  "4,": 2909,
  "1951": 2910,
  "1-": 2911,
  "Ac": 2912,
  "Al": 2913,
  "Del": 2914,
  "En": 2915,
  "Gand": 2916,
  "Jan": 2917,
  "Jain": 2918,
  "Se": 2919,
  "aj": 2920,
  "ace": 2921,
  "air": 2922,
  "back": 2923,
  "ck": 2924,
  "cre": 2925,
  "cit": 2926,
  "dle": 2927,
  "dra": 2928,
  "fl": 2929,
  "fin": 2930,
  "fer": 2931,
  "great": 2932,
  "ili": 2933,
  "ight": 2934,
  "les": 2935,
  "last": 2936,
  "made": 2937,
  "ob": 2938,
  "ped": 2939,
  "pany": 2940,
  "rol": 2941,
  "sing": 2942,
  "tal": 2943,
  "tri": 2944,
  "vent": 2945,
  "wom": 2946,
  "అని": 2947,
  "ఆఫ": 2948,
  "ఇవ": 2949,
  "కం": 2950,
  "కల": 2951,
  "ఖండ": 2952,
  "చి": 2953,
  "జి": 2954,
  "జన్": 2955,
  "టం": 2956,
  "టా": 2957,
  "డే": 2958,
  "ణంగా": 2959,
  "దన": 2960,
  "దీ": 2961,
  "ద్య": 2962,
  "నాయ": 2963,
  "పం": 2964,
  "పద": 2965,
  "పశ": 2966,
  "పక్ష": 2967,
  "పాత్ర": 2968,
  "మల": 2969,
  "మలు": 2970,
  "మించ": 2971,
  "మ్మ": 2972,
  "రే": 2973,
  "రకాల": 2974,
  "లక్ష": 2975,
  "వరి": 2976,
  "సూ": 2977,
  "హా": 2978,
  "ిల్": 2979,
  "ిస్త": 2980,
  "ుల": 2981,
  "ెల": 2982,
  "ోర": 2983,
  "third": 2984,
  "ins": 2985,
  "red": 2986,
  "ann": 2987,
  "ensu": 2988,
  "orig": 2989,
  "ాలకు": 2990,
  "లోక్": 2991,
  "స్,": 2992,
  "స్లా": 2993,
  "రాస్య": 2994,
  "arm": 2995,
  "arn": 2996,
  "ప్రకార": 2997,
  "ిక,": 2998,
  "ికత": 2999,
  "ిక్": 3000,
  "omet": 3001,
  "ected": 3002,
  "కుల": 3003,
  "కుంట": 3004,
  "కుటు": 3005,
  "నిర్": 3006,
  "వి.": 3007,
  "ాయు": 3008,
  "very": 3009,
  "నులు,": 3010,
  "ades": 3011,
  "old": 3012,
  "ము.": 3013,
  "ములో": 3014,
  "ముంబ": 3015,
  "ద్వీ": 3016,
  "తి,": 3017,
  "ల్లో": 3018,
  "lower": 3019,
  "సంఘ": 3020,
  "సంప్రదాయ": 3021,
  "సంవత్": 3022,
  "agric": 3023,
  "territor": 3024,
  "పుట్ట": 3025,
  "స్థాన్": 3026,
  "ంటే": 3027,
  "sive": 3028,
  "క్షరాస్య": 3029,
  "పాక్": 3030,
  "టిలో": 3031,
  "common": 3032,
  "contri": 3033,
  "control": 3034,
  "central": 3035,
  "early": 3036,
  "ంచి": 3037,
  "coal": 3038,
  "coast": 3039,
  "రైళ్ల": 3040,
  "రాష్ట్రాల": 3041,
  "రాష్ట్రాలు": 3042,
  "వచ్చిన": 3043,
  "plain": 3044,
  "కొన్ని": 3045,
  "పాలిత": 3046,
  "వేగంగా": 3047,
  "భారతదేశపు": 3048,
  "party": 3049,
  "high": 3050,
  "భారతదేశంలోని": 3051,
  "economy": 3052,
  "చెందిన": 3053,
  "డ్డు": 3054,
  "వ్యవస్థలో": 3055,
  "century,": 3056,
  "కార్య": 3057,
  "feat": 3058,
  "scri": 3059,
  "పరిశ్ర": 3060,
  "మేన": 3061,
  "రోడ్డు": 3062,
  "ప్రధానమంత్రి": 3063,
  "స్థానంలో": 3064,
  "రాజ్యాలు": 3065,
  "include": 3066,
  "ఆర్థిక": 3067,
  "వారస": 3068,
  "సభ్య": 3069,
  "దక్షిణా": 3070,
  "బాద్": 3071,
  "పూ.": 3072,
  "ముఖ్యమైన": 3073,
  "సాంప్రదాయ": 3074,
  "ఉత్తర": 3075,
  "ఉంటాయి.": 3076,
  "పరంగా": 3077,
  "భాగం": 3078,
  "కేంద్రపాలిత": 3079,
  "growth": 3080,
  "domin": 3081,
  "సాధించ": 3082,
  "పాకిస్తాన్": 3083,
  "పాకిస్థాన్": 3084,
  "దక్షిణాన": 3085,
  "trans": 3086,
  "following": 3087,
  "కరణ": 3088,
  "పైగా": 3089,
  "సంస్కృతి": 3090,
  "సంగీతం": 3091,
  "సినిమా": 3092,
  "human": 3093,
  "ఆధార": 3094,
  "ఢిల్లీ": 3095,
  "బ్రిటి": 3096,
  "మూడు": 3097,
  "మాత్రం": 3098,
  "రహదారులు,": 3099,
  "స్వతంత్ర": 3100,
  "స్వామ్య": 3101,
  "సామ్రా": 3102,
  "జాబితా": 3103,
  "బెంగాల": 3104,
  "influen": 3105,
  "Company": 3106,
  "న్యాయ": 3107,
  "సర్వీ": 3108,
  "emerged": 3109,
  "ultanate": 3110,
  "political": 3111,
  "అభివృ": 3112,
  "శతాబ్దం": 3113,
  "Central": 3114,
  "Sikh": 3115,
  "religious": 3116,
  "Delhi": 3117,
  "Gandhi": 3118,
  "women": 3119,
  "ఆఫ్": 3120,
  "పశ్చ": 3121,
  "origin": 3122,
  "కుటుంబ": 3123,
  "agricult": 3124,
  "క్షరాస్యత": 3125,
  "22": 3126,
  "7இல்": 3127,
  "அரு": 3128,
  "அழை": 3129,
  "ஆப்ப": 3130,
  "ஆதி": 3131,
  "ஆட்சி": 3132,
  "ஆங்கில": 3133,
  "இறைய": 3134,
  "உண்": 3135,
  "உச்ச": 3136,
  "உண்ண": 3137,
  "எந்த": 3138,
  "ஏற்ப": 3139,
  "கத": 3140,
  "கடு": 3141,
  "ஜன": 3142,
  "தல": 3143,
  "தவிர": 3144,
  "தந்திர": 3145,
  "நே": 3146,
  "நோ": 3147,
  "பகி": 3148,
  "மண": 3149,
  "மோ": 3150,
  "மும்": 3151,
  "மருந்த": 3152,
  "மறை": 3153,
  "ரிக": 3154,
  "றுக": 3155,
  "லும்,": 3156,
  "ளம்": 3157,
  "ழ்க": 3158,
  "வோ": 3159,
  "வண்": 3160,
  "வர்க்க": 3161,
  "ஸ்த": 3162,
  "ஸ்ட": 3163,
  "ாம்": 3164,
  "ாற்ற": 3165,
  "ிழ": 3166,
  "ித்": 3167,
  "ீக": 3168,
  "ு,": 3169,
  "ுமே": 3170,
  "ெடுத்த": 3171,
  "க்கே": 3172,
  "த்தட்ட": 3173,
  "ட்டிய": 3174,
  "ையல்": 3175,
  "ையிலான": 3176,
  "ர்வாக": 3177,
  "ுகின்றன.": 3178,
  "குறுக": 3179,
  "ிரிக்க": 3180,
  "முழ": 3181,
  "பாட": 3182,
  "பார": 3183,
  "பார்": 3184,
  "பாதி": 3185,
  "பெரும": 3186,
  "பெருங்க": 3187,
  "ங்களுக்கு": 3188,
  "ுள்ளது": 3189,
  "வால்": 3190,
  "விவ": 3191,
  "விட்ட": 3192,
  "ுகளின்": 3193,
  "திரும": 3194,
  "ப்படியான": 3195,
  "தாக்க": 3196,
  "த்துடன்": 3197,
  "கொண்டிருந்த": 3198,
  "ுக்குள்": 3199,
  "சுதந்திர": 3200,
  "ச்சிய": 3201,
  "லாத": 3202,
  "அமைச்ச": 3203,
  "அரசு": 3204,
  "அரசின்": 3205,
  "பரவிய": 3206,
  "சாதி": 3207,
  "ினும்,": 3208,
  "கிட்ட": 3209,
  "மொழி": 3210,
  "டியாக": 3211,
  "நீர்": 3212,
  "குறிக்க": 3213,
  "வளரும்": 3214,
  "படி,": 3215,
  "பொதுவான": 3216,
  "அமைப்புகள": 3217,
  "இராச்சிய": 3218,
  "பகுதியில்": 3219,
  "எனினும்,": 3220,
  "கூட்டணிய": 3221,
  "ஆயிர": 3222,
  "வளர்ச்சிய": 3223,
  "கீழ": 3224,
  "உணவு": 3225,
  "சீர": 3226,
  "நடுவண்": 3227,
  "பின்பற்ற": 3228,
  "பகுதிகளில்": 3229,
  "வழக்க": 3230,
  "தொகைக்": 3231,
  "நிர்வாக": 3232,
  "ஆகியவற்றை": 3233,
  "மக்களின்": 3234,
  "அறிக்க": 3235,
  "தீபக": 3236,
  "செய்யப்பட்ட": 3237,
  "அளவுக்கு": 3238,
  "ுக்கான": 3239,
  "வரலாற்ற": 3240,
  "மூன்றாவது": 3241,
  "வருகிறது.": 3242,
  "முகலாயப்": 3243,
  "தேர்தலில்": 3244,
  "இறக்கு": 3245,
  "துறையானது": 3246,
  "தமிழ்": 3247,
  "வகுத்தது.": 3248,
  "தூர": 3249,
  "நீதிமன்ற": 3250,
  "இவ்வாறு": 3251,
  "இலட்சம்": 3252,
  "அந்நேரத்தில்": 3253,
  "துணைக்": 3254,
  "சமீபத்திய": 3255,
  "மாமிச": 3256,
  "அருக": 3257,
  "ஆப்பிரிக்க": 3258,
  "திருமண": 3259,
  "தீபகற்ப": 3260,
  "Am": 3261,
  "Sh": 3262,
  "ange": 3263,
  "ived": 3264,
  "ंप": 3265,
  "अर": 3266,
  "अव": 3267,
  "कर्": 3268,
  "चार": 3269,
  "जब": 3270,
  "दर": 3271,
  "पर्व": 3272,
  "बन": 3273,
  "लर": 3274,
  "लिया": 3275,
  "शे": 3276,
  "ोष": 3277,
  "्यों": 3278,
  "स्त्र": 3279,
  "परमाण": 3280,
  "कार्य": 3281,
  "2023": 3282,
  "जनजाति": 3283,
  "स्थाप": 3284,
  "वीं": 3285,
  "हुआ।": 3286,
  "च्च": 3287,
  "पश्चिम": 3288,
  "गणराज्य": 3289,
  "न्याया": 3290,
  "प्रधानमंत्री": 3291,
  "पूर्ण": 3292,
  "परमाणु": 3293,
  "25": 3294,
  "(0.": 3295,
  "21.": 3296,
  "2014": 3297,
  "BJ": 3298,
  "Dem": 3299,
  "Ganges": 3300,
  "Its": 3301,
  "Mo": 3302,
  "ai": 3303,
  "au": 3304,
  "ath": 3305,
  "ach": 3306,
  "bre": 3307,
  "bir": 3308,
  "che": 3309,
  "car": 3310,
  "cur": 3311,
  "cru": 3312,
  "censu": 3313,
  "dam": 3314,
  "day": 3315,
  "eth": 3316,
  "ft": 3317,
  "fed": 3318,
  "fast": 3319,
  "fig": 3320,
  "found": 3321,
  "ge": 3322,
  "gar": 3323,
  "hru": 3324,
  "ile": 3325,
  "ide": 3326,
  "ke": 3327,
  "line": 3328,
  "man": 3329,
  "men": 3330,
  "mit": 3331,
  "ose": 3332,
  "pen": 3333,
  "pain": 3334,
  "pend": 3335,
  "rul": 3336,
  "s;": 3337,
  "sion": 3338,
  "secon": 3339,
  "t,": 3340,
  "tur": 3341,
  "uch": 3342,
  "ven": 3343,
  "vast": 3344,
  "wan": 3345,
  "ya": 3346,
  "indu": 3347,
  "ers,": 3348,
  "rel": 3349,
  "remain": 3350,
  "ank": 3351,
  "animal": 3352,
  "ancient": 3353,
  "they": 3354,
  "als": 3355,
  "alle": 3356,
  "ste": 3357,
  "stat": 3358,
  "div": 3359,
  "diff": 3360,
  "arch": 3361,
  "ic,": 3362,
  "ice": 3363,
  "ing,": 3364,
  "ecially": 3365,
  "There": 3366,
  "ild": 3367,
  "ulpt": 3368,
  "emp": 3369,
  "local": 3370,
  "depend": 3371,
  "und": 3372,
  "movement": 3373,
  "areas": 3374,
  "ments": 3375,
  "ity,": 3376,
  "medi": 3377,
  "prov": 3378,
  "formed": 3379,
  "ives": 3380,
  "ivil": 3381,
  "Hindi": 3382,
  "marri": 3383,
  "sculpt": 3384,
  "United": 3385,
  "Constitution": 3386,
  "Nehru": 3387,
  "literac": 3388,
  "based": 3389,
  "market": 3390,
  "occup": 3391,
  "parliamentary": 3392,
  "grew": 3393,
  "European": 3394,
  "glish": 3395,
  "direct": 3396,
  "especially": 3397,
  "English": 3398,
  "BJP": 3399,
  "painting": 3400,
  "second": 3401,
  "indust": 3402,
  "ंति": 3403,
  "ईसा": 3404,
  "ओर": 3405,
  "गति": 3406,
  "पे": 3407,
  "बो": 3408,
  "भग": 3409,
  "रक्षा": 3410,
  "लिये": 3411,
  "शन": 3412,
  "शी": 3413,
  "शता": 3414,
  "सक": 3415,
  "सह": 3416,
  "सभा": 3417,
  "२००": 3418,
  "ार्": 3419,
  "न्द्र": 3420,
  "न्तु": 3421,
  "संसद": 3422,
  "भाग": 3423,
  "भाज": 3424,
  "हाला": 3425,
  "निर": 3426,
  "१९९": 3427,
  "युद्ध": 3428,
  "क्षेत्रीय": 3429,
  "प्राप्त": 3430,
  "जिसमें": 3431,
  "मुख्य": 3432,
  "वर्षों": 3433,
  "ब्दी": 3434,
  "समाज": 3435,
  "पहले": 3436,
  "धीरे": 3437,
  "ब्रि": 3438,
  "ण्ड": 3439,
  "नेतृत्व": 3440,
  "विकास": 3441,
  "अरब": 3442,
  "शेष": 3443,
  "शताब्दी": 3444,
  "1990": 3445,
  "-உ": 3446,
  "24": 3447,
  "5இல்": 3448,
  "அள": 3449,
  "அன்ற": 3450,
  "அணிய": 3451,
  "அவர்கள": 3452,
  "ஆள": 3453,
  "ஆக்க": 3454,
  "இன்ற": 3455,
  "இந்": 3456,
  "ஏவ": 3457,
  "கைய": 3458,
  "கமாக": 3459,
  "சக": 3460,
  "ட்": 3461,
  "ட்ப": 3462,
  "தக": 3463,
  "தய": 3464,
  "தந்த": 3465,
  "தற்கா": 3466,
  "நிய": 3467,
  "நாக": 3468,
  "நிர": 3469,
  "நன்ற": 3470,
  "நடுத்த": 3471,
  "ன்க": 3472,
  "பண": 3473,
  "பீ": 3474,
  "பள்ள": 3475,
  "பணிய": 3476,
  "பூர்": 3477,
  "மகா": 3478,
  "மிட": 3479,
  "மிக்க": 3480,
  "மந்திர": 3481,
  "யின.": 3482,
  "லின்": 3483,
  "வய": 3484,
  "வானது": 3485,
  "வறு": 3486,
  "ாட்சி": 3487,
  "ொண்ட": 3488,
  "்தி": 3489,
  "ியும்": 3490,
  "துக": 3491,
  "ல்லை": 3492,
  "க்கள்": 3493,
  "க்கண்ட": 3494,
  "ப்பரப்ப": 3495,
  "த்தன.": 3496,
  "ங்கும்.": 3497,
  "ுகின்றனர்.": 3498,
  "குசரா": 3499,
  "முடிவ": 3500,
  "பாரச": 3501,
  "பார்க்க": 3502,
  "ங்களும்": 3503,
  "ங்களைக்": 3504,
  "ங்களைப்": 3505,
  "மைப்பு": 3506,
  "போக்கு": 3507,
  "ுகளில்": 3508,
  "திட்ட": 3509,
  "ப்படும்.": 3510,
  "தாக்கம்": 3511,
  "நிலப்பரப்ப": 3512,
  "சமையல்": 3513,
  "புர": 3514,
  "புல": 3515,
  "வேத": 3516,
  "செல்": 3517,
  "மையில்": 3518,
  "களில்": 3519,
  "காலப்": 3520,
  "வரைய": 3521,
  "க்கப்பட்டது.": 3522,
  "பரப்ப": 3523,
  "அதிகப்படியான": 3524,
  "சார": 3525,
  "ர்களைக்": 3526,
  "கிண்ண": 3527,
  "ாளராக": 3528,
  "தெற்க": 3529,
  "தென்க": 3530,
  "ர்கள்,": 3531,
  "கோப்பை": 3532,
  "நடுக்": 3533,
  "வளர்ந்து": 3534,
  "க்காட்சி": 3535,
  "சமயப்": 3536,
  "வற்றில்": 3537,
  "இடம்": 3538,
  "மூலம்": 3539,
  "முறைகள": 3540,
  "உருவாக்க": 3541,
  "தலைவர": 3542,
  "மீது": 3543,
  "பாரம்பரியமாக": 3544,
  "எண்ணெ": 3545,
  "ஒன்றிணை": 3546,
  "பிற்ப": 3547,
  "காரணமானது.": 3548,
  "நாட்டுப்புற": 3549,
  "பின்னர்": 3550,
  "பண்பாடு": 3551,
  "பண்பாட்டு": 3552,
  "பேரரசு": 3553,
  "வழியாக": 3554,
  "ப்படுத்தப்பட்ட": 3555,
  "வர்களாக": 3556,
  "உற்பத்திய": 3557,
  "பயன்படுத்தப்படுகிறது.": 3558,
  "தொலைக்காட்சி": 3559,
  "அகணிய": 3560,
  "ஆற்றல்": 3561,
  "இக்காலத்தின்": 3562,
  "ரீதியாக": 3563,
  "ஒப்பீட்ட": 3564,
  "சனநாயக": 3565,
  "அடர்த்த": 3566,
  "எண்ணிக்கையிலான": 3567,
  "அறியப்பட்ட": 3568,
  "துணைக்கண்ட": 3569,
  "வென்றுள்ளது.": 3570,
  "ஏற்றுமதிய": 3571,
  "ஐரோப்பிய": 3572,
  "கங்கைச்": 3573,
  "குழந்த": 3574,
  "பாணியானது": 3575,
  "பாக்கித்தான்": 3576,
  "குடியரசுத்": 3577,
  "உறவு": 3578,
  "போதிலும்": 3579,
  "புவியியல்": 3580,
  "பிரபலமான": 3581,
  "சராசரி": 3582,
  "அமெரிக்க": 3583,
  "நெருக்க": 3584,
  "வலிமையான": 3585,
  "வேலைப்பா": 3586,
  "அமைந்துள்ளது.": 3587,
  "ஏற்படுத்த": 3588,
  "தவிர்த்த": 3589,
  "பகிர்ந்து": 3590,
  "வர்க்கத்தின": 3591,
  "முழுவ": 3592,
  "பெருமளவ": 3593,
  "ஏவுக": 3594,
  "நடுத்தர": 3595,
  "பூர்வீ": 3596,
  "பாரசீக": 3597,
  "தென்கிழ": 3598,
  "Act": 3599,
  "ian": 3600,
  "31": 3601,
  "2003": 3602,
  "2020": 3603,
  "2012": 3604,
  "26%": 3605,
  "1200": 3606,
  "14%": 3607,
  "40%": 3608,
  "इंड": 3609,
  "एँ": 3610,
  "एवं": 3611,
  "गंगा": 3612,
  "थे": 3613,
  "दल": 3614,
  "दर्": 3615,
  "निक": 3616,
  "पै": 3617,
  "मू": 3618,
  "मौ": 3619,
  "लन": 3620,
  "लोग": 3621,
  "व्या": 3622,
  "स,": 3623,
  "सु": 3624,
  "हरी": 3625,
  "साल": 3626,
  "राजनी": 3627,
  "वायु": 3628,
  "देख": 3629,
  "हाँ": 3630,
  "ड़ी": 3631,
  "निभा": 3632,
  "वर्त": 3633,
  "जिन": 3634,
  "जनसंख्या": 3635,
  "प्ले": 3636,
  "युक्त": 3637,
  "दोनों": 3638,
  "अपने": 3639,
  "बंधन": 3640,
  "लगभग": 3641,
  "सदस": 3642,
  "कुछ": 3643,
  "कुल": 3644,
  "म्भ": 3645,
  "स्थित": 3646,
  "टिश": 3647,
  "अन्त": 3648,
  "संस्कृति": 3649,
  "न्हें": 3650,
  "भूमिका": 3651,
  "स्वतंत्रता": 3652,
  "ब्रिटिश": 3653,
  "29": 3654,
  "soon": 3655,
  "1,9": 3656,
  "(వె": 3657,
  ".పూ.": 3658,
  "Ara": 3659,
  "BN": 3660,
  "Bi": 3661,
  "DP": 3662,
  "During": 3663,
  "GDP": 3664,
  "IS": 3665,
  "National": 3666,
  "Per": 3667,
  "Pro": 3668,
  "Tam": 3669,
  "bod": 3670,
  "c.": 3671,
  "cap": 3672,
  "dan": 3673,
  "dem": 3674,
  "ep": 3675,
  "fo": 3676,
  "five": 3677,
  "fied": 3678,
  "hat": 3679,
  "i)": 3680,
  "lin": 3681,
  "ling": 3682,
  "lam": 3683,
  "lay": 3684,
  "nat": 3685,
  "nal": 3686,
  "prom": 3687,
  "rates": 3688,
  "sist": 3689,
  "sultanate": 3690,
  "til": 3691,
  "ual": 3692,
  "use": 3693,
  "vol": 3694,
  "won": 3695,
  "yan": 3696,
  "ంభ": 3697,
  "అవ": 3698,
  "అహ": 3699,
  "అవి": 3700,
  "ఆక్రమ": 3701,
  "ఆహార": 3702,
  "ఇవి": 3703,
  "ఇంగ్ల": 3704,
  "ఇస్లా": 3705,
  "ఉండ": 3706,
  "కథ": 3707,
  "కూ": 3708,
  "కన్న": 3709,
  "కత్వ": 3710,
  "కింద": 3711,
  "కీర్": 3712,
  "చన": 3713,
  "చు": 3714,
  "చాల": 3715,
  "చిత్ర": 3716,
  "జాలు": 3717,
  "జరు": 3718,
  "జంబ": 3719,
  "టే": 3720,
  "టై": 3721,
  "టర్": 3722,
  "డిన": 3723,
  "తల": 3724,
  "తె": 3725,
  "తే": 3726,
  "తరా": 3727,
  "తము": 3728,
  "తులు": 3729,
  "తంలో": 3730,
  "తెలు": 3731,
  "దర": 3732,
  "నది": 3733,
  "పీ": 3734,
  "పార్": 3735,
  "బి": 3736,
  "బు": 3737,
  "బ్‌": 3738,
  "బంగ్ల": 3739,
  "బంధ": 3740,
  "బడ్డ": 3741,
  "భర": 3742,
  "భౌ": 3743,
  "మూ": 3744,
  "మౌ": 3745,
  "మాలు": 3746,
  "మతి": 3747,
  "మారు": 3748,
  "మంది": 3749,
  "యాలు": 3750,
  "యాలో": 3751,
  "లె": 3752,
  "లిం": 3753,
  "ళ్": 3754,
  "ళిక": 3755,
  "వల్ల": 3756,
  "వలం": 3757,
  "శెల": 3758,
  "సమ": 3759,
  "సహ": 3760,
  "సే": 3761,
  "సులు": 3762,
  "సైన": 3763,
  "సార్": 3764,
  "హై": 3765,
  "హిమ": 3766,
  "ాదేశ": 3767,
  "ాంగ": 3768,
  "ాపార": 3769,
  "ిగా": 3770,
  "ీర": 3771,
  "ీలు": 3772,
  "ుకొ": 3773,
  "ూప": 3774,
  "ూరు": 3775,
  "ెట్": 3776,
  "ే,": 3777,
  "్,": 3778,
  "్వ": 3779,
  "head": 3780,
  "republic": 3781,
  "ants": 3782,
  "ారంభ": 3783,
  "ాలయ": 3784,
  "ాలనే": 3785,
  "ాలెండ": 3786,
  "ర్,": 3787,
  "ర్త": 3788,
  "ర్ష": 3789,
  "ర్‌": 3790,
  "states": 3791,
  "ed,": 3792,
  "educ": 3793,
  "often": 3794,
  "ished": 3795,
  "దిన": 3796,
  "దినాలు": 3797,
  "ప్రారంభ": 3798,
  "దేశపు": 3799,
  "దేశానికి": 3800,
  "oup": 3801,
  "outheast": 3802,
  "న్నది.": 3803,
  "న్నారు.": 3804,
  "ాలు.": 3805,
  "ecut": 3806,
  "గాంధ": 3807,
  "urther": 3808,
  "కులు": 3809,
  "నిస్తాన్": 3810,
  "విధ్య": 3811,
  "విభిన్న": 3812,
  "విద్య": 3813,
  "దేశంగా": 3814,
  "amm": 3815,
  "amp": 3816,
  "నుంచి": 3817,
  "These": 3818,
  "ember": 3819,
  "ద్వార": 3820,
  "rock": 3821,
  "ra,": 3822,
  "తిగా": 3823,
  "త్వా": 3824,
  "త్తా": 3825,
  "ించే": 3826,
  "ించి,": 3827,
  "sever": 3828,
  "sequ": 3829,
  "Indians": 3830,
  "istic": 3831,
  "loy": 3832,
  "సంకీర్": 3833,
  "సంబంధ": 3834,
  "term": 3835,
  "sum": 3836,
  "పురు": 3837,
  "2004": 3838,
  "defin": 3839,
  "స్థి": 3840,
  "union": 3841,
  "ంటు": 3842,
  "expor": 3843,
  "execut": 3844,
  "వాహ": 3845,
  "వాణి": 3846,
  "ఉన్నారు.": 3847,
  "పాటు": 3848,
  "పాదన": 3849,
  "కూడుకు": 3850,
  "well": 3851,
  "కోల్": 3852,
  "commer": 3853,
  "compos": 3854,
  "కాశ్": 3855,
  "ట్టమొదటి": 3856,
  "నేపాల": 3857,
  "మొట్టమొదటి": 3858,
  "ure,": 3859,
  "contain": 3860,
  "earli": 3861,
  "మాబాద్": 3862,
  "నాగర": 3863,
  "లిచ": 3864,
  "వ్యాపార": 3865,
  "endem": 3866,
  "గువ": 3867,
  "గుర్త": 3868,
  "వచ్చు.": 3869,
  "ద్ధం": 3870,
  "పాలించ": 3871,
  "మైనది.": 3872,
  "genc": 3873,
  "ఒకే": 3874,
  "sho": 3875,
  "చేసింది.": 3876,
  "ఎన్నిక": 3877,
  "become": 3878,
  "alled": 3879,
  "దాపు": 3880,
  "దాదాపు": 3881,
  "పెనీ": 3882,
  "centuries": 3883,
  "కేవలం": 3884,
  "కారణంగా": 3885,
  "తుంది.": 3886,
  "భాషలు": 3887,
  "రాజ్యాంగ": 3888,
  "languages": 3889,
  "వర్గ": 3890,
  "వర్ణ": 3891,
  "regional": 3892,
  "popular": 3893,
  "lands": 3894,
  "నాలుగు": 3895,
  "వెబ్‌": 3896,
  "హిందూదేశం": 3897,
  "longer": 3898,
  "ficant": 3899,
  "cess": 3900,
  "nificant": 3901,
  "serv": 3902,
  "southern": 3903,
  "viol": 3904,
  "పూర్వ": 3905,
  "వీటిలో": 3906,
  "ష్ణ": 3907,
  "స్కృతిక": 3908,
  "సాంస్కృతిక": 3909,
  "ఉత్తరా": 3910,
  "ఉంటుంది.": 3911,
  "బడత": 3912,
  "బడిన": 3913,
  "మహా": 3914,
  "శ్రీ": 3915,
  "ుకుంట": 3916,
  "క్రీడలు": 3917,
  "traditional": 3918,
  "ప్రభుత్వం": 3919,
  "తరువాతి": 3920,
  "diverse": 3921,
  "కలిసి": 3922,
  "కలిగి": 3923,
  "జనగణ": 3924,
  "లేదా": 3925,
  "eastern": 3926,
  "whose": 3927,
  "Andam": 3928,
  "ఉపఖండ": 3929,
  "క్యాలెండ": 3930,
  "లతో,": 3931,
  "ుకోవడ": 3932,
  "ప్రతిపాదన": 3933,
  "ిత్రక": 3934,
  "శాస్త్రీయ": 3935,
  "శాస్త్రం,": 3936,
  "rise": 3937,
  "వైవిధ్య": 3938,
  "సమాఖ్య": 3939,
  "ప్రజల": 3940,
  "కోర్ట": 3941,
  "కోర్టు": 3942,
  "పేర్లు": 3943,
  "పేర్కొ": 3944,
  "మొదలైన": 3945,
  "ప్పటికీ,": 3946,
  "ఏర్పడ్డ": 3947,
  "బహుళ": 3948,
  "సింధు": 3949,
  "Buddhist": 3950,
  "China": 3951,
  "Western": 3952,
  "చారిత్రక": 3953,
  "పతకాలు": 3954,
  "పొందిన": 3955,
  "పద్ధతి": 3956,
  "సైటు": 3957,
  "official": 3958,
  "ప్రజాస్వామ్య": 3959,
  "నుకటి": 3960,
  "technolog": 3961,
  "స్వాతంత్ర్య": 3962,
  "నిర్వహణ": 3963,
  "Islam": 3964,
  "mathematic": 3965,
  "According": 3966,
  "created": 3967,
  "కంపెనీ": 3968,
  "జన్మ": 3969,
  "ప్రకారం": 3970,
  "ముంబై": 3971,
  "ద్వీప": 3972,
  "సంప్రదాయాలు": 3973,
  "సంవత్సర": 3974,
  "రైళ్లను": 3975,
  "కార్యక్రమ": 3976,
  "పరిశ్రమలు": 3977,
  "వారసత్వ": 3978,
  "దక్షిణాసియా": 3979,
  "సాంప్రదాయిక": 3980,
  "సామ్రాజ్య": 3981,
  "బెంగాలీ": 3982,
  "సర్వీసులు": 3983,
  "అభివృద్ధి": 3984,
  "ఆఫ్ఘ": 3985,
  "Among": 3986,
  "federal": 3987,
  "penins": 3988,
  "(వెనుకటి": 3989,
  "ISBN": 3990,
  "Persi": 3991,
  "Tamil": 3992,
  "body": 3993,
  "ఇస్లామాబాద్": 3994,
  "కన్నడ": 3995,
  "చాలా": 3996,
  "జరుపు": 3997,
  "జంబూ": 3998,
  "తెలుగు": 3999,
  "పీఠ": 4000,
  "బంగ్లాదేశ": 4001,
  "ళ్ళ": 4002,
  "శెలవు": 4003,
  "హిమాలయ": 4004,
  "గాంధీ": 4005,
  "ద్వారా": 4006,
  "త్వాన్ని": 4007,
  "sequent": 4008,
  "వాణిజ్య": 4009,
  "కాశ్మీ": 4010,
  "నాగరికత": 4011,
  "వెబ్‌సైటు": 4012,
  "Andaman": 4013,
  "క్యాలెండర్": 4014,
  "-0": 4015,
  "14": 4016,
  "62": 4017,
  "wa": 4018,
  "1இல்": 4019,
  "6இல்": 4020,
  "7ஆம்": 4021,
  "8ஆம்": 4022,
  "அழ": 4023,
  "அடைந்த": 4024,
  "அவர்கள்": 4025,
  "அவற்றின்": 4026,
  "ஆக்கிய": 4027,
  "ஆண்கள்": 4028,
  "ஆண்களுக்கு": 4029,
  "ஈர": 4030,
  "ஊட": 4031,
  "எரி": 4032,
  "எளி": 4033,
  "ஐந்த": 4034,
  "ஐந்து": 4035,
  "ஐசி": 4036,
  "ஒது": 4037,
  "ஒற்ற": 4038,
  "கர்": 4039,
  "சங்க": 4040,
  "தட்ட": 4041,
  "தக்கா": 4042,
  "நு": 4043,
  "நுக": 4044,
  "பட்ச": 4045,
  "படை": 4046,
  "பன்ன": 4047,
  "மர்": 4048,
  "மண்ட": 4049,
  "மகள": 4050,
  "யற்": 4051,
  "ரை": 4052,
  "லிருந்து": 4053,
  "வல": 4054,
  "வப்": 4055,
  "வல்": 4056,
  "வடி": 4057,
  "வதில்": 4058,
  "ாட்டு": 4059,
  "ி,": 4060,
  "ிப்ப": 4061,
  "ூட்ட": 4062,
  "ொரு": 4063,
  "்திரு": 4064,
  "ியின்": 4065,
  "ியானது": 4066,
  "ியுள்ளது.": 4067,
  "ம்பு": 4068,
  "தும்": 4069,
  "க்கோ": 4070,
  "க்கப்படுக": 4071,
  "ப்புகள்": 4072,
  "த்தீ": 4073,
  "ையான": 4074,
  "ையாக": 4075,
  "ற்றி": 4076,
  "ாகப்": 4077,
  "ண்டு": 4078,
  "இந்தியர்கள": 4079,
  "இந்தியர்கள்": 4080,
  "குடி": 4081,
  "குழு": 4082,
  "குப்த": 4083,
  "ாவுக்கு": 4084,
  "முயற்": 4085,
  "காடுகள": 4086,
  "காடுகள்": 4087,
  "19ஆம்": 4088,
  "பாலை": 4089,
  "பாடுகள": 4090,
  "ிறார்.": 4091,
  "வாட்ட": 4092,
  "கொள்ள": 4093,
  "போல": 4094,
  "போர்": 4095,
  "விட்டு": 4096,
  "ுகளும்": 4097,
  "ுகளாக": 4098,
  "தால்": 4099,
  "தாக்கு": 4100,
  "சமசுக": 4101,
  "மாற": 4102,
  "மான்": 4103,
  "சுற்றி": 4104,
  "சென்ற": 4105,
  "சென்ன": 4106,
  "செவ்": 4107,
  "பிரதி": 4108,
  "ராத": 4109,
  "ராள": 4110,
  "தொடுக": 4111,
  "தொடர்கள": 4112,
  "வெட்ட": 4113,
  "காலமானது": 4114,
  "மாகும்.": 4115,
  "லாட்சி": 4116,
  "அமைத்தது.": 4117,
  "க்கப்பட்டுள்ளது.": 4118,
  "பரந்த": 4119,
  "ாளர்": 4120,
  "டைந்தது.": 4121,
  "மிகக்": 4122,
  "மிகவும்": 4123,
  "ுடன": 4124,
  "இதே": 4125,
  "இதைத்": 4126,
  "்களை": 4127,
  "நடத்திய": 4128,
  "தனியாக": 4129,
  "பெரும்பாலும்": 4130,
  "பெற்றுள்ளது.": 4131,
  "குடியின": 4132,
  "குறைந்த": 4133,
  "பகுதியாக": 4134,
  "கிழக்கே": 4135,
  "சேவைய": 4136,
  "ைகளின்": 4137,
  "பகுதிகள்": 4138,
  "இவர்": 4139,
  "த்திற்க": 4140,
  "கூட்டணி": 4141,
  "கூட்டாட்சி": 4142,
  "இயற்ற": 4143,
  "ிருத": 4144,
  "ிருக்க": 4145,
  "சியாவின்": 4146,
  "தொடக்கத்தில்": 4147,
  "முக்கியத்துவ": 4148,
  "த்துவமான": 4149,
  "அரசாங்கம்": 4150,
  "உறுதி": 4151,
  "தனித்துவமான": 4152,
  "போட்டிகளில்": 4153,
  "சிறிய": 4154,
  "ுக்காக": 4155,
  "ப்படுவதற்கு": 4156,
  "காணப்படுகிறது.": 4157,
  "நிலையை": 4158,
  "நிலையான": 4159,
  "நாடுகளின்": 4160,
  "கட்சியாக": 4161,
  "மேற்கே": 4162,
  "மேற்கொண்ட": 4163,
  "பரவலான": 4164,
  "ஒப்பந்த": 4165,
  "கருத": 4166,
  "கருதுக": 4167,
  "நிலைக்கு": 4168,
  "அடங்கும்.": 4169,
  "பண்டைக்": 4170,
  "செலவீன": 4171,
  "பாதுகாப்புச்": 4172,
  "சொல்ல": 4173,
  "தமிழ": 4174,
  "பெரும்பான்மை": 4175,
  "பெரும்பான்மைய": 4176,
  "பொருட்கள்,": 4177,
  "ஏற்றுமதி": 4178,
  "முடிந்தது.": 4179,
  "புவித்": 4180,
  "இந்திய-ஆ": 4181,
  "அதிகார": 4182,
  "அரசியலமைப்பு": 4183,
  "கணக்கெடுப்பின்": 4184,
  "இமயமலை": 4185,
  "மயமாக்க": 4186,
  "இணையத்த": 4187,
  "இசுலாமிய": 4188,
  "அந்தமான்": 4189,
  "இறுதியாக": 4190,
  "சமைக்கப்பட்ட": 4191,
  "திறன": 4192,
  "குதியில்": 4193,
  "சுல்தானக": 4194,
  "உருவாக்கியது.": 4195,
  "அழைக்க": 4196,
  "நேரு": 4197,
  "நோக்கி": 4198,
  "மருந்து": 4199,
  "குறுகிய": 4200,
  "பெருங்கட": 4201,
  "பரவியது.": 4202,
  "கிட்டத்தட்ட": 4203,
  "சீர்திரு": 4204,
  "அருகிய": 4205,
  "-உம்,": 4206,
  "நாகரிக": 4207,
  "நன்றாக": 4208,
  "தெற்கே": 4209,
  "எண்ணெய்": 4210,
  "பிற்பகுதியில்": 4211,
  "ஒப்பீட்டளவில்": 4212,
  "முழுவதும்": 4213,
  "ஏவுகணை": 4214,
  "ஐசிசி": 4215,
  "தக்காண": 4216,
  "பன்னாட்டு": 4217,
  "பாலைவன": 4218,
  "சமசுகிருத": 4219,
  "செவ்வியல்": 4220,
  "சீர்திருத்த": 4221,
  "ँच": 4222,
  "ँकि": 4223,
  "अप्र": 4224,
  "अर्थ": 4225,
  "अलग": 4226,
  "आधिकार": 4227,
  "घोष": 4228,
  "जल": 4229,
  "डी": 4230,
  "डॉ": 4231,
  "त्या": 4232,
  "तमिल": 4233,
  "थिय": 4234,
  "निय": 4235,
  "पं": 4236,
  "पड़": 4237,
  "बने": 4238,
  "बनी": 4239,
  "ये": 4240,
  "लं": 4241,
  "वल": 4242,
  "विक": 4243,
  "शि": 4244,
  "शक्ति": 4245,
  "सित": 4246,
  "हथिय": 4247,
  "ुनिक": 4248,
  "ृत": 4249,
  "२०": 4250,
  "ारम्भ": 4251,
  "केन्द्र": 4252,
  "काम": 4253,
  "सेवा": 4254,
  "स्तर": 4255,
  "प्रभा": 4256,
  "प्रकार": 4257,
  "प्रारम्भ": 4258,
  "िक्": 4259,
  "विदेश": 4260,
  "था,": 4261,
  "मालय": 4262,
  "ियाँ": 4263,
  "परंप": 4264,
  "संयुक्त": 4265,
  "करना": 4266,
  "जाते": 4267,
  "इसी": 4268,
  "वर्ग": 4269,
  "हिमालय": 4270,
  "दोलन": 4271,
  "शासित": 4272,
  "अपनी": 4273,
  "बड़ा": 4274,
  "ज़ी": 4275,
  "आधुनिक": 4276,
  "अमे": 4277,
  "गठबंधन": 4278,
  "रहे": 4279,
  "पार्टी": 4280,
  "न्यायालय": 4281,
  "भाजपा": 4282,
  "हालाँकि": 4283,
  "मूल": 4284,
  "प्लेट": 4285,
  "आधिकारिक": 4286,
  "हथियार": 4287,
  "परंपरा": 4288,
  "01": 4289,
  "(Ἰ": 4290,
  ".1%": 4291,
  "2)": 4292,
  "44": 4293,
  "55.": 4294,
  "94": 4295,
  "νδ": 4296,
  "(Ἰνδ": 4297,
  "36%": 4298,
  "80": 4299,
  "3,42": 4300,
  "2016": 4301,
  "1960": 4302,
  "De": 4303,
  "Fore": 4304,
  "bs": 4305,
  "ory": 4306,
  "1950,": 4307,
  "\",": 4308,
  "Bh": 4309,
  "Bra": 4310,
  "Bhar": 4311,
  "Fact": 4312,
  "Kas": 4313,
  "Nor": 4314,
  "PA": 4315,
  "Pr": 4316,
  "Raj": 4317,
  "Southeast": 4318,
  "aver": 4319,
  "bor": 4320,
  "ble": 4321,
  "bro": 4322,
  "cri": 4323,
  "clo": 4324,
  "den": 4325,
  "des": 4326,
  "edic": 4327,
  "every": 4328,
  "four": 4329,
  "fact": 4330,
  "further": 4331,
  "gu": 4332,
  "glo": 4333,
  "hou": 4334,
  "i-": 4335,
  "ip": 4336,
  "iz": 4337,
  "ians": 4338,
  "jo": 4339,
  "ks": 4340,
  "kno": 4341,
  "lf": 4342,
  "mak": 4343,
  "mary": 4344,
  "member": 4345,
  "ning": 4346,
  "oper": 4347,
  "pr": 4348,
  "ption": 4349,
  "pical": 4350,
  "pay": 4351,
  "ration": 4352,
  "sit": 4353,
  "sec": 4354,
  "tt": 4355,
  "tle": 4356,
  "tem": 4357,
  "uj": 4358,
  "uary": 4359,
  "vo": 4360,
  "vill": 4361,
  "vari": 4362,
  "way": 4363,
  "three": 4364,
  "held": 4365,
  "indi": 4366,
  "independ": 4367,
  "er,": 4368,
  "reg": 4369,
  "read": 4370,
  "recor": 4371,
  "enac": 4372,
  "ative": 4373,
  "organ": 4374,
  "ale": 4375,
  "alth": 4376,
  "als,": 4377,
  "along": 4378,
  "str": 4379,
  "stan": 4380,
  "stru": 4381,
  "dist": 4382,
  "ar,": 4383,
  "around": 4384,
  "and,": 4385,
  "off": 4386,
  "ions": 4387,
  "ise": 4388,
  "left": 4389,
  "lid": 4390,
  "liber": 4391,
  "administ": 4392,
  "ility": 4393,
  "empire": 4394,
  "ross": 4395,
  "consi": 4396,
  "estim": 4397,
  "establ": 4398,
  "ago": 4399,
  "ternal": 4400,
  "resp": 4401,
  "resident": 4402,
  "until": 4403,
  "import": 4404,
  "angered": 4405,
  "utes": 4406,
  "poin": 4407,
  "art,": 4408,
  "ety": 4409,
  "etic": 4410,
  "comple": 4411,
  "spe": 4412,
  "spread": 4413,
  "endangered": 4414,
  "worn": 4415,
  "ods": 4416,
  "place": 4417,
  "now": 4418,
  "1977": 4419,
  "CE,": 4420,
  "book": 4421,
  "subsequent": 4422,
  "system,": 4423,
  "continu": 4424,
  "polic": 4425,
  "increasing": 4426,
  "growing": 4427,
  "Union": 4428,
  "group": 4429,
  "election,": 4430,
  "supp": 4431,
  "bio": 4432,
  "bian": 4433,
  "however,": 4434,
  "time": 4435,
  "times": 4436,
  "legis": 4437,
  "species,": 4438,
  "mid-": 4439,
  "middle": 4440,
  "present": 4441,
  "style": 4442,
  "chool": 4443,
  "...": 4444,
  "surv": 4445,
  "leading": 4446,
  "religions": 4447,
  "Sanskrit,": 4448,
  "This": 4449,
  "significant": 4450,
  "famili": 4451,
  "kingdom": 4452,
  "widely": 4453,
  "cooked": 4454,
  "Although": 4455,
  "January": 4456,
  "coalition": 4457,
  "influenced": 4458,
  "birth": 4459,
  "curren": 4460,
  "differ": 4461,
  "employ": 4462,
  "literacy": 4463,
  "industry": 4464,
  "education": 4465,
  "executive": 4466,
  "earliest": 4467,
  "peninsular": 4468,
  "Persian": 4469,
  "Bharat": 4470,
  "Factbook": 4471,
  "Kashm": 4472,
  "known": 4473,
  "consider": 4474,
  "55,": 4475,
  "55,000": 4476,
  "ंक": 4477,
  "अफ": 4478,
  "आं": 4479,
  "आग": 4480,
  "उस": 4481,
  "ऊँ": 4482,
  "एं": 4483,
  "कह": 4484,
  "गए": 4485,
  "गत": 4486,
  "ग्र": 4487,
  "जै": 4488,
  "डा": 4489,
  "णी": 4490,
  "तो": 4491,
  "दृ": 4492,
  "पहा": 4493,
  "फल": 4494,
  "बै": 4495,
  "बार": 4496,
  "भर": 4497,
  "भि": 4498,
  "म,": 4499,
  "यों": 4500,
  "वन": 4501,
  "वै": 4502,
  "वरी": 4503,
  "सत": 4504,
  "सो": 4505,
  "सर्व": 4506,
  "ृद्ध": 4507,
  "ैली": 4508,
  "१८": 4509,
  "्यता": 4510,
  "की।": 4511,
  "विज": 4512,
  "करण": 4513,
  "तिहा": 4514,
  "वाद": 4515,
  "वादी": 4516,
  "ियन": 4517,
  "पालि": 4518,
  "लावा": 4519,
  "किन्तु": 4520,
  "शांति": 4521,
  "ली,": 4522,
  "लीन": 4523,
  "वर्ण": 4524,
  "होती": 4525,
  "जनता": 4526,
  "ंधी": 4527,
  "१९७": 4528,
  "१९८": 4529,
  "युग": 4530,
  "जिसके": 4531,
  "बहुमत": 4532,
  "बड़ी": 4533,
  "बड़े": 4534,
  "गांधी": 4535,
  "महाद्वीप": 4536,
  "वंश": 4537,
  "शुरू": 4538,
  "संस्कृत": 4539,
  "अंग्रेजी": 4540,
  "विस्तृत": 4541,
  "कर्ज": 4542,
  "पर्वत": 4543,
  "शील": 4544,
  "सहयोग": 4545,
  "डॉलर": 4546,
  "विदेशी": 4547,
  "अमेरि": 4548,
  "पालिका": 4549,
  "04%": 4550,
  "17.": 4551,
  "36.": 4552,
  "(P": 4553,
  "Des": 4554,
  "ot": 4555,
  "Indo-A": 4556,
  "-ஐ": 4557,
  "21": 4558,
  "6ஆம்": 4559,
  "அன": 4560,
  "அய": 4561,
  "அர": 4562,
  "அல": 4563,
  "அப்ப": 4564,
  "அடு": 4565,
  "அளவு": 4566,
  "அடுத்து": 4567,
  "ஆரம்": 4568,
  "இச": 4569,
  "இக்க": 4570,
  "இன்ன": 4571,
  "இசை": 4572,
  "உரி": 4573,
  "உடன்": 4574,
  "ஊடு": 4575,
  "எழு": 4576,
  "எடுத்து": 4577,
  "எல்லை": 4578,
  "ஒடி": 4579,
  "ஒத்து": 4580,
  "ஒட்டு": 4581,
  "காவ": 4582,
  "கில": 4583,
  "கிற": 4584,
  "கவி": 4585,
  "கல்ல": 4586,
  "கட்சி": 4587,
  "கணி": 4588,
  "ஞர்கள்": 4589,
  "டன": 4590,
  "டெ": 4591,
  "டும்": 4592,
  "டிர": 4593,
  "டப்பட்ட": 4594,
  "தைத்": 4595,
  "தானிய": 4596,
  "நல": 4597,
  "மட": 4598,
  "மௌ": 4599,
  "மல்": 4600,
  "மரு": 4601,
  "மாவ": 4602,
  "மட்டு": 4603,
  "ய்க": 4604,
  "யும்": 4605,
  "ரில்": 4606,
  "லீ": 4607,
  "லானது": 4608,
  "ளர்ச்ச": 4609,
  "ாய": 4610,
  "ாட்ட": 4611,
  "ாண்": 4612,
  "ாரி": 4613,
  "ிப்": 4614,
  "ுத்த": 4615,
  "ுமொ": 4616,
  "ேக்க": 4617,
  "ைப்பட": 4618,
  "ொப்ப": 4619,
  "ோது": 4620,
  "ோமீ": 4621,
  "ோட்டிய": 4622,
  "்கை": 4623,
  "ம்ச": 4624,
  "ம்ம": 4625,
  "ந்தர": 4626,
  "க்கான": 4627,
  "ப்பில்": 4628,
  "ப்பாக": 4629,
  "ப்புக்": 4630,
  "த்தைப்": 4631,
  "ள்,": 4632,
  "ட்டர்கள்": 4633,
  "ர்ப்": 4634,
  "இந்தோ": 4635,
  "ண்டை": 4636,
  "மற்றுமொ": 4637,
  "ாவிட": 4638,
  "முள்ள": 4639,
  "முடைய": 4640,
  "முத்திர": 4641,
  "முந்தைய": 4642,
  "கார": 4643,
  "காற்ற": 4644,
  "காந்தி": 4645,
  "பாண": 4646,
  "பாடு": 4647,
  "பாறை": 4648,
  "பாணி": 4649,
  "ிலுமே": 4650,
  "க்குட்ப": 4651,
  "ப்பட்டது": 4652,
  "டித்து": 4653,
  "பெண்கள்": 4654,
  "பெண்களுக்கு": 4655,
  "ங்களையும்": 4656,
  "வைகள": 4657,
  "வைக்கப்பட்ட": 4658,
  "வைத்தது.": 4659,
  "இந்தியாவுக்குள்": 4660,
  "வாழ": 4661,
  "கொள்": 4662,
  "போல்": 4663,
  "வின": 4664,
  "திச": 4665,
  "திப்": 4666,
  "ப்படியாக": 4667,
  "ரச்": 4668,
  "உள்ளனர்.": 4669,
  "உள்ளூர்": 4670,
  "தார்ப்": 4671,
  "தாரச்": 4672,
  "திகா": 4673,
  "ப்புப்": 4674,
  "ப்புச்": 4675,
  "நிலவர": 4676,
  "நிலையானது": 4677,
  "சமவெளிய": 4678,
  "புத்த": 4679,
  "புத்திர": 4680,
  "மாறாக": 4681,
  "வேண்ட": 4682,
  "ுக்குத்": 4683,
  "சு,": 4684,
  "செழி": 4685,
  "மையானது": 4686,
  "மையுடைய": 4687,
  "ிருந்தது": 4688,
  "வெள்ள": 4689,
  "ச்சா": 4690,
  "மாகக்": 4691,
  "அமைந்தது.": 4692,
  "க்கப்பட்டுள்ளன.": 4693,
  "பரத": 4694,
  "2002": 4695,
  "அதிகமாக": 4696,
  "சாய": 4697,
  "சாராத": 4698,
  "ினர்.": 4699,
  "ஆகியோர்": 4700,
  "சியா,": 4701,
  "ாளர்களைக்": 4702,
  "மிகு": 4703,
  "வீர": 4704,
  "வையின்": 4705,
  "வையில்": 4706,
  "நீள": 4707,
  "்களில்": 4708,
  "த்தைத்": 4709,
  "பொருளாதாரச்": 4710,
  "சமயம்": 4711,
  "படிப்படியாக": 4712,
  "பொருளாதாரம்": 4713,
  "பொருளாதாரமாக": 4714,
  "குறிப்பிட்ட": 4715,
  "2024இல்": 4716,
  "இலிருந்து": 4717,
  "வந்தது.": 4718,
  "அமைப்பை": 4719,
  "அமைப்பின்": 4720,
  "இரண்டாம்": 4721,
  "தலைவர்": 4722,
  "நூல்கள": 4723,
  "மீதான": 4724,
  "குடியிரு": 4725,
  "குடியேற்ற": 4726,
  "பெரியதாகும்.": 4727,
  "பாரம்பரியங்கள்": 4728,
  "முன்னே": 4729,
  "ங்களைச்": 4730,
  "இவர்கள்": 4731,
  "ஒன்றாக": 4732,
  "காரணம்": 4733,
  "வடிவங்கள்": 4734,
  "வடிவங்களில்": 4735,
  "ஆண்டுகளுக்கும்": 4736,
  "மொழிகள்": 4737,
  "டுகளை": 4738,
  "தொடங்கிய": 4739,
  "சியாவுடன்": 4740,
  "தொழில்நுட்ப": 4741,
  "கலக்க": 4742,
  "சீக்கிய": 4743,
  "திராவிட": 4744,
  "பண்பாட்டில்": 4745,
  "பேரரசானது": 4746,
  "இடையிலான": 4747,
  "ூர்வ": 4748,
  "மாநிலங்கள்": 4749,
  "இராணுவத்": 4750,
  "பிரிவுகள": 4751,
  "மேற்குப்": 4752,
  "கிரேக்க": 4753,
  "முறையே": 4754,
  "பங்கு": 4755,
  "பங்கெடுத்த": 4756,
  "உற்பத்தியில்": 4757,
  "வணிகம்": 4758,
  "பதவிய": 4759,
  "மலைத்": 4760,
  "தொலைதூர": 4761,
  "நிலையாக": 4762,
  "அடிப்படையில்": 4763,
  "நிறுவனம்": 4764,
  "நுட்பத்": 4765,
  "சோதன": 4766,
  "வகைகள": 4767,
  "ரீதியான": 4768,
  "சந்தை": 4769,
  "ல்களில்": 4770,
  "காங்கிரச": 4771,
  "வரலாற்று": 4772,
  "மூன்று": 4773,
  "வங்காளத்தின்": 4774,
  "மரப": 4775,
  "நகரப்": 4776,
  "நகர்ப்": 4777,
  "பேர்": 4778,
  "சேர்ந்தவையாக": 4779,
  "உறுப்பினர்கள": 4780,
  "வெளியிட": 4781,
  "பரிமாற": 4782,
  "நாடாளுமன்றத்தின்": 4783,
  "கடற்கரைகள்": 4784,
  "பொருட்களாக": 4785,
  "உயிரினப்": 4786,
  "பௌத்தம்": 4787,
  "இப்போட்டிய": 4788,
  "உட்க": 4789,
  "ஐரோவா": 4790,
  "கங்கை": 4791,
  "பழக்க": 4792,
  "பழமையான": 4793,
  "உருவாகியது.": 4794,
  "பகுதி,": 4795,
  "இதற்குப்": 4796,
  "நடனம்": 4797,
  "அதிகரித்துள்ளது.": 4798,
  "தென்னிந்தியாவில்": 4799,
  "ஆட்சியாள": 4800,
  "முதலில்": 4801,
  "பாக்கித்தான": 4802,
  "புதுப்ப": 4803,
  "பிரதமர்": 4804,
  "அதிகாரப்ப": 4805,
  "நீடித்திருந்தது.": 4806,
  "பஞ்சாப்": 4807,
  "இமயமல": 4808,
  "தற்குக்": 4809,
  "பாலின": 4810,
  "பாலூட்ட": 4811,
  "தொடர்ச்சி": 4812,
  "தொடர்ச்சியான": 4813,
  "தெற்காசிய": 4814,
  "இடத்தையும்,": 4815,
  "ஒன்றியப்": 4816,
  "போட்டிகள்;": 4817,
  "அடையாள": 4818,
  "பங்களி": 4819,
  "தொடர்பு": 4820,
  "வருமானமானது": 4821,
  "விளையாட்டுப்": 4822,
  "பல்வகைமை": 4823,
  "குடும்பங்கள்": 4824,
  "தேர்ந்தெடுக்கப்படுக": 4825,
  "ஆதிக்க": 4826,
  "ஆங்கிலம்": 4827,
  "இறையாண்": 4828,
  "தலைய": 4829,
  "மறைப்பு": 4830,
  "விவசாய": 4831,
  "அமைச்சர": 4832,
  "குறிக்கப்": 4833,
  "வரலாற்றாளர்கள்": 4834,
  "இறக்குமதிய": 4835,
  "ஆப்பிரிக்காவில்": 4836,
  "ஆக்கிர": 4837,
  "கையொப்ப": 4838,
  "தகவல்": 4839,
  "வயது": 4840,
  "வறுமை": 4841,
  "குசராத்தின்": 4842,
  "பார்க்கப்படுகிறது.": 4843,
  "நிலப்பரப்பில்": 4844,
  "கோப்பை;": 4845,
  "தலைவராக": 4846,
  "ஏற்றுமதியில்": 4847,
  "நெருக்கமான": 4848,
  "தவிர்த்து": 4849,
  "தட்டானது": 4850,
  "மண்டல": 4851,
  "மகளிர்": 4852,
  "சென்னை": 4853,
  "சேவையாற்ற": 4854,
  "கருதப்படுகிறது.": 4855,
  "கருதுகின்றனர்.": 4856,
  "இந்திய-ஆரிய": 4857,
  "இணையத்தளம்": 4858,
  "அனு": 4859,
  "அயல்": 4860,
  "அலுவ": 4861,
  "அப்போது": 4862,
  "ஆரம்ப": 4863,
  "இன்னும்": 4864,
  "ஊடுரு": 4865,
  "கிலோமீ": 4866,
  "டிரில்லியன்": 4867,
  "மௌரிய": 4868,
  "மருத்துவ": 4869,
  "மட்டுமே": 4870,
  "மற்றுமொரு": 4871,
  "நிலவரப்": 4872,
  "இப்போட்டியை": 4873,
  "கிலோமீட்டர்கள்": 4874,
  "15,": 4875,
  "12.": 4876,
  "31.": 4877,
  "46%": 4878,
  "aː": 4879,
  "1,0": 4880,
  "0%),": 4881,
  "7.5%": 4882,
  "ंह": 4883,
  "ं।": 4884,
  "अब": 4885,
  "अभी": 4886,
  "अधि": 4887,
  "आया": 4888,
  "आन्": 4889,
  "आदि": 4890,
  "इं": 4891,
  "इस्": 4892,
  "उद्योग": 4893,
  "ऋतु": 4894,
  "कम": 4895,
  "कटि": 4896,
  "गो": 4897,
  "चे": 4898,
  "जू": 4899,
  "जरा": 4900,
  "जलो": 4901,
  "टन": 4902,
  "तः": 4903,
  "तन": 4904,
  "दू": 4905,
  "नव": 4906,
  "नगर": 4907,
  "पि": 4908,
  "पीय": 4909,
  "भरा": 4910,
  "र्य": 4911,
  "रिक": 4912,
  "लु": 4913,
  "शत": 4914,
  "श्री": 4915,
  "सफल": 4916,
  "हन": 4917,
  "हार": 4918,
  "हरा": 4919,
  "िम": 4920,
  "िकी": 4921,
  "ैल": 4922,
  "ोसी": 4923,
  "ोच्च": 4924,
  "२.": 4925,
  "केवल": 4926,
  "र्ष": 4927,
  "यास": 4928,
  "प्रयास": 4929,
  "विभि": 4930,
  "विवाद": 4931,
  "माना": 4932,
  "सां": 4933,
  "करता": 4934,
  "जाना": 4935,
  "पाद": 4936,
  "पास": 4937,
  "ला,": 4938,
  "लाख": 4939,
  "समर्थ": 4940,
  "इसकी": 4941,
  "होते": 4942,
  "१९५": 4943,
  "१९६": 4944,
  "उत्पाद": 4945,
  "अपना": 4946,
  "स्वरूप": 4947,
  "अधिकार": 4948,
  "दिया।": 4949,
  "बनाने": 4950,
  "ष्ठ": 4951,
  "ष्ण": 4952,
  "क्रम": 4953,
  "अमरी": 4954,
  "अंग्रेज़ी": 4955,
  "्रीका": 4956,
  "प्रतिशत": 4957,
  "यूरो": 4958,
  "हिन्दू": 4959,
  "जबकि": 4960,
  "स्थापना": 4961,
  "व्यापार": 4962,
  "राजनीतिक": 4963,
  "वर्तमान": 4964,
  "अप्रैल": 4965,
  "अर्थव्यवस्था": 4966,
  "जलवायु": 4967,
  "पड़ोसी": 4968,
  "प्रभाव": 4969,
  "अफ्रीका": 4970,
  "दृष्ट": 4971,
  "सर्वोच्च": 4972,
  "तिहास": 4973,
  "जलोढ़": 4974,
  "विभिन्न": 4975,
  "समर्थन": 4976,
  "यूरोपीय": 4977,
  "517": 4978,
  "900": 4979,
  "9,000": 4980,
  "At": 4981,
  "BB": 4982,
  "1951,": 4983,
  "7,517": 4984,
  "3.8": 4985,
  "BBC": 4986,
  "1)": 4987,
  "\".": 4988,
  "\"భర": 4989,
  "-లా": 4990,
  "-ఢిల్లీ": 4991,
  "46": 4992,
  "5-0": 4993,
  "7/": 4994,
  "8లో": 4995,
  "9-": 4996,
  "As": 4997,
  "Ass": 4998,
  "All": 4999,
  "CI": 5000,
  "Country": 5001,
  "Civil": 5002,
  "Dec": 5003,
  "Dra": 5004,
  "Gup": 5005,
  "Gree": 5006,
  "Ghat": 5007,
  "Guj": 5008,
  "Ho": 5009,
  "Langu": 5010,
  "Mod": 5011,
  "Many": 5012,
  "Nuclear": 5013,
  "Sing": 5014,
  "Valle": 5015,
  "ah": 5016,
  "adi": 5017,
  "ai,": 5018,
  "bu": 5019,
  "band": 5020,
  "bution": 5021,
  "ction": 5022,
  "coun": 5023,
  "ces,": 5024,
  "creat": 5025,
  "called": 5026,
  "dri": 5027,
  "equ": 5028,
  "eograph": 5029,
  "eight": 5030,
  "fund": 5031,
  "go": 5032,
  "gra": 5033,
  "hy": 5034,
  "his": 5035,
  "hab": 5036,
  "hig": 5037,
  "ia": 5038,
  "igh": 5039,
  "ified": 5040,
  "just": 5041,
  "ken": 5042,
  "la": 5043,
  "mult": 5044,
  "mall": 5045,
  "nom": 5046,
  "own": 5047,
  "pur": 5048,
  "pra": 5049,
  "pass": 5050,
  "phar": 5051,
  "ram": 5052,
  "rich": 5053,
  "ratic": 5054,
  "saf": 5055,
  "sine": 5056,
  "school": 5057,
  "small": 5058,
  "tu": 5059,
  "tic": 5060,
  "tain": 5061,
  "tak": 5062,
  "win": 5063,
  "went": 5064,
  "writ": 5065,
  "when": 5066,
  "wild": 5067,
  "xim": 5068,
  "ం;": 5069,
  "ంక": 5070,
  "ంకా": 5071,
  "అణ": 5072,
  "అంత": 5073,
  "అంట": 5074,
  "అన్ని": 5075,
  "అప్ప": 5076,
  "అమె": 5077,
  "అక్షరాస్యత": 5078,
  "ఇదే": 5079,
  "ఇండ": 5080,
  "ఇక్క": 5081,
  "ఇటీ": 5082,
  "ఈశ": 5083,
  "ఈస్": 5084,
  "ఎడ": 5085,
  "ఎల": 5086,
  "ఏప్ర": 5087,
  "ఐరో": 5088,
  "ఐక్య": 5089,
  "ఒలం": 5090,
  "క,": 5091,
  "కీ": 5092,
  "కలు": 5093,
  "కాత": 5094,
  "కను": 5095,
  "కనుక": 5096,
  "కంటే": 5097,
  "కబడ్డ": 5098,
  "ఖో": 5099,
  "ఖని": 5100,
  "గత": 5101,
  "గ్ర": 5102,
  "గంగ": 5103,
  "గ్రా": 5104,
  "గమన": 5105,
  "గెలు": 5106,
  "చద": 5107,
  "చయ": 5108,
  "చవి": 5109,
  "చూడ": 5110,
  "చించిన": 5111,
  "చుకోవడ": 5112,
  "జల": 5113,
  "జీ": 5114,
  "జో": 5115,
  "జ్": 5116,
  "జమ్మ": 5117,
  "జిక,": 5118,
  "టక": 5119,
  "ట్ర": 5120,
  "టలు": 5121,
  "టన్": 5122,
  "ట్‌": 5123,
  "టాన్": 5124,
  "టోర": 5125,
  "డైన": 5126,
  "ఢా": 5127,
  "ణులు": 5128,
  "తర్": 5129,
  "తను": 5130,
  "తంగా": 5131,
  "తం,": 5132,
  "తత్వ": 5133,
  "తక్కువ": 5134,
  "తీర": 5135,
  "థ్యం": 5136,
  "దర్": 5137,
  "దరా": 5138,
  "దగా": 5139,
  "దండ": 5140,
  "ధీన": 5141,
  "నం": 5142,
  "నూ": 5143,
  "నిక": 5144,
  "పలు": 5145,
  "పిక": 5146,
  "పవి": 5147,
  "ప్ల": 5148,
  "పల్ల": 5149,
  "పడు": 5150,
  "పతా": 5151,
  "పర్వ": 5152,
  "పర్య": 5153,
  "పక్క": 5154,
  "పడిన": 5155,
  "ఫల": 5156,
  "బౌ": 5157,
  "బంగ": 5158,
  "భవ": 5159,
  "భక్": 5160,
  "మ్": 5161,
  "మాత": 5162,
  "మిత": 5163,
  "మరో": 5164,
  "యన్": 5165,
  "యింది.": 5166,
  "యాత్ర": 5167,
  "యమించ": 5168,
  "రీ": 5169,
  "రిక": 5170,
  "రకాలు": 5171,
  "రచయ": 5172,
  "లీ": 5173,
  "లకొ": 5174,
  "లౌక": 5175,
  "లమె": 5176,
  "లస్య": 5177,
  "ళా": 5178,
  "ళి,": 5179,
  "వం": 5180,
  "విం": 5181,
  "వంత": 5182,
  "వరు": 5183,
  "వైన": 5184,
  "వార్": 5185,
  "వులు,": 5186,
  "వత్ర": 5187,
  "వనాలు": 5188,
  "వాయు": 5189,
  "శక": 5190,
  "శి": 5191,
  "శీ": 5192,
  "శై": 5193,
  "శో": 5194,
  "శకు": 5195,
  "శక్": 5196,
  "షయాలు": 5197,
  "సన": 5198,
  "సీ": 5199,
  "సె": 5200,
  "సాల": 5201,
  "స్రా": 5202,
  "సమర": 5203,
  "సిక్": 5204,
  "హో": 5205,
  "హ్ర": 5206,
  "ాక": 5207,
  "ాను": 5208,
  "ాన్ని": 5209,
  "ాడే": 5210,
  "ిమాన": 5211,
  "ీం": 5212,
  "ీక్ష": 5213,
  "ీషు": 5214,
  "ుత్": 5215,
  "ూనది": 5216,
  "ే.": 5217,
  "ౌర": 5218,
  "్మా": 5219,
  "‌సభ": 5220,
  "‌కాత": 5221,
  "ines,": 5222,
  "intro": 5223,
  "invol": 5224,
  "ert": 5225,
  "ers.": 5226,
  "reform": 5227,
  "renew": 5228,
  "reduced": 5229,
  "ons": 5230,
  "ones": 5231,
  "ata": 5232,
  "ating": 5233,
  "atical": 5234,
  "ors": 5235,
  "ారి": 5236,
  "లుగా": 5237,
  "ర్పు": 5238,
  "ర్జాతీయ": 5239,
  "ర్చు": 5240,
  "ర్తిగా": 5241,
  "ర్థ్యం": 5242,
  "లో,": 5243,
  "లోయ": 5244,
  "లోను": 5245,
  "లోమీ": 5246,
  "స్వీ": 5247,
  "స్కరణ": 5248,
  "స్లిం": 5249,
  "్యా": 5250,
  "భాగా": 5251,
  "భావిస్త": 5252,
  "dit": 5253,
  "dian": 5254,
  "ara": 5255,
  "ard": 5256,
  "ars": 5257,
  "aries": 5258,
  "ofile": 5259,
  "ion,": 5260,
  "ash": 5261,
  "associ": 5262,
  "itect": 5263,
  "ission": 5264,
  "ప్రదేశ": 5265,
  "ప్రాయ": 5266,
  "ప్రసి": 5267,
  "ప్రత్య": 5268,
  "ప్రయో": 5269,
  "ప్రీం": 5270,
  "ింది": 5271,
  "దేశీ": 5272,
  "omy": 5273,
  "took": 5274,
  "touch": 5275,
  "భారతం,": 5276,
  "భారత్‌": 5277,
  "న్నీ": 5278,
  "న్నై": 5279,
  "కు,": 5280,
  "నిపు": 5281,
  "నిడి": 5282,
  "నియమించ": 5283,
  "విలు": 5284,
  "విమాన": 5285,
  "విశ్": 5286,
  "విషయాలు": 5287,
  "విదేశీ": 5288,
  "ాయాలు": 5289,
  "క్టోర": 5290,
  "ాతం": 5291,
  "ాత్మా": 5292,
  "liance": 5293,
  "దేశం.": 5294,
  "Their": 5295,
  "adv": 5296,
  "adually": 5297,
  "ానీ": 5298,
  "ాన్య": 5299,
  "righ": 5300,
  "right": 5301,
  "ండ్": 5302,
  "ము,": 5303,
  "ముడి": 5304,
  "ముస్లిం": 5305,
  "ినీ": 5306,
  "rac": 5307,
  "తిరు": 5308,
  "స్తులు": 5309,
  "స్తారు": 5310,
  "char": 5311,
  "changes": 5312,
  "change": 5313,
  "ceut": 5314,
  "below": 5315,
  "before": 5316,
  "fort": 5317,
  "astri": 5318,
  "ంతర": 5319,
  "conso": 5320,
  "conduc": 5321,
  "consist": 5322,
  "సంస్కరణ": 5323,
  "again": 5324,
  "result": 5325,
  "పుకో": 5326,
  "పుతూ": 5327,
  "స్థావర": 5328,
  "une": 5329,
  "ంటి": 5330,
  "భారతదేశం.": 5331,
  "ంలో,": 5332,
  "within": 5333,
  "external": 5334,
  "aren": 5335,
  "uted": 5336,
  "side": 5337,
  "pot": 5338,
  "ably": 5339,
  "about": 5340,
  "ability": 5341,
  "ంగా,": 5342,
  "వాదం": 5343,
  "సాహ": 5344,
  "సామా": 5345,
  "పావ": 5346,
  "పాడు": 5347,
  "పాంతర": 5348,
  "etwork": 5349,
  "ార్థ": 5350,
  "inct": 5351,
  "ayback": 5352,
  "కూడి": 5353,
  "కూడుకొ": 5354,
  "జాతి": 5355,
  "జాతులు,": 5356,
  "రాజు": 5357,
  "weap": 5358,
  "కోట్ల": 5359,
  "క్రి": 5360,
  "spor": 5361,
  "కాహార": 5362,
  "కా-ఢిల్లీ": 5363,
  "కాపాడు": 5364,
  "చ్చే": 5365,
  "నేరే": 5366,
  "మొగలు": 5367,
  "ure.": 5368,
  "ured": 5369,
  "ంచిన": 5370,
  "దుగా": 5371,
  "మాట్ల": 5372,
  "aksh": 5373,
  "ided": 5374,
  "meat": 5375,
  "నాథ": 5376,
  "సియాలో": 5377,
  "యాళ": 5378,
  "ending": 5379,
  "రాష్ట్రాలు,": 5380,
  "elit": 5381,
  "elected": 5382,
  "produc": 5383,
  "proxim": 5384,
  "గుబా": 5385,
  "వచ్చని": 5386,
  "approxim": 5387,
  "plate": 5388,
  "portion": 5389,
  "ported": 5390,
  "తరాలు": 5391,
  "వే.": 5392,
  "వేద": 5393,
  "వేల": 5394,
  "కాలే": 5395,
  "డిస్": 5396,
  "ద్రా": 5397,
  "ism.": 5398,
  "aff": 5399,
  "maceut": 5400,
  "partition": 5401,
  "శాసన": 5402,
  "దేశాలను": 5403,
  "CEE": 5404,
  "ందింది.": 5405,
  "ఎన్నుకో": 5406,
  "ఎన్నుకుంట": 5407,
  "కిలోమీ": 5408,
  "upper": 5409,
  "చెప్": 5410,
  "చెంద": 5411,
  "చెందు": 5412,
  "చెన్నై": 5413,
  "కేతిక": 5414,
  "తులతో": 5415,
  "మతాలు": 5416,
  "మతము": 5417,
  "అధికారం": 5418,
  "west,": 5419,
  "త్రి": 5420,
  "పరిపాలన": 5421,
  "మీదగా": 5422,
  "మే.": 5423,
  "సుప్రీం": 5424,
  "భాషా": 5425,
  "భాషలను": 5426,
  "ప్రపంచములో": 5427,
  "స్థానం": 5428,
  "స్థానాలను": 5429,
  "రాజ్యంగా": 5430,
  "ప్రాంతీయ": 5431,
  "ప్రాంతాల్లో": 5432,
  "పేరు,": 5433,
  "26న": 5434,
  "languag": 5435,
  "Hinduism": 5436,
  "Hinduism,": 5437,
  "Hindustan": 5438,
  "decades": 5439,
  "qual": 5440,
  "దాయంలో": 5441,
  "వరీ": 5442,
  "వారి": 5443,
  "వర్ష": 5444,
  "వర్తి": 5445,
  "సభను": 5446,
  "reasing": 5447,
  "regions": 5448,
  "క్రీ.పూ.": 5449,
  "పార్టీ,": 5450,
  "Asian": 5451,
  "Asia,": 5452,
  "ocratic": 5453,
  "బాదు": 5454,
  "రెండవ": 5455,
  "రెండో": 5456,
  "వెల్ల": 5457,
  "వెబ్": 5458,
  "ప్రభుత్వాన్ని": 5459,
  "foreign": 5460,
  "rica": 5461,
  "ective": 5462,
  "exten": 5463,
  "extant": 5464,
  "south-": 5465,
  "vidian": 5466,
  "పూర్తిగా": 5467,
  "పోయింది.": 5468,
  "బ్ది": 5469,
  "మనదేశం": 5470,
  "మిస్తు": 5471,
  "వుతుంది.": 5472,
  "ముఖ్యంగా": 5473,
  "స్త్రీలు": 5474,
  "సాంకేతిక": 5475,
  "జనాభాతో": 5476,
  "down": 5477,
  "port.": 5478,
  "minister.": 5479,
  "అతిపెద్ద": 5480,
  "జరిగే": 5481,
  "పరీక్ష": 5482,
  "బడింది.": 5483,
  "మహి": 5484,
  "మహాత్మా": 5485,
  "క్రీడా": 5486,
  "క్రీడలలో": 5487,
  "traditionally": 5488,
  "అయినా,": 5489,
  "Africa": 5490,
  "BCE,": 5491,
  "Maur": 5492,
  "tax": 5493,
  "గోదా": 5494,
  "గోళిక": 5495,
  "గినది.": 5496,
  "జనతా": 5497,
  "జనవరి": 5498,
  "లేదు": 5499,
  "thought": 5500,
  "ప్రస్తుతము": 5501,
  "క్కను": 5502,
  "సాధించిన": 5503,
  "కాంగ్రెస్": 5504,
  "కాలంలో,": 5505,
  "amental": 5506,
  "Ancient": 5507,
  "Constit": 5508,
  "dance-d": 5509,
  "ఉపయో": 5510,
  "భూభాగం": 5511,
  "భూటాన్": 5512,
  "మానం:": 5513,
  "యుగ": 5514,
  "రంగంలో": 5515,
  "వలన": 5516,
  "వలస": 5517,
  "ergy": 5518,
  "ప్రతిపక్ష": 5519,
  "విస్తీర్": 5520,
  "సినిమాలు": 5521,
  "Pakistan.": 5522,
  "express": 5523,
  "compan": 5524,
  "species": 5525,
  "గణతంత్ర": 5526,
  "ఢిల్లీ,": 5527,
  "నెలకొ": 5528,
  "బ్రిటీ": 5529,
  "మాత్రమే": 5530,
  "సమాజ": 5531,
  "ప్రజలు": 5532,
  "భారత్,": 5533,
  "సామర్థ్యం": 5534,
  "పట్టణాలు,": 5535,
  "influence": 5536,
  "ప్పటికినీ": 5537,
  "సింధూనది": 5538,
  "Buddhism": 5539,
  "సరిహద్దుగా": 5540,
  "సౌకర్యాలు": 5541,
  "సౌకర్యాలలో": 5542,
  "ప్రముఖమైన": 5543,
  "constitutional": 5544,
  "developed": 5545,
  "development": 5546,
  "rule.": 5547,
  "States": 5548,
  "చైనా,": 5549,
  "చైనాను": 5550,
  "తూర్పు": 5551,
  "నగరాలు": 5552,
  "పండుగలు": 5553,
  "రూపాంతర": 5554,
  "సారస్వ": 5555,
  "ప్రజాదర": 5556,
  "రైల్వేశాఖ": 5557,
  "పాలనలో": 5558,
  "ఒకటిగా": 5559,
  "ప్రపంచంలోని": 5560,
  "సముద్రం,": 5561,
  "సముద్రతీర": 5562,
  "Punjab,": 5563,
  "స్వాతంత్ర్యం": 5564,
  "నిర్వహించింది.": 5565,
  "tropical": 5566,
  "cooking": 5567,
  "culture.": 5568,
  "Himalayas": 5569,
  "Plateau": 5570,
  "cities": 5571,
  "greater": 5572,
  "single": 5573,
  "vention": 5574,
  "ఇవిక": 5575,
  "చిరు": 5576,
  "నాయకత్వ": 5577,
  "మలయాళ": 5578,
  "సూచించిన": 5579,
  "హాకీ": 5580,
  "ిస్తారు.": 5581,
  "third-largest": 5582,
  "లోక్‌సభ": 5583,
  "కులాలు,": 5584,
  "కుంటూ": 5585,
  "కుంటారు.": 5586,
  "ాయుత": 5587,
  "adesh": 5588,
  "oldest": 5589,
  "commonly": 5590,
  "contribut": 5591,
  "contribution": 5592,
  "features": 5593,
  "మేనని": 5594,
  "రాజ్యాలుగా": 5595,
  "సభ్యు": 5596,
  "సభ్యులు": 5597,
  "పాకిస్థాన్,": 5598,
  "ఆధారపడిన": 5599,
  "బ్రిటిష్": 5600,
  "బ్రిటిషు": 5601,
  "పశ్చిమ": 5602,
  "పశ్చిమాన": 5603,
  "agricultural": 5604,
  "crust": 5605,
  "figures": 5606,
  "turned": 5607,
  "relations": 5608,
  "architect": 5609,
  "areas.": 5610,
  "sculpture": 5611,
  "directly": 5612,
  "capit": 5613,
  "dances": 5614,
  "ఇంగ్లీషు": 5615,
  "కిందకు": 5616,
  "టైటి": 5617,
  "టర్లకు": 5618,
  "పార్లమె": 5619,
  "భౌగోళిక": 5620,
  "మూల": 5621,
  "మౌర్య": 5622,
  "సహస్రా": 5623,
  "సైనిక": 5624,
  "సార్వత్ర": 5625,
  "హైదరా": 5626,
  "ర్షణ": 5627,
  "ర్‌ల": 5628,
  "ప్రారంభించ": 5629,
  "విద్యుత్": 5630,
  "సంకీర్ణ": 5631,
  "పురుషు": 5632,
  "స్థితి": 5633,
  "కూడుకుని": 5634,
  "కోల్‌కాత": 5635,
  "commercial": 5636,
  "composed": 5637,
  "నేపాల్,": 5638,
  "పాలించారు.": 5639,
  "show": 5640,
  "ఎన్నికల్లో": 5641,
  "రాజ్యాంగం": 5642,
  "violence": 5643,
  "ఉత్తరాన": 5644,
  "బడతారు.": 5645,
  "జనగణన": 5646,
  "ప్రతిపాదనకు": 5647,
  "సమాఖ్య.": 5648,
  "కోర్టులు": 5649,
  "ఏర్పడ్డాయి.": 5650,
  "technology": 5651,
  "కార్యక్రమాలు": 5652,
  "ఆఫ్ఘనిస్తాన్": 5653,
  "జరుపుకుంటారు.": 5654,
  "తెలుగు,": 5655,
  "పీఠభూ": 5656,
  "బంగ్లాదేశ్‌": 5657,
  "శెలవుదినాలు": 5658,
  "waist": 5659,
  "Brahm": 5660,
  "Profile": 5661,
  "global": 5662,
  "house": 5663,
  "operation": 5664,
  "secular": 5665,
  "indigen": 5666,
  "recorded": 5667,
  "enacted": 5668,
  "estimated": 5669,
  "established": 5670,
  "ago.": 5671,
  "important": 5672,
  "speak": 5673,
  "continued": 5674,
  "legislat": 5675,
  "families": 5676,
  "kingdoms": 5677,
  "different": 5678,
  "Kashmir": 5679,
  "-లాహో": 5680,
  "CIA": 5681,
  "Dravidian": 5682,
  "However,": 5683,
  "Languages": 5684,
  "Singh": 5685,
  "Valley": 5686,
  "fundamental": 5687,
  "pract": 5688,
  "pharmaceut": 5689,
  "ramas": 5690,
  "అంతర్జాతీయ": 5691,
  "అమెరిక": 5692,
  "ఇండో": 5693,
  "ఈశాన్య": 5694,
  "ఈస్ట్": 5695,
  "ఎలక్టోర": 5696,
  "ఏప్రిల్": 5697,
  "ఐరోపా": 5698,
  "ఖనిజాలు": 5699,
  "గెలుచుకోవడ": 5700,
  "చూడండి": 5701,
  "జమ్మూ": 5702,
  "ట్రో": 5703,
  "ఢాకా-ఢిల్లీ": 5704,
  "తర్వాత": 5705,
  "పిక్‌": 5706,
  "పవిత్ర": 5707,
  "పతాక": 5708,
  "పర్యాయాలు": 5709,
  "పక్కన": 5710,
  "బౌద్ధ": 5711,
  "బంగారు": 5712,
  "రచయిత": 5713,
  "సమరం": 5714,
  "భాగాన్ని": 5715,
  "ప్రసిద్ధి": 5716,
  "భారత్‌లో": 5717,
  "నిపుణులు": 5718,
  "నిడివి": 5719,
  "rights": 5720,
  "తిరుగుబా": 5721,
  "consolid": 5722,
  "conducted": 5723,
  "resulting": 5724,
  "స్థావరాలు": 5725,
  "సామాజిక,": 5726,
  "కూడుకొని": 5727,
  "కాపాడుకుంటూ": 5728,
  "నేరేడు": 5729,
  "మాట్లాడే": 5730,
  "approximately": 5731,
  "ఎన్నుకోబడతారు.": 5732,
  "కిలోమీటర్లకు": 5733,
  "చెప్పుకో": 5734,
  "చెందాయి.": 5735,
  "చెందుతున్న": 5736,
  "dance-dramas": 5737,
  "ఉపయోగి": 5738,
  "ప్రజాదరణ": 5739,
  "సూచించినట్లు": 5740,
  "సహస్రాబ్ది": 5741,
  "సార్వత్రిక": 5742,
  "కోల్‌కాతా": 5743,
  "pharmaceutical": 5744,
  "ఎలక్టోరల్": 5745,
  "గెలుచుకోవడం": 5746,
  "ఢాకా-ఢిల్లీ-లాహో": 5747,
  "తిరుగుబాటు": 5748,
  "64": 5749,
  "600": 5750,
  "72.": 5751,
  "26.": 5752,
  "1000": 5753,
  "23": 5754,
  "36": 5755,
  "1930": 5756,
  "1967": 5757,
  "16.": 5758,
  "Republic": 5759,
  "st-": 5760,
  "chived": 5761,
  "1974": 5762,
  "Archived": 5763,
  "(3": 5764,
  "1,200": 5765,
  "2008": 5766,
  "अभ": 5767,
  "अलावा": 5768,
  "आत": 5769,
  "इतिहास": 5770,
  "उच्च": 5771,
  "एन": 5772,
  "कर्म": 5773,
  "किये": 5774,
  "गई": 5775,
  "गई।": 5776,
  "घा": 5777,
  "चना": 5778,
  "छो": 5779,
  "छोड़": 5780,
  "जिक": 5781,
  "जहाँ": 5782,
  "ण,": 5783,
  "तट": 5784,
  "तम": 5785,
  "तगा": 5786,
  "दार": 5787,
  "दारी": 5788,
  "धार": 5789,
  "नै": 5790,
  "नौ": 5791,
  "नदिया": 5792,
  "पहु": 5793,
  "फि": 5794,
  "फ्रा": 5795,
  "बौ": 5796,
  "बंगा": 5797,
  "बदल": 5798,
  "मे": 5799,
  "यक": 5800,
  "यत": 5801,
  "र-": 5802,
  "रही": 5803,
  "ल,": 5804,
  "लना": 5805,
  "सल्": 5806,
  "ृत्य": 5807,
  "ौर": 5808,
  "ौद्योग": 5809,
  "्ञ": 5810,
  "०,": 5811,
  "१४": 5812,
  "१५": 5813,
  "२४": 5814,
  "र्तगा": 5815,
  "स्लि": 5816,
  "प्रशासन": 5817,
  "प्रत्य": 5818,
  "प्रचल": 5819,
  "प्रौद्योग": 5820,
  "नेमा": 5821,
  "वियत": 5822,
  "माल": 5823,
  "माध्य": 5824,
  "माजिक": 5825,
  "साह": 5826,
  "सामाजिक": 5827,
  "न्ध": 5828,
  "परी": 5829,
  "परे": 5830,
  "पर्य": 5831,
  "संगी": 5832,
  "क्षर": 5833,
  "कोई": 5834,
  "भाष": 5835,
  "राजधान": 5836,
  "राजनै": 5837,
  "वास": 5838,
  "देव": 5839,
  "देखा": 5840,
  "भील": 5841,
  "्यादा": 5842,
  "तरह": 5843,
  "हिं": 5844,
  "हिस्": 5845,
  "तीस": 5846,
  "तीसर": 5847,
  "बाहरी": 5848,
  "मुस्लि": 5849,
  "जनवरी": 5850,
  "किया,": 5851,
  "ंत्रिक": 5852,
  "चीफ": 5853,
  "मानसू": 5854,
  "भाषाएँ": 5855,
  "सरकारें": 5856,
  "जीत": 5857,
  "कृष": 5858,
  "जिसका": 5859,
  "दिल्": 5860,
  "पुरा": 5861,
  "पुर्तगा": 5862,
  "सिंह": 5863,
  "सिनेमा": 5864,
  "पूर्वी": 5865,
  "लगा": 5866,
  "मिलियन": 5867,
  "हुई।": 5868,
  "बढ़कर": 5869,
  "स्थि": 5870,
  "उपमहाद्वीप": 5871,
  "वेश": 5872,
  "संघीय": 5873,
  "संघर्ष": 5874,
  "सैनिक": 5875,
  "अन्तर": 5876,
  "आधार": 5877,
  "शुरु": 5878,
  "समाप्त": 5879,
  "पश्चिमी": 5880,
  "गुप्त": 5881,
  "विस्तार": 5882,
  "पेक्ष": 5883,
  "निरपेक्ष": 5884,
  "इंडिया": 5885,
  "थे।": 5886,
  "लोगों": 5887,
  "निभाई": 5888,
  "घोषणा": 5889,
  "पंजा": 5890,
  "विकसित": 5891,
  "उसके": 5892,
  "कहते": 5893,
  "जैसे": 5894,
  "अमेरिका": 5895,
  "आन्दोलन": 5896,
  "जून": 5897,
  "तनत": 5898,
  "दृष्टि": 5899,
  "अभिया": 5900,
  "छोटे": 5901,
  "नदियाँ": 5902,
  "सल्तनत": 5903,
  "प्रौद्योगिकी": 5904,
  "माध्यम": 5905,
  "संगीत": 5906,
  "राजधानी": 5907,
  "राजनैतिक": 5908,
  "मुस्लिम": 5909,
  "मानसून": 5910,
  "(202": 5911,
  "-கங்கைச்": 5912,
  "-பொருளாதாரச்": 5913,
  "4ஆம்": 5914,
  "78": 5915,
  "9ஆம்": 5916,
  "ns": 5917,
  "அது": 5918,
  "அல்": 5919,
  "அங்க": 5920,
  "அகா": 5921,
  "அரி": 5922,
  "அச்ச": 5923,
  "அசா": 5924,
  "அதே": 5925,
  "அணி": 5926,
  "அதற்கு": 5927,
  "அண்டை": 5928,
  "ஆடை": 5929,
  "ஆதார": 5930,
  "ஆய்": 5931,
  "ஆற்று": 5932,
  "இம்": 5933,
  "இடை": 5934,
  "இண்டிய": 5935,
  "உள": 5936,
  "உடை": 5937,
  "ஊட்ட": 5938,
  "எல்ல": 5939,
  "ஐக்": 5940,
  "ஒவ்": 5941,
  "கச": 5942,
  "கன": 5943,
  "கே": 5944,
  "கப்ப": 5945,
  "கேர": 5946,
  "கடை": 5947,
  "கன்ன": 5948,
  "கமீ": 5949,
  "ங்": 5950,
  "சய": 5951,
  "சர": 5952,
  "சம்": 5953,
  "சல்": 5954,
  "சகா": 5955,
  "சத்": 5956,
  "சவா": 5957,
  "சப்பா": 5958,
  "சற்று": 5959,
  "ஜி": 5960,
  "ஜவு": 5961,
  "டிக": 5962,
  "டபூ": 5963,
  "ணய": 5964,
  "ணிகள்": 5965,
  "தங்க": 5966,
  "தாவ": 5967,
  "தானது": 5968,
  "தட்ச": 5969,
  "தடை": 5970,
  "தைப்": 5971,
  "நிக்க": 5972,
  "னே": 5973,
  "பட": 5974,
  "பன": 5975,
  "பில": 5976,
  "புள்ள": 5977,
  "புகள": 5978,
  "பதிய": 5979,
  "படுத்த": 5980,
  "பல்ல": 5981,
  "மங்க": 5982,
  "மித்த": 5983,
  "மணி": 5984,
  "மும்ப": 5985,
  "யில்": 5986,
  "ரத்த": 5987,
  "ரங்க": 5988,
  "ரையும்": 5989,
  "லக": 5990,
  "லாவ": 5991,
  "ளை": 5992,
  "வற": 5993,
  "வன்": 5994,
  "விக": 5995,
  "வகி": 5996,
  "விக்": 5997,
  "வுள்ளது": 5998,
  "வொரு": 5999,
  "ஹி": 6000,
  "ஹவு": 6001,
  "ாட": 6002,
  "ாதார": 6003,
  "ீன்": 6004,
  "ீடு": 6005,
  "ுவி": 6006,
  "ுந்து": 6007,
  "ைக்கால": 6008,
  "ொள்க": 6009,
  "ோள": 6010,
  "ோபார்": 6011,
  "்க்க": 6012,
  "துற": 6013,
  "துடு": 6014,
  "துல்ல": 6015,
  "ன்ம": 6016,
  "ல்வாய": 6017,
  "ந்த்": 6018,
  "ந்தது": 6019,
  "ந்தன.": 6020,
  "க்கள": 6021,
  "க்கடி": 6022,
  "க்கலை": 6023,
  "க்கப்படுகிறது.": 6024,
  "க்கப்படும்": 6025,
  "க்கவோ": 6026,
  "ப்பான": 6027,
  "ப்பந்து": 6028,
  "த்துள்ளது.": 6029,
  "த்தனர்.": 6030,
  "ருக்கு": 6031,
  "ட்டம்": 6032,
  "ையிலிருந்து": 6033,
  "ங்கா": 6034,
  "ங்கும்": 6035,
  "ங்காக": 6036,
  "ுகு": 6037,
  "ிகர": 6038,
  "ிகா": 6039,
  "ிகுட": 6040,
  "ிரி": 6041,
  "ாவ்": 6042,
  "முடிய": 6043,
  "முனை": 6044,
  "முழு": 6045,
  "முடிக": 6046,
  "பாட்ட": 6047,
  "ிலுக்கு": 6048,
  "ிலும்,": 6049,
  "்ச்ச": 6050,
  "ிற்கு": 6051,
  "டிக்கப்பட்ட": 6052,
  "பெண்கள": 6053,
  "ங்களான": 6054,
  "ங்களுக்கும்": 6055,
  "ங்களையுடைய": 6056,
  "தொன்ம": 6057,
  "வைக்": 6058,
  "மை,": 6059,
  "ுள்ளனர்.": 6060,
  "ுள்ளார்.": 6061,
  "பொழு": 6062,
  "பொறிய": 6063,
  "இந்தியாவானது": 6064,
  "வாச": 6065,
  "வாத": 6066,
  "வாழ்க": 6067,
  "கொடுத்த": 6068,
  "விடு": 6069,
  "விமான": 6070,
  "விசய": 6071,
  "ப்படை": 6072,
  "ப்படாத": 6073,
  "ப்படலாம்.": 6074,
  "ற்கடிக்கப்பட்ட": 6075,
  "உள்ளார்.": 6076,
  "தாய": 6077,
  "தான்": 6078,
  "தாய்": 6079,
  "தாண்டிய": 6080,
  "தாராள": 6081,
  "நாணய": 6082,
  "த்துறை": 6083,
  "த்துதல்": 6084,
  "ஆகவும்,": 6085,
  "ரி,": 6086,
  "திகள்": 6087,
  "திகழ்": 6088,
  "ப்புடைய": 6089,
  "நிலையின்": 6090,
  "நிலைகள்": 6091,
  "சமவெளி": 6092,
  "புட": 6093,
  "தியான": 6094,
  "மாறி": 6095,
  "வேதிப்": 6096,
  "சுய": 6097,
  "சுவைய": 6098,
  "செது": 6099,
  "பிரச்ச": 6100,
  "பிரதேச": 6101,
  "ராட்ட": 6102,
  "மையும்": 6103,
  "மையைக்": 6104,
  "களை": 6105,
  "ிருந்தன.": 6106,
  "ிருந்தனர்.": 6107,
  "மேலும்": 6108,
  "மேலும்,": 6109,
  "காலம்": 6110,
  "காலத்த": 6111,
  "றுத்த": 6112,
  "றுவதற்கு": 6113,
  "2017ஆம்": 6114,
  "இருந்தனர்.": 6115,
  "ச்சி": 6116,
  "மாகத்": 6117,
  "லால்": 6118,
  "லாந்து": 6119,
  "லாம்,": 6120,
  "அமைதி": 6121,
  "தன்மை": 6122,
  "வரின்": 6123,
  "வரதட்ச": 6124,
  "பொருள்": 6125,
  "வுப்": 6126,
  "பரண": 6127,
  "2007இல்": 6128,
  "சார்": 6129,
  "சாஸ்த": 6130,
  "உருவ": 6131,
  "ல்லி": 6132,
  "ஆகியவையாகும்.": 6133,
  "வியத்": 6134,
  "கிடை": 6135,
  "சியப்": 6136,
  "சிப்": 6137,
  "சிக்க": 6138,
  "சித்த": 6139,
  "சிங்": 6140,
  "தெல": 6141,
  "தெளி": 6142,
  "கோடிய": 6143,
  "கோடியாக": 6144,
  "உலகப்": 6145,
  "உலகிலேயே": 6146,
  "வையானது": 6147,
  "நாடாகும்.": 6148,
  "மொக": 6149,
  "ிடும்": 6150,
  "ிகளைக்": 6151,
  "ிக்கும்": 6152,
  "ிக்குக்": 6153,
  "கூற": 6154,
  "இதன": 6155,
  "இதற்க": 6156,
  "போது,": 6157,
  "தாரோ": 6158,
  "இருக்கு": 6159,
  "நடந்த": 6160,
  "ித்தவ": 6161,
  "ுகள்,": 6162,
  "சமயத்தைச்": 6163,
  "உயர்ந்த": 6164,
  "உயிர்": 6165,
  "அதிகரிப்ப": 6166,
  "அதிகரிக்கும்": 6167,
  "பொருளாதாரக்": 6168,
  "1965": 6169,
  "லி,": 6170,
  "இலங்க": 6171,
  "ப்பாட்ட": 6172,
  "அமைப்பில்": 6173,
  "அமைப்புகள்": 6174,
  "இரண்டிலுமே": 6175,
  "இடத்தில்": 6176,
  "இராச": 6177,
  "பெற்றன.": 6178,
  "மூல": 6179,
  "உருவாக்கும்": 6180,
  "உருவாக்கி": 6181,
  "உருவாயின.": 6182,
  "ஞ்சதாரோ": 6183,
  "வடகிழக்கு": 6184,
  "முன்னரே": 6185,
  "தாகக்": 6186,
  "வருவாய": 6187,
  "வருக்குப்": 6188,
  "செயல": 6189,
  "செயலாட்சி": 6190,
  "பகுதியை": 6191,
  "பகுதியின்": 6192,
  "நிறுவி": 6193,
  "எண்ணப்படுகிறது.": 6194,
  "சேர்க்க": 6195,
  "ைகளை": 6196,
  "தொழில": 6197,
  "அடிக்கடி": 6198,
  "பி.": 6199,
  "தோற்ற": 6200,
  "தோற்கடிக்கப்பட்ட": 6201,
  "வனவு": 6202,
  "விரிகுட": 6203,
  "வடிவம்": 6204,
  "வடிவமானது": 6205,
  "சமூகப்": 6206,
  "சமூகக்": 6207,
  "சமூக-பொருளாதாரச்": 6208,
  "ஆண்டுகளாக": 6209,
  "கூட்டமைப்பு": 6210,
  "இயற்க": 6211,
  "இயக்கம்": 6212,
  "கட்டாய": 6213,
  "நிறுவப்பட்ட": 6214,
  "ிருக்கும்": 6215,
  "தொடங்கி": 6216,
  "குறிப்பிடப்பட்டுள்ளது.": 6217,
  "உணவுகள": 6218,
  "உணவின்": 6219,
  "உணவுகள்": 6220,
  "கலையின்": 6221,
  "கலையானது": 6222,
  "சைவ": 6223,
  "திரைத்": 6224,
  "திரைப்பட": 6225,
  "நேரங்களில்": 6226,
  "நேரடியாக": 6227,
  "பகுதிகளை": 6228,
  "பேரரசின்": 6229,
  "3.2": 6230,
  "சட்டங்கள்": 6231,
  "இராணுவச்": 6232,
  "த்திற்குள்": 6233,
  "பிரிக்கப்பட்ட": 6234,
  "பிரிவானது": 6235,
  "மேற்குத்": 6236,
  "அரசாங்கத்தின்": 6237,
  "அரசாங்கத்தை": 6238,
  "வீதமானது": 6239,
  "வீதங்களானவை": 6240,
  "உயிரித்": 6241,
  "தொகையில்": 6242,
  "தொகையுடைய": 6243,
  "மாற்றியது.": 6244,
  "என்பதை": 6245,
  "நிதி": 6246,
  "நிதிய": 6247,
  "நிர்வ": 6248,
  "பங்கை": 6249,
  "மெது": 6250,
  "மென்": 6251,
  "ான்,": 6252,
  "பெயர்": 6253,
  "வெளிக்": 6254,
  "மக்களை": 6255,
  "மக்களில்": 6256,
  "160": 6257,
  "அறிவி": 6258,
  "அறிமுக": 6259,
  "கண்டது.": 6260,
  "தீவுகள்": 6261,
  "செய்யும்": 6262,
  "செய்யப்பட்டன.": 6263,
  "நடத்தப்படுகின்றன.": 6264,
  "நடத்தவுள்ளது": 6265,
  "பயன்படுத்தப்பட்ட": 6266,
  "பாதுகாக்கப்பட்ட": 6267,
  "அளவில்": 6268,
  "சிறப்ப": 6269,
  "பதவி": 6270,
  "பதிலுக்கு": 6271,
  "ாமல்": 6272,
  "ப்படுவதில்": 6273,
  "காணப்படுகின்றன.": 6274,
  "தொலைத்": 6275,
  "வாழ்ந்து": 6276,
  "வாழ்விட": 6277,
  "நாடுகளுடன்": 6278,
  "நிறுவனங்கள்": 6279,
  "நிறுவனத்தின்": 6280,
  "நிறுவனமானது": 6281,
  "monsoon": 6282,
  "சோழ": 6283,
  "சோவியத்": 6284,
  "பக்தி": 6285,
  "இரண்டுமே": 6286,
  "அனைத்துப்": 6287,
  "ரீதியில்": 6288,
  "ரீதியிலான": 6289,
  "இணைக்கப்பட்ட": 6290,
  "இணைப்புகள்": 6291,
  "மியான்": 6292,
  "த்தி,": 6293,
  "வரலாறு": 6294,
  "1991ஆம்": 6295,
  "மதியள": 6296,
  "நகரமயமாக்க": 6297,
  "வருகின்றன.": 6298,
  "பேசுக": 6299,
  "பண்டைய": 6300,
  "பண்டைக்கால": 6301,
  "செலு": 6302,
  "வெற்றிய": 6303,
  "வெற்றிகர": 6304,
  "இலக்கியமானது": 6305,
  "எண்ணிக்கையில்": 6306,
  "உறுப்பினர்": 6307,
  "ஆசியா": 6308,
  "ஏற்பட்டது.": 6309,
  "சொற்ப": 6310,
  "பரிமாற்ற": 6311,
  "வகைப்": 6312,
  "வகையில்": 6313,
  "வகுப்பின": 6314,
  "இருக்கலாம்": 6315,
  "இருக்கலாம்.": 6316,
  "குறிப்பாக,": 6317,
  "கடற்கரைகளில்": 6318,
  "பொருட்களின்": 6319,
  "உயிரினங்கள்": 6320,
  "மனிதர்கள்": 6321,
  "உள்ளடக்கியதாக": 6322,
  "உடன": 6323,
  "எதிர்பார்க்கப்படுகிறது.": 6324,
  "விலை": 6325,
  "விலக்க": 6326,
  "விலங்கு": 6327,
  "முடிந்த": 6328,
  "காட்டுகின்றன.": 6329,
  "கட்டுப்பாட்டில்": 6330,
  "கட்டுப்பாட்டை": 6331,
  "முசுலிம": 6332,
  "2022இல்": 6333,
  "1947இல்": 6334,
  "ஆட்சியின்": 6335,
  "இனங்களாக": 6336,
  "இந்திய-இசுலாமிய": 6337,
  "வாய்ப்பு": 6338,
  "நாயகக்": 6339,
  "பிராந்தியக்": 6340,
  "சிந்து-கங்கைச்": 6341,
  "உருவாக்கப்பட்டது.": 6342,
  "செய்தது.": 6343,
  "சீனா": 6344,
  "கணக்கெடுப்பில்": 6345,
  "தசாப்தங்களின்": 6346,
  "க.வால்": 6347,
  "தற்காக": 6348,
  "நடைமுறை": 6349,
  "நடைபெற்றது.": 6350,
  "தாங்கப்பட்ட": 6351,
  "தெற்காசியாவ": 6352,
  "விளைவாக": 6353,
  "மயமாக்கப்பட்ட": 6354,
  "மதிப்பிட": 6355,
  "பெயரளவு": 6356,
  "விரிவடைய": 6357,
  "விரிவடைந்த": 6358,
  "அழிந்து": 6359,
  "எதிரான": 6360,
  "எதிர்த்த": 6361,
  "சதுப்பு": 6362,
  "சுல்தானகம்": 6363,
  "தொடர்ப": 6364,
  "சைனம்": 6365,
  "உற்பத்திப்": 6366,
  "தேர்ந்தெடுக்கப்பட்ட": 6367,
  "2009ஆம்": 6368,
  "1951ஆம்": 6369,
  "ஆதிக்கம்": 6370,
  "ஆட்சிக்கு": 6371,
  "உண்மையில்": 6372,
  "கடுமைய": 6373,
  "கடுமையான": 6374,
  "ஜனதா": 6375,
  "ஜனநாயகக்": 6376,
  "மணம": 6377,
  "மோக": 6378,
  "ஸ்டர்": 6379,
  "பாதிக்கப்பட்டுள்ளது.": 6380,
  "ுள்ளது:": 6381,
  "விவகார": 6382,
  "பொதுவானவையாக": 6383,
  "அமைப்புகளானவை": 6384,
  "இராச்சியங்கள்": 6385,
  "கூட்டணியானது": 6386,
  "உணவுப்": 6387,
  "அறிக்கையின்": 6388,
  "அறிக்கையானது": 6389,
  "இறக்குமதி": 6390,
  "திருமணங்கள்": 6391,
  "அன்றிலிருந்து": 6392,
  "இன்றிய": 6393,
  "சக்தி": 6394,
  "தயாரி": 6395,
  "தற்கால": 6396,
  "தற்காப்பு": 6397,
  "பீடபூ": 6398,
  "புரவல": 6399,
  "ாளராகவும்,": 6400,
  "உற்பத்தியானது": 6401,
  "சனநாயகக்": 6402,
  "அமெரிக்காவுக்கு": 6403,
  "வேலைப்பாடுகள": 6404,
  "ஏற்படுத்திய": 6405,
  "பூர்வீக": 6406,
  "பூர்வீகமாக": 6407,
  "தென்கிழக்கு": 6408,
  "தென்கிழக்கா": 6409,
  "ஆக்கியுள்ளது.": 6410,
  "நுழை": 6411,
  "நுகர்வ": 6412,
  "காடுகளின்": 6413,
  "தாக்குதல்": 6414,
  "பிரதிபல": 6415,
  "தொடுகற": 6416,
  "வெட்டப்பட்ட": 6417,
  "ுடனான": 6418,
  "த்திற்கான": 6419,
  "முக்கியத்துவம்": 6420,
  "உறுதிப்படுத்த": 6421,
  "செலவீனமானது": 6422,
  "தமிழில்": 6423,
  "திறனில்": 6424,
  "தக்காணப்": 6425,
  "அரப": 6426,
  "இக்கொள்க": 6427,
  "கிறித்தவ": 6428,
  "நலவாய": 6429,
  "மடங்காக": 6430,
  "இந்தோனே": 6431,
  "காற்றுகளை": 6432,
  "க்குட்பட்ட": 6433,
  "வாழும்": 6434,
  "கொள்வனவு": 6435,
  "திசையில்": 6436,
  "முன்னேறிய": 6437,
  "பங்கெடுத்துள்ளது.": 6438,
  "அதிகாரப்பூர்வ": 6439,
  "தேர்ந்தெடுக்கப்படுகின்றனர்.": 6440,
  "விவசாயிகள்": 6441,
  "ஆக்கிரமித்த": 6442,
  "அனுமதியள": 6443,
  "அலுவல்": 6444,
  "ஆரம்பித்தது.": 6445,
  "அல்லாத": 6446,
  "ஊட்டச்ச": 6447,
  "ஒவ்வொரு": 6448,
  "கப்பல்கள்": 6449,
  "கடைசி": 6450,
  "சல்வா": 6451,
  "சகாப்த": 6452,
  "ஜவுளி": 6453,
  "நிக்கோபார்": 6454,
  "விகித": 6455,
  "ஹிந்து": 6456,
  "துடுப்பாட்ட": 6457,
  "துல்லிய": 6458,
  "பொழுது": 6459,
  "பொறியியல்": 6460,
  "வாழ்க்கை": 6461,
  "தாய்லாந்து": 6462,
  "சுவையுடைய": 6463,
  "பிரச்சின": 6464,
  "வரதட்சணை": 6465,
  "கோடியிலிருந்து": 6466,
  "வருவாய்களை": 6467,
  "நிறுவின.": 6468,
  "நிர்வகி": 6469,
  "நடத்தவுள்ளது);": 6470,
  "பேசுகின்றனர்.": 6471,
  "ஆக்கிரமித்துள்ளது.": 6472,
  "(1.": 6473,
  "120": 6474,
  "14.": 6475,
  "24%": 6476,
  "48": 6477,
  "42%": 6478,
  "68": 6479,
  "60%": 6480,
  "70": 6481,
  "74%": 6482,
  "81%": 6483,
  "list": 6484,
  "7,6": 6485,
  "3.94": 6486,
  "1500": 6487,
  "2,0": 6488,
  "5.8%": 6489,
  "1999": 6490,
  "(\"": 6491,
  "(3.": 6492,
  "(2)": 6493,
  "23%": 6494,
  "34": 6495,
  "39%": 6496,
  "30%),": 6497,
  "63": 6498,
  "72%": 6499,
  "edi": 6500,
  "nd": 6501,
  "Inter": 6502,
  "2018": 6503,
  "1996": 6504,
  "10,": 6505,
  "2,8": 6506,
  "9%)": 6507,
  "New": 6508,
  "121,0": 6509,
  "70%),": 6510,
  "(0.36%": 6511,
  "(0.9%)": 6512,
  "1,93,42": 6513,
  "72%),": 6514,
  "International": 6515,
  "121,01,93,42": 6516,
  "(c.": 6517,
  "7000": 6518,
  "Ak": 6519,
  "Ash": 6520,
  "Bang": 6521,
  "Bay": 6522,
  "DA": 6523,
  "Dal": 6524,
  "Dance": 6525,
  "Ex": 6526,
  "Ear": 6527,
  "Econ": 6528,
  "For": 6529,
  "Fron": 6530,
  "Geograph": 6531,
  "HO": 6532,
  "I,": 6533,
  "Kal": 6534,
  "Lank": 6535,
  "Mal": 6536,
  "Mar": 6537,
  "Mid": 6538,
  "Myan": 6539,
  "Nic": 6540,
  "Non-": 6541,
  "NDA": 6542,
  "Pol": 6543,
  "Pall": 6544,
  "She": 6545,
  "Sri": 6546,
  "To": 6547,
  "Tem": 6548,
  "Thar": 6549,
  "Treat": 6550,
  "UPA": 6551,
  "Va": 6552,
  "Vi": 6553,
  "War": 6554,
  "Wayback": 6555,
  "WHO": 6556,
  "aic": 6557,
  "aut": 6558,
  "bon": 6559,
  "bar": 6560,
  "bes": 6561,
  "bly": 6562,
  "bri": 6563,
  "cu": 6564,
  "cin": 6565,
  "cle": 6566,
  "cul": 6567,
  "cro": 6568,
  "cut": 6569,
  "crit": 6570,
  "came": 6571,
  "cav": 6572,
  "count": 6573,
  "clim": 6574,
  "could": 6575,
  "civil": 6576,
  "dro": 6577,
  "dha": 6578,
  "dones": 6579,
  "e.": 6580,
  "ez": 6581,
  "ely": 6582,
  "eff": 6583,
  "eign": 6584,
  "fem": 6585,
  "fall": 6586,
  "gn": 6587,
  "gth": 6588,
  "gas": 6589,
  "gain": 6590,
  "get": 6591,
  "gend": 6592,
  "hu": 6593,
  "han": 6594,
  "i.": 6595,
  "ix": 6596,
  "ily": 6597,
  "ither": 6598,
  "ject": 6599,
  "kh": 6600,
  "kil": 6601,
  "ket": 6602,
  "kame": 6603,
  "ls": 6604,
  "law": 6605,
  "ladesh": 6606,
  "mal": 6607,
  "mig": 6608,
  "marg": 6609,
  "much": 6610,
  "mi)": 6611,
  "mamm": 6612,
  "nam": 6613,
  "nation": 6614,
  "near": 6615,
  "name": 6616,
  "os": 6617,
  "pat": 6618,
  "past": 6619,
  "put": 6620,
  "pet": 6621,
  "pts": 6622,
  "ran": 6623,
  "round": 6624,
  "sen": 6625,
  "sil": 6626,
  "smo": 6627,
  "sim": 6628,
  "sover": 6629,
  "slow": 6630,
  "sav": 6631,
  "sect": 6632,
  "sari": 6633,
  "somet": 6634,
  "tre": 6635,
  "test": 6636,
  "ty,": 6637,
  "text": 6638,
  "ue": 6639,
  "ues": 6640,
  "uent": 6641,
  "val": 6642,
  "vic": 6643,
  "vis": 6644,
  "varn": 6645,
  "would": 6646,
  "ya,": 6647,
  "ze": 6648,
  "then": 6649,
  "thor": 6650,
  "threat": 6651,
  "th-largest": 6652,
  "those": 6653,
  "hes": 6654,
  "in,": 6655,
  "in.": 6656,
  "init": 6657,
  "ining": 6658,
  "inated": 6659,
  "institution": 6660,
  "era": 6661,
  "rest": 6662,
  "reac": 6663,
  "recent": 6664,
  "reco": 6665,
  "refer": 6666,
  "reven": 6667,
  "ond": 6668,
  "onial": 6669,
  "anch": 6670,
  "anag": 6671,
  "anted": 6672,
  "another": 6673,
  "anced": 6674,
  "ens": 6675,
  "ened": 6676,
  "energy": 6677,
  "ati,": 6678,
  "oro": 6679,
  "oral": 6680,
  "orally": 6681,
  "these": 6682,
  "ali": 6683,
  "ales": 6684,
  "alwar": 6685,
  "stand": 6686,
  "stri": 6687,
  "stren": 6688,
  "dient": 6689,
  "dise": 6690,
  "diment": 6691,
  "discri": 6692,
  "aro,": 6693,
  "anding": 6694,
  "Indones": 6695,
  "Indira": 6696,
  "ions,": 6697,
  "asi": 6698,
  "ess": 6699,
  "itat": 6700,
  "is.": 6701,
  "isol": 6702,
  "ings": 6703,
  "19th": 6704,
  "20th": 6705,
  "enter": 6706,
  "oming": 6707,
  "town": 6708,
  "total": 6709,
  "today": 6710,
  "urid": 6711,
  "urred": 6712,
  "leve": 6713,
  "lied": 6714,
  "lies": 6715,
  "lief": 6716,
  "like": 6717,
  "ample": 6718,
  "addition": 6719,
  "added": 6720,
  "ilway": 6721,
  "olved": 6722,
  "rig": 6723,
  "uled": 6724,
  "embly": 6725,
  "role": 6726,
  "rap": 6727,
  "rather": 6728,
  "railway": 6729,
  "separ": 6730,
  "self": 6731,
  "chang": 6732,
  "chain": 6733,
  "chine": 6734,
  "churid": 6735,
  "cean": 6736,
  "veget": 6737,
  "2011,": 6738,
  "being": 6739,
  "belong": 6740,
  "bell": 6741,
  "belief": 6742,
  "loss": 6743,
  "loose": 6744,
  "conce": 6745,
  "est-": 6746,
  "estic": 6747,
  "ago,": 6748,
  "reser": 6749,
  "del": 6750,
  "devo": 6751,
  "uni": 6752,
  "unit": 6753,
  "untouch": 6754,
  "due": 6755,
  "duct": 6756,
  "moist": 6757,
  "imes": 6758,
  "export": 6759,
  "exchange": 6760,
  "example": 6761,
  "aced": 6762,
  "action": 6763,
  "acter": 6764,
  "across": 6765,
  "romise": 6766,
  "six": 6767,
  "pover": 6768,
  "abad": 6769,
  "ets": 6770,
  "ush": 6771,
  "uscri": 6772,
  "income": 6773,
  "1991,": 6774,
  "wear": 6775,
  "wealth": 6776,
  "comm": 6777,
  "spic": 6778,
  "1,000": 6779,
  "co-": 6780,
  "ha,": 6781,
  "having": 6782,
  "protec": 6783,
  "process": 6784,
  "forms": 6785,
  "formal": 6786,
  "formation": 6787,
  "ivity": 6788,
  "ples": 6789,
  "play": 6790,
  "gence": 6791,
  "ryan": 6792,
  "ders": 6793,
  "shor": 6794,
  "share": 6795,
  "parts": 6796,
  "partic": 6797,
  "1975,": 6798,
  "assert": 6799,
  "becoming": 6800,
  "ally,": 6801,
  "economy.": 6802,
  "century.": 6803,
  "centuries,": 6804,
  "inequal": 6805,
  "latter": 6806,
  "sched": 6807,
  "government,": 6808,
  "governments": 6809,
  "year.": 6810,
  "1950s,": 6811,
  "decade": 6812,
  "primary": 6813,
  "uck": 6814,
  "regions.": 6815,
  "populous": 6816,
  "world.": 6817,
  "Asia.": 6818,
  "ocrac": 6819,
  "oka": 6820,
  "ricket": 6821,
  "system.": 6822,
  "predomin": 6823,
  "them.": 6824,
  "merch": 6825,
  "ward": 6826,
  "ministers.": 6827,
  "BCE.": 6828,
  "Machine": 6829,
  "cultural": 6830,
  "cultures": 6831,
  "maintain": 6832,
  "itions": 6833,
  "urbanisation": 6834,
  "Buddha": 6835,
  "cause": 6836,
  "east.": 6837,
  "gradually": 6838,
  "trade": 6839,
  "life,": 6840,
  "elections": 6841,
  "language\"": 6842,
  "language,": 6843,
  "Empire.": 6844,
  "folk": 6845,
  "follow": 6846,
  "supported": 6847,
  "rising": 6848,
  "time,": 6849,
  "setting": 6850,
  "expans": 6851,
  "compromise": 6852,
  "13th": 6853,
  "-daro,": 6854,
  "subcontinent,": 6855,
  "classical,": 6856,
  "eval": 6857,
  "president": 6858,
  "styl": 6859,
  "styles": 6860,
  "chosen": 6861,
  "marked": 6862,
  "China,": 6863,
  "parliament.": 6864,
  "Stat": 6865,
  "oppos": 6866,
  "henjo": 6867,
  "heredit": 6868,
  "office": 6869,
  "leader,": 6870,
  "ables,": 6871,
  "appear": 6872,
  "ographics": 6873,
  "signed": 6874,
  "coll": 6875,
  "colonial": 6876,
  "gave": 6877,
  "disputes": 6878,
  "oulder": 6879,
  "societ": 6880,
  "mathematical": 6881,
  "Himalayan": 6882,
  "Janata": 6883,
  "drain": 6884,
  "less": 6885,
  "tribal": 6886,
  "armies": 6887,
  "ometres": 6888,
  "territories": 6889,
  "sively": 6890,
  "script": 6891,
  "transmit": 6892,
  "originally": 6893,
  "agriculture": 6894,
  "Demographics": 6895,
  "Mohenjo": 6896,
  "breath": 6897,
  "crucial": 6898,
  "census": 6899,
  "census,": 6900,
  "manuscri": 6901,
  "related": 6902,
  "remaining": 6903,
  "statu": 6904,
  "mediately": 6905,
  "provided": 6906,
  "marriages": 6907,
  "painting,": 6908,
  "Arabian": 6909,
  "Bio": 6910,
  "natal": 6911,
  "summer": 6912,
  "contains": 6913,
  "gency,": 6914,
  "Islamic": 6915,
  "mathematics": 6916,
  "North": 6917,
  "average": 6918,
  "broad": 6919,
  "guard": 6920,
  "makes": 6921,
  "village": 6922,
  "independence": 6923,
  "organisation": 6924,
  "strong": 6925,
  "struct": 6926,
  "liberal": 6927,
  "respon": 6928,
  "increasingly": 6929,
  "currenc": 6930,
  "employed": 6931,
  "Indo-Aryan": 6932,
  "Assembly": 6933,
  "Civilisation": 6934,
  "Deccan": 6935,
  "Gupta": 6936,
  "Greek": 6937,
  "Gujar": 6938,
  "Modern": 6939,
  "habitat": 6940,
  "safe": 6941,
  "written": 6942,
  "introduced": 6943,
  "character": 6944,
  "consists": 6945,
  "Maurya": 6946,
  "Constituent": 6947,
  "contributions": 6948,
  "capita": 6949,
  "indigenous": 6950,
  "practic": 6951,
  "Ashoka": 6952,
  "Bangladesh": 6953,
  "Early": 6954,
  "Middle": 6955,
  "Myanmar": 6956,
  "Nicob": 6957,
  "Pallav": 6958,
  "kilometres": 6959,
  "kameez": 6960,
  "laws": 6961,
  "sovereign": 6962,
  "sector": 6963,
  "sometimes": 6964,
  "vict": 6965,
  "reached": 6966,
  "recogn": 6967,
  "revenues": 6968,
  "strength": 6969,
  "discrimin": 6970,
  "bellion": 6971,
  "devotion": 6972,
  "protected": 6973,
  "scheduled": 6974,
  "president,": 6975,
  "transmitted": 6976,
  "Mohenjo-daro,": 6977,
  "India)": 6978,
  "64%": 6979,
  "74.": 6980,
  "F)": 6981,
  "2019": 6982,
  "30,000": 6983,
  "0.7": 6984,
  "16.6%": 6985,
  "74.04%": 6986,
  "ंट": 6987,
  "अग": 6988,
  "अने": 6989,
  "अति": 6990,
  "अल्": 6991,
  "आज": 6992,
  "आप": 6993,
  "आय": 6994,
  "आस": 6995,
  "इसे": 6996,
  "ई,": 6997,
  "उसे": 6998,
  "उन्हें": 6999,
  "उष्ण": 7000,
  "एव": 7001,
  "कप": 7002,
  "कश्": 7003,
  "क्यों": 7004,
  "चो": 7005,
  "चित": 7006,
  "जट": 7007,
  "जों": 7008,
  "जमा": 7009,
  "टक": 7010,
  "टल": 7011,
  "टा": 7012,
  "ढा": 7013,
  "तीय": 7014,
  "तनाव": 7015,
  "दु": 7016,
  "दों": 7017,
  "न,": 7018,
  "पत्": 7019,
  "फा": 7020,
  "फैली": 7021,
  "बि": 7022,
  "बजट": 7023,
  "भु": 7024,
  "भ्यता": 7025,
  "मार्": 7026,
  "मस्वरूप": 7027,
  "यि": 7028,
  "यहाँ": 7029,
  "रख": 7030,
  "रल": 7031,
  "लै": 7032,
  "लौ": 7033,
  "लड़ा": 7034,
  "शहर": 7035,
  "शस्त्र": 7036,
  "शहरी": 7037,
  "शिक्": 7038,
  "सन्": 7039,
  "सहा": 7040,
  "सक्र": 7041,
  "सभ्यता": 7042,
  "हॉ": 7043,
  "ामस्वरूप": 7044,
  "ेक": 7045,
  "ेक्षा": 7046,
  "ोत्": 7047,
  "४.": 7048,
  "४०": 7049,
  "४७": 7050,
  "कालीन": 7051,
  "या।": 7052,
  "से,": 7053,
  "प्रका": 7054,
  "प्रिय": 7055,
  "प्रदान": 7056,
  "प्रणा": 7057,
  "प्रभु": 7058,
  "नेह": 7059,
  "राजा": 7060,
  "नागा": 7061,
  "नागर": 7062,
  "क्ट": 7063,
  "विरो": 7064,
  "विशेष": 7065,
  "माता": 7066,
  "ियां": 7067,
  "सागर": 7068,
  "न्त्र": 7069,
  "परिण": 7070,
  "संग": 7071,
  "करती": 7072,
  "करते": 7073,
  "क्षण": 7074,
  "त्रि": 7075,
  "भागी": 7076,
  "हैं:": 7077,
  "राजवंश": 7078,
  "वाली": 7079,
  "वास्त": 7080,
  "हाल": 7081,
  "त्म": 7082,
  "पात": 7083,
  "पाया": 7084,
  "पाँच": 7085,
  "किए": 7086,
  "किसी": 7087,
  "निम्": 7088,
  "निवेश": 7089,
  "समझ": 7090,
  "समृद्ध": 7091,
  "शाली": 7092,
  "लीवि": 7093,
  "इसमें": 7094,
  "इसका": 7095,
  "तीन": 7096,
  "होना": 7097,
  "राज्यसभा": 7098,
  "मिला": 7099,
  "जिन्हें": 7100,
  "रूस": 7101,
  "पूरा": 7102,
  "पूरे": 7103,
  "द्रो": 7104,
  "लेकर": 7105,
  "ंधु": 7106,
  "भाषाएं": 7107,
  "जीवन": 7108,
  "दिरा": 7109,
  "पुरु": 7110,
  "सिंधु": 7111,
  "बंधीय": 7112,
  "मीर": 7113,
  "सदन": 7114,
  "सामरिक": 7115,
  "उत्तर-": 7116,
  "उत्तरी": 7117,
  "तुलना": 7118,
  "मंत्रिम": 7119,
  "०००": 7120,
  "स्कृतिक": 7121,
  "बढ़ती": 7122,
  "ष्क": 7123,
  "उपयोग": 7124,
  "टेलीवि": 7125,
  "च्छ": 7126,
  "रहा।": 7127,
  "शुष्क": 7128,
  "सूची": 7129,
  "गुजरा": 7130,
  "मोहन": 7131,
  "लोकता": 7132,
  "लोकप्रिय": 7133,
  "संबंधों": 7134,
  "हिन्दु": 7135,
  "मैदानी": 7136,
  "उनके": 7137,
  "उनकी": 7138,
  "अवशेष": 7139,
  "कार्यकाल": 7140,
  "कार्यपालिका": 7141,
  "२००४": 7142,
  "ण्डल": 7143,
  "मौर्य": 7144,
  "जिनमें": 7145,
  "सदस्य": 7146,
  "सदस्यों": 7147,
  "लंका": 7148,
  "लंबे": 7149,
  "परंपरागत": 7150,
  "आगमन": 7151,
  "ऊँची": 7152,
  "डालर": 7153,
  "सोवियत": 7154,
  "विजय": 7155,
  "इंदिरा": 7156,
  "इस्ला": 7157,
  "कटिबंधीय": 7158,
  "श्रीलंका": 7159,
  "सांस्कृतिक": 7160,
  "१९५०": 7161,
  "अमरीकी": 7162,
  "नौसेना": 7163,
  "पहुँच": 7164,
  "फ्रां": 7165,
  "बौद्ध": 7166,
  "्ञान": 7167,
  "प्रत्येक": 7168,
  "परीक्षण": 7169,
  "पर्यटन": 7170,
  "भाषी": 7171,
  "कृषि": 7172,
  "दिल्ली": 7173,
  "स्थिति": 7174,
  "शुरुआत": 7175,
  "पंजाब": 7176,
  "अनेक": 7177,
  "कश्मीर": 7178,
  "शिक्षा": 7179,
  "सहायक": 7180,
  "सक्रिय": 7181,
  "हॉकी": 7182,
  "प्रणाली": 7183,
  "नागरिक": 7184,
  "परिणामस्वरूप": 7185,
  "पुरुष": 7186,
  "मंत्रिमण्डल": 7187,
  "SI": 7188,
  "mand": 7189,
  "imper": 7190,
  "100,000": 7191,
  "imperial": 7192,
  "1987": 7193,
  "\"ஓர்": 7194,
  "\"கட்டடக்": 7195,
  "(மக்கள்": 7196,
  "(5ஆம்": 7197,
  "))": 7198,
  "-9": 7199,
  "-ஆசிய": 7200,
  "39": 7201,
  "4)": 7202,
  "47": 7203,
  "5இலிருந்து": 7204,
  "7)": 7205,
  "அஜ": 7206,
  "அட்ட": 7207,
  "அக்": 7208,
  "அலை": 7209,
  "அட்ச": 7210,
  "அடுத்த": 7211,
  "அகி": 7212,
  "அப்பா": 7213,
  "அதில்": 7214,
  "அவ்": 7215,
  "அதிரு": 7216,
  "அவருக்குப்": 7217,
  "ஆர": 7218,
  "ஆக்": 7219,
  "ஆந்திர": 7220,
  "ஆவது": 7221,
  "ஆபரண": 7222,
  "இண்ட": 7223,
  "இடு": 7224,
  "இப்பு": 7225,
  "இவற்ற": 7226,
  "இளவ": 7227,
  "இக்கி": 7228,
  "இளம்": 7229,
  "இவற்றில்": 7230,
  "இதிகா": 7231,
  "ஈர்": 7232,
  "ஈடு": 7233,
  "உத": 7234,
  "உப": 7235,
  "உந்த": 7236,
  "உத்தி": 7237,
  "ஊற": 7238,
  "ஊழ": 7239,
  "ஊர்": 7240,
  "எட்டு": 7241,
  "எந்திர": 7242,
  "ஏழ்": 7243,
  "ஏழு": 7244,
  "ஐ.": 7245,
  "ஒழ": 7246,
  "ஒடு": 7247,
  "ஒலி": 7248,
  "ஒளி": 7249,
  "ஒழு": 7250,
  "ஒரே": 7251,
  "ஓட": 7252,
  "கௌ": 7253,
  "கும்": 7254,
  "கான": 7255,
  "குக": 7256,
  "கமும்": 7257,
  "கிகா": 7258,
  "சட": 7259,
  "சரி": 7260,
  "சேர": 7261,
  "சர்வ": 7262,
  "சங்கில": 7263,
  "ஜ்": 7264,
  "ஜவக": 7265,
  "ஞான": 7266,
  "டா": 7267,
  "டம்": 7268,
  "டமை": 7269,
  "டைக்": 7270,
  "டேற்ற": 7271,
  "ண்க": 7272,
  "ணம்": 7273,
  "ணிக்": 7274,
  "ணாம": 7275,
  "ணக்கான": 7276,
  "தக்க": 7277,
  "தரு": 7278,
  "தள்ள": 7279,
  "தமான": 7280,
  "திலிருந்து": 7281,
  "தாவது": 7282,
  "தட்டின்": 7283,
  "தமிய": 7284,
  "தல்கள": 7285,
  "தட்ப": 7286,
  "தச்சா": 7287,
  "நிக": 7288,
  "நின": 7289,
  "நிட": 7290,
  "நராக": 7291,
  "நம்ப": 7292,
  "னிய": 7293,
  "பை": 7294,
  "பது": 7295,
  "பன்": 7296,
  "பக்க": 7297,
  "பில்": 7298,
  "பசு": 7299,
  "படைய": 7300,
  "பந்து": 7301,
  "படிய": 7302,
  "பணி": 7303,
  "பவர்கள": 7304,
  "மரா": 7305,
  "மறு": 7306,
  "மசா": 7307,
  "மன்ன": 7308,
  "மிருந்து": 7309,
  "மடைந்த": 7310,
  "மட்டை": 7311,
  "மடித்து": 7312,
  "மதச்சா": 7313,
  "யி": 7314,
  "யோ": 7315,
  "யில": 7316,
  "யங்கள": 7317,
  "யும்,": 7318,
  "யினர்.": 7319,
  "ரொ": 7320,
  "ரான": 7321,
  "ரக்": 7322,
  "ரங்களில்": 7323,
  "ரியாக": 7324,
  "றும்": 7325,
  "றைக்": 7326,
  "ல்க": 7327,
  "லவில்லை.": 7328,
  "லத்தீ": 7329,
  "ளு": 7330,
  "ளிர": 7331,
  "ளானது": 7332,
  "ளம்,": 7333,
  "ழையா": 7334,
  "ழ்ச்ச": 7335,
  "வண்ட": 7336,
  "வனை": 7337,
  "வுக்குப்": 7338,
  "வரால்": 7339,
  "வல்லி": 7340,
  "ஷா": 7341,
  "ஷ்": 7342,
  "ாட்சிய": 7343,
  "ாமையை": 7344,
  "ிற்": 7345,
  "ித்து": 7346,
  "ீத": 7347,
  "ீகா": 7348,
  "ுங்கு": 7349,
  "ூர": 7350,
  "ூசி": 7351,
  "ூரின்": 7352,
  "ெழு": 7353,
  "ெஞ்சதாரோ": 7354,
  "ேசியா,": 7355,
  "ோரா": 7356,
  "ோடிய": 7357,
  "ோலிய": 7358,
  "ோஸ்": 7359,
  "ோரின்": 7360,
  "ோரை": 7361,
  "்மின்": 7362,
  "en))": 7363,
  "்திய": 7364,
  "ியா": 7365,
  "ியற்": 7366,
  "ியலா": 7367,
  "ியுள்ளன.": 7368,
  "ியாட்ட": 7369,
  "ம்சம": 7370,
  "துப்பா": 7371,
  "ன்,": 7372,
  "ன்மை": 7373,
  "ல்,": 7374,
  "ல்வெள": 7375,
  "ந்தா": 7376,
  "ந்தோ": 7377,
  "ந்தனர்.": 7378,
  "ந்தனை": 7379,
  "ந்தாட்ட": 7380,
  "்டோ": 7381,
  "க்கப்": 7382,
  "க்காக": 7383,
  "க்கிறது.": 7384,
  "க்கங்களை": 7385,
  "க்கணக்கான": 7386,
  "ப்பக": 7387,
  "ப்பெ": 7388,
  "ப்பர்": 7389,
  "ப்பால்": 7390,
  "ப்பதில்": 7391,
  "த்தும்": 7392,
  "த்தான": 7393,
  "த்தாக": 7394,
  "த்துக்": 7395,
  "த்தையும்": 7396,
  "ருவ": 7397,
  "ருக்குப்": 7398,
  "ட்டா": 7399,
  "ட்டி": 7400,
  "ட்டது.": 7401,
  "ட்டமைப்பு": 7402,
  "ட்டிற்கு": 7403,
  "ையே": 7404,
  "ையால்": 7405,
  "ையாள": 7406,
  "ையைப்": 7407,
  "ையாகும்.": 7408,
  "ையையும்": 7409,
  "ையைச்": 7410,
  "ையாளர்": 7411,
  "ாகு": 7412,
  "ர்வை": 7413,
  "ர்பற்ற": 7414,
  "ர்லால்": 7415,
  "ங்குவ": 7416,
  "ங்கைப்": 7417,
  "ங்குகள்": 7418,
  "ங்கிணை": 7419,
  "இந்தப்": 7420,
  "இந்திர": 7421,
  "ண்டி": 7422,
  "ண்டின்": 7423,
  "ண்டுவ": 7424,
  "ண்டு,": 7425,
  "ண்டாமையை": 7426,
  "இந்தியர்களால்": 7427,
  "ிகை": 7428,
  "ிகின்றனர்.": 7429,
  "குவிய": 7430,
  "குர்த்த": 7431,
  "குச்சி": 7432,
  "ிரில்": 7433,
  "ிர்கள்": 7434,
  "ிராவின்": 7435,
  "ாவைப்": 7436,
  "ாவைச்": 7437,
  "முன்": 7438,
  "முற்": 7439,
  "முலா": 7440,
  "முறிய": 7441,
  "முந்தி": 7442,
  "கார்": 7443,
  "காடு": 7444,
  "காசு": 7445,
  "காட்ச": 7446,
  "காளி": 7447,
  "காற்று": 7448,
  "காட்டின்": 7449,
  "காய்க": 7450,
  "காப்பக": 7451,
  "பாத": 7452,
  "பாட்டின்": 7453,
  "பாண்டிய": 7454,
  "பாராள": 7455,
  "பாயும்": 7456,
  "பாசிப்": 7457,
  "ிலுள்ள": 7458,
  "ிலிருந்த": 7459,
  "டு,": 7460,
  "ப்பட்டு": 7461,
  "டி,": 7462,
  "டிக்க": 7463,
  "த்பூ": 7464,
  "ருந்து": 7465,
  "பெங்கள": 7466,
  "பெண்": 7467,
  "ன்றும்,": 7468,
  "ங்களவை": 7469,
  "ங்களால்": 7470,
  "ங்களைத்": 7471,
  "ங்களுடன்": 7472,
  "ங்களுக்குப்": 7473,
  "ங்களுக்கான": 7474,
  "தொட்ட": 7475,
  "வைக்கும்": 7476,
  "வைக்கவோ": 7477,
  "மைப்": 7478,
  "மைகள்": 7479,
  "இந்தியாவைக்": 7480,
  "இந்தியாவைச்": 7481,
  "இந்தியாவிலேயே": 7482,
  "வாறு": 7483,
  "வாட்டில்": 7484,
  "வாஸ்த": 7485,
  "கொத்த": 7486,
  "கொடு": 7487,
  "கொல்க": 7488,
  "போக்க": 7489,
  "போதன": 7490,
  "போர்த்த": 7491,
  "போயின.": 7492,
  "போரில்": 7493,
  "போருக்குப்": 7494,
  "வி.": 7495,
  "விண்": 7496,
  "விப்பு": 7497,
  "விசு": 7498,
  "விவர": 7499,
  "விக்கப்பட்ட": 7500,
  "வினை": 7501,
  "ுகளானவை": 7502,
  "ரசர்கள்": 7503,
  "உள்ளன": 7504,
  "உள்ளதைப்": 7505,
  "தார்கள்": 7506,
  "தாக்கி": 7507,
  "தாஜ்": 7508,
  "நாத்": 7509,
  "நாட்டில்": 7510,
  "நாட்டிய": 7511,
  "நாள்,": 7512,
  "த்துப்": 7513,
  "த்துடன": 7514,
  "ஆகவும்": 7515,
  "ரிக்கா": 7516,
  "ரிதார்கள்": 7517,
  "கொண்டது.": 7518,
  "கொண்டுள்ள": 7519,
  "கொண்டதாக": 7520,
  "கொண்டிருக்க": 7521,
  "திகழ்க": 7522,
  "ஒருங்கிணை": 7523,
  "நிலம்": 7524,
  "நிலக்க": 7525,
  "நிலக்": 7526,
  "நிலங்கள்": 7527,
  "நிலைப்": 7528,
  "நிலத்தை": 7529,
  "சமமான": 7530,
  "சமநிலையின்": 7531,
  "புதி": 7532,
  "புரி": 7533,
  "புரோ": 7534,
  "புல்வாய": 7535,
  "தியின்": 7536,
  "மாரத்த": 7537,
  "மாறுவதற்கு": 7538,
  "மாலத்தீ": 7539,
  "வேள": 7540,
  "வேர்": 7541,
  "வேற்று": 7542,
  "வேண்டும்": 7543,
  "வேதம்": 7544,
  "வேங்கைப்": 7545,
  "சு.": 7546,
  "சுடும்": 7547,
  "சுந்தர": 7548,
  "சுரிதார்கள்": 7549,
  "செஸ்": 7550,
  "பிரீ": 7551,
  "பிரபு": 7552,
  "பிரிக்க": 7553,
  "பிரான்": 7554,
  "பிரபஞ்ச": 7555,
  "பிரம்ம": 7556,
  "பிரியா": 7557,
  "ரா,": 7558,
  "ராடை": 7559,
  "ஆண்டுக்கு": 7560,
  "ஆண்டிலிருந்து": 7561,
  "மையப்": 7562,
  "மையமாக": 7563,
  "மையாத": 7564,
  "களி": 7565,
  "களாக": 7566,
  "களுக்கு": 7567,
  "வெது": 7568,
  "வெஸ்ட": 7569,
  "வெண்க": 7570,
  "மேலாட்சி": 7571,
  "காலமே": 7572,
  "காலமாக": 7573,
  "காலத்தை": 7574,
  "காலநிலை": 7575,
  "காலமிட": 7576,
  "காலத்திற்க": 7577,
  "2014இல்": 7578,
  "2018இல்": 7579,
  "இருந்தே": 7580,
  "இருந்தது": 7581,
  "இருந்தும்": 7582,
  "இருந்தாலும்": 7583,
  "ச்சு": 7584,
  "மாகப்": 7585,
  "மாகியுள்ளது.": 7586,
  "லாப்": 7587,
  "அமைக்க": 7588,
  "அமைக்கப்பட்ட": 7589,
  "அரசவை": 7590,
  "அரசுகள்": 7591,
  "அரசுகளை": 7592,
  "வரப்பட்ட": 7593,
  "வரத்து": 7594,
  "வரம்பு": 7595,
  "ற்பண்": 7596,
  "ற்படை": 7597,
  "பொருத்த": 7598,
  "பொருளானது": 7599,
  "வுள": 7600,
  "வுச்": 7601,
  "வுடன": 7602,
  "வுடமை": 7603,
  "க்கப்பட்டிருந்த": 7604,
  "2006": 7605,
  "2008இல்": 7606,
  "அதிகமான": 7607,
  "சாமா": 7608,
  "சாதன": 7609,
  "சார்க்க": 7610,
  "சாளு": 7611,
  "உலர்": 7612,
  "ினார்.": 7613,
  "ினியாட்ட": 7614,
  "இல்லை.": 7615,
  "இல்லாத": 7616,
  "வாகப்": 7617,
  "வாகக்": 7618,
  "வாகையாளர்": 7619,
  "ேரரச": 7620,
  "ர்களும்": 7621,
  "ர்களைப்": 7622,
  "ர்களுக்க": 7623,
  "வியா": 7624,
  "கிளர்ச்ச": 7625,
  "சிந்தனை": 7626,
  "டைப்பந்து": 7627,
  "தெரி": 7628,
  "ப்படுகிறார்.": 7629,
  "கோது": 7630,
  "கோசி": 7631,
  "கோடை": 7632,
  "கோயில்": 7633,
  "கோண்டுவ": 7634,
  "உலகில்": 7635,
  "உலகக்கோ": 7636,
  "ின்றன": 7637,
  "வீழ்ச்ச": 7638,
  "நாடான": 7639,
  "ிடங்களில்": 7640,
  "ிடமிருந்து": 7641,
  "ிகளாக": 7642,
  "ிகளால்": 7643,
  "ிகளைப்": 7644,
  "ிகளுடன்": 7645,
  "டியா,": 7646,
  "பலர்": 7647,
  "பலவீன": 7648,
  "ழ்வாய்": 7649,
  "ிக்கிறது.": 7650,
  "ிக்கத்தக்க": 7651,
  "கூடைப்பந்து": 7652,
  "நீக்கப்பட்டது.": 7653,
  "நீடித்து": 7654,
  "போதும்": 7655,
  "இருபது": 7656,
  "வளர்ந்த": 7657,
  "க்காமல்": 7658,
  "1998இல்": 7659,
  "ரம்,": 7660,
  "ண்ணின்": 7661,
  "தல்,": 7662,
  "1957": 7663,
  "சமயமாக": 7664,
  "சமயத்தின்": 7665,
  "சமயமானது": 7666,
  "சமயம்,": 7667,
  "சமயங்களும்": 7668,
  "சமயத்தையும்": 7669,
  "தேவை": 7670,
  "பொதுவுடமை": 7671,
  "பொருளாதாரத்": 7672,
  "பொருளாதாரங்களில்": 7673,
  "1965ஆம்": 7674,
  "தனது": 7675,
  "தனிக்": 7676,
  "வந்துள்ளது.": 7677,
  "வந்தனர்.": 7678,
  "ப்பாற்ற": 7679,
  "ப்பாடுகளை": 7680,
  "ியல்,": 7681,
  "அமைப்பைப்": 7682,
  "இரண்டும்": 7683,
  "இடது": 7684,
  "இடங்கள்": 7685,
  "இடங்களில்": 7686,
  "பெற்றார்.": 7687,
  "பெற்றுள்ளன.": 7688,
  "மூழ்க": 7689,
  "மூடப்பட்ட": 7690,
  "ாண்டு": 7691,
  "ாண்ட்": 7692,
  "முறைப்": 7693,
  "முறைகள்": 7694,
  "முறைமையை": 7695,
  "கைவின": 7696,
  "கைவினை": 7697,
  "1987,": 7698,
  "1985இல்": 7699,
  "18ஆம்": 7700,
  "வடமேற்க": 7701,
  "வடக்கே": 7702,
  "வடமேற்குப்": 7703,
  "பாரம்பரியங்களின்": 7704,
  "1.8": 7705,
  "குறைவாக": 7706,
  "குறைத்தது.": 7707,
  "குறைந்தது.": 7708,
  "குறைபாடு": 7709,
  "முன்னணிக்": 7710,
  "விளக்கப்படுகிறது.": 7711,
  "தாகவே": 7712,
  "செயற்க": 7713,
  "பகுதியானது": 7714,
  "பகுதியளவு": 7715,
  "6%-உம்,": 7716,
  "1972": 7717,
  "சேவைகள": 7718,
  "மிட்டது.": 7719,
  "ைகளால்": 7720,
  "ைகளானவை": 7721,
  "எனும்": 7722,
  "ஒன்று": 7723,
  "ஒன்றாகும்.": 7724,
  "ஒன்றாகக்": 7725,
  "கடந்த": 7726,
  "கடலில்": 7727,
  "கடற்படை": 7728,
  "கடவுள": 7729,
  "்புக்": 7730,
  "காரணமா": 7731,
  "காரணிகளைக்": 7732,
  "நூற்றாண்டு": 7733,
  "நூற்றாண்டுகள": 7734,
  "நூற்றாண்டுகளின்": 7735,
  "நூற்றாண்டுகளில்": 7736,
  "7,15,": 7737,
  "தோச": 7738,
  "பயன்": 7739,
  "பயிற்": 7740,
  "வனவற்றில்": 7741,
  "விரும்ப": 7742,
  "வடிவமாக": 7743,
  "வடிவத்தில்": 7744,
  "சமூகம்": 7745,
  "கோடிப்": 7746,
  "கோடிக்கும்": 7747,
  "கோடி),": 7748,
  "கூட்டணிகள்": 7749,
  "இயலவில்லை.": 7750,
  "இயற்பண்": 7751,
  "கட்டமை": 7752,
  "கட்டத்தின்": 7753,
  "மொழியாக": 7754,
  "மொழியின்": 7755,
  "நிறுவப்பட்டன.": 7756,
  "நிறுவப்படுவதற்கு": 7757,
  "டுகளுக்கு": 7758,
  "வேறுபாடுகள": 7759,
  "தொடங்குகிறது.": 7760,
  "தொடங்கின.": 7761,
  "சியாவுடனான": 7762,
  "குறிப்பிடப்படுகிறது.": 7763,
  "உணர": 7764,
  "கலையும்": 7765,
  "நடுக்கால": 7766,
  "நேரடி": 7767,
  "ந்திராத": 7768,
  "பகுதிகளானவை": 7769,
  "பண்பாட்டை": 7770,
  "பண்பாட்டிற்கு": 7771,
  "பேரரசர்": 7772,
  "பேரரசால்": 7773,
  "10ஆம்": 7774,
  "பட்டண": 7775,
  "மாநிலக்": 7776,
  "மாநிலங்களுக்கு": 7777,
  "மாநிலங்களவை": 7778,
  "தொடக்கம்": 7779,
  "தொடக்கப்": 7780,
  "இராணுவங்கள்": 7781,
  "இராணுவமானது": 7782,
  "1950ஆம்": 7783,
  "வழிய": 7784,
  "ப்படுத்தி": 7785,
  "பிரிவு": 7786,
  "பிரிக்கப்பட்டது.": 7787,
  "அரசாங்கமானது": 7788,
  "அரசாங்கத்தால்": 7789,
  "வீதமாக": 7790,
  "வீதத்தை": 7791,
  "வீதங்களின்": 7792,
  "உயிர்க்க": 7793,
  "2,3": 7794,
  "அணுக்க": 7795,
  "அணிகின்றனர்.": 7796,
  "அனைவரும்": 7797,
  "அனைத்தும்": 7798,
  "கிராண்ட்": 7799,
  "மதிப்புடைய": 7800,
  "வங்கியின்": 7801,
  "முறையை": 7802,
  "முறையின்": 7803,
  "முறையில்": 7804,
  "முறையாக": 7805,
  "முறையானது": 7806,
  "முறையைத்": 7807,
  "தொகையின்": 7808,
  "தொகையானது": 7809,
  "போன்றவற்றின்": 7810,
  "மாற்றம்": 7811,
  "மாற்றத்தை": 7812,
  "தனித்": 7813,
  "தனிச்": 7814,
  "உடையானது": 7815,
  "உடையவர்களாக": 7816,
  "என்பதாகும்.": 7817,
  "என்பதைத்": 7818,
  "பங்கானது": 7819,
  "மெய்ய": 7820,
  "வர்களால்": 7821,
  "ிட்டுள்ளது.": 7822,
  "ியானார்.": 7823,
  "ஆகியவற்றில்": 7824,
  "ஆகியவற்றுக்கு": 7825,
  "ஆகியவற்றுடன்": 7826,
  "மக்களவையின்": 7827,
  "அறிவியல்": 7828,
  "கண்டம்": 7829,
  "கண்டத்தின்": 7830,
  "கண்டத்தில்": 7831,
  "கண்டத்திற்கு": 7832,
  "தீண்டாமையை": 7833,
  "ிதளவு": 7834,
  "நடத்தப்பட்ட": 7835,
  "நடத்தப்படும்": 7836,
  "நடத்தப்பட்டது.": 7837,
  "நடத்தின.": 7838,
  "வணிகத்தில்": 7839,
  "வணிகர்கள்,": 7840,
  "பயன்படுத்தப்படும்": 7841,
  "பயன்படுத்தப்பட்டது.": 7842,
  "அளவானது": 7843,
  "அளவிலான": 7844,
  "ஐஅ$2,": 7845,
  "ஐஅ$100": 7846,
  "ஐஅ$3.94": 7847,
  "சிறு": 7848,
  "சிறப்பு": 7849,
  "சிறிதளவு": 7850,
  "பதவிக்": 7851,
  "பதக்கங்களை": 7852,
  "மலைச்": 7853,
  "ப்படுத்துதல்": 7854,
  "காணப்படும்": 7855,
  "வாழ்வை": 7856,
  "வாழ்வின்": 7857,
  "வாழ்வானது": 7858,
  "நாடுகளும்": 7859,
  "நாடுகளில்": 7860,
  "நாடுகளுக்கு": 7861,
  "அடிப்படை": 7862,
  "ஆயுதப்": 7863,
  "ஆயுதச்": 7864,
  "ஆயுதங்களை": 7865,
  "(₹1,": 7866,
  "(₹7,15,": 7867,
  "அக்டோ": 7868,
  "அகன்றும்,": 7869,
  "அகழ்வாய்": 7870,
  "அவைகள": 7871,
  "ஆற்றின்": 7872,
  "ஆற்றலை": 7873,
  "இக்காலம்": 7874,
  "இக்காலமானது": 7875,
  "கட்சிகள": 7876,
  "கட்சிகள்": 7877,
  "சோறு": 7878,
  "வேகம்": 7879,
  "மேற்குக்": 7880,
  "பரவல்": 7881,
  "குடியரசான": 7882,
  "குடியரசாக": 7883,
  "பிரித்தானியப்": 7884,
  "பிரித்தானியக்": 7885,
  "பிரித்தானியரால்": 7886,
  "இணைத்து": 7887,
  "ஒப்பிடும்": 7888,
  "கருநாடக": 7889,
  "சந்தையானது": 7890,
  "சந்தையாக": 7891,
  "சந்தாதார": 7892,
  "மியில்": 7893,
  "ல்களை": 7894,
  "வுகளில்": 7895,
  "பொதுவாகக்": 7896,
  "மூன்றாம்": 7897,
  "இவ்வகைப்": 7898,
  "வங்காளப்": 7899,
  "சனவரி": 7900,
  "தரப்பட்ட": 7901,
  "மரபு": 7902,
  "ரியா": 7903,
  "வாயு": 7904,
  "வாய்கள்": 7905,
  "வாக்கை": 7906,
  "நகரங்களில்": 7907,
  "மொழிகளின்": 7908,
  "மொழிகளில்": 7909,
  "மொழிகளைப்": 7910,
  "மொழிகளானவை": 7911,
  "தேர்தல்கள்": 7912,
  "தேர்தல்களில்": 7913,
  "இறகு": 7914,
  "பேச": 7915,
  "துறையில்": 7916,
  "துறையாக": 7917,
  "வெற்றி": 7918,
  "வெற்றிகளைப்": 7919,
  "இலக்கியத்திற்கான": 7920,
  "எண்ணிக்கையானது": 7921,
  "கட்டடக்கலை": 7922,
  "வெளியீ": 7923,
  "2001ஆம்": 7924,
  "2001இல்": 7925,
  "அறியப்படுகிறது.": 7926,
  "அறியப்படும்": 7927,
  "ஆசியக்": 7928,
  "ஏற்பட்டன.": 7929,
  "ஓவியங்கள்": 7930,
  "சொந்த": 7931,
  "பரிச": 7932,
  "பரிணாம": 7933,
  "வென்றது.": 7934,
  "வென்றுள்ளார்.": 7935,
  "இருக்கலாம்,": 7936,
  "பெரும்பான்மையான": 7937,
  "கடற்கரை": 7938,
  "தோன்றியது.": 7939,
  "தோன்றுகின்றன.": 7940,
  "பொருட்களை": 7941,
  "முக்கியமானவையாகும்.": 7942,
  "உயிரினங்களை": 7943,
  "உயிரினங்களாக": 7944,
  "கிராமப்": 7945,
  "உள்ளடக்கியுள்ளது:": 7946,
  "இப்பகுதிய": 7947,
  "இப்பேரரச": 7948,
  "உடலின்": 7949,
  "சூழ": 7950,
  "சூன்": 7951,
  "சூழ்": 7952,
  "சூடேற்ற": 7953,
  "தூய்": 7954,
  "தைக்கப்பட்ட": 7955,
  "தானுந்து": 7956,
  "மலேசியா,": 7957,
  "மலையாள": 7958,
  "முடித்து": 7959,
  "புவித்தட்ட": 7960,
  "உருவாகத்": 7961,
  "இதற்குத்": 7962,
  "இவ்வாற": 7963,
  "இவ்வாறாக": 7964,
  "கட்டுப்பாடுகளை": 7965,
  "13ஆம்": 7966,
  "2022ஆம்": 7967,
  "ஆட்சியானது": 7968,
  "இனமாக": 7969,
  "இனங்களை": 7970,
  "ரேகை": 7971,
  "இந்திய-ஐரோப்பிய": 7972,
  "முதலாம்": 7973,
  "முதலீ": 7974,
  "கால்பந்து": 7975,
  "கால்வாய்கள்": 7976,
  "பாணியில்": 7977,
  "பாணியிலான": 7978,
  "பெறும்": 7979,
  "வாய்ந்த": 7980,
  "பிராந்தியப்": 7981,
  "சார்ந்ததாக": 7982,
  "சிந்துவெளி": 7983,
  "நீடித்திருந்த": 7984,
  "இலட்சத்தீ": 7985,
  "குடியரசு\"": 7986,
  "பஞ்சாபி": 7987,
  "பஞ்சாபின்": 7988,
  "பஞ்சாபில்": 7989,
  "நகர்ப்புறப்": 7990,
  "நகர்ப்புறக்": 7991,
  "அரசியலமைப்பின்": 7992,
  "அரசியலமைப்பானது": 7993,
  "தசாப்தங்களில்": 7994,
  "ஆசியாவின்": 7995,
  "ஆசியாவிலிருந்து": 7996,
  "உறவுகள": 7997,
  "நடைபெறும்": 7998,
  "பருப்புக்": 7999,
  "ம்பிக்": 8000,
  "போதிலும்,": 8001,
  "திருத்த": 8002,
  "திருநாள்,": 8003,
  "தாங்கிக்": 8004,
  "புறம்": 8005,
  "புறப்": 8006,
  "புவியைச்": 8007,
  "காலத்திற்குப்": 8008,
  "காலத்திற்குத்": 8009,
  "2013ஆம்": 8010,
  "சிற்பங்கள்": 8011,
  "சிற்பங்களாக": 8012,
  "தெற்காசியாவின்": 8013,
  "நாடகப்": 8014,
  "இடத்தைப்": 8015,
  "இடத்தையும்": 8016,
  "செயல்பாடுகள": 8017,
  "செயல்பட": 8018,
  "ஒன்றியம்": 8019,
  "ஒன்றியத்துடன்": 8020,
  "மதிப்பீ": 8021,
  "பெயரளவில்": 8022,
  "சராசரியாக": 8023,
  "விரிவடைந்தது.": 8024,
  "இசுலாம்,": 8025,
  "அமெரிக்கா": 8026,
  "ஆறுகள்": 8027,
  "ஆதரவை": 8028,
  "ஆதரவு": 8029,
  "ஆதரவள": 8030,
  "இறுக்க": 8031,
  "கவனக்": 8032,
  "சதுரங்க": 8033,
  "தளங்களில்": 8034,
  "தளராடை": 8035,
  "திறன்": 8036,
  "தடுப்ப": 8037,
  "தடுப்பு": 8038,
  "பங்களித்த": 8039,
  "பதிவு": 8040,
  "மின்சார": 8041,
  "வரிசை": 8042,
  "ப்புகளானவை": 8043,
  "த்துக்குள்": 8044,
  "இருப்பதற்கு": 8045,
  "முன்னேற்றம்": 8046,
  "இயக்கமானது": 8047,
  "கல்வி,": 8048,
  "உற்பத்தித்": 8049,
  "விளையாட்டுகள்": 8050,
  "விளையாட்டுகளில்": 8051,
  "பரவலாகப்": 8052,
  "கிராமப்புறப்": 8053,
  "2010ஆம்": 8054,
  "1980இல்": 8055,
  "1980களின்": 8056,
  "70%க்கும்": 8057,
  "உண்மையான": 8058,
  "உச்சநீதிமன்ற": 8059,
  "உச்சபட்ச": 8060,
  "கதக்": 8061,
  "கதகளி": 8062,
  "ஸ்தான்": 8063,
  "பாடானது": 8064,
  "பாரத்": 8065,
  "பாரபட்ச": 8066,
  "பார்முலா": 8067,
  "விட்டன.": 8068,
  "தாக்கத்தை": 8069,
  "சுதந்திரமான": 8070,
  "லாததாக்க": 8071,
  "குறிக்கிறது.": 8072,
  "கூட்டணியை": 8073,
  "ஆயிரம்": 8074,
  "ஆயிரமா": 8075,
  "ஆயிரக்கணக்கான": 8076,
  "கீழான": 8077,
  "நிர்வாகப்": 8078,
  "வரலாற்றின்": 8079,
  "தமிழ்நாட்டின்": 8080,
  "நீதிமன்றங்கள்": 8081,
  "மாமிசம்": 8082,
  "அருகில்": 8083,
  "திருமணம்": 8084,
  "2023ஆம்": 8085,
  "2023இல்": 8086,
  "2014ஆம்": 8087,
  "அன்றாட": 8088,
  "அணியப்படும்": 8089,
  "அவர்களது": 8090,
  "அவர்களின்": 8091,
  "ஆளும்": 8092,
  "ஆக்கக்": 8093,
  "இன்று": 8094,
  "கமாகத்": 8095,
  "தகவுப்": 8096,
  "தயிரில்": 8097,
  "தந்தை": 8098,
  "தந்தூர்": 8099,
  "நியமிக்க": 8100,
  "நிரந்தர": 8101,
  "பணிகளை": 8102,
  "பள்ளிகள்": 8103,
  "பணியாற்ற": 8104,
  "மகாராட்ட": 8105,
  "மிக்கவையாக": 8106,
  "மந்திரியானார்.": 8107,
  "வறுமைய": 8108,
  "முடிவில்": 8109,
  "போக்குவரத்து": 8110,
  "புலிகள்": 8111,
  "செல்வாக்கை": 8112,
  "செல்லாததாக்க": 8113,
  "வரையறு": 8114,
  "பரப்பளவு": 8115,
  "முறைகளை": 8116,
  "முறைகளைக்": 8117,
  "ஒன்றிணைத்த": 8118,
  "உற்பத்தியாளராகவும்,": 8119,
  "அடர்த்திய": 8120,
  "அடர்த்தியானது": 8121,
  "துணைக்கண்டத்தின்": 8122,
  "ஏற்றுமதியாளராக": 8123,
  "குழந்தைத்": 8124,
  "பிரபலமானதாக": 8125,
  "நெருக்கடி": 8126,
  "வேலைப்பாடு": 8127,
  "ஏற்படுத்தியது.": 8128,
  "வர்க்கத்தினர்": 8129,
  "பெருமளவுக்கு": 8130,
  "பெருமளவிலான": 8131,
  "அழிக்க": 8132,
  "அழியும்": 8133,
  "ஈரப்": 8134,
  "ஈரமுள்ள": 8135,
  "ஊடகமாகத்": 8136,
  "எளிமையான": 8137,
  "எளிதான": 8138,
  "ஐந்தாவது": 8139,
  "ஐந்தாண்டு": 8140,
  "ஒதுக்கப்பட்ட": 8141,
  "ஒற்றைக்": 8142,
  "சங்கீத": 8143,
  "ிப்பீன்": 8144,
  "இந்தியர்களில்": 8145,
  "குடிசார்": 8146,
  "குழுக்கள": 8147,
  "குப்தப்": 8148,
  "முயற்சி": 8149,
  "காடுகள்,": 8150,
  "வாட்டுகள்": 8151,
  "வாட்டத்தைக்": 8152,
  "கொள்ளப்பட்ட": 8153,
  "சென்றன.": 8154,
  "சென்றதால்": 8155,
  "பிரதிநிதி": 8156,
  "நடத்தியது.": 8157,
  "தனியாகப்": 8158,
  "குடியினர்": 8159,
  "இயற்றப்பட்டது.": 8160,
  "இயற்றப்பட்டன.": 8161,
  "ிருக்கலாம்.": 8162,
  "முக்கியத்துவத்தைப்": 8163,
  "நிலைக்குத்": 8164,
  "சொல்லான": 8165,
  "சொல்லானது": 8166,
  "பெரும்பான்மையாகக்": 8167,
  "அதிகாரத்தை": 8168,
  "அரசியலமைப்புக்கு": 8169,
  "இமயமலைகள்": 8170,
  "மயமாக்கல்": 8171,
  "திறனானது": 8172,
  "சுல்தானகத்தின்": 8173,
  "சுல்தானகமானது": 8174,
  "அழைக்கப்படும்.": 8175,
  "நேருவின்": 8176,
  "பெருங்கடலில்": 8177,
  "எண்ணெய்,": 8178,
  "ஏவுகணைத்": 8179,
  "பாலைவனம்": 8180,
  "சீர்திருத்தம்": 8181,
  "36.10": 8182,
  "இசையின்": 8183,
  "இசையானது": 8184,
  "எழுத்த": 8185,
  "எடுத்துச்": 8186,
  "எடுத்துக்கா": 8187,
  "ஒடிசி": 8188,
  "ஒத்துழை": 8189,
  "ஒத்துழையா": 8190,
  "காவல்": 8191,
  "கவிஞ": 8192,
  "கல்லில்": 8193,
  "கல்லூர": 8194,
  "கணிதம்": 8195,
  "டென்னி": 8196,
  "தானியம்": 8197,
  "மாவிலிருந்து": 8198,
  "லீக்": 8199,
  "ளர்ச்சி": 8200,
  "திகாரம்": 8201,
  "சமவெளியின்": 8202,
  "புத்தரின்": 8203,
  "புத்திரா": 8204,
  "செழிப்பான": 8205,
  "செழிப்படை": 8206,
  "மையுடைய,": 8207,
  "பரதவர்": 8208,
  "பரதநாட்டிய": 8209,
  "மிகுந்த": 8210,
  "குடியிருப்ப": 8211,
  "ஒன்றாகவும்": 8212,
  "தொடங்கியது": 8213,
  "கலக்கின்றன.": 8214,
  "சீக்கியம்": 8215,
  "பதவியில்": 8216,
  "வகைகளாகும்.": 8217,
  "உறுப்பினர்களை": 8218,
  "உட்கட்டமைப்பு": 8219,
  "ஐரோவாசியப்": 8220,
  "நடனம்;": 8221,
  "பாக்கித்தானுக்கு": 8222,
  "புதுப்பி": 8223,
  "புதுப்பிக்கத்தக்க": 8224,
  "இமயமலையின்": 8225,
  "பாலூட்டிகள்": 8226,
  "பாலூட்டிகளில்": 8227,
  "தொடர்புடைய": 8228,
  "இறையாண்மைய": 8229,
  "இறையாண்மையுடைய,": 8230,
  "கையொப்பமிட": 8231,
  "கையொப்பமிட்டது.": 8232,
  "வயதுக்குட்பட்ட": 8233,
  "வறுமைக்": 8234,
  "சென்னை:": 8235,
  "அயல்நாட்டு": 8236,
  "டிரில்லியன்)": 8237,
  "அங்கீகா": 8238,
  "அகாதமிய": 8239,
  "அரிசி": 8240,
  "அசாமின்": 8241,
  "ஆய்வு": 8242,
  "இண்டியா": 8243,
  "உளவியல்": 8244,
  "எல்லோரா": 8245,
  "கமீஸ்": 8246,
  "சத்ரியா": 8247,
  "சப்பாத்திய": 8248,
  "தாவரங்களில்": 8249,
  "பிலிப்பீன்": 8250,
  "புகளாகக்": 8251,
  "மங்கோலிய": 8252,
  "மணிப்பு": 8253,
  "மும்பை": 8254,
  "வகித்தனர்.": 8255,
  "ோளக்": 8256,
  "முடிகிறது.": 8257,
  "பெண்களின்": 8258,
  "தொன்மவியல்": 8259,
  "வாதப்": 8260,
  "விடுதலை": 8261,
  "விமானம்": 8262,
  "விசயநகரப்": 8263,
  "தாராளமயமாக்கல்": 8264,
  "திகழ்ந்தது.": 8265,
  "செதுக்கப்பட்ட": 8266,
  "பிரதேசத்தின்": 8267,
  "சாஸ்திர": 8268,
  "உருவங்களைச்": 8269,
  "சிக்கலான": 8270,
  "தெலுங்கு": 8271,
  "தெளிவாகக்": 8272,
  "மொகெஞ்சதாரோ": 8273,
  "இதனுடன்": 8274,
  "இதற்கான": 8275,
  "உயர்ந்துள்ளது.": 8276,
  "அதிகரிப்பாகும்.": 8277,
  "இலங்கை": 8278,
  "இராசபுத்திர": 8279,
  "செயலதிகாரம்": 8280,
  "செயலாட்சிப்": 8281,
  "தோற்றத்தை": 8282,
  "தோற்கடிக்கப்பட்டார்.": 8283,
  "விரிகுடாவில்": 8284,
  "நிதியாண்ட": 8285,
  "மெதுவாக": 8286,
  "சிறப்பம்ச": 8287,
  "ப்படுவதில்லை.": 8288,
  "ரீதியிலான,": 8289,
  "இணைக்கப்பட்டனர்.": 8290,
  "மியான்மர்": 8291,
  "நகரமயமாக்கலின்": 8292,
  "வெற்றியைப்": 8293,
  "வெற்றிகரமான": 8294,
  "இருக்கலாம்;": 8295,
  "விலங்குப்": 8296,
  "முசுலிம்கள்": 8297,
  "தெற்காசியாவில்": 8298,
  "விரிவடைந்துள்ளது.": 8299,
  "மணமகன": 8300,
  "மோகினியாட்ட": 8301,
  "இன்றியமையாத": 8302,
  "பீடபூமியில்": 8303,
  "புரவலத்": 8304,
  "நுகர்வோர்": 8305,
  "தொடுகறிகள": 8306,
  "அரபிக்": 8307,
  "ஊட்டச்சத்துக்": 8308,
  "சல்வார்": 8309,
  "துல்லியமான": 8310,
  "தாய்லாந்து,": 8311,
  "42%ஆக": 8312,
  "listen))": 8313,
  "39வது": 8314,
  "அதிருப்த": 8315,
  "ஆரவல்லி": 8316,
  "ஆந்திரப்": 8317,
  "இடுப்புப்": 8318,
  "இளவரசர்கள்": 8319,
  "இக்கிளர்ச்சி": 8320,
  "ஈடுபட்ட": 8321,
  "உபநிட": 8322,
  "ஒலிம்பிக்": 8323,
  "ஒழுங்கு": 8324,
  "ஓடானது": 8325,
  "குகைகளில்": 8326,
  "சரிவு": 8327,
  "சர்வதேச": 8328,
  "ஜவகர்லால்": 8329,
  "தருவிக்கப்பட்ட": 8330,
  "நினை": 8331,
  "நம்பிக்க": 8332,
  "பைசாமா": 8333,
  "பக்கவாட்டில்": 8334,
  "மசாலாப்": 8335,
  "மதச்சார்பற்ற": 8336,
  "ரொட்ட": 8337,
  "வண்டல்": 8338,
  "ாட்சியுடைய": 8339,
  "்மின்ஸ்டர்": 8340,
  "ம்சமாக": 8341,
  "துப்பாக்கி": 8342,
  "இந்திரா": 8343,
  "குர்த்தா": 8344,
  "குச்சிப்பு": 8345,
  "காசுமீ": 8346,
  "காய்கற": 8347,
  "பாராளுமன்ற": 8348,
  "பெங்களூர்": 8349,
  "வாஸ்து": 8350,
  "கொல்கத்த": 8351,
  "போர்த்தப்பட்ட": 8352,
  "விண்வெளி": 8353,
  "திகழ்கிறது.": 8354,
  "சமமானதாகும்.": 8355,
  "மாரத்தான்,": 8356,
  "வேற்றுமை": 8357,
  "சுந்தரவன": 8358,
  "பிரம்மபுத்திரா": 8359,
  "வெஸ்ட்மின்ஸ்டர்": 8360,
  "சாளுக்கிய": 8361,
  "ர்களுக்குக்": 8362,
  "கோண்டுவான": 8363,
  "உலகக்கோப்பை": 8364,
  "வீழ்ச்சிய": 8365,
  "இருபது20": 8366,
  "மூழ்கிக்": 8367,
  "கைவினைப்": 8368,
  "கைவினைஞர்கள்": 8369,
  "வடமேற்கில்": 8370,
  "உயிர்க்கோளக்": 8371,
  "அணுக்கரு": 8372,
  "(₹7,15,160": 8373,
  "அகழ்வாய்வு": 8374,
  "சூடேற்றும்": 8375,
  "புவித்தட்டுக்கு": 8376,
  "மகாராட்டிராவின்": 8377,
  "குழுக்களால்": 8378,
  "பிரதிநிதித்துவ": 8379,
  "ஒத்துழையாமை": 8380,
  "அங்கீகாரம்": 8381,
  "பிலிப்பீன்சு,": 8382,
  "உபநிடத": 8383,
  "%,": 8384,
  "([": 8385,
  "(1991": 8386,
  "01,": 8387,
  "16%": 8388,
  "13.": 8389,
  "12%": 8390,
  "11%": 8391,
  "140": 8392,
  "29%": 8393,
  "27%": 8394,
  "27.": 8395,
  "28.": 8396,
  "24.": 8397,
  "3,000": 8398,
  "380": 8399,
  "41%": 8400,
  "43%": 8401,
  "45.8%": 8402,
  "54%": 8403,
  "53%": 8404,
  "6°": 8405,
  "65.": 8406,
  "63.8": 8407,
  "7°": 8408,
  "7′": 8409,
  "79.": 8410,
  "731": 8411,
  "800": 8412,
  "82.": 8413,
  "93.": 8414,
  "91%": 8415,
  "940": 8416,
  "97°": 8417,
  "Dire": 8418,
  "Fut": 8419,
  "Ke": 8420,
  "Of": 8421,
  "We": 8422,
  "Wik": 8423,
  "[ˈ": 8424,
  "bʱ": 8425,
  "las": 8426,
  "n]": 8427,
  "t]": 8428,
  "°C": 8429,
  "°F)": 8430,
  "ət]": 8431,
  "ɦɪ": 8432,
  "ɾət]": 8433,
  "ʊˈ": 8434,
  "ία": 8435,
  "ς),": 8436,
  "ός),": 8437,
  "₹20": 8438,
  "staː": 8439,
  "191": 8440,
  "192": 8441,
  "1935": 8442,
  "1928": 8443,
  "1901": 8444,
  "2030": 8445,
  "imedi": 8446,
  "1996,": 8447,
  "webs": 8448,
  "1,380": 8449,
  "2024": 8450,
  "1981": 8451,
  "188": 8452,
  "189": 8453,
  "1820": 8454,
  "18.1%": 8455,
  "1848": 8456,
  "18%,": 8457,
  "1.5": 8458,
  "1.7%": 8459,
  "ctory": 8460,
  "5,42": 8461,
  "172": 8462,
  "176": 8463,
  "2.5": 8464,
  "2.9%": 8465,
  "26,": 8466,
  "264": 8467,
  "1525": 8468,
  "15.1%": 8469,
  "casts": 8470,
  "308": 8471,
  "30′": 8472,
  "ficial": 8473,
  "3,264": 8474,
  "7%,": 8475,
  "2001).": 8476,
  "6.0%": 8477,
  "7.9%": 8478,
  "9.39%": 8479,
  "5%,": 8480,
  "velopment": 8481,
  "40,000": 8482,
  "1300": 8483,
  "35°": 8484,
  "25′": 8485,
  "21.54%": 8486,
  "2020.": 8487,
  "44′": 8488,
  "55.6%": 8489,
  "55.8%": 8490,
  "(Ἰνδία": 8491,
  "(Ἰνδός),": 8492,
  "Development": 8493,
  "Forecasts": 8494,
  "17.64%": 8495,
  "12.6%": 8496,
  "12.2%": 8497,
  "31.2%": 8498,
  "31.16%": 8499,
  "aːɾət]": 8500,
  "Atlas": 8501,
  "26.3%": 8502,
  "(1.3": 8503,
  "68°": 8504,
  "7,663": 8505,
  "2,094": 8506,
  "ndʊˈ": 8507,
  "10,500": 8508,
  "News": 8509,
  "([ɦɪ": 8510,
  "13.7%": 8511,
  "27.81%": 8512,
  "28.7": 8513,
  "24.44": 8514,
  "41%,": 8515,
  "65.46%": 8516,
  "63.82%": 8517,
  "82.14%": 8518,
  "93.91%": 8519,
  "Directory": 8520,
  "Futures": 8521,
  "Key": 8522,
  "Official": 8523,
  "Web": 8524,
  "Wikimedi": 8525,
  "[ˈbʱ": 8526,
  "staːn]": 8527,
  "website": 8528,
  "5,423": 8529,
  "ndʊˈstaːn]": 8530,
  "([ɦɪndʊˈstaːn]": 8531,
  "Wikimedia": 8532,
  "[ˈbʱaːɾət]": 8533,
  "(०,": 8534,
  "-आ": 8535,
  "-धीरे": 8536,
  "ंतर": 8537,
  "ंजन": 8538,
  "अर्": 8539,
  "अनि": 8540,
  "असम": 8541,
  "अहिं": 8542,
  "अक्ट": 8543,
  "अच्छ": 8544,
  "आई": 8545,
  "आर": 8546,
  "आते": 8547,
  "आकर्म": 8548,
  "ईद": 8549,
  "ईस्ट": 8550,
  "उठ": 8551,
  "उभरा": 8552,
  "ऊपर": 8553,
  "ऑफ": 8554,
  "ऑपरे": 8555,
  "क,": 8556,
  "कल": 8557,
  "कमा": 8558,
  "कंप": 8559,
  "खन": 8560,
  "खर": 8561,
  "खे": 8562,
  "खंड": 8563,
  "गै": 8564,
  "ग्": 8565,
  "गों": 8566,
  "गढ़": 8567,
  "ग्री": 8568,
  "चर": 8569,
  "चौ": 8570,
  "चला": 8571,
  "चली": 8572,
  "छह": 8573,
  "जु": 8574,
  "जन्": 8575,
  "जैन": 8576,
  "झे": 8577,
  "झार": 8578,
  "टना": 8579,
  "ठक": 8580,
  "ठार": 8581,
  "डि": 8582,
  "डु": 8583,
  "डे": 8584,
  "डिया": 8585,
  "तब": 8586,
  "तार": 8587,
  "तरा": 8588,
  "थल": 8589,
  "दिक": 8590,
  "दियों": 8591,
  "नम": 8592,
  "नर": 8593,
  "नो": 8594,
  "नार": 8595,
  "नियों": 8596,
  "नृत्य": 8597,
  "नदियों": 8598,
  "पद": 8599,
  "पो": 8600,
  "पक्ष": 8601,
  "पड़ा": 8602,
  "पठार": 8603,
  "फु": 8604,
  "बद": 8605,
  "बहा": 8606,
  "बियों": 8607,
  "बडी": 8608,
  "बन्ध": 8609,
  "भो": 8610,
  "भरी": 8611,
  "मं": 8612,
  "मल": 8613,
  "मह": 8614,
  "मार": 8615,
  "मना": 8616,
  "मही": 8617,
  "मले": 8618,
  "यन": 8619,
  "यर": 8620,
  "यें": 8621,
  "यद्य": 8622,
  "यपालिका": 8623,
  "रों": 8624,
  "रिया": 8625,
  "रत्": 8626,
  "रखा": 8627,
  "लू": 8628,
  "लिक": 8629,
  "व,": 8630,
  "वृद्ध": 8631,
  "श्र": 8632,
  "शिया": 8633,
  "शिय": 8634,
  "श्रे": 8635,
  "शक्त": 8636,
  "शैली": 8637,
  "सौ": 8638,
  "सर्": 8639,
  "सों": 8640,
  "सभी": 8641,
  "सदी": 8642,
  "समान": 8643,
  "सशस्त्र": 8644,
  "हती": 8645,
  "हार्": 8646,
  "हत्या": 8647,
  "ाफ": 8648,
  "ूत": 8649,
  "ूह": 8650,
  "ूबर": 8651,
  "्ष": 8652,
  "१,": 8653,
  "१०": 8654,
  "१७": 8655,
  "२५": 8656,
  "२६": 8657,
  "५२": 8658,
  "९.": 8659,
  "्रो": 8660,
  "काज": 8661,
  "ोंने": 8662,
  "स्ति": 8663,
  "प्रसार": 8664,
  "प्रदेशों": 8665,
  "प्रगति": 8666,
  "नेट": 8667,
  "ता,": 8668,
  "वित": 8669,
  "विध": 8670,
  "विशा": 8671,
  "विमान": 8672,
  "विद्रो": 8673,
  "थान": 8674,
  "सामान": 8675,
  "साक्षर": 8676,
  "परि": 8677,
  "करे": 8678,
  "करो": 8679,
  "करवा": 8680,
  "त्र,": 8681,
  "त्री": 8682,
  "जाने": 8683,
  "राजभाषा": 8684,
  "राजस्थान": 8685,
  "वाम": 8686,
  "ड़ियाँ": 8687,
  "कारी": 8688,
  "ियो": 8689,
  "पान": 8690,
  "पाल": 8691,
  "ित्य": 8692,
  "लाल": 8693,
  "भारतीयों": 8694,
  "निवास": 8695,
  "समूह": 8696,
  "्यात": 8697,
  "शामिल": 8698,
  "शास्त्र": 8699,
  "तरिक": 8700,
  "वर्षा": 8701,
  "होने": 8702,
  "मिश्र": 8703,
  "जिन्ह": 8704,
  "मुद्र": 8705,
  "नीति": 8706,
  "सरे": 8707,
  "लिख": 8708,
  "लिस": 8709,
  "१९४७": 8710,
  "साथ,": 8711,
  "प्ति": 8712,
  "मानव": 8713,
  "सरकारों": 8714,
  "गया,": 8715,
  "क्षेत्रों": 8716,
  "जिसकी": 8717,
  "जिसने": 8718,
  "बहुमूल": 8719,
  "पुन": 8720,
  "पुड़ा": 8721,
  "पुलिस": 8722,
  "अपेक्षा": 8723,
  "सीमा": 8724,
  "सारी": 8725,
  "धर्म,": 8726,
  "धर्मों": 8727,
  "थी,": 8728,
  "मी.": 8729,
  "मील": 8730,
  "मीणा": 8731,
  "चुकी": 8732,
  "हुआ,": 8733,
  "निर्भर": 8734,
  "ज़्यादा": 8735,
  "सेनाओं": 8736,
  "बढ़ा": 8737,
  "बढ़ने": 8738,
  "महासागर": 8739,
  "रुप": 8740,
  "केंद्रीय": 8741,
  "स्थल": 8742,
  "एशन": 8743,
  "क्रय": 8744,
  "क्रि": 8745,
  "चाई": 8746,
  "पहली": 8747,
  "मनमोहन": 8748,
  "मध्यम": 8749,
  "सूचना": 8750,
  "प्राचीनतम": 8751,
  "गुट": 8752,
  "न्यायपालिका": 8753,
  "मोर्": 8754,
  "मोदी": 8755,
  "साम्राज्यों": 8756,
  "लोकसभा": 8757,
  "सम्पूर्ण": 8758,
  "पार्टियों": 8759,
  "उनका": 8760,
  "स्टाफ": 8761,
  "स्थानीय": 8762,
  "अवधि": 8763,
  "बनने": 8764,
  "स्थापित": 8765,
  "सकता": 8766,
  "सकते": 8767,
  "संसदीय": 8768,
  "१९९१": 8769,
  "धीरे-धीरे": 8770,
  "विकासशील": 8771,
  "इंडो": 8772,
  "दर्शन": 8773,
  "राजनीति": 8774,
  "निभाई।": 8775,
  "अन्तर्": 8776,
  "अन्ततः": 8777,
  "घोषित": 8778,
  "नियु": 8779,
  "नियंत्र": 8780,
  "पंथी": 8781,
  "बने।": 8782,
  "२०१४": 8783,
  "केन्द्रशासित": 8784,
  "कामकाज": 8785,
  "सेवाओं": 8786,
  "प्रारम्भिक": 8787,
  "आंदोलन": 8788,
  "आंतरिक": 8789,
  "आगे": 8790,
  "ऊँचाई": 8791,
  "पहाड़ी": 8792,
  "बैठक": 8793,
  "वैदिक": 8794,
  "सतपुड़ा": 8795,
  "विज्ञान": 8796,
  "वर्णन": 8797,
  "१९८४": 8798,
  "प्रभावशाली": 8799,
  "घाटी": 8800,
  "छोड़कर": 8801,
  "प्रचलित": 8802,
  "मालदी": 8803,
  "साहित्य": 8804,
  "हिस्सा": 8805,
  "तीसरी": 8806,
  "पुर्तगाली": 8807,
  "लगातार": 8808,
  "अभियान": 8809,
  "अगस्त": 8810,
  "आसपास": 8811,
  "पत्ति": 8812,
  "प्रकाश": 8813,
  "नेहरू": 8814,
  "विरोध": 8815,
  "भागीदारी": 8816,
  "वास्तविक": 8817,
  "समझौ": 8818,
  "गुजरात": 8819,
  "लोकतांत्रिक": 8820,
  "पुरुषों": 8821,
  "अक्टूबर": 8822,
  "आकर्मण": 8823,
  "ऑपरेशन": 8824,
  "कमांड": 8825,
  "गैर-": 8826,
  "गोंड": 8827,
  "फुट": 8828,
  "यद्यपि": 8829,
  "वृद्धि": 8830,
  "सौहार्": 8831,
  "विशाल": 8832,
  "विद्रोह": 8833,
  "साक्षरता": 8834,
  "बहुमूल्य": 8835,
  "सौहार्द": 8836,
  "\")": 8837,
  "\"గ": 8838,
  "\"భారతదేశం": 8839,
  "\"నేరేడు": 8840,
  "(i": 8841,
  "(ఆ": 8842,
  "(ఉ": 8843,
  "(ట": 8844,
  "(బ": 8845,
  "(య": 8846,
  "(రా": 8847,
  "(భారత": 8848,
  "(సా": 8849,
  "(తా": 8850,
  "(5.": 8851,
  "(గి": 8852,
  "(8.": 8853,
  "(including": 8854,
  "(Ar": 8855,
  "(17.": 8856,
  "(ఇదే": 8857,
  "(శక": 8858,
  "(CEE": 8859,
  "):": 8860,
  "-5": 8861,
  "-7": 8862,
  "-k": 8863,
  "-ఇ": 8864,
  "-19": 8865,
  "-దేశ": 8866,
  "-sc": 8867,
  "-year": 8868,
  "-ఆర్": 8869,
  "-టె": 8870,
  "-ga": 8871,
  "-majority": 8872,
  "-body": 8873,
  "-style": 8874,
  "-ఖో": 8875,
  "-దండ": 8876,
  ".ఇ": 8877,
  ".ఈ": 8878,
  ".ఏ": 8879,
  ".కి": 8880,
  ".మీ": 8881,
  "/G": 8882,
  "0-19": 8883,
  "1st": 8884,
  "142": 8885,
  "230": 8886,
  "25%": 8887,
  "32,8": 8888,
  "52": 8889,
  "546": 8890,
  "59-": 8891,
  "6th": 8892,
  "7th": 8893,
  "7లో": 8894,
  "700": 8895,
  "75,": 8896,
  "740": 8897,
  "82,": 8898,
  "83,": 8899,
  "81-": 8900,
  "83.8": 8901,
  "8-7": 8902,
  "Aj": 8903,
  "Ach": 8904,
  "Agenc": 8905,
  "BS": 8906,
  "Ba": 8907,
  "Bal": 8908,
  "Bet": 8909,
  "B/G": 8910,
  "C,": 8911,
  "Cl": 8912,
  "Che": 8913,
  "Cult": 8914,
  "Cup": 8915,
  "Cav": 8916,
  "Clim": 8917,
  "Carn": 8918,
  "Cricket": 8919,
  "Dis": 8920,
  "Dom": 8921,
  "Eth": 8922,
  "Emer": 8923,
  "Ety": 8924,
  "Fol": 8925,
  "Go": 8926,
  "Gr": 8927,
  "Gen": 8928,
  "Gang": 8929,
  "Gond": 8930,
  "HZ": 8931,
  "He": 8932,
  "Histor": 8933,
  "IN": 8934,
  "Im": 8935,
  "II,": 8936,
  "Jhar": 8937,
  "Jaw": 8938,
  "Jamm": 8939,
  "June": 8940,
  "Ko": 8941,
  "Keral": 8942,
  "Kaver": 8943,
  "Li": 8944,
  "Lat": 8945,
  "Laksh": 8946,
  "Me": 8947,
  "Min": 8948,
  "Man": 8949,
  "Mum": 8950,
  "Ni": 8951,
  "No": 8952,
  "Nat": 8953,
  "Network": 8954,
  "Oc": 8955,
  "Or": 8956,
  "Over": 8957,
  "Out": 8958,
  "Old": 8959,
  "Ocean": 8960,
  "P.": 8961,
  "Pl": 8962,
  "Pu": 8963,
  "Par": 8964,
  "Part": 8965,
  "President": 8966,
  "Ram": 8967,
  "So": 8968,
  "Sin": 8969,
  "Sim": 8970,
  "Sab": 8971,
  "Sant": 8972,
  "Some": 8973,
  "Sarn": 8974,
  "Sultanate": 8975,
  "Ti": 8976,
  "Ty": 8977,
  "Ter": 8978,
  "Tha": 8979,
  "Ur": 8980,
  "V.": 8981,
  "V;": 8982,
  "Vis": 8983,
  "Vaj": 8984,
  "Vedic": 8985,
  "Yaksh": 8986,
  "Zoro": 8987,
  "aem": 8988,
  "aim": 8989,
  "ahar": 8990,
  "aism,": 8991,
  "ba": 8992,
  "bul": 8993,
  "bour": 8994,
  "brough": 8995,
  "bron": 8996,
  "bai,": 8997,
  "bably": 8998,
  "buck": 8999,
  "cer": 9000,
  "cat": 9001,
  "cil": 9002,
  "care": 9003,
  "cover": 9004,
  "cak": 9005,
  "civ": 9006,
  "ched": 9007,
  "cris": 9008,
  "cust": 9009,
  "creasing": 9010,
  "da": 9011,
  "dy": 9012,
  "dre": 9013,
  "dent": 9014,
  "dest": 9015,
  "dry": 9016,
  "dates": 9017,
  "e;": 9018,
  "ew": 9019,
  "eal": 9020,
  "eld": 9021,
  "eous": 9022,
  "either": 9023,
  "fr": 9024,
  "fil": 9025,
  "ful": 9026,
  "flo": 9027,
  "fest": 9028,
  "fac": 9029,
  "foun": 9030,
  "fel": 9031,
  "flow": 9032,
  "fish": 9033,
  "fire": 9034,
  "fav": 9035,
  "flower": 9036,
  "fash": 9037,
  "gin": 9038,
  "gro": 9039,
  "gig": 9040,
  "give": 9041,
  "govern": 9042,
  "gods": 9043,
  "hā": 9044,
  "hor": 9045,
  "hal": 9046,
  "ham": 9047,
  "hol": 9048,
  "hun": 9049,
  "hous": 9050,
  "ith": 9051,
  "iat": 9052,
  "idu": 9053,
  "ia.": 9054,
  "iff": 9055,
  "jur": 9056,
  "jay": 9057,
  "jack": 9058,
  "kat": 9059,
  "kur": 9060,
  "kill": 9061,
  "kho": 9062,
  "lal": 9063,
  "leng": 9064,
  "lared": 9065,
  "lic,": 9066,
  "ms": 9067,
  "mat": 9068,
  "may": 9069,
  "molog": 9070,
  "mns": 9071,
  "mix": 9072,
  "nin": 9073,
  "non": 9074,
  "nar": 9075,
  "nit": 9076,
  "nic": 9077,
  "next": 9078,
  "network": 9079,
  "oth": 9080,
  "oor": 9081,
  "och": 9082,
  "ove": 9083,
  "pa": 9084,
  "pi": 9085,
  "pp": 9086,
  "pal": 9087,
  "pic": 9088,
  "pil": 9089,
  "pically": 9090,
  "paren": 9091,
  "push": 9092,
  "ring": 9093,
  "rang": 9094,
  "rical": 9095,
  "ranges": 9096,
  "range": 9097,
  "s:": 9098,
  "she": 9099,
  "son": 9100,
  "sar": 9101,
  "sol": 9102,
  "sha": 9103,
  "saw": 9104,
  "ti": 9105,
  "tan": 9106,
  "tand": 9107,
  "tun": 9108,
  "tex": 9109,
  "tel": 9110,
  "ta,": 9111,
  "tection": 9112,
  "treat": 9113,
  "ty.": 9114,
  "tled": 9115,
  "u,": 9116,
  "uk": 9117,
  "usu": 9118,
  "ude": 9119,
  "ufact": 9120,
  "vas": 9121,
  "vary": 9122,
  "valle": 9123,
  "whe": 9124,
  "wat": 9125,
  "wing": 9126,
  "wet": 9127,
  "where": 9128,
  "zed": 9129,
  "zes": 9130,
  "ంజ": 9131,
  "ంథ": 9132,
  "ంతి,": 9133,
  "ం\",": 9134,
  "అర": 9135,
  "అల": 9136,
  "అస్": 9137,
  "అది": 9138,
  "అన్న": 9139,
  "అల్": 9140,
  "అరు": 9141,
  "అక్ష": 9142,
  "అంది": 9143,
  "అద్ద": 9144,
  "అలం": 9145,
  "అధి": 9146,
  "అంద": 9147,
  "అఖండ": 9148,
  "అమల": 9149,
  "అరే": 9150,
  "అంటే": 9151,
  "అంక": 9152,
  "అధీన": 9153,
  "అశో": 9154,
  "ఆగ": 9155,
  "ఆలో": 9156,
  "ఆదేశ": 9157,
  "ఆవి": 9158,
  "ఆతి": 9159,
  "ఆక్ర": 9160,
  "ఆనా": 9161,
  "ఆయా": 9162,
  "ఆడు": 9163,
  "ఆధ్య": 9164,
  "ఆదాయ": 9165,
  "ఆగ్": 9166,
  "ఆవల": 9167,
  "ఆణి": 9168,
  "ఆచార": 9169,
  "ఆసియా": 9170,
  "ఆక్షరాస్యత": 9171,
  "ఆటలు": 9172,
  "ఆనం": 9173,
  "ఆలస్య": 9174,
  "ఆసియాలో": 9175,
  "ఇ-": 9176,
  "ఇయ": 9177,
  "ఇన్": 9178,
  "ఇను": 9179,
  "ఇము": 9180,
  "ఇతి": 9181,
  "ఇంది": 9182,
  "ఇతరు": 9183,
  "ఇప్పటిక": 9184,
  "ఇందు": 9185,
  "ఇంకా": 9186,
  "ఇతను": 9187,
  "ఇంటి": 9188,
  "ఇచ్చే": 9189,
  "ఉర్": 9190,
  "ఉద్": 9191,
  "ఉపా": 9192,
  "ఉండి": 9193,
  "ఉండు": 9194,
  "ఉష్ణ": 9195,
  "ఉనిక": 9196,
  "ఋతు": 9197,
  "ఎమ": 9198,
  "ఎదు": 9199,
  "ఎగు": 9200,
  "ఎల్ల": 9201,
  "ఎంతో": 9202,
  "ఎగువ": 9203,
  "ఏక": 9204,
  "ఏడ": 9205,
  "ఏడు": 9206,
  "ఏటా": 9207,
  "ఏకత్వ": 9208,
  "ఏళ్ళ": 9209,
  "ఐదు": 9210,
  "ఒక్": 9211,
  "ఒరి": 9212,
  "ఒలిం": 9213,
  "ఒడిస్": 9214,
  "ఓడ": 9215,
  "ఓటర్": 9216,
  "ఔట్‌": 9217,
  "కర్": 9218,
  "కరా": 9219,
  "కిం": 9220,
  "కని": 9221,
  "కాయ": 9222,
  "కంట": 9223,
  "కార్": 9224,
  "కష్ట": 9225,
  "కట్ట": 9226,
  "కమైన": 9227,
  "కమీ": 9228,
  "క్యం": 9229,
  "కెలు": 9230,
  "కితా": 9231,
  "కమల": 9232,
  "కమేన": 9233,
  "కెట్": 9234,
  "కర్‌": 9235,
  "కత్తా": 9236,
  "కానీ": 9237,
  "కవరీ": 9238,
  "ఖిక": 9239,
  "ఖగో": 9240,
  "ఖర్చు": 9241,
  "ఖాతం": 9242,
  "గమ": 9243,
  "గృ": 9244,
  "గె": 9245,
  "గర్": 9246,
  "గతి": 9247,
  "గల్": 9248,
  "గించ": 9249,
  "గులు": 9250,
  "గింది.": 9251,
  "గలి": 9252,
  "గి,": 9253,
  "గలు,": 9254,
  "గమించ": 9255,
  "గనులు,": 9256,
  "గర్,": 9257,
  "గౌర": 9258,
  "ఘన": 9259,
  "ఘు": 9260,
  "ఘట్ట": 9261,
  "ఘోర": 9262,
  "ఘిక,": 9263,
  "ఘర్షణ": 9264,
  "చా": 9265,
  "చూ": 9266,
  "చో": 9267,
  "చ్": 9268,
  "చము": 9269,
  "చిన": 9270,
  "చింది.": 9271,
  "చిత": 9272,
  "చక్ర": 9273,
  "చట్ట": 9274,
  "చీ,": 9275,
  "చులు,": 9276,
  "చీర": 9277,
  "చూప": 9278,
  "చర్,": 9279,
  "చ.కి": 9280,
  "ఛాయుత": 9281,
  "జె": 9282,
  "జై": 9283,
  "జౌ": 9284,
  "జ్ర": 9285,
  "జాన": 9286,
  "జిన": 9287,
  "జంత": 9288,
  "జైన": 9289,
  "జపా": 9290,
  "జిత": 9291,
  "జ్‌": 9292,
  "జీ,": 9293,
  "జెండ": 9294,
  "జనాలు": 9295,
  "జ్యం": 9296,
  "జిల్ల": 9297,
  "జవహ": 9298,
  "జెట్": 9299,
  "ఞాన": 9300,
  "టన": 9301,
  "టో": 9302,
  "టస్": 9303,
  "ట్య": 9304,
  "టిన": 9305,
  "టాయి": 9306,
  "టంలో": 9307,
  "టం,": 9308,
  "టచే": 9309,
  "ట్రా": 9310,
  "టంతో": 9311,
  "టమూ": 9312,
  "ఠీ;": 9313,
  "డ్ర": 9314,
  "డాల": 9315,
  "డ్య": 9316,
  "డింది.": 9317,
  "డ్చ": 9318,
  "డ్ల": 9319,
  "డాలు,": 9320,
  "డ్‌": 9321,
  "డానికి": 9322,
  "డించింది.": 9323,
  "డబు": 9324,
  "డమ్": 9325,
  "ఢవి": 9326,
  "ణే": 9327,
  "ణిక": 9328,
  "ణాలు": 9329,
  "ణించ": 9330,
  "ణంతో": 9331,
  "ణదారులు,": 9332,
  "ణుల": 9333,
  "త,": 9334,
  "తార": 9335,
  "తాయ": 9336,
  "తాయి.": 9337,
  "తదు": 9338,
  "తనా": 9339,
  "తీ,": 9340,
  "తక్కు": 9341,
  "తలం": 9342,
  "తగ్": 9343,
  "తమై": 9344,
  "తమ్య": 9345,
  "తాలతో": 9346,
  "తదేశపు": 9347,
  "తవర్ష": 9348,
  "థమ": 9349,
  "థి": 9350,
  "థాత": 9351,
  "థాన": 9352,
  "థార్": 9353,
  "దశ": 9354,
  "దస": 9355,
  "దూ": 9356,
  "దృ": 9357,
  "దాన": 9358,
  "దీయ": 9359,
  "దులు": 9360,
  "దైన": 9361,
  "దారు": 9362,
  "దం,": 9363,
  "దులు,": 9364,
  "దీన": 9365,
  "దగ్": 9366,
  "దీర్": 9367,
  "దగినది.": 9368,
  "దక్కను": 9369,
  "ధర": 9370,
  "ధా": 9371,
  "ధు": 9372,
  "ధాల": 9373,
  "ధిన": 9374,
  "ధరి": 9375,
  "ధం,": 9376,
  "ధనా": 9377,
  "ధిల్ల": 9378,
  "న,": 9379,
  "నృ": 9380,
  "నై": 9381,
  "నో": 9382,
  "నాల": 9383,
  "నలు": 9384,
  "నర్": 9385,
  "నవి": 9386,
  "నంలో": 9387,
  "నసా": 9388,
  "నికి": 9389,
  "నడు": 9390,
  "నీ,": 9391,
  "నలలో": 9392,
  "ననీ": 9393,
  "నాలతో": 9394,
  "నవచ్చు.": 9395,
  "నబడిన": 9396,
  "నప్పటికినీ": 9397,
  "నదులు": 9398,
  "పక": 9399,
  "పబ": 9400,
  "పస": 9401,
  "పి": 9402,
  "పర్": 9403,
  "పది": 9404,
  "పిన": 9405,
  "పంలో": 9406,
  "పూడ": 9407,
  "పిత": 9408,
  "పరాజ": 9409,
  "పచ్చ": 9410,
  "పలి": 9411,
  "పట్": 9412,
  "పత్య": 9413,
  "పరో": 9414,
  "పించింది.": 9415,
  "పం:": 9416,
  "పకళ": 9417,
  "పటం": 9418,
  "పిస్త": 9419,
  "పస్,": 9420,
  "పిక్": 9421,
  "పర్ష": 9422,
  "పవనాలు": 9423,
  "పౌర": 9424,
  "పండ్": 9425,
  "పటంలో": 9426,
  "ఫు": 9427,
  "ఫ్ర": 9428,
  "ఫర్": 9429,
  "ఫరా": 9430,
  "ఫ్ట": 9431,
  "ఫలం": 9432,
  "ఫిక్": 9433,
  "బల": 9434,
  "బై": 9435,
  "బొ": 9436,
  "బ్ర": 9437,
  "బాల": 9438,
  "బండ": 9439,
  "బంగా": 9440,
  "బడ్": 9441,
  "బిన్న": 9442,
  "బ్రా": 9443,
  "బద్ధం": 9444,
  "బ్యా": 9445,
  "భ్య": 9446,
  "భిం": 9447,
  "భంగ": 9448,
  "భదాయ": 9449,
  "భాలో": 9450,
  "భజిత": 9451,
  "మ.": 9452,
  "మో": 9453,
  "మార": 9454,
  "మాల": 9455,
  "మరా": 9456,
  "మిం": 9457,
  "మిక": 9458,
  "మని": 9459,
  "మాయ": 9460,
  "మిన": 9461,
  "మంత": 9462,
  "మంలో": 9463,
  "మలి": 9464,
  "మికి": 9465,
  "మాలు,": 9466,
  "మ్‌": 9467,
  "మి,": 9468,
  "మలు,": 9469,
  "మాల్": 9470,
  "మించిన": 9471,
  "మిత్ర": 9472,
  "మణి": 9473,
  "మస్,": 9474,
  "మంచి": 9475,
  "మయన్": 9476,
  "మసాల": 9477,
  "మద్రా": 9478,
  "మంజ": 9479,
  "యం": 9480,
  "యి": 9481,
  "యస్": 9482,
  "యము": 9483,
  "యిన": 9484,
  "యల్": 9485,
  "యులు": 9486,
  "యం,": 9487,
  "యం:": 9488,
  "యంతో": 9489,
  "యనులు,": 9490,
  "యింది": 9491,
  "యంలో,": 9492,
  "యథాత": 9493,
  "ర,": 9494,
  "రొ": 9495,
  "ర‌": 9496,
  "రలో": 9497,
  "రద్": 9498,
  "రత్": 9499,
  "రంగా": 9500,
  "రక్ష": 9501,
  "రమైన": 9502,
  "రవే": 9503,
  "రవీ": 9504,
  "రించిన": 9505,
  "రం.": 9506,
  "రీ;": 9507,
  "రక్షరాస్యత": 9508,
  "రాలు.": 9509,
  "రారి": 9510,
  "రకు,": 9511,
  "రతాయ": 9512,
  "రబద్ధం": 9513,
  "ల,": 9514,
  "లిక": 9515,
  "లిన": 9516,
  "లైన": 9517,
  "లకాల": 9518,
  "లీ,": 9519,
  "లబె": 9520,
  "లపై": 9521,
  "లహా": 9522,
  "లమానం:": 9523,
  "లఘు": 9524,
  "లబై": 9525,
  "లభ్య": 9526,
  "ళల": 9527,
  "ళు": 9528,
  "ళులు,": 9529,
  "ళూరు": 9530,
  "ళవిం": 9531,
  "వత": 9532,
  "వ‌": 9533,
  "వులు": 9534,
  "వలి": 9535,
  "వస్తు": 9536,
  "వద్ద": 9537,
  "వలను": 9538,
  "వన్య": 9539,
  "వస్థానంలో": 9540,
  "వూప": 9541,
  "వనాథ": 9542,
  "వజ్ర": 9543,
  "వమి,": 9544,
  "శే": 9545,
  "శాల": 9546,
  "శంలో": 9547,
  "శ్రా": 9548,
  "శిల్": 9549,
  "శించే": 9550,
  "శాతం": 9551,
  "శరద్": 9552,
  "షే": 9553,
  "షన్": 9554,
  "షులు": 9555,
  "షం.": 9556,
  "షకాహార": 9557,
  "సొ": 9558,
  "సభా": 9559,
  "సాలు": 9560,
  "సగా": 9561,
  "సాయ": 9562,
  "సిన": 9563,
  "సల్": 9564,
  "సవా": 9565,
  "సీ,": 9566,
  "సత్య": 9567,
  "సమి": 9568,
  "సత్తా": 9569,
  "సాయుత": 9570,
  "సలహా": 9571,
  "హె": 9572,
  "హొ": 9573,
  "హ్": 9574,
  "హర్": 9575,
  "హిం": 9576,
  "హాయ": 9577,
  "హస్త": 9578,
  "హపు": 9579,
  "హాలు,": 9580,
  "హక్కు": 9581,
  "హ్మ": 9582,
  "హ్వ": 9583,
  "ా)": 9584,
  "ాంబ": 9585,
  "ాశ్ర": 9586,
  "ాము.": 9587,
  "ానిస్తాన్": 9588,
  "ాదాయంలో": 9589,
  "ాంతి,": 9590,
  "ాధిన": 9591,
  "ాపక": 9592,
  "ామని": 9593,
  "ి:": 9594,
  "ిని": 9595,
  "ిపె": 9596,
  "ిలే": 9597,
  "ిరంగ": 9598,
  "ిళ్ళ": 9599,
  "ిటన్": 9600,
  "ియనులు,": 9601,
  "ిశ్రా": 9602,
  "ీలో": 9603,
  "ీకృ": 9604,
  "ీకరణ": 9605,
  "ీకులు": 9606,
  "ీ-దండ": 9607,
  "ును": 9608,
  "ుల్": 9609,
  "ుర్య": 9610,
  "ువు": 9611,
  "ుపూర్వ": 9612,
  "ుడైన": 9613,
  "ునిక": 9614,
  "ుళూరు": 9615,
  "ూ,": 9616,
  "ూ—": 9617,
  "ూలా": 9618,
  "ూదులు,": 9619,
  "ృతంగా": 9620,
  "ె,": 9621,
  "ెర్": 9622,
  "ెస్": 9623,
  "ెన్న": 9624,
  "ెనే": 9625,
  "ెల్లో": 9626,
  "ెక్కను": 9627,
  "ేత": 9628,
  "ేది": 9629,
  "ేకా": 9630,
  "ే),": 9631,
  "ేష్": 9632,
  "ే...": 9633,
  "ేకమైన": 9634,
  "ేననీ": 9635,
  "ేయులు": 9636,
  "ైక": 9637,
  "ైస్త": 9638,
  "ైపో": 9639,
  "ైవరు": 9640,
  "ో,": 9641,
  "ోత్": 9642,
  "ోంది.": 9643,
  "ోత్ర": 9644,
  "ోద్య": 9645,
  "్;": 9646,
  "్లో": 9647,
  "్తదేశపు": 9648,
  "‌కు": 9649,
  "‌టిక": 9650,
  "‌తంలో": 9651,
  "‌ఫర్": 9652,
  "‌వ‌": 9653,
  "–201": 9654,
  "–2004": 9655,
  "th,": 9656,
  "th.": 9657,
  "thm": 9658,
  "thic": 9659,
  "hest": 9660,
  "heren": 9661,
  "inal": 9662,
  "ins.": 9663,
  "inno": 9664,
  "information": 9665,
  "erc": 9666,
  "erly": 9667,
  "erial": 9668,
  "ert,": 9669,
  "ream": 9670,
  "rece": 9671,
  "reme": 9672,
  "repe": 9673,
  "relat": 9674,
  "rept": 9675,
  "report": 9676,
  "reement": 9677,
  "refl": 9678,
  "represent": 9679,
  "returned": 9680,
  "rebellion": 9681,
  "onic": 9682,
  "only": 9683,
  "onset": 9684,
  "onomet": 9685,
  "ana": 9686,
  "anat": 9687,
  "aning": 9688,
  "ans.": 9689,
  "anism": 9690,
  "ening": 9691,
  "ences": 9692,
  "enhouse": 9693,
  "ats": 9694,
  "ator": 9695,
  "attra": 9696,
  "ord": 9697,
  "orce": 9698,
  "ors.": 9699,
  "ories": 9700,
  "ారణంగా": 9701,
  "ారమ్‌": 9702,
  "ాలని": 9703,
  "ాలే.": 9704,
  "ాలన్నీ": 9705,
  "ాలెక్కను": 9706,
  "ాలేకా": 9707,
  "లుపలి": 9708,
  "ర్టి": 9709,
  "ర్కొ": 9710,
  "ర్తా": 9711,
  "ర్సిం": 9712,
  "ర్లు.": 9713,
  "ర్జాలు": 9714,
  "ర్భవ": 9715,
  "ర్చిన": 9716,
  "ర్జె": 9717,
  "లోన్": 9718,
  "లోని": 9719,
  "లోకాల": 9720,
  "లోపం": 9721,
  "స్లో": 9722,
  "స్వే": 9723,
  "స్వర": 9724,
  "స్లే": 9725,
  "స్టా": 9726,
  "స్టే": 9727,
  "స్వర్ణ": 9728,
  "స్టలు": 9729,
  "్యులు": 9730,
  "్యంలో": 9731,
  "భావి": 9732,
  "భాజపా": 9733,
  "రా.": 9734,
  "రాతి": 9735,
  "రామన": 9736,
  "రాటం": 9737,
  "రాణించ": 9738,
  "రామాయ": 9739,
  "రాసిన": 9740,
  "thes": 9741,
  "aled": 9742,
  "ala,": 9743,
  "alliance": 9744,
  "stant": 9745,
  "stud": 9746,
  "stian": 9747,
  "stiff": 9748,
  "did": 9749,
  "died": 9750,
  "dified": 9751,
  "arc": 9752,
  "aras": 9753,
  "aris": 9754,
  "arter": 9755,
  "ars.": 9756,
  "ardis": 9757,
  "andy": 9758,
  "Increasing": 9759,
  "ass.": 9760,
  "asures": 9761,
  "asured": 9762,
  "es)": 9763,
  "es:": 9764,
  "ese,": 9765,
  "ital": 9766,
  "ities": 9767,
  "itics": 9768,
  "itude": 9769,
  "ic.": 9770,
  "ics,": 9771,
  "ision": 9772,
  "ises": 9773,
  "ising": 9774,
  "isans": 9775,
  "isine": 9776,
  "isdic": 9777,
  "isions": 9778,
  "193": 9779,
  "న్సీ": 9780,
  "న్లుగా": 9781,
  "ది,": 9782,
  "దిరి": 9783,
  "దికి": 9784,
  "దిగ్": 9785,
  "దిభాగం": 9786,
  "దిగువ": 9787,
  "దిర్చిన": 9788,
  "దే.": 9789,
  "దేమాత": 9790,
  "ప్రమా": 9791,
  "ప్రయా": 9792,
  "ప్రఖ్య": 9793,
  "ప్రణా": 9794,
  "ప్రదేశాల": 9795,
  "ప్రార్థ": 9796,
  "ప్రగతి": 9797,
  "ప్రథమ": 9798,
  "ింపు": 9799,
  "ింసాయుత": 9800,
  "దేశిక": 9801,
  "దేశము": 9802,
  "దేశరాజకీయ": 9803,
  "దేశాన్ని": 9804,
  "దేశమంత": 9805,
  "దేశాధిన": 9806,
  "ently": 9807,
  "ential": 9808,
  "entually": 9809,
  "ికలు": 9810,
  "ికులు": 9811,
  "ికం,": 9812,
  "omic": 9813,
  "భార్తదేశపు": 9814,
  "భార‌తంలో": 9815,
  "top": 9816,
  "tober": 9817,
  "భారత,": 9818,
  "భారతంలో,": 9819,
  "oury": 9820,
  "న్నత": 9821,
  "న్నా,": 9822,
  "ాలున్నాయి.": 9823,
  "ly.": 9824,
  "lying": 9825,
  "గాంచిన": 9826,
  "గాయి": 9827,
  "కుండ": 9828,
  "కునే": 9829,
  "కుడు": 9830,
  "కుడి": 9831,
  "కుమార్": 9832,
  "కులం": 9833,
  "కులను": 9834,
  "కుమారు": 9835,
  "కుడ్య": 9836,
  "కుర్తా": 9837,
  "కుదిర్చిన": 9838,
  "నివా": 9839,
  "నిచ్చ": 9840,
  "నియా": 9841,
  "నిస్తు": 9842,
  "నివార": 9843,
  "నియో": 9844,
  "నిధి": 9845,
  "నివి.": 9846,
  "నివల్ల": 9847,
  "నిలిచ": 9848,
  "నిరక్షరాస్యత": 9849,
  "నిలబె": 9850,
  "నిషే": 9851,
  "విడ": 9852,
  "విడి": 9853,
  "విధాన": 9854,
  "వివర": 9855,
  "విశాఖ": 9856,
  "విజన్": 9857,
  "వినాయ": 9858,
  "వితంలో": 9859,
  "విజ్": 9860,
  "విఫల": 9861,
  "విశి": 9862,
  "వివాదం": 9863,
  "విభజిత": 9864,
  "విశే": 9865,
  "విసభా": 9866,
  "ాయతి": 9867,
  "ాయకార": 9868,
  "ాయీలు": 9869,
  "క్,": 9870,
  "క్త": 9871,
  "క్నాల": 9872,
  "క్‌టిక": 9873,
  "ాతి": 9874,
  "ాతో": 9875,
  "ాత్మ": 9876,
  "li,": 9877,
  "lig": 9878,
  "live": 9879,
  "ligion": 9880,
  "lived": 9881,
  "living": 9882,
  "lifer": 9883,
  "veral": 9884,
  "versity": 9885,
  "am,": 9886,
  "amed": 9887,
  "amend": 9888,
  "ను,": 9889,
  "నులు": 9890,
  "నున్న": 9891,
  "They": 9892,
  "ado": 9893,
  "adem": 9894,
  "adwe": 9895,
  "adop": 9896,
  "advent": 9897,
  "ilar": 9898,
  "iling": 9899,
  "ilding": 9900,
  "ానెట్": 9901,
  "olution": 9902,
  "ri,": 9903,
  "rial": 9904,
  "riya,": 9905,
  "ristian": 9906,
  "ండర్": 9907,
  "ండ్రా": 9908,
  "ండమస్,": 9909,
  "ండ్యులు": 9910,
  "ముద్ర": 9911,
  "ముత్య": 9912,
  "ముందు": 9913,
  "ములు.": 9914,
  "emer": 9915,
  "emper": 9916,
  "emission": 9917,
  "ద్వై": 9918,
  "ద్దిభాగం": 9919,
  "ద్విసభా": 9920,
  "ra.": 9921,
  "raid": 9922,
  "తిరి": 9923,
  "తిశ్ర": 9924,
  "త్త": 9925,
  "త్తల": 9926,
  "ల్స్": 9927,
  "ల్తా": 9928,
  "స్తాయి.": 9929,
  "స్తానీ": 9930,
  "స్తాంబ": 9931,
  "స్తూ,": 9932,
  "ించి": 9933,
  "ించుకు": 9934,
  "ించవచ్చు.": 9935,
  "ించుకోవడ": 9936,
  "ించబడింది.": 9937,
  "se,": 9938,
  "sex": 9939,
  "seals": 9940,
  "sediment": 9941,
  "seats": 9942,
  "chap": 9943,
  "child": 9944,
  "ceed": 9945,
  "tions": 9946,
  "Indians.": 9947,
  "2010.": 9948,
  "begin": 9949,
  "force": 9950,
  "ists": 9951,
  "isting": 9952,
  "isters": 9953,
  "ంతల": 9954,
  "ంతై": 9955,
  "consum": 9956,
  "రి,": 9957,
  "రి.": 9958,
  "రిట్ల": 9959,
  "రిట్లు": 9960,
  "సం.": 9961,
  "సంస్థ": 9962,
  "సంక్ర": 9963,
  "సంధి": 9964,
  "సందర్": 9965,
  "సంగమ": 9966,
  "agreement": 9967,
  "ter.": 9968,
  "ter-ga": 9969,
  "res.": 9970,
  "resour": 9971,
  "resolved": 9972,
  "suc": 9973,
  "super": 9974,
  "supre": 9975,
  "రు,": 9976,
  "రుగా": 9977,
  "రుష్": 9978,
  "రుచులు,": 9979,
  "పుతో": 9980,
  "పులి": 9981,
  "పుత్ర": 9982,
  "పులా": 9983,
  "పుష్": 9984,
  "పునర్": 9985,
  "పురి.": 9986,
  "2001,": 9987,
  "2008,": 9988,
  "2005-0": 9989,
  "de,": 9990,
  "dev": 9991,
  "defe": 9992,
  "deleg": 9993,
  "devast": 9994,
  "స్థ‌": 9995,
  "స్థాయి": 9996,
  "స్థాపక": 9997,
  "స్థూలా": 9998,
  "ung": 9999
}